{
  "version": "1.0",
  "truncation": null,
  "padding": null,
  "added_tokens": [
    {
      "id": 0,
      "content": "<s>",
      "single_word": false,
      "lstrip": false,
      "rstrip": false,
      "normalized": false,
      "special": true
    },
    {
      "id": 1,
      "content": "</s>",
      "single_word": false,
      "lstrip": false,
      "rstrip": false,
      "normalized": false,
      "special": true
    },
    {
      "id": 2,
      "content": "<pad>",
      "single_word": false,
      "lstrip": false,
      "rstrip": false,
      "normalized": false,
      "special": true
    },
    {
      "id": 3,
      "content": "<unk>",
      "single_word": false,
      "lstrip": false,
      "rstrip": false,
      "normalized": false,
      "special": true
    }
  ],
  "normalizer": {
    "type": "Sequence",
    "normalizers": [
      {
        "type": "NFD"
      },
      {
        "type": "StripAccents"
      },
      {
        "type": "Lowercase"
      }
    ]
  },
  "pre_tokenizer": {
    "type": "Sequence",
    "pretokenizers": [
      {
        "type": "Whitespace"
      },
      {
        "type": "Digits",
        "individual_digits": true
      }
    ]
  },
  "post_processor": null,
  "decoder": null,
  "model": {
    "type": "BPE",
    "dropout": null,
    "unk_token": "<unk>",
    "continuing_subword_prefix": null,
    "end_of_word_suffix": null,
    "fuse_unk": false,
    "byte_fallback": false,
    "ignore_merges": false,
    "vocab": {
      "<s>": 0,
      "</s>": 1,
      "<pad>": 2,
      "<unk>": 3,
      "!": 4,
      "\"": 5,
      "#": 6,
      "$": 7,
      "%": 8,
      "&": 9,
      "'": 10,
      "(": 11,
      ")": 12,
      "*": 13,
      "+": 14,
      ",": 15,
      "-": 16,
      ".": 17,
      "/": 18,
      "0": 19,
      "1": 20,
      "2": 21,
      "3": 22,
      "4": 23,
      "5": 24,
      "6": 25,
      "7": 26,
      "8": 27,
      "9": 28,
      ":": 29,
      ";": 30,
      "<": 31,
      "=": 32,
      ">": 33,
      "?": 34,
      "@": 35,
      "[": 36,
      "\\": 37,
      "]": 38,
      "^": 39,
      "_": 40,
      "`": 41,
      "a": 42,
      "b": 43,
      "c": 44,
      "d": 45,
      "e": 46,
      "f": 47,
      "g": 48,
      "h": 49,
      "i": 50,
      "j": 51,
      "k": 52,
      "l": 53,
      "m": 54,
      "n": 55,
      "o": 56,
      "p": 57,
      "q": 58,
      "r": 59,
      "s": 60,
      "t": 61,
      "u": 62,
      "v": 63,
      "w": 64,
      "x": 65,
      "y": 66,
      "z": 67,
      "{": 68,
      "|": 69,
      "}": 70,
      "~": 71,
      "": 72,
      "": 73,
      "": 74,
      "": 75,
      "¡": 76,
      "¢": 77,
      "£": 78,
      "¥": 79,
      "§": 80,
      "©": 81,
      "«": 82,
      "­": 83,
      "®": 84,
      "¯": 85,
      "°": 86,
      "±": 87,
      "²": 88,
      "³": 89,
      "´": 90,
      "µ": 91,
      "¶": 92,
      "·": 93,
      "¹": 94,
      "º": 95,
      "»": 96,
      "¼": 97,
      "½": 98,
      "¾": 99,
      "¿": 100,
      "×": 101,
      "ß": 102,
      "æ": 103,
      "ð": 104,
      "÷": 105,
      "ø": 106,
      "þ": 107,
      "đ": 108,
      "ħ": 109,
      "ı": 110,
      "ł": 111,
      "ŋ": 112,
      "œ": 113,
      "ƒ": 114,
      "ǂ": 115,
      "ɐ": 116,
      "ɑ": 117,
      "ɒ": 118,
      "ɓ": 119,
      "ɔ": 120,
      "ɕ": 121,
      "ɖ": 122,
      "ɗ": 123,
      "ə": 124,
      "ɛ": 125,
      "ɟ": 126,
      "ɡ": 127,
      "ɢ": 128,
      "ɣ": 129,
      "ɦ": 130,
      "ɧ": 131,
      "ɨ": 132,
      "ɪ": 133,
      "ɬ": 134,
      "ɯ": 135,
      "ɲ": 136,
      "ɴ": 137,
      "ɵ": 138,
      "ɸ": 139,
      "ɻ": 140,
      "ɾ": 141,
      "ʀ": 142,
      "ʁ": 143,
      "ʂ": 144,
      "ʃ": 145,
      "ʇ": 146,
      "ʈ": 147,
      "ʊ": 148,
      "ʋ": 149,
      "ʌ": 150,
      "ʍ": 151,
      "ʎ": 152,
      "ʒ": 153,
      "ʔ": 154,
      "ʕ": 155,
      "ʘ": 156,
      "ʝ": 157,
      "ʟ": 158,
      "ʰ": 159,
      "ʲ": 160,
      "ʷ": 161,
      "ʻ": 162,
      "ʼ": 163,
      "ʾ": 164,
      "ʿ": 165,
      "ˀ": 166,
      "ˁ": 167,
      "ˈ": 168,
      "ˌ": 169,
      "ː": 170,
      "˔": 171,
      "˘": 172,
      "˚": 173,
      "˞": 174,
      "ˠ": 175,
      "ˤ": 176,
      "˥": 177,
      "˦": 178,
      "˧": 179,
      "˨": 180,
      "˩": 181,
      "α": 182,
      "β": 183,
      "γ": 184,
      "δ": 185,
      "ε": 186,
      "ζ": 187,
      "η": 188,
      "θ": 189,
      "ι": 190,
      "κ": 191,
      "λ": 192,
      "μ": 193,
      "ν": 194,
      "ξ": 195,
      "ο": 196,
      "π": 197,
      "ρ": 198,
      "ς": 199,
      "σ": 200,
      "τ": 201,
      "υ": 202,
      "φ": 203,
      "χ": 204,
      "ψ": 205,
      "ω": 206,
      "ϕ": 207,
      "а": 208,
      "б": 209,
      "в": 210,
      "г": 211,
      "д": 212,
      "е": 213,
      "ж": 214,
      "з": 215,
      "и": 216,
      "к": 217,
      "л": 218,
      "м": 219,
      "н": 220,
      "о": 221,
      "п": 222,
      "р": 223,
      "с": 224,
      "т": 225,
      "у": 226,
      "х": 227,
      "ц": 228,
      "ч": 229,
      "ш": 230,
      "ъ": 231,
      "ы": 232,
      "ь": 233,
      "э": 234,
      "ю": 235,
      "я": 236,
      "і": 237,
      "ј": 238,
      "љ": 239,
      "ա": 240,
      "բ": 241,
      "ե": 242,
      "թ": 243,
      "ի": 244,
      "կ": 245,
      "հ": 246,
      "ղ": 247,
      "մ": 248,
      "յ": 249,
      "ն": 250,
      "շ": 251,
      "ո": 252,
      "պ": 253,
      "ս": 254,
      "վ": 255,
      "տ": 256,
      "ր": 257,
      "ց": 258,
      "ւ": 259,
      "ք": 260,
      "א": 261,
      "ב": 262,
      "ג": 263,
      "ד": 264,
      "ו": 265,
      "ח": 266,
      "י": 267,
      "כ": 268,
      "ל": 269,
      "ם": 270,
      "מ": 271,
      "ן": 272,
      "נ": 273,
      "ס": 274,
      "ע": 275,
      "צ": 276,
      "ר": 277,
      "ש": 278,
      "ת": 279,
      "،": 280,
      "ء": 281,
      "ا": 282,
      "ب": 283,
      "ة": 284,
      "ت": 285,
      "ث": 286,
      "ج": 287,
      "ح": 288,
      "خ": 289,
      "د": 290,
      "ر": 291,
      "ز": 292,
      "س": 293,
      "ش": 294,
      "ص": 295,
      "ط": 296,
      "ع": 297,
      "غ": 298,
      "ف": 299,
      "ق": 300,
      "ك": 301,
      "ل": 302,
      "م": 303,
      "ن": 304,
      "ه": 305,
      "و": 306,
      "ي": 307,
      "ی": 308,
      "अ": 309,
      "आ": 310,
      "उ": 311,
      "क": 312,
      "ग": 313,
      "ट": 314,
      "ड": 315,
      "त": 316,
      "द": 317,
      "न": 318,
      "प": 319,
      "ब": 320,
      "भ": 321,
      "म": 322,
      "य": 323,
      "र": 324,
      "ल": 325,
      "श": 326,
      "ष": 327,
      "स": 328,
      "ह": 329,
      "।": 330,
      "॥": 331,
      "ক": 332,
      "ত": 333,
      "ন": 334,
      "ব": 335,
      "ম": 336,
      "ল": 337,
      "க": 338,
      "ன": 339,
      "ள": 340,
      "ก": 341,
      "ข": 342,
      "ง": 343,
      "จ": 344,
      "ช": 345,
      "ฐ": 346,
      "ณ": 347,
      "ต": 348,
      "ท": 349,
      "น": 350,
      "ป": 351,
      "พ": 352,
      "ม": 353,
      "ย": 354,
      "ร": 355,
      "ล": 356,
      "ว": 357,
      "ะ": 358,
      "า": 359,
      "฿": 360,
      "เ": 361,
      "แ": 362,
      "་": 363,
      "།": 364,
      "င": 365,
      "ဆ": 366,
      "န": 367,
      "ရ": 368,
      "გ": 369,
      "დ": 370,
      "ვ": 371,
      "ზ": 372,
      "ი": 373,
      "კ": 374,
      "ო": 375,
      "რ": 376,
      "ს": 377,
      "უ": 378,
      "ც": 379,
      "ძ": 380,
      "წ": 381,
      "ხ": 382,
      "ჯ": 383,
      "჻": 384,
      "ᄀ": 385,
      "ᄅ": 386,
      "ᄆ": 387,
      "ᄉ": 388,
      "ᄋ": 389,
      "ᄌ": 390,
      "ᄐ": 391,
      "ᄒ": 392,
      "ᅡ": 393,
      "ᅥ": 394,
      "ᅮ": 395,
      "ᅵ": 396,
      "ᆨ": 397,
      "ᆫ": 398,
      "ᆯ": 399,
      "ᆺ": 400,
      "፡": 401,
      "ᛃ": 402,
      "ᛋ": 403,
      "ᛟ": 404,
      "ត": 405,
      "ន": 406,
      "ព": 407,
      "ម": 408,
      "រ": 409,
      "ស": 410,
      "ហ": 411,
      "​": 412,
      "‌": 413,
      "‍": 414,
      "‐": 415,
      "‑": 416,
      "‒": 417,
      "–": 418,
      "—": 419,
      "―": 420,
      "‘": 421,
      "’": 422,
      "‚": 423,
      "“": 424,
      "”": 425,
      "„": 426,
      "†": 427,
      "‡": 428,
      "•": 429,
      "…": 430,
      "‰": 431,
      "′": 432,
      "″": 433,
      "※": 434,
      "‼": 435,
      "‿": 436,
      "⁄": 437,
      "⁊": 438,
      "⁡": 439,
      "⁺": 440,
      "₁": 441,
      "₂": 442,
      "₃": 443,
      "₡": 444,
      "₣": 445,
      "₤": 446,
      "₦": 447,
      "₨": 448,
      "₩": 449,
      "₫": 450,
      "€": 451,
      "₱": 452,
      "₹": 453,
      "℃": 454,
      "ℓ": 455,
      "№": 456,
      "™": 457,
      "⅓": 458,
      "⅔": 459,
      "⅛": 460,
      "⅜": 461,
      "⅝": 462,
      "⅞": 463,
      "←": 464,
      "↑": 465,
      "→": 466,
      "↓": 467,
      "↔": 468,
      "↗": 469,
      "↦": 470,
      "↪": 471,
      "⇄": 472,
      "⇌": 473,
      "∀": 474,
      "∂": 475,
      "∆": 476,
      "∈": 477,
      "∑": 478,
      "−": 479,
      "∕": 480,
      "∖": 481,
      "∗": 482,
      "∘": 483,
      "√": 484,
      "∝": 485,
      "∞": 486,
      "∩": 487,
      "∪": 488,
      "∴": 489,
      "∼": 490,
      "≈": 491,
      "≡": 492,
      "≤": 493,
      "≥": 494,
      "≪": 495,
      "⊂": 496,
      "⊕": 497,
      "⊗": 498,
      "⊙": 499,
      "⊥": 500,
      "⋅": 501,
      "⋯": 502,
      "⌊": 503,
      "⌋": 504,
      "①": 505,
      "②": 506,
      "④": 507,
      "█": 508,
      "▲": 509,
      "★": 510,
      "☆": 511,
      "☉": 512,
      "♀": 513,
      "♠": 514,
      "♣": 515,
      "♥": 516,
      "♦": 517,
      "♩": 518,
      "♪": 519,
      "♭": 520,
      "♮": 521,
      "♯": 522,
      "⟦": 523,
      "⟧": 524,
      "⟨": 525,
      "⟩": 526,
      "⩽": 527,
      "ⴷ": 528,
      "、": 529,
      "。": 530,
      "〈": 531,
      "〉": 532,
      "「": 533,
      "」": 534,
      "『": 535,
      "』": 536,
      "〜": 537,
      "あ": 538,
      "い": 539,
      "ぅ": 540,
      "う": 541,
      "お": 542,
      "か": 543,
      "き": 544,
      "く": 545,
      "こ": 546,
      "さ": 547,
      "し": 548,
      "す": 549,
      "せ": 550,
      "た": 551,
      "ち": 552,
      "つ": 553,
      "て": 554,
      "と": 555,
      "な": 556,
      "の": 557,
      "は": 558,
      "ふ": 559,
      "へ": 560,
      "ほ": 561,
      "ま": 562,
      "み": 563,
      "め": 564,
      "よ": 565,
      "ら": 566,
      "り": 567,
      "る": 568,
      "ん": 569,
      "ァ": 570,
      "ア": 571,
      "ィ": 572,
      "イ": 573,
      "ウ": 574,
      "ェ": 575,
      "エ": 576,
      "ォ": 577,
      "オ": 578,
      "カ": 579,
      "キ": 580,
      "ク": 581,
      "ケ": 582,
      "コ": 583,
      "サ": 584,
      "シ": 585,
      "ス": 586,
      "セ": 587,
      "ソ": 588,
      "タ": 589,
      "チ": 590,
      "ッ": 591,
      "ツ": 592,
      "テ": 593,
      "ト": 594,
      "ナ": 595,
      "ニ": 596,
      "ノ": 597,
      "ハ": 598,
      "ヒ": 599,
      "フ": 600,
      "ヘ": 601,
      "ホ": 602,
      "マ": 603,
      "ミ": 604,
      "ム": 605,
      "メ": 606,
      "モ": 607,
      "ャ": 608,
      "ヤ": 609,
      "ュ": 610,
      "ユ": 611,
      "ョ": 612,
      "ラ": 613,
      "リ": 614,
      "ル": 615,
      "レ": 616,
      "ロ": 617,
      "ワ": 618,
      "ン": 619,
      "・": 620,
      "ー": 621,
      "一": 622,
      "三": 623,
      "上": 624,
      "下": 625,
      "不": 626,
      "丑": 627,
      "世": 628,
      "个": 629,
      "久": 630,
      "之": 631,
      "乙": 632,
      "二": 633,
      "五": 634,
      "亦": 635,
      "京": 636,
      "人": 637,
      "介": 638,
      "仙": 639,
      "令": 640,
      "伝": 641,
      "住": 642,
      "佛": 643,
      "作": 644,
      "併": 645,
      "侠": 646,
      "個": 647,
      "催": 648,
      "像": 649,
      "光": 650,
      "内": 651,
      "写": 652,
      "冴": 653,
      "净": 654,
      "凪": 655,
      "分": 656,
      "列": 657,
      "刘": 658,
      "初": 659,
      "判": 660,
      "別": 661,
      "前": 662,
      "剛": 663,
      "剣": 664,
      "劇": 665,
      "動": 666,
      "勝": 667,
      "北": 668,
      "匹": 669,
      "千": 670,
      "卒": 671,
      "南": 672,
      "博": 673,
      "厘": 674,
      "双": 675,
      "台": 676,
      "号": 677,
      "同": 678,
      "名": 679,
      "君": 680,
      "呼": 681,
      "哈": 682,
      "四": 683,
      "回": 684,
      "国": 685,
      "國": 686,
      "土": 687,
      "坂": 688,
      "場": 689,
      "境": 690,
      "士": 691,
      "外": 692,
      "大": 693,
      "天": 694,
      "太": 695,
      "女": 696,
      "姉": 697,
      "婷": 698,
      "子": 699,
      "字": 700,
      "季": 701,
      "孩": 702,
      "守": 703,
      "宋": 704,
      "宗": 705,
      "寔": 706,
      "寺": 707,
      "小": 708,
      "少": 709,
      "尾": 710,
      "巨": 711,
      "廷": 712,
      "式": 713,
      "弘": 714,
      "张": 715,
      "張": 716,
      "彼": 717,
      "後": 718,
      "心": 719,
      "思": 720,
      "愛": 721,
      "憲": 722,
      "戦": 723,
      "房": 724,
      "所": 725,
      "撃": 726,
      "攻": 727,
      "新": 728,
      "方": 729,
      "日": 730,
      "旦": 731,
      "早": 732,
      "星": 733,
      "春": 734,
      "時": 735,
      "書": 736,
      "月": 737,
      "朝": 738,
      "木": 739,
      "本": 740,
      "李": 741,
      "杜": 742,
      "束": 743,
      "条": 744,
      "東": 745,
      "松": 746,
      "枚": 747,
      "條": 748,
      "植": 749,
      "椎": 750,
      "楽": 751,
      "様": 752,
      "機": 753,
      "正": 754,
      "武": 755,
      "歩": 756,
      "死": 757,
      "殻": 758,
      "氏": 759,
      "民": 760,
      "気": 761,
      "氣": 762,
      "水": 763,
      "氷": 764,
      "氾": 765,
      "法": 766,
      "活": 767,
      "流": 768,
      "浅": 769,
      "海": 770,
      "溜": 771,
      "瀬": 772,
      "火": 773,
      "無": 774,
      "版": 775,
      "特": 776,
      "王": 777,
      "瓦": 778,
      "生": 779,
      "用": 780,
      "田": 781,
      "町": 782,
      "界": 783,
      "畫": 784,
      "皮": 785,
      "真": 786,
      "礮": 787,
      "神": 788,
      "秋": 789,
      "積": 790,
      "空": 791,
      "章": 792,
      "箇": 793,
      "節": 794,
      "米": 795,
      "約": 796,
      "紋": 797,
      "綾": 798,
      "緑": 799,
      "編": 800,
      "群": 801,
      "羽": 802,
      "耕": 803,
      "聖": 804,
      "肖": 805,
      "膺": 806,
      "芝": 807,
      "花": 808,
      "草": 809,
      "莊": 810,
      "蛍": 811,
      "街": 812,
      "裁": 813,
      "装": 814,
      "西": 815,
      "見": 816,
      "語": 817,
      "説": 818,
      "議": 819,
      "词": 820,
      "谷": 821,
      "路": 822,
      "軍": 823,
      "転": 824,
      "輝": 825,
      "逆": 826,
      "進": 827,
      "道": 828,
      "遠": 829,
      "邪": 830,
      "部": 831,
      "野": 832,
      "量": 833,
      "金": 834,
      "銀": 835,
      "銖": 836,
      "錬": 837,
      "隊": 838,
      "隴": 839,
      "隻": 840,
      "雄": 841,
      "集": 842,
      "雪": 843,
      "零": 844,
      "靈": 845,
      "青": 846,
      "韓": 847,
      "風": 848,
      "鬼": 849,
      "魂": 850,
      "魄": 851,
      "魔": 852,
      "鼓": 853,
      "ﬁ": 854,
      "﻿": 855,
      "！": 856,
      "＆": 857,
      "（": 858,
      "）": 859,
      "，": 860,
      "－": 861,
      "：": 862,
      "＝": 863,
      "？": 864,
      "～": 865,
      "｢": 866,
      "･": 867,
      "￥": 868,
      "th": 869,
      "in": 870,
      "the": 871,
      "an": 872,
      "er": 873,
      "on": 874,
      "ed": 875,
      "re": 876,
      "at": 877,
      "en": 878,
      "or": 879,
      "st": 880,
      "al": 881,
      "ar": 882,
      "as": 883,
      "and": 884,
      "of": 885,
      "to": 886,
      "ing": 887,
      "is": 888,
      "es": 889,
      "it": 890,
      "ro": 891,
      "ic": 892,
      "ou": 893,
      "le": 894,
      "ion": 895,
      "ch": 896,
      "se": 897,
      "un": 898,
      "il": 899,
      "ent": 900,
      "\"\"": 901,
      "am": 902,
      "ad": 903,
      "be": 904,
      "ac": 905,
      "for": 906,
      "co": 907,
      "de": 908,
      "ly": 909,
      "was": 910,
      "ve": 911,
      "ur": 912,
      "he": 913,
      "ir": 914,
      "lo": 915,
      "wh": 916,
      "im": 917,
      "-@": 918,
      "@-@": 919,
      "ig": 920,
      "ver": 921,
      "ter": 922,
      "wi": 923,
      "con": 924,
      "ce": 925,
      "ay": 926,
      "with": 927,
      "ol": 928,
      "ation": 929,
      "ag": 930,
      "id": 931,
      "us": 932,
      "that": 933,
      "te": 934,
      "by": 935,
      "ct": 936,
      "no": 937,
      "su": 938,
      "ap": 939,
      "me": 940,
      "ri": 941,
      "ne": 942,
      "mo": 943,
      "we": 944,
      "li": 945,
      "ut": 946,
      "po": 947,
      "pe": 948,
      "com": 949,
      "sh": 950,
      "ain": 951,
      "pro": 952,
      "so": 953,
      "ab": 954,
      "ul": 955,
      "ere": 956,
      "res": 957,
      "di": 958,
      "pl": 959,
      "rom": 960,
      "ers": 961,
      "his": 962,
      "unk": 963,
      "all": 964,
      "ge": 965,
      "tr": 966,
      "from": 967,
      "ther": 968,
      "um": 969,
      "fe": 970,
      "art": 971,
      "oun": 972,
      "are": 973,
      "ld": 974,
      "ate": 975,
      "cl": 976,
      "per": 977,
      "ke": 978,
      "man": 979,
      "igh": 980,
      "ber": 981,
      "ex": 982,
      "af": 983,
      "bo": 984,
      "ment": 985,
      "si": 986,
      "qu": 987,
      "ich": 988,
      "were": 989,
      "ill": 990,
      "ard": 991,
      "ts": 992,
      "ast": 993,
      "ho": 994,
      "ie": 995,
      "au": 996,
      "one": 997,
      "gh": 998,
      "ies": 999,
      "ated": 1000,
      "ame": 1001,
      "ll": 1002,
      "ong": 1003,
      "ity": 1004,
      "ted": 1005,
      "end": 1006,
      "av": 1007,
      "out": 1008,
      "had": 1009,
      "str": 1010,
      "br": 1011,
      "ess": 1012,
      "our": 1013,
      "wn": 1014,
      "ack": 1015,
      "ish": 1016,
      "up": 1017,
      "ear": 1018,
      "wor": 1019,
      "which": 1020,
      "ist": 1021,
      "ant": 1022,
      "but": 1023,
      "por": 1024,
      "do": 1025,
      "der": 1026,
      "ive": 1027,
      "ine": 1028,
      "ip": 1029,
      "her": 1030,
      "du": 1031,
      "wo": 1032,
      "ally": 1033,
      "ave": 1034,
      "ak": 1035,
      "op": 1036,
      "act": 1037,
      "cor": 1038,
      "its": 1039,
      "not": 1040,
      "ary": 1041,
      "go": 1042,
      "iv": 1043,
      "pr": 1044,
      "fir": 1045,
      "cr": 1046,
      "em": 1047,
      "low": 1048,
      "tim": 1049,
      "ser": 1050,
      "this": 1051,
      "bl": 1052,
      "gr": 1053,
      "ud": 1054,
      "ian": 1055,
      "mar": 1056,
      "age": 1057,
      "fo": 1058,
      "ree": 1059,
      "ach": 1060,
      "after": 1061,
      "ia": 1062,
      "ight": 1063,
      "ould": 1064,
      "if": 1065,
      "aw": 1066,
      "first": 1067,
      "new": 1068,
      "ous": 1069,
      "od": 1070,
      "land": 1071,
      "ial": 1072,
      "part": 1073,
      "other": 1074,
      "ction": 1075,
      "their": 1076,
      "form": 1077,
      "who": 1078,
      "ign": 1079,
      "att": 1080,
      "ass": 1081,
      "min": 1082,
      "ition": 1083,
      "ical": 1084,
      "also": 1085,
      "sp": 1086,
      "el": 1087,
      "pres": 1088,
      "ater": 1089,
      "ound": 1090,
      "she": 1091,
      "gu": 1092,
      "des": 1093,
      "ev": 1094,
      "play": 1095,
      "they": 1096,
      "comm": 1097,
      "off": 1098,
      "two": 1099,
      "ph": 1100,
      "ure": 1101,
      "ty": 1102,
      "cre": 1103,
      "pre": 1104,
      "ck": 1105,
      "pos": 1106,
      "nor": 1107,
      "cont": 1108,
      "cent": 1109,
      "have": 1110,
      "comp": 1111,
      "ma": 1112,
      "dis": 1113,
      "rou": 1114,
      "ans": 1115,
      "over": 1116,
      "fin": 1117,
      "ice": 1118,
      ".@": 1119,
      "@.@": 1120,
      "jo": 1121,
      "air": 1122,
      "has": 1123,
      "ile": 1124,
      "year": 1125,
      "est": 1126,
      "ence": 1127,
      "inter": 1128,
      "ance": 1129,
      "uring": 1130,
      "been": 1131,
      "ace": 1132,
      "ok": 1133,
      ",@": 1134,
      "@,@": 1135,
      "ough": 1136,
      "mber": 1137,
      "ship": 1138,
      "spe": 1139,
      "ory": 1140,
      "ren": 1141,
      "port": 1142,
      "tur": 1143,
      "time": 1144,
      "ite": 1145,
      "ved": 1146,
      "can": 1147,
      "mon": 1148,
      "fr": 1149,
      "ade": 1150,
      "work": 1151,
      "gro": 1152,
      "ten": 1153,
      "when": 1154,
      "sion": 1155,
      "sc": 1156,
      "able": 1157,
      "pt": 1158,
      "ding": 1159,
      "incl": 1160,
      "ep": 1161,
      "par": 1162,
      "fer": 1163,
      "fl": 1164,
      "ced": 1165,
      "during": 1166,
      "fil": 1167,
      "sho": 1168,
      "et": 1169,
      "eng": 1170,
      "ail": 1171,
      "gen": 1172,
      "vis": 1173,
      "would": 1174,
      "way": 1175,
      "ations": 1176,
      "into": 1177,
      "dr": 1178,
      "him": 1179,
      "war": 1180,
      "most": 1181,
      "vi": 1182,
      "more": 1183,
      "col": 1184,
      "oc": 1185,
      "coun": 1186,
      "sy": 1187,
      "om": 1188,
      "iz": 1189,
      "main": 1190,
      "char": 1191,
      "fore": 1192,
      "son": 1193,
      "rough": 1194,
      "some": 1195,
      "car": 1196,
      "bu": 1197,
      "ces": 1198,
      "day": 1199,
      "ates": 1200,
      "bec": 1201,
      "ase": 1202,
      "ased": 1203,
      "ited": 1204,
      "bet": 1205,
      "vie": 1206,
      "ton": 1207,
      "ds": 1208,
      "reg": 1209,
      "amp": 1210,
      "les": 1211,
      "sing": 1212,
      "film": 1213,
      "while": 1214,
      "sou": 1215,
      "ire": 1216,
      "ang": 1217,
      "ju": 1218,
      "used": 1219,
      "int": 1220,
      "pu": 1221,
      "ason": 1222,
      "includ": 1223,
      "game": 1224,
      "med": 1225,
      "cted": 1226,
      "ning": 1227,
      "fol": 1228,
      "though": 1229,
      "under": 1230,
      "there": 1231,
      "ot": 1232,
      "gan": 1233,
      "only": 1234,
      "than": 1235,
      "ue": 1236,
      "high": 1237,
      "produ": 1238,
      "sa": 1239,
      "king": 1240,
      "wr": 1241,
      "cess": 1242,
      "west": 1243,
      "ican": 1244,
      "ict": 1245,
      "cond": 1246,
      "later": 1247,
      "ors": 1248,
      "song": 1249,
      "any": 1250,
      "mus": 1251,
      "again": 1252,
      "ick": 1253,
      "ger": 1254,
      "bro": 1255,
      "sch": 1256,
      "my": 1257,
      "je": 1258,
      "may": 1259,
      "old": 1260,
      "win": 1261,
      "ions": 1262,
      "ble": 1263,
      "amer": 1264,
      "cap": 1265,
      "mi": 1266,
      "about": 1267,
      "ped": 1268,
      "three": 1269,
      "red": 1270,
      "ween": 1271,
      "between": 1272,
      "rele": 1273,
      "through": 1274,
      "ath": 1275,
      "publ": 1276,
      "als": 1277,
      "them": 1278,
      "recor": 1279,
      "pol": 1280,
      "ating": 1281,
      "led": 1282,
      "follow": 1283,
      "gre": 1284,
      "tain": 1285,
      "la": 1286,
      "ned": 1287,
      "ational": 1288,
      "num": 1289,
      "ele": 1290,
      "where": 1291,
      "ss": 1292,
      "ef": 1293,
      "lar": 1294,
      "ward": 1295,
      "season": 1296,
      "ra": 1297,
      "ry": 1298,
      "sub": 1299,
      "ful": 1300,
      "ste": 1301,
      "sur": 1302,
      "world": 1303,
      "four": 1304,
      "alb": 1305,
      "view": 1306,
      "cur": 1307,
      "mat": 1308,
      "well": 1309,
      "men": 1310,
      "kno": 1311,
      "sel": 1312,
      "back": 1313,
      "ics": 1314,
      "stru": 1315,
      "spec": 1316,
      "second": 1317,
      "ting": 1318,
      "ident": 1319,
      "north": 1320,
      "und": 1321,
      "set": 1322,
      "before": 1323,
      "rel": 1324,
      "team": 1325,
      "ames": 1326,
      "made": 1327,
      "buil": 1328,
      "writ": 1329,
      "ters": 1330,
      "ular": 1331,
      "then": 1332,
      "many": 1333,
      "loc": 1334,
      "call": 1335,
      "io": 1336,
      "such": 1337,
      "mu": 1338,
      "ange": 1339,
      "mer": 1340,
      "album": 1341,
      "cer": 1342,
      "ci": 1343,
      "ered": 1344,
      "national": 1345,
      "ank": 1346,
      "sup": 1347,
      "appe": 1348,
      "ann": 1349,
      "tem": 1350,
      "tri": 1351,
      "sever": 1352,
      "ished": 1353,
      "gener": 1354,
      "lin": 1355,
      "years": 1356,
      "vers": 1357,
      "very": 1358,
      "state": 1359,
      "mb": 1360,
      "tro": 1361,
      "howe": 1362,
      "like": 1363,
      "mis": 1364,
      "serv": 1365,
      "south": 1366,
      "ale": 1367,
      "show": 1368,
      "both": 1369,
      "mill": 1370,
      "cy": 1371,
      "mor": 1372,
      "ta": 1373,
      "music": 1374,
      "being": 1375,
      "however": 1376,
      "add": 1377,
      "ily": 1378,
      "ents": 1379,
      "epis": 1380,
      "rece": 1381,
      "..": 1382,
      "ft": 1383,
      "long": 1384,
      "ven": 1385,
      "these": 1386,
      "bur": 1387,
      "ative": 1388,
      "lead": 1389,
      "series": 1390,
      "uary": 1391,
      "against": 1392,
      "line": 1393,
      "batt": 1394,
      "ments": 1395,
      "log": 1396,
      "ual": 1397,
      "don": 1398,
      "ied": 1399,
      "number": 1400,
      "ult": 1401,
      "sim": 1402,
      "charac": 1403,
      "velo": 1404,
      "ince": 1405,
      "side": 1406,
      "vol": 1407,
      "az": 1408,
      "city": 1409,
      "hist": 1410,
      "found": 1411,
      "ub": 1412,
      "dire": 1413,
      "brit": 1414,
      "bar": 1415,
      "mil": 1416,
      "appear": 1417,
      "ific": 1418,
      "dif": 1419,
      "arch": 1420,
      "develo": 1421,
      "united": 1422,
      "ens": 1423,
      "tal": 1424,
      "ause": 1425,
      "cro": 1426,
      "leg": 1427,
      "became": 1428,
      "unt": 1429,
      "down": 1430,
      "ob": 1431,
      "east": 1432,
      "igin": 1433,
      "several": 1434,
      "vision": 1435,
      "including": 1436,
      "ious": 1437,
      "origin": 1438,
      "pop": 1439,
      "head": 1440,
      "oper": 1441,
      "wer": 1442,
      "har": 1443,
      "stor": 1444,
      "cri": 1445,
      "feat": 1446,
      "early": 1447,
      "hn": 1448,
      "contin": 1449,
      "ca": 1450,
      "bor": 1451,
      "did": 1452,
      "pers": 1453,
      "val": 1454,
      "ode": 1455,
      "gover": 1456,
      "ms": 1457,
      "ley": 1458,
      "large": 1459,
      "ek": 1460,
      "tre": 1461,
      "sted": 1462,
      "sul": 1463,
      "ner": 1464,
      "bre": 1465,
      "trans": 1466,
      "ended": 1467,
      "cast": 1468,
      "pass": 1469,
      "clo": 1470,
      "ls": 1471,
      "wil": 1472,
      "nam": 1473,
      "sid": 1474,
      "cour": 1475,
      "suc": 1476,
      "try": 1477,
      "ities": 1478,
      "ise": 1479,
      "states": 1480,
      "episode": 1481,
      "ures": 1482,
      "crit": 1483,
      "group": 1484,
      "john": 1485,
      "said": 1486,
      "uni": 1487,
      "following": 1488,
      "hou": 1489,
      "plan": 1490,
      "run": 1491,
      "design": 1492,
      "cle": 1493,
      "comple": 1494,
      "ived": 1495,
      "peri": 1496,
      "could": 1497,
      "ings": 1498,
      "record": 1499,
      "nove": 1500,
      "ind": 1501,
      "retur": 1502,
      "ury": 1503,
      "sign": 1504,
      "ide": 1505,
      "american": 1506,
      "ern": 1507,
      "own": 1508,
      "bed": 1509,
      "fam": 1510,
      "ield": 1511,
      "vo": 1512,
      "known": 1513,
      "use": 1514,
      "although": 1515,
      "plo": 1516,
      "called": 1517,
      "pon": 1518,
      "vid": 1519,
      "roy": 1520,
      "indi": 1521,
      "ron": 1522,
      "jor": 1523,
      "life": 1524,
      "self": 1525,
      "os": 1526,
      "offic": 1527,
      "near": 1528,
      "ually": 1529,
      "present": 1530,
      "stem": 1531,
      "band": 1532,
      "public": 1533,
      "descri": 1534,
      "remain": 1535,
      "ii": 1536,
      "road": 1537,
      "sk": 1538,
      "began": 1539,
      "open": 1540,
      "scho": 1541,
      "ves": 1542,
      "hel": 1543,
      "star": 1544,
      "until": 1545,
      "sed": 1546,
      "sm": 1547,
      "ople": 1548,
      "dec": 1549,
      "released": 1550,
      "ball": 1551,
      "less": 1552,
      "along": 1553,
      "school": 1554,
      "ose": 1555,
      "aking": 1556,
      "dy": 1557,
      "because": 1558,
      "gin": 1559,
      "pri": 1560,
      "une": 1561,
      "ash": 1562,
      "position": 1563,
      "ised": 1564,
      "just": 1565,
      "house": 1566,
      "ject": 1567,
      "na": 1568,
      "ital": 1569,
      "hy": 1570,
      "ort": 1571,
      "come": 1572,
      "var": 1573,
      "people": 1574,
      "you": 1575,
      "fa": 1576,
      "place": 1577,
      "success": 1578,
      "system": 1579,
      "week": 1580,
      "gust": 1581,
      "xt": 1582,
      "vide": 1583,
      "million": 1584,
      "cover": 1585,
      "pen": 1586,
      "will": 1587,
      "stri": 1588,
      "let": 1589,
      "thir": 1590,
      "field": 1591,
      "british": 1592,
      "hal": 1593,
      "ham": 1594,
      "sist": 1595,
      "since": 1596,
      "cut": 1597,
      "around": 1598,
      "attack": 1599,
      "tit": 1600,
      "best": 1601,
      "town": 1602,
      "ple": 1603,
      "jan": 1604,
      "six": 1605,
      "award": 1606,
      "major": 1607,
      "sco": 1608,
      "ving": 1609,
      "book": 1610,
      "sep": 1611,
      "colle": 1612,
      "lit": 1613,
      "fic": 1614,
      "vent": 1615,
      "fect": 1616,
      "start": 1617,
      "eu": 1618,
      "each": 1619,
      "times": 1620,
      "track": 1621,
      "read": 1622,
      "continu": 1623,
      "ized": 1624,
      "now": 1625,
      "character": 1626,
      "requ": 1627,
      "stral": 1628,
      "ys": 1629,
      "ris": 1630,
      "tember": 1631,
      "ica": 1632,
      "care": 1633,
      "september": 1634,
      "sive": 1635,
      "same": 1636,
      "took": 1637,
      "august": 1638,
      "grap": 1639,
      "govern": 1640,
      "sol": 1641,
      "plac": 1642,
      "stand": 1643,
      "final": 1644,
      "order": 1645,
      "resul": 1646,
      "another": 1647,
      "five": 1648,
      "den": 1649,
      "top": 1650,
      "dep": 1651,
      "what": 1652,
      "fle": 1653,
      "ild": 1654,
      "home": 1655,
      "km": 1656,
      "mid": 1657,
      "que": 1658,
      "ired": 1659,
      "cal": 1660,
      "get": 1661,
      "austral": 1662,
      "person": 1663,
      "camp": 1664,
      "aving": 1665,
      "fur": 1666,
      "test": 1667,
      "stu": 1668,
      "mal": 1669,
      "formed": 1670,
      "area": 1671,
      "sen": 1672,
      "water": 1673,
      "def": 1674,
      "aim": 1675,
      "tour": 1676,
      "consid": 1677,
      "march": 1678,
      "ze": 1679,
      "gun": 1680,
      "century": 1681,
      "aft": 1682,
      "light": 1683,
      "contro": 1684,
      "direct": 1685,
      "received": 1686,
      "ore": 1687,
      "due": 1688,
      "appro": 1689,
      "urch": 1690,
      "met": 1691,
      "octo": 1692,
      "last": 1693,
      "small": 1694,
      "october": 1695,
      "yor": 1696,
      "ib": 1697,
      "pat": 1698,
      "even": 1699,
      "ism": 1700,
      "allow": 1701,
      "mot": 1702,
      "ility": 1703,
      "match": 1704,
      "liam": 1705,
      "cial": 1706,
      "games": 1707,
      "power": 1708,
      "hol": 1709,
      "class": 1710,
      "giv": 1711,
      "government": 1712,
      "thern": 1713,
      "partic": 1714,
      "ps": 1715,
      "tle": 1716,
      "ese": 1717,
      "ked": 1718,
      "ks": 1719,
      "mag": 1720,
      "york": 1721,
      "ately": 1722,
      "law": 1723,
      "lan": 1724,
      "won": 1725,
      "command": 1726,
      "ket": 1727,
      "pa": 1728,
      "rist": 1729,
      "june": 1730,
      "child": 1731,
      "river": 1732,
      "ported": 1733,
      "single": 1734,
      "general": 1735,
      "develop": 1736,
      "squ": 1737,
      "ril": 1738,
      "force": 1739,
      "company": 1740,
      "name": 1741,
      "dam": 1742,
      "july": 1743,
      "dece": 1744,
      "point": 1745,
      "played": 1746,
      "november": 1747,
      "differ": 1748,
      "sequ": 1749,
      "event": 1750,
      "third": 1751,
      "cas": 1752,
      "reach": 1753,
      "death": 1754,
      "review": 1755,
      "respon": 1756,
      "wal": 1757,
      "much": 1758,
      "island": 1759,
      "lish": 1760,
      "short": 1761,
      "ium": 1762,
      "april": 1763,
      "ling": 1764,
      "posed": 1765,
      "accor": 1766,
      "battle": 1767,
      "aged": 1768,
      "organ": 1769,
      "bus": 1770,
      "kill": 1771,
      "ress": 1772,
      "story": 1773,
      "ional": 1774,
      "van": 1775,
      "rest": 1776,
      "ained": 1777,
      "fri": 1778,
      "ages": 1779,
      "ina": 1780,
      "left": 1781,
      "family": 1782,
      "univers": 1783,
      "building": 1784,
      "went": 1785,
      "ru": 1786,
      "rad": 1787,
      "month": 1788,
      "idge": 1789,
      "vious": 1790,
      "based": 1791,
      "version": 1792,
      "ster": 1793,
      "ague": 1794,
      "far": 1795,
      "hand": 1796,
      "wood": 1797,
      "vir": 1798,
      "sal": 1799,
      "ude": 1800,
      "production": 1801,
      "addition": 1802,
      "club": 1803,
      "ined": 1804,
      "ists": 1805,
      "incre": 1806,
      "sum": 1807,
      "nat": 1808,
      "late": 1809,
      "poin": 1810,
      "german": 1811,
      "army": 1812,
      "black": 1813,
      "history": 1814,
      "ons": 1815,
      "thing": 1816,
      "ships": 1817,
      "december": 1818,
      "thor": 1819,
      "ah": 1820,
      "avy": 1821,
      "great": 1822,
      "named": 1823,
      "issu": 1824,
      "moved": 1825,
      "according": 1826,
      "included": 1827,
      "dest": 1828,
      "claim": 1829,
      "bat": 1830,
      "lon": 1831,
      "fun": 1832,
      "fall": 1833,
      "rote": 1834,
      "constru": 1835,
      "using": 1836,
      "make": 1837,
      "gl": 1838,
      "january": 1839,
      "hum": 1840,
      "fort": 1841,
      "ground": 1842,
      "studi": 1843,
      "ically": 1844,
      "wrote": 1845,
      "beli": 1846,
      "gram": 1847,
      "polit": 1848,
      "park": 1849,
      "jap": 1850,
      "lim": 1851,
      "tak": 1852,
      "euro": 1853,
      "cept": 1854,
      "flu": 1855,
      "gar": 1856,
      "che": 1857,
      "species": 1858,
      "still": 1859,
      "japan": 1860,
      "sw": 1861,
      "ially": 1862,
      "tt": 1863,
      "stud": 1864,
      "ford": 1865,
      "init": 1866,
      "gy": 1867,
      "real": 1868,
      "previous": 1869,
      "sty": 1870,
      "video": 1871,
      "pical": 1872,
      "lt": 1873,
      "hor": 1874,
      "former": 1875,
      "champ": 1876,
      "original": 1877,
      "within": 1878,
      "described": 1879,
      "list": 1880,
      "ier": 1881,
      "those": 1882,
      "lu": 1883,
      "ution": 1884,
      "forman": 1885,
      "ney": 1886,
      "fact": 1887,
      "built": 1888,
      "ord": 1889,
      "ness": 1890,
      "vict": 1891,
      "board": 1892,
      "dist": 1893,
      "bas": 1894,
      "next": 1895,
      "...": 1896,
      "rench": 1897,
      "ians": 1898,
      "bal": 1899,
      "pect": 1900,
      "mbers": 1901,
      "performan": 1902,
      "storm": 1903,
      "among": 1904,
      "release": 1905,
      "ric": 1906,
      "support": 1907,
      "put": 1908,
      "further": 1909,
      "bill": 1910,
      "attem": 1911,
      "ins": 1912,
      "ark": 1913,
      "league": 1914,
      "flo": 1915,
      "rus": 1916,
      "ler": 1917,
      "sent": 1918,
      "commun": 1919,
      "effect": 1920,
      "ilar": 1921,
      "bert": 1922,
      "ns": 1923,
      "ont": 1924,
      "mc": 1925,
      "foot": 1926,
      "tele": 1927,
      "fac": 1928,
      "route": 1929,
      "placed": 1930,
      "held": 1931,
      "days": 1932,
      "white": 1933,
      "ared": 1934,
      "scen": 1935,
      "night": 1936,
      "ants": 1937,
      "christ": 1938,
      "move": 1939,
      "sound": 1940,
      "ral": 1941,
      "cus": 1942,
      "stit": 1943,
      "milit": 1944,
      "half": 1945,
      "rican": 1946,
      "similar": 1947,
      "division": 1948,
      "febr": 1949,
      "february": 1950,
      "bir": 1951,
      "augh": 1952,
      "ben": 1953,
      "row": 1954,
      "period": 1955,
      "ently": 1956,
      "fire": 1957,
      "action": 1958,
      "ba": 1959,
      "player": 1960,
      "president": 1961,
      "train": 1962,
      "say": 1963,
      "church": 1964,
      "app": 1965,
      "came": 1966,
      "anim": 1967,
      "station": 1968,
      "rock": 1969,
      "friend": 1970,
      "cup": 1971,
      "dan": 1972,
      "ured": 1973,
      "prim": 1974,
      "good": 1975,
      "europe": 1976,
      "ences": 1977,
      "youn": 1978,
      "blo": 1979,
      "university": 1980,
      "wards": 1981,
      "service": 1982,
      "take": 1983,
      "olog": 1984,
      "french": 1985,
      "members": 1986,
      "stree": 1987,
      "local": 1988,
      "role": 1989,
      "del": 1990,
      "estab": 1991,
      "soci": 1992,
      "ator": 1993,
      "ute": 1994,
      "hur": 1995,
      "moun": 1996,
      "craft": 1997,
      "dro": 1998,
      "post": 1999,
      "equ": 2000,
      "inc": 2001,
      "non": 2002,
      "mit": 2003,
      "pot": 2004,
      "ny": 2005,
      "continued": 2006,
      "having": 2007,
      "every": 2008,
      "hun": 2009,
      "william": 2010,
      "see": 2011,
      "never": 2012,
      "begin": 2013,
      "prof": 2014,
      "phil": 2015,
      "key": 2016,
      "sci": 2017,
      "tech": 2018,
      "ights": 2019,
      "ats": 2020,
      "chart": 2021,
      "associ": 2022,
      "often": 2023,
      "ged": 2024,
      "sible": 2025,
      "chang": 2026,
      "free": 2027,
      "ga": 2028,
      "ending": 2029,
      "ran": 2030,
      "ulation": 2031,
      "tor": 2032,
      "desp": 2033,
      "histor": 2034,
      "leve": 2035,
      "bon": 2036,
      "ff": 2037,
      "career": 2038,
      "geor": 2039,
      "court": 2040,
      "cu": 2041,
      "ines": 2042,
      "elect": 2043,
      "different": 2044,
      "mich": 2045,
      "wat": 2046,
      "champion": 2047,
      "lat": 2048,
      "ken": 2049,
      "trad": 2050,
      "bridge": 2051,
      "ption": 2052,
      "without": 2053,
      "gest": 2054,
      "net": 2055,
      "seven": 2056,
      "indu": 2057,
      "ched": 2058,
      "ison": 2059,
      "western": 2060,
      "provid": 2061,
      "despite": 2062,
      "england": 2063,
      "once": 2064,
      "prote": 2065,
      "wall": 2066,
      "sl": 2067,
      "ars": 2068,
      "considered": 2069,
      "party": 2070,
      "ctions": 2071,
      "author": 2072,
      "pho": 2073,
      "tropical": 2074,
      "bel": 2075,
      "dav": 2076,
      "ided": 2077,
      "rich": 2078,
      "served": 2079,
      "development": 2080,
      "ik": 2081,
      "ret": 2082,
      "pur": 2083,
      "enter": 2084,
      "written": 2085,
      "father": 2086,
      "uc": 2087,
      "search": 2088,
      "few": 2089,
      "country": 2090,
      "stead": 2091,
      "ural": 2092,
      "county": 2093,
      "concer": 2094,
      "influ": 2095,
      "refer": 2096,
      "songs": 2097,
      "royal": 2098,
      "english": 2099,
      "moder": 2100,
      "highway": 2101,
      "ices": 2102,
      "sug": 2103,
      "military": 2104,
      "member": 2105,
      "lling": 2106,
      "given": 2107,
      "face": 2108,
      "wide": 2109,
      "range": 2110,
      "arri": 2111,
      "graph": 2112,
      "super": 2113,
      "beh": 2114,
      "compe": 2115,
      "program": 2116,
      "forces": 2117,
      "ston": 2118,
      "scor": 2119,
      "mp": 2120,
      "become": 2121,
      "ross": 2122,
      "contr": 2123,
      "little": 2124,
      "eder": 2125,
      "ref": 2126,
      "lost": 2127,
      "strong": 2128,
      "sto": 2129,
      "ried": 2130,
      "sit": 2131,
      "international": 2132,
      "live": 2133,
      "coast": 2134,
      "london": 2135,
      "hit": 2136,
      "how": 2137,
      "right": 2138,
      "total": 2139,
      "invol": 2140,
      "change": 2141,
      "street": 2142,
      "ha": 2143,
      "body": 2144,
      "vin": 2145,
      "announ": 2146,
      "front": 2147,
      "hen": 2148,
      "cir": 2149,
      "sea": 2150,
      "nel": 2151,
      "struct": 2152,
      "love": 2153,
      "hour": 2154,
      "ches": 2155,
      "close": 2156,
      "rail": 2157,
      "quar": 2158,
      "gave": 2159,
      "popular": 2160,
      "dri": 2161,
      "decl": 2162,
      "aff": 2163,
      "iety": 2164,
      "away": 2165,
      "cru": 2166,
      "canad": 2167,
      "mad": 2168,
      "published": 2169,
      "cho": 2170,
      "ports": 2171,
      "successful": 2172,
      "bri": 2173,
      "represent": 2174,
      "performance": 2175,
      "sure": 2176,
      "lie": 2177,
      "project": 2178,
      "produced": 2179,
      "stated": 2180,
      "ards": 2181,
      "ery": 2182,
      "bs": 2183,
      "returned": 2184,
      "children": 2185,
      "common": 2186,
      "ext": 2187,
      "base": 2188,
      "need": 2189,
      "broad": 2190,
      "aver": 2191,
      "ified": 2192,
      "san": 2193,
      "ives": 2194,
      "wing": 2195,
      "iment": 2196,
      "fail": 2197,
      "too": 2198,
      "voc": 2199,
      "making": 2200,
      "aren": 2201,
      "grad": 2202,
      "reported": 2203,
      "ws": 2204,
      "rain": 2205,
      "ring": 2206,
      "interest": 2207,
      "curren": 2208,
      "look": 2209,
      "xim": 2210,
      "recorded": 2211,
      "ban": 2212,
      "writing": 2213,
      "mur": 2214,
      "particular": 2215,
      "television": 2216,
      "jack": 2217,
      "hon": 2218,
      "teen": 2219,
      "official": 2220,
      "ably": 2221,
      "uk": 2222,
      "special": 2223,
      "aircraft": 2224,
      "aign": 2225,
      "ission": 2226,
      "gold": 2227,
      "campaign": 2228,
      "covered": 2229,
      "dou": 2230,
      "should": 2231,
      "include": 2232,
      "import": 2233,
      "cross": 2234,
      "coming": 2235,
      "room": 2236,
      "ior": 2237,
      "upon": 2238,
      "control": 2239,
      "stat": 2240,
      "critic": 2241,
      "press": 2242,
      "intro": 2243,
      "women": 2244,
      "central": 2245,
      "suf": 2246,
      "style": 2247,
      "rit": 2248,
      "stone": 2249,
      "hurrican": 2250,
      "ink": 2251,
      "pal": 2252,
      "throughout": 2253,
      "destroy": 2254,
      "died": 2255,
      "gn": 2256,
      "cum": 2257,
      "mas": 2258,
      "sex": 2259,
      "fav": 2260,
      "cul": 2261,
      "sil": 2262,
      "male": 2263,
      "race": 2264,
      "mission": 2265,
      "young": 2266,
      "works": 2267,
      "nal": 2268,
      "ama": 2269,
      "fan": 2270,
      "arm": 2271,
      "himself": 2272,
      "anted": 2273,
      "fran": 2274,
      "australia": 2275,
      "tar": 2276,
      "depend": 2277,
      "hard": 2278,
      "hill": 2279,
      "sun": 2280,
      "istr": 2281,
      "construction": 2282,
      "mix": 2283,
      "vill": 2284,
      "pan": 2285,
      "depart": 2286,
      "ops": 2287,
      "commit": 2288,
      "characters": 2289,
      "introdu": 2290,
      "clear": 2291,
      "ively": 2292,
      "pit": 2293,
      "expl": 2294,
      "eight": 2295,
      "cing": 2296,
      "big": 2297,
      "located": 2298,
      "players": 2299,
      "utes": 2300,
      "believ": 2301,
      "ming": 2302,
      "title": 2303,
      "ever": 2304,
      "conne": 2305,
      "developed": 2306,
      "ploy": 2307,
      "squad": 2308,
      "instead": 2309,
      "mark": 2310,
      "southern": 2311,
      "saw": 2312,
      "james": 2313,
      "chan": 2314,
      "result": 2315,
      "ges": 2316,
      "iness": 2317,
      "acy": 2318,
      "ded": 2319,
      "cop": 2320,
      "signific": 2321,
      "center": 2322,
      "lled": 2323,
      "across": 2324,
      "alth": 2325,
      "remained": 2326,
      "months": 2327,
      "grand": 2328,
      "activ": 2329,
      "return": 2330,
      "break": 2331,
      "reed": 2332,
      "ways": 2333,
      "political": 2334,
      "lies": 2335,
      "hing": 2336,
      "ni": 2337,
      "ping": 2338,
      "akes": 2339,
      "ana": 2340,
      "wa": 2341,
      "modern": 2342,
      "taken": 2343,
      "pra": 2344,
      "ey": 2345,
      "itions": 2346,
      "various": 2347,
      "hall": 2348,
      "fif": 2349,
      "coll": 2350,
      "trave": 2351,
      "ither": 2352,
      "born": 2353,
      "hurricane": 2354,
      "experi": 2355,
      "toge": 2356,
      "seen": 2357,
      "together": 2358,
      "conf": 2359,
      "felt": 2360,
      "formation": 2361,
      "cil": 2362,
      "ability": 2363,
      "exp": 2364,
      "ago": 2365,
      "ae": 2366,
      "commission": 2367,
      "round": 2368,
      "ival": 2369,
      "office": 2370,
      "ains": 2371,
      "bow": 2372,
      "vil": 2373,
      "bul": 2374,
      "stage": 2375,
      "america": 2376,
      "aster": 2377,
      "ane": 2378,
      "complete": 2379,
      "lied": 2380,
      "created": 2381,
      "dom": 2382,
      "vest": 2383,
      "miles": 2384,
      "pted": 2385,
      "areas": 2386,
      "noted": 2387,
      "full": 2388,
      "announced": 2389,
      "inv": 2390,
      "eventually": 2391,
      "appeared": 2392,
      "brother": 2393,
      "ael": 2394,
      "george": 2395,
      "college": 2396,
      "mass": 2397,
      "reached": 2398,
      "fight": 2399,
      "pain": 2400,
      "ctor": 2401,
      "recording": 2402,
      "engine": 2403,
      "mm": 2404,
      "japanese": 2405,
      "rap": 2406,
      "occur": 2407,
      "tell": 2408,
      "got": 2409,
      "northern": 2410,
      "pression": 2411,
      "case": 2412,
      "gree": 2413,
      "mother": 2414,
      "ino": 2415,
      "aval": 2416,
      "sele": 2417,
      "cost": 2418,
      "performed": 2419,
      "soc": 2420,
      "abor": 2421,
      "lines": 2422,
      "dre": 2423,
      "process": 2424,
      "heavy": 2425,
      "gir": 2426,
      "mir": 2427,
      "points": 2428,
      "followed": 2429,
      "abo": 2430,
      "meet": 2431,
      "viet": 2432,
      "civ": 2433,
      "pair": 2434,
      "tail": 2435,
      "iting": 2436,
      "impro": 2437,
      "significant": 2438,
      "mean": 2439,
      "debut": 2440,
      "human": 2441,
      "hu": 2442,
      "football": 2443,
      "section": 2444,
      "bank": 2445,
      "treat": 2446,
      "qual": 2447,
      "level": 2448,
      "killed": 2449,
      "profess": 2450,
      "playing": 2451,
      "antic": 2452,
      "gg": 2453,
      "ka": 2454,
      "earli": 2455,
      "termin": 2456,
      "adv": 2457,
      "mph": 2458,
      "reco": 2459,
      "soon": 2460,
      "current": 2461,
      "relation": 2462,
      "lished": 2463,
      "ties": 2464,
      "brown": 2465,
      "green": 2466,
      "thought": 2467,
      "does": 2468,
      "itive": 2469,
      "spr": 2470,
      "thom": 2471,
      "ones": 2472,
      "established": 2473,
      "cat": 2474,
      "originally": 2475,
      "ribut": 2476,
      "ues": 2477,
      "wel": 2478,
      "mac": 2479,
      "australian": 2480,
      "strict": 2481,
      "lower": 2482,
      "michael": 2483,
      "nes": 2484,
      "audi": 2485,
      "sess": 2486,
      "subsequ": 2487,
      "tru": 2488,
      "bin": 2489,
      "ought": 2490,
      "others": 2491,
      "ization": 2492,
      "whe": 2493,
      "lou": 2494,
      "director": 2495,
      "thre": 2496,
      "started": 2497,
      "cred": 2498,
      "tee": 2499,
      "entire": 2500,
      "david": 2501,
      "enced": 2502,
      "quest": 2503,
      "pie": 2504,
      "spir": 2505,
      "exe": 2506,
      "dem": 2507,
      "features": 2508,
      "ister": 2509,
      "surv": 2510,
      "nine": 2511,
      "reve": 2512,
      "cret": 2513,
      "atic": 2514,
      "business": 2515,
      "conom": 2516,
      "decided": 2517,
      "nar": 2518,
      "critics": 2519,
      "tra": 2520,
      "feet": 2521,
      "han": 2522,
      "econom": 2523,
      "aves": 2524,
      "rid": 2525,
      "scre": 2526,
      "caused": 2527,
      "union": 2528,
      "civil": 2529,
      "pred": 2530,
      "idence": 2531,
      "ko": 2532,
      "site": 2533,
      "mater": 2534,
      "rather": 2535,
      "opened": 2536,
      "fourth": 2537,
      "fleet": 2538,
      "ox": 2539,
      "ample": 2540,
      "added": 2541,
      "ray": 2542,
      "sold": 2543,
      "loss": 2544,
      "aring": 2545,
      "important": 2546,
      "ient": 2547,
      "behind": 2548,
      "ony": 2549,
      "exist": 2550,
      "research": 2551,
      "magaz": 2552,
      "jour": 2553,
      "independ": 2554,
      "imp": 2555,
      "bc": 2556,
      "educ": 2557,
      "uses": 2558,
      "squadron": 2559,
      "medi": 2560,
      "sus": 2561,
      "ators": 2562,
      "here": 2563,
      "championship": 2564,
      "bes": 2565,
      "comment": 2566,
      "ime": 2567,
      "population": 2568,
      "possible": 2569,
      "cou": 2570,
      "ief": 2571,
      "inj": 2572,
      "theast": 2573,
      "leading": 2574,
      "rought": 2575,
      "guns": 2576,
      "radio": 2577,
      "anti": 2578,
      "eastern": 2579,
      "completed": 2580,
      "scri": 2581,
      "pract": 2582,
      "space": 2583,
      "invest": 2584,
      "leader": 2585,
      "damage": 2586,
      "almost": 2587,
      "sat": 2588,
      "gal": 2589,
      "tom": 2590,
      "working": 2591,
      "jud": 2592,
      "mes": 2593,
      "sam": 2594,
      "peak": 2595,
      "fish": 2596,
      "thus": 2597,
      "worked": 2598,
      "region": 2599,
      "inst": 2600,
      "ilo": 2601,
      "sib": 2602,
      "awards": 2603,
      "initially": 2604,
      "mart": 2605,
      "bay": 2606,
      "kingdom": 2607,
      "social": 2608,
      "lack": 2609,
      "tic": 2610,
      "los": 2611,
      "type": 2612,
      "boy": 2613,
      "bi": 2614,
      "cts": 2615,
      "bey": 2616,
      "ids": 2617,
      "ances": 2618,
      "oney": 2619,
      "laun": 2620,
      "demo": 2621,
      "proble": 2622,
      "forced": 2623,
      "midd": 2624,
      "ising": 2625,
      "alter": 2626,
      "assist": 2627,
      "tradition": 2628,
      "draw": 2629,
      "individ": 2630,
      "itar": 2631,
      "ceed": 2632,
      "scene": 2633,
      "ram": 2634,
      "sour": 2635,
      "separ": 2636,
      "regular": 2637,
      "personal": 2638,
      "cult": 2639,
      "weeks": 2640,
      "france": 2641,
      "mult": 2642,
      "vic": 2643,
      "respect": 2644,
      "bit": 2645,
      "help": 2646,
      "bell": 2647,
      "diffic": 2648,
      "mary": 2649,
      "logy": 2650,
      "rank": 2651,
      "operation": 2652,
      "towards": 2653,
      "hab": 2654,
      "fig": 2655,
      "execut": 2656,
      "ply": 2657,
      "term": 2658,
      "tained": 2659,
      "god": 2660,
      "ying": 2661,
      "avail": 2662,
      "box": 2663,
      "joined": 2664,
      "approach": 2665,
      "compan": 2666,
      "council": 2667,
      "hip": 2668,
      "commer": 2669,
      "ature": 2670,
      "ready": 2671,
      "bio": 2672,
      "attempt": 2673,
      "wanted": 2674,
      "chief": 2675,
      "da": 2676,
      "pi": 2677,
      "feel": 2678,
      "henry": 2679,
      "pointed": 2680,
      "turn": 2681,
      "washing": 2682,
      "bomb": 2683,
      "material": 2684,
      "goal": 2685,
      "decis": 2686,
      "hop": 2687,
      "allowed": 2688,
      "records": 2689,
      "cali": 2690,
      "training": 2691,
      "leng": 2692,
      "mith": 2693,
      "recogn": 2694,
      "scored": 2695,
      "cell": 2696,
      "provided": 2697,
      "navy": 2698,
      "wife": 2699,
      "rul": 2700,
      "least": 2701,
      "ministr": 2702,
      "ency": 2703,
      "rang": 2704,
      "span": 2705,
      "crew": 2706,
      "quick": 2707,
      "asing": 2708,
      "secret": 2709,
      "claimed": 2710,
      "emy": 2711,
      "average": 2712,
      "nomin": 2713,
      "brought": 2714,
      "fly": 2715,
      "shot": 2716,
      "cong": 2717,
      "feder": 2718,
      "counter": 2719,
      "dut": 2720,
      "brig": 2721,
      "ager": 2722,
      "featured": 2723,
      "earth": 2724,
      "priv": 2725,
      "know": 2726,
      "estim": 2727,
      "tempor": 2728,
      "corpor": 2729,
      "redu": 2730,
      "russi": 2731,
      "either": 2732,
      "ado": 2733,
      "proper": 2734,
      "past": 2735,
      "employ": 2736,
      "ker": 2737,
      "ened": 2738,
      "memor": 2739,
      "ends": 2740,
      "regard": 2741,
      "troops": 2742,
      "stop": 2743,
      "passed": 2744,
      "ith": 2745,
      "summer": 2746,
      "consist": 2747,
      "keep": 2748,
      "victory": 2749,
      "rac": 2750,
      "asy": 2751,
      "defe": 2752,
      "studio": 2753,
      "victor": 2754,
      "mic": 2755,
      "fut": 2756,
      "runs": 2757,
      "captain": 2758,
      "generally": 2759,
      "washington": 2760,
      "bound": 2761,
      "nia": 2762,
      "must": 2763,
      "castle": 2764,
      "forms": 2765,
      "aven": 2766,
      "aper": 2767,
      "uel": 2768,
      "robert": 2769,
      "prison": 2770,
      "example": 2771,
      "hig": 2772,
      "pay": 2773,
      "condu": 2774,
      "events": 2775,
      "igned": 2776,
      "magazine": 2777,
      "beat": 2778,
      "revol": 2779,
      "ake": 2780,
      "concl": 2781,
      "finished": 2782,
      "battal": 2783,
      "host": 2784,
      "hest": 2785,
      "dark": 2786,
      "lot": 2787,
      "middle": 2788,
      "icated": 2789,
      "speed": 2790,
      "opening": 2791,
      "assi": 2792,
      "imin": 2793,
      "bad": 2794,
      "ential": 2795,
      "particip": 2796,
      "designed": 2797,
      "length": 2798,
      "spo": 2799,
      "paul": 2800,
      "verse": 2801,
      "ata": 2802,
      "hours": 2803,
      "certain": 2804,
      "media": 2805,
      "ville": 2806,
      "tex": 2807,
      "ades": 2808,
      "relig": 2809,
      "writer": 2810,
      "parts": 2811,
      "believed": 2812,
      "aut": 2813,
      "police": 2814,
      "fi": 2815,
      "drop": 2816,
      "lake": 2817,
      "comes": 2818,
      "taking": 2819,
      "lor": 2820,
      "cially": 2821,
      "suffer": 2822,
      "winds": 2823,
      "ense": 2824,
      "beginning": 2825,
      "cycl": 2826,
      "chest": 2827,
      "stant": 2828,
      "roman": 2829,
      "lands": 2830,
      "available": 2831,
      "acted": 2832,
      "inten": 2833,
      "going": 2834,
      "replaced": 2835,
      "za": 2836,
      "wit": 2837,
      "prior": 2838,
      "acc": 2839,
      "tel": 2840,
      "bour": 2841,
      "native": 2842,
      "involved": 2843,
      "langu": 2844,
      "emp": 2845,
      "minutes": 2846,
      "ering": 2847,
      "liver": 2848,
      "european": 2849,
      "phys": 2850,
      "ention": 2851,
      "earlier": 2852,
      "active": 2853,
      "erous": 2854,
      "jer": 2855,
      "sey": 2856,
      "turned": 2857,
      "society": 2858,
      "atl": 2859,
      "staff": 2860,
      "saying": 2861,
      "itor": 2862,
      "appearance": 2863,
      "hous": 2864,
      "heart": 2865,
      "hold": 2866,
      "tv": 2867,
      "immedi": 2868,
      "plat": 2869,
      "mountain": 2870,
      "association": 2871,
      "compl": 2872,
      "bis": 2873,
      "ky": 2874,
      "hib": 2875,
      "highest": 2876,
      "largest": 2877,
      "ax": 2878,
      "particularly": 2879,
      "films": 2880,
      "deal": 2881,
      "scott": 2882,
      "news": 2883,
      "issue": 2884,
      "asked": 2885,
      "suggest": 2886,
      "virgin": 2887,
      "pac": 2888,
      "date": 2889,
      "stre": 2890,
      "percent": 2891,
      "mun": 2892,
      "achie": 2893,
      "better": 2894,
      "aled": 2895,
      "meas": 2896,
      "nd": 2897,
      "iction": 2898,
      "cher": 2899,
      "icle": 2900,
      "reason": 2901,
      "plot": 2902,
      "daugh": 2903,
      "lear": 2904,
      "typ": 2905,
      "stry": 2906,
      "outside": 2907,
      "ides": 2908,
      "cks": 2909,
      "signed": 2910,
      "gor": 2911,
      "units": 2912,
      "promo": 2913,
      "charles": 2914,
      "iss": 2915,
      "ond": 2916,
      "thomas": 2917,
      "tries": 2918,
      "nu": 2919,
      "graphy": 2920,
      "weak": 2921,
      "ald": 2922,
      "increased": 2923,
      "ible": 2924,
      "istic": 2925,
      "mach": 2926,
      "smith": 2927,
      "lay": 2928,
      "ument": 2929,
      "ai": 2930,
      "mou": 2931,
      "tou": 2932,
      "infan": 2933,
      "reviews": 2934,
      "phy": 2935,
      "gs": 2936,
      "praised": 2937,
      "ather": 2938,
      "pressed": 2939,
      "community": 2940,
      "load": 2941,
      "motion": 2942,
      "chin": 2943,
      "pected": 2944,
      "fit": 2945,
      "governor": 2946,
      "acad": 2947,
      "future": 2948,
      "califor": 2949,
      "fre": 2950,
      "ored": 2951,
      "nation": 2952,
      "prin": 2953,
      "relationship": 2954,
      "broadcast": 2955,
      "additional": 2956,
      "coach": 2957,
      "ida": 2958,
      "above": 2959,
      "liter": 2960,
      "enough": 2961,
      "dig": 2962,
      "tion": 2963,
      "ordered": 2964,
      "peter": 2965,
      "theat": 2966,
      "guitar": 2967,
      "usually": 2968,
      "canada": 2969,
      "natural": 2970,
      "soldi": 2971,
      "argu": 2972,
      "ples": 2973,
      "era": 2974,
      "liber": 2975,
      "agon": 2976,
      "give": 2977,
      "standing": 2978,
      "cis": 2979,
      "alo": 2980,
      "ape": 2981,
      "viol": 2982,
      "acqu": 2983,
      "pts": 2984,
      "domin": 2985,
      "previously": 2986,
      "constit": 2987,
      "rights": 2988,
      "accoun": 2989,
      "premi": 2990,
      "find": 2991,
      "infantry": 2992,
      "resident": 2993,
      "musical": 2994,
      "stra": 2995,
      "told": 2996,
      "dead": 2997,
      "tax": 2998,
      "minor": 2999,
      "ilities": 3000,
      "critical": 3001,
      "occup": 3002,
      "committee": 3003,
      "indian": 3004,
      "rison": 3005,
      "territ": 3006,
      "richard": 3007,
      "ico": 3008,
      "elements": 3009,
      "threat": 3010,
      "ize": 3011,
      "positive": 3012,
      "instit": 3013,
      "defin": 3014,
      "chap": 3015,
      "lyr": 3016,
      "ayed": 3017,
      "california": 3018,
      "metres": 3019,
      "ener": 3020,
      "aps": 3021,
      "recent": 3022,
      "specific": 3023,
      "amoun": 3024,
      "capt": 3025,
      "emer": 3026,
      "explo": 3027,
      "arily": 3028,
      "bers": 3029,
      "woman": 3030,
      "lee": 3031,
      "appointed": 3032,
      "colum": 3033,
      "report": 3034,
      "female": 3035,
      "contribut": 3036,
      "food": 3037,
      "money": 3038,
      "fest": 3039,
      "difficult": 3040,
      "spent": 3041,
      "ases": 3042,
      "pow": 3043,
      "overall": 3044,
      "directed": 3045,
      "blue": 3046,
      "groups": 3047,
      "alex": 3048,
      "asse": 3049,
      "reser": 3050,
      "pul": 3051,
      "perform": 3052,
      "structure": 3053,
      "vert": 3054,
      "flood": 3055,
      "screen": 3056,
      "ensive": 3057,
      "interview": 3058,
      "failed": 3059,
      "rup": 3060,
      "zer": 3061,
      "exten": 3062,
      "ali": 3063,
      "ctive": 3064,
      "ference": 3065,
      "square": 3066,
      "yard": 3067,
      "poor": 3068,
      "gi": 3069,
      "frank": 3070,
      "required": 3071,
      "prepar": 3072,
      "lad": 3073,
      "health": 3074,
      "cam": 3075,
      "hot": 3076,
      "novel": 3077,
      "photo": 3078,
      "minister": 3079,
      "tw": 3080,
      "usion": 3081,
      "germany": 3082,
      "limited": 3083,
      "reng": 3084,
      "india": 3085,
      "word": 3086,
      "district": 3087,
      "prevent": 3088,
      "dev": 3089,
      "lam": 3090,
      "christian": 3091,
      "actions": 3092,
      "die": 3093,
      "fant": 3094,
      "itself": 3095,
      "evidence": 3096,
      "mex": 3097,
      "science": 3098,
      "rating": 3099,
      "sometimes": 3100,
      "cli": 3101,
      "wind": 3102,
      "frequ": 3103,
      "changes": 3104,
      "battalion": 3105,
      "introduced": 3106,
      "tured": 3107,
      "prob": 3108,
      "reception": 3109,
      "seem": 3110,
      "commercial": 3111,
      "election": 3112,
      "contract": 3113,
      "investig": 3114,
      "course": 3115,
      "odes": 3116,
      "streng": 3117,
      "deep": 3118,
      "ultim": 3119,
      "transfer": 3120,
      "except": 3121,
      "clim": 3122,
      "stars": 3123,
      "onto": 3124,
      "study": 3125,
      "living": 3126,
      "flight": 3127,
      "exper": 3128,
      "administr": 3129,
      "avo": 3130,
      "whose": 3131,
      "score": 3132,
      "mode": 3133,
      "flow": 3134,
      "berg": 3135,
      "eli": 3136,
      "va": 3137,
      "idea": 3138,
      "already": 3139,
      "defeated": 3140,
      "situ": 3141,
      "tu": 3142,
      "ching": 3143,
      "approxim": 3144,
      "agree": 3145,
      "dies": 3146,
      "compet": 3147,
      "queen": 3148,
      "igan": 3149,
      "slow": 3150,
      "bud": 3151,
      "background": 3152,
      "gard": 3153,
      "whom": 3154,
      "education": 3155,
      "names": 3156,
      "might": 3157,
      "len": 3158,
      "muse": 3159,
      "flor": 3160,
      "cit": 3161,
      "chester": 3162,
      "students": 3163,
      "changed": 3164,
      "sis": 3165,
      "ush": 3166,
      "erson": 3167,
      "quickly": 3168,
      "kets": 3169,
      "hero": 3170,
      "entertain": 3171,
      "worth": 3172,
      "effects": 3173,
      "surface": 3174,
      "fied": 3175,
      "favor": 3176,
      "transport": 3177,
      "movement": 3178,
      "response": 3179,
      "bot": 3180,
      "tracks": 3181,
      "hosp": 3182,
      "espe": 3183,
      "prog": 3184,
      "subject": 3185,
      "cele": 3186,
      "scenes": 3187,
      "hood": 3188,
      "lord": 3189,
      "commander": 3190,
      "burg": 3191,
      "moving": 3192,
      "department": 3193,
      "girl": 3194,
      "decision": 3195,
      "aining": 3196,
      "your": 3197,
      "fifth": 3198,
      "plant": 3199,
      "horse": 3200,
      "agreed": 3201,
      "arrived": 3202,
      "sand": 3203,
      "cm": 3204,
      "oly": 3205,
      "related": 3206,
      "likely": 3207,
      "via": 3208,
      "centre": 3209,
      "join": 3210,
      "britain": 3211,
      "adap": 3212,
      "especially": 3213,
      "tons": 3214,
      "services": 3215,
      "sons": 3216,
      "teams": 3217,
      "quarter": 3218,
      "consider": 3219,
      "dance": 3220,
      "museum": 3221,
      "parliam": 3222,
      "fair": 3223,
      "voice": 3224,
      "shows": 3225,
      "suit": 3226,
      "operations": 3227,
      "village": 3228,
      "object": 3229,
      "depression": 3230,
      "icted": 3231,
      "text": 3232,
      "ses": 3233,
      "latter": 3234,
      "gas": 3235,
      "listed": 3236,
      "industry": 3237,
      "ology": 3238,
      "nings": 3239,
      "ication": 3240,
      "chic": 3241,
      "larger": 3242,
      "acce": 3243,
      "estimated": 3244,
      "cape": 3245,
      "size": 3246,
      "becoming": 3247,
      "docum": 3248,
      "aint": 3249,
      "daughter": 3250,
      "carried": 3251,
      "episodes": 3252,
      "discus": 3253,
      "legal": 3254,
      "cting": 3255,
      "remaining": 3256,
      "ara": 3257,
      "parliament": 3258,
      "establish": 3259,
      "polic": 3260,
      "married": 3261,
      "ror": 3262,
      "gested": 3263,
      "running": 3264,
      "blood": 3265,
      "pressure": 3266,
      "sell": 3267,
      "forest": 3268,
      "cree": 3269,
      "naval": 3270,
      "brief": 3271,
      "flag": 3272,
      "upper": 3273,
      "pil": 3274,
      "winter": 3275,
      "leaving": 3276,
      "virginia": 3277,
      "winning": 3278,
      "chall": 3279,
      "acts": 3280,
      "entered": 3281,
      "breed": 3282,
      "iel": 3283,
      "spring": 3284,
      "paren": 3285,
      "meth": 3286,
      "aging": 3287,
      "suggested": 3288,
      "cand": 3289,
      "joy": 3290,
      "temporary": 3291,
      "pose": 3292,
      "nearly": 3293,
      "secur": 3294,
      "equip": 3295,
      "fell": 3296,
      "sky": 3297,
      "tural": 3298,
      "books": 3299,
      "influence": 3300,
      "approximately": 3301,
      "twent": 3302,
      "occas": 3303,
      "nic": 3304,
      "experience": 3305,
      "location": 3306,
      "atory": 3307,
      "kin": 3308,
      "anal": 3309,
      "capital": 3310,
      "language": 3311,
      "shortly": 3312,
      "kes": 3313,
      "federal": 3314,
      "islands": 3315,
      "envir": 3316,
      "empire": 3317,
      "syn": 3318,
      "regiment": 3319,
      "today": 3320,
      "finally": 3321,
      "network": 3322,
      "deb": 3323,
      "jackson": 3324,
      "mixed": 3325,
      "forward": 3326,
      "access": 3327,
      "gian": 3328,
      "grow": 3329,
      "relative": 3330,
      "purch": 3331,
      "ander": 3332,
      "detail": 3333,
      "proposed": 3334,
      "louis": 3335,
      "producer": 3336,
      "repe": 3337,
      "shire": 3338,
      "manager": 3339,
      "nature": 3340,
      "aries": 3341,
      "carri": 3342,
      "destroyed": 3343,
      "higher": 3344,
      "rate": 3345,
      "finan": 3346,
      "bring": 3347,
      "distri": 3348,
      "jun": 3349,
      "selves": 3350,
      "olymp": 3351,
      "corps": 3352,
      "spanish": 3353,
      "environ": 3354,
      "professional": 3355,
      "intended": 3356,
      "create": 3357,
      "done": 3358,
      "glo": 3359,
      "subsequently": 3360,
      "provide": 3361,
      "railway": 3362,
      "strate": 3363,
      "captured": 3364,
      "democr": 3365,
      "mr": 3366,
      "ging": 3367,
      "brigade": 3368,
      "stad": 3369,
      "supported": 3370,
      "journal": 3371,
      "friends": 3372,
      "stan": 3373,
      "compared": 3374,
      "master": 3375,
      "bran": 3376,
      "color": 3377,
      "tery": 3378,
      "unit": 3379,
      "attr": 3380,
      "battles": 3381,
      "complex": 3382,
      "immediately": 3383,
      "prince": 3384,
      "temper": 3385,
      "private": 3386,
      "expected": 3387,
      "soviet": 3388,
      "ishing": 3389,
      "actor": 3390,
      "fill": 3391,
      "ams": 3392,
      "aker": 3393,
      "birth": 3394,
      "mel": 3395,
      "fans": 3396,
      "iron": 3397,
      "scient": 3398,
      "iation": 3399,
      "jim": 3400,
      "hi": 3401,
      "tun": 3402,
      "weap": 3403,
      "planned": 3404,
      "block": 3405,
      "ius": 3406,
      "agement": 3407,
      "mouth": 3408,
      "feature": 3409,
      "awarded": 3410,
      "initial": 3411,
      "yet": 3412,
      "fully": 3413,
      "increasing": 3414,
      "chicago": 3415,
      "whether": 3416,
      "comb": 3417,
      "helped": 3418,
      "archite": 3419,
      "closed": 3420,
      "chinese": 3421,
      "acting": 3422,
      "icles": 3423,
      "legis": 3424,
      "kilo": 3425,
      "officer": 3426,
      "eve": 3427,
      "comed": 3428,
      "issued": 3429,
      "marked": 3430,
      "trade": 3431,
      "affe": 3432,
      "secut": 3433,
      "jose": 3434,
      "reli": 3435,
      "possib": 3436,
      "soldiers": 3437,
      "buildings": 3438,
      "longer": 3439,
      "edward": 3440,
      "insp": 3441,
      "billboard": 3442,
      "sail": 3443,
      "cause": 3444,
      "script": 3445,
      "fast": 3446,
      "valley": 3447,
      "plans": 3448,
      "conserv": 3449,
      "positions": 3450,
      "teach": 3451,
      "mig": 3452,
      "wed": 3453,
      "haw": 3454,
      "roun": 3455,
      "bury": 3456,
      "safe": 3457,
      "associated": 3458,
      "ological": 3459,
      "pacific": 3460,
      "iple": 3461,
      "distribut": 3462,
      "arg": 3463,
      "something": 3464,
      "officers": 3465,
      "phen": 3466,
      "zo": 3467,
      "iii": 3468,
      "martin": 3469,
      "gue": 3470,
      "instr": 3471,
      "singles": 3472,
      "mostly": 3473,
      "remains": 3474,
      "anna": 3475,
      "kar": 3476,
      "ipal": 3477,
      "atlantic": 3478,
      "oce": 3479,
      "ordin": 3480,
      "johnson": 3481,
      "themselves": 3482,
      "exam": 3483,
      "defeat": 3484,
      "cate": 3485,
      "colon": 3486,
      "step": 3487,
      "want": 3488,
      "pict": 3489,
      "countries": 3490,
      "lyrics": 3491,
      "extended": 3492,
      "information": 3493,
      "kore": 3494,
      "visit": 3495,
      "really": 3496,
      "probably": 3497,
      "demon": 3498,
      "dol": 3499,
      "market": 3500,
      "lock": 3501,
      "oh": 3502,
      "numerous": 3503,
      "traf": 3504,
      "habit": 3505,
      "appears": 3506,
      "singer": 3507,
      "py": 3508,
      "copies": 3509,
      "ender": 3510,
      "admir": 3511,
      "portr": 3512,
      "sett": 3513,
      "marine": 3514,
      "always": 3515,
      "scot": 3516,
      "mitted": 3517,
      "demand": 3518,
      "sor": 3519,
      "issues": 3520,
      "sales": 3521,
      "auto": 3522,
      "aught": 3523,
      "awn": 3524,
      "china": 3525,
      "goals": 3526,
      "request": 3527,
      "cruis": 3528,
      "classi": 3529,
      "individual": 3530,
      "tank": 3531,
      "leave": 3532,
      "status": 3533,
      "energy": 3534,
      "rica": 3535,
      "amed": 3536,
      "congress": 3537,
      "conference": 3538,
      "includes": 3539,
      "takes": 3540,
      "jected": 3541,
      "andon": 3542,
      "advan": 3543,
      "suffered": 3544,
      "edition": 3545,
      "standard": 3546,
      "hus": 3547,
      "yards": 3548,
      "neg": 3549,
      "movie": 3550,
      "hospital": 3551,
      "cham": 3552,
      "marri": 3553,
      "expand": 3554,
      "maxim": 3555,
      "florida": 3556,
      "inspired": 3557,
      "albums": 3558,
      "problems": 3559,
      "meeting": 3560,
      "rick": 3561,
      "weight": 3562,
      "rated": 3563,
      "card": 3564,
      "attacks": 3565,
      "double": 3566,
      "fighting": 3567,
      "revolution": 3568,
      "mont": 3569,
      "psy": 3570,
      "letter": 3571,
      "carry": 3572,
      "increase": 3573,
      "confir": 3574,
      "ull": 3575,
      "makes": 3576,
      "minute": 3577,
      "independent": 3578,
      "uded": 3579,
      "spect": 3580,
      "bing": 3581,
      "removed": 3582,
      "icket": 3583,
      "celebr": 3584,
      "roll": 3585,
      "creek": 3586,
      "spl": 3587,
      "artist": 3588,
      "texas": 3589,
      "dred": 3590,
      "forts": 3591,
      "offered": 3592,
      "sir": 3593,
      "foreign": 3594,
      "stic": 3595,
      "stock": 3596,
      "portion": 3597,
      "refle": 3598,
      "majority": 3599,
      "drum": 3600,
      "saur": 3601,
      "terms": 3602,
      "primary": 3603,
      "gil": 3604,
      "ula": 3605,
      "veh": 3606,
      "fox": 3607,
      "metal": 3608,
      "andre": 3609,
      "words": 3610,
      "pool": 3611,
      "impact": 3612,
      "males": 3613,
      "shoot": 3614,
      "combat": 3615,
      "iving": 3616,
      "composed": 3617,
      "dail": 3618,
      "discovered": 3619,
      "wild": 3620,
      "adop": 3621,
      "culture": 3622,
      "peace": 3623,
      "ranked": 3624,
      "assigned": 3625,
      "entertainment": 3626,
      "convent": 3627,
      "carol": 3628,
      "model": 3629,
      "giving": 3630,
      "dv": 3631,
      "oil": 3632,
      "think": 3633,
      "guard": 3634,
      "thur": 3635,
      "raised": 3636,
      "concept": 3637,
      "figh": 3638,
      "divid": 3639,
      "environment": 3640,
      "canadian": 3641,
      "nie": 3642,
      "bass": 3643,
      "ena": 3644,
      "plays": 3645,
      "alle": 3646,
      "rd": 3647,
      "damaged": 3648,
      "africa": 3649,
      "isa": 3650,
      "daily": 3651,
      "revealed": 3652,
      "selected": 3653,
      "uck": 3654,
      "ets": 3655,
      "launched": 3656,
      "ocean": 3657,
      "ya": 3658,
      "promis": 3659,
      "cere": 3660,
      "edge": 3661,
      "ously": 3662,
      "cyclone": 3663,
      "necess": 3664,
      "techno": 3665,
      "piece": 3666,
      "bil": 3667,
      "morning": 3668,
      "republic": 3669,
      "conditions": 3670,
      "shar": 3671,
      "schol": 3672,
      "greg": 3673,
      "russian": 3674,
      "heav": 3675,
      "twenty": 3676,
      "kent": 3677,
      "lived": 3678,
      "smo": 3679,
      "chair": 3680,
      "architect": 3681,
      "inside": 3682,
      "sports": 3683,
      "notes": 3684,
      "constructed": 3685,
      "attacked": 3686,
      "greater": 3687,
      "sched": 3688,
      "unable": 3689,
      "dar": 3690,
      "uries": 3691,
      "fel": 3692,
      "wis": 3693,
      "wrest": 3694,
      "respectively": 3695,
      "electric": 3696,
      "angeles": 3697,
      "ners": 3698,
      "sof": 3699,
      "whole": 3700,
      "writers": 3701,
      "sister": 3702,
      "northeast": 3703,
      "ask": 3704,
      "confl": 3705,
      "needed": 3706,
      "bob": 3707,
      "numbers": 3708,
      "swe": 3709,
      "rey": 3710,
      "onna": 3711,
      "evol": 3712,
      "houses": 3713,
      "smaller": 3714,
      "traditional": 3715,
      "advance": 3716,
      "cers": 3717,
      "contains": 3718,
      "religious": 3719,
      "francis": 3720,
      "below": 3721,
      "shown": 3722,
      "attempted": 3723,
      "gradu": 3724,
      "occurred": 3725,
      "wish": 3726,
      "newsp": 3727,
      "boat": 3728,
      "famil": 3729,
      "wound": 3730,
      "improve": 3731,
      "sin": 3732,
      "rare": 3733,
      "festival": 3734,
      "uals": 3735,
      "atives": 3736,
      "mention": 3737,
      "simp": 3738,
      "elected": 3739,
      "zz": 3740,
      "ications": 3741,
      "annual": 3742,
      "olic": 3743,
      "kel": 3744,
      "collection": 3745,
      "distin": 3746,
      "sar": 3747,
      "iter": 3748,
      "pet": 3749,
      "guest": 3750,
      "vey": 3751,
      "tower": 3752,
      "referred": 3753,
      "produce": 3754,
      "neigh": 3755,
      "ski": 3756,
      "dun": 3757,
      "rose": 3758,
      "question": 3759,
      "amount": 3760,
      "render": 3761,
      "theme": 3762,
      "replace": 3763,
      "rein": 3764,
      "schools": 3765,
      "audience": 3766,
      "largely": 3767,
      "kept": 3768,
      "silver": 3769,
      "resulted": 3770,
      "stom": 3771,
      "constant": 3772,
      "crow": 3773,
      "italian": 3774,
      "build": 3775,
      "economic": 3776,
      "inch": 3777,
      "slight": 3778,
      "severe": 3779,
      "aud": 3780,
      "tournam": 3781,
      "chem": 3782,
      "mess": 3783,
      "anth": 3784,
      "earned": 3785,
      "variety": 3786,
      "sumed": 3787,
      "arts": 3788,
      "controver": 3789,
      "competition": 3790,
      "cath": 3791,
      "stein": 3792,
      "fru": 3793,
      "starting": 3794,
      "jac": 3795,
      "directly": 3796,
      "prime": 3797,
      "gate": 3798,
      "stream": 3799,
      "sisted": 3800,
      "commented": 3801,
      "kind": 3802,
      "disco": 3803,
      "stadium": 3804,
      "document": 3805,
      "industri": 3806,
      "attention": 3807,
      "performances": 3808,
      "rapid": 3809,
      "fal": 3810,
      "scul": 3811,
      "aland": 3812,
      "cab": 3813,
      "refused": 3814,
      "quarters": 3815,
      "michigan": 3816,
      "camer": 3817,
      "trail": 3818,
      "ssing": 3819,
      "install": 3820,
      "extre": 3821,
      "sec": 3822,
      "atest": 3823,
      "stories": 3824,
      "gam": 3825,
      "session": 3826,
      "traffic": 3827,
      "greatest": 3828,
      "bol": 3829,
      "sexual": 3830,
      "philip": 3831,
      "princ": 3832,
      "indic": 3833,
      "chor": 3834,
      "wales": 3835,
      "matches": 3836,
      "declared": 3837,
      "direction": 3838,
      "things": 3839,
      "path": 3840,
      "serious": 3841,
      "penn": 3842,
      "marriage": 3843,
      "defense": 3844,
      "bia": 3845,
      "focus": 3846,
      "method": 3847,
      "ech": 3848,
      "ira": 3849,
      "drew": 3850,
      "beth": 3851,
      "meant": 3852,
      "vocals": 3853,
      "promin": 3854,
      "concert": 3855,
      "imper": 3856,
      "adel": 3857,
      "ening": 3858,
      "touch": 3859,
      "ix": 3860,
      "hundred": 3861,
      "levels": 3862,
      "pun": 3863,
      "abandon": 3864,
      "resist": 3865,
      "ug": 3866,
      "nearby": 3867,
      "izing": 3868,
      "murder": 3869,
      "cases": 3870,
      "weather": 3871,
      "thr": 3872,
      "practice": 3873,
      "inner": 3874,
      "organization": 3875,
      "sides": 3876,
      "doctor": 3877,
      "lane": 3878,
      "ination": 3879,
      "pret": 3880,
      "northwest": 3881,
      "windo": 3882,
      "marsh": 3883,
      "determin": 3884,
      "labor": 3885,
      "chron": 3886,
      "source": 3887,
      "uter": 3888,
      "fantasy": 3889,
      "ona": 3890,
      "uten": 3891,
      "candid": 3892,
      "birds": 3893,
      "cry": 3894,
      "dvd": 3895,
      "beach": 3896,
      "honor": 3897,
      "admiral": 3898,
      "incorpor": 3899,
      "mul": 3900,
      "wol": 3901,
      "ow": 3902,
      "emper": 3903,
      "chris": 3904,
      "vocal": 3905,
      "separate": 3906,
      "favour": 3907,
      "grant": 3908,
      "nick": 3909,
      "invas": 3910,
      "means": 3911,
      "settle": 3912,
      "highly": 3913,
      "continue": 3914,
      "systems": 3915,
      "spot": 3916,
      "eye": 3917,
      "ki": 3918,
      "theatre": 3919,
      "libr": 3920,
      "charge": 3921,
      "rule": 3922,
      "southeast": 3923,
      "zealand": 3924,
      "medical": 3925,
      "executive": 3926,
      "mexico": 3927,
      "farm": 3928,
      "african": 3929,
      "ulated": 3930,
      "urban": 3931,
      "pack": 3932,
      "observ": 3933,
      "ultimately": 3934,
      "pick": 3935,
      "presented": 3936,
      "passing": 3937,
      "mechan": 3938,
      "exhib": 3939,
      "reduced": 3940,
      "drive": 3941,
      "mile": 3942,
      "divided": 3943,
      "effort": 3944,
      "gall": 3945,
      "rum": 3946,
      "eth": 3947,
      "attended": 3948,
      "multiple": 3949,
      "tried": 3950,
      "pin": 3951,
      "arab": 3952,
      "vation": 3953,
      "ises": 3954,
      "efforts": 3955,
      "vince": 3956,
      "pic": 3957,
      "animals": 3958,
      "americ": 3959,
      "quality": 3960,
      "advent": 3961,
      "coal": 3962,
      "yel": 3963,
      "ti": 3964,
      "stating": 3965,
      "serve": 3966,
      "studies": 3967,
      "border": 3968,
      "accepted": 3969,
      "scr": 3970,
      "symb": 3971,
      "memorial": 3972,
      "wealth": 3973,
      "function": 3974,
      "financial": 3975,
      "brad": 3976,
      "bled": 3977,
      "saint": 3978,
      "responsible": 3979,
      "lieuten": 3980,
      "madonna": 3981,
      "trial": 3982,
      "incident": 3983,
      "fund": 3984,
      "nest": 3985,
      "ceremon": 3986,
      "ories": 3987,
      "creation": 3988,
      "restor": 3989,
      "jam": 3990,
      "founded": 3991,
      "sav": 3992,
      "true": 3993,
      "begins": 3994,
      "setting": 3995,
      "itation": 3996,
      "nown": 3997,
      "enemy": 3998,
      "scotland": 3999,
      "sole": 4000,
      "jones": 4001,
      "meaning": 4002,
      "write": 4003,
      "burn": 4004,
      "thick": 4005,
      "managed": 4006,
      "parents": 4007,
      "chance": 4008,
      "scale": 4009,
      "stay": 4010,
      "happ": 4011,
      "airport": 4012,
      "protest": 4013,
      "ems": 4014,
      "flying": 4015,
      "lab": 4016,
      "planet": 4017,
      "visions": 4018,
      "paid": 4019,
      "companies": 4020,
      "advis": 4021,
      "electron": 4022,
      "roads": 4023,
      "mut": 4024,
      "aur": 4025,
      "activity": 4026,
      "greek": 4027,
      "arms": 4028,
      "resulting": 4029,
      "fellow": 4030,
      "ome": 4031,
      "mind": 4032,
      "loy": 4033,
      "tournament": 4034,
      "lip": 4035,
      "titled": 4036,
      "thous": 4037,
      "dropped": 4038,
      "painting": 4039,
      "folk": 4040,
      "broke": 4041,
      "extr": 4042,
      "showed": 4043,
      "lieutenant": 4044,
      "fat": 4045,
      "excl": 4046,
      "academy": 4047,
      "authority": 4048,
      "policy": 4049,
      "eigh": 4050,
      "allowing": 4051,
      "exped": 4052,
      "artill": 4053,
      "aust": 4054,
      "secretary": 4055,
      "combined": 4056,
      "strugg": 4057,
      "resol": 4058,
      "cub": 4059,
      "extreme": 4060,
      "armed": 4061,
      "andy": 4062,
      "administration": 4063,
      "latin": 4064,
      "artillery": 4065,
      "continues": 4066,
      "passeng": 4067,
      "williams": 4068,
      "ceeded": 4069,
      "inches": 4070,
      "emperor": 4071,
      "lap": 4072,
      "avoid": 4073,
      "property": 4074,
      "spirit": 4075,
      "ament": 4076,
      "thin": 4077,
      "subsequent": 4078,
      "solo": 4079,
      "artists": 4080,
      "calling": 4081,
      "kings": 4082,
      "dor": 4083,
      "sie": 4084,
      "attempts": 4085,
      "contemporary": 4086,
      "territory": 4087,
      "voy": 4088,
      "content": 4089,
      "account": 4090,
      "selling": 4091,
      "grade": 4092,
      "rat": 4093,
      "ja": 4094,
      "accept": 4095,
      "cities": 4096,
      "egy": 4097,
      "colour": 4098,
      "tree": 4099,
      "pilot": 4100,
      "oth": 4101,
      "deliver": 4102,
      "syl": 4103,
      "slo": 4104,
      "rot": 4105,
      "potential": 4106,
      "behav": 4107,
      "cold": 4108,
      "machine": 4109,
      "viewers": 4110,
      "studios": 4111,
      "presence": 4112,
      "thousand": 4113,
      "sixth": 4114,
      "hl": 4115,
      "conducted": 4116,
      "sequence": 4117,
      "officials": 4118,
      "ulf": 4119,
      "digital": 4120,
      "image": 4121,
      "defence": 4122,
      "propos": 4123,
      "maintain": 4124,
      "repair": 4125,
      "matic": 4126,
      "wise": 4127,
      "rev": 4128,
      "bishop": 4129,
      "leon": 4130,
      "filming": 4131,
      "tam": 4132,
      "extensive": 4133,
      "sr": 4134,
      "conds": 4135,
      "nap": 4136,
      "contrast": 4137,
      "job": 4138,
      "enn": 4139,
      "figure": 4140,
      "recomm": 4141,
      "opport": 4142,
      "owned": 4143,
      "sense": 4144,
      "collabor": 4145,
      "scoring": 4146,
      "twel": 4147,
      "dome": 4148,
      "transferred": 4149,
      "sip": 4150,
      "enjoy": 4151,
      "yellow": 4152,
      "temple": 4153,
      "senior": 4154,
      "hors": 4155,
      "maximum": 4156,
      "bond": 4157,
      "featuring": 4158,
      "allied": 4159,
      "theory": 4160,
      "opportun": 4161,
      "primarily": 4162,
      "ification": 4163,
      "therefore": 4164,
      "relatively": 4165,
      "sac": 4166,
      "lyn": 4167,
      "dise": 4168,
      "joseph": 4169,
      "pedo": 4170,
      "security": 4171,
      "becomes": 4172,
      "student": 4173,
      "peaked": 4174,
      "agu": 4175,
      "accident": 4176,
      "apart": 4177,
      "arthur": 4178,
      "ump": 4179,
      "strength": 4180,
      "dur": 4181,
      "isation": 4182,
      "actors": 4183,
      "faced": 4184,
      "actually": 4185,
      "oxford": 4186,
      "patter": 4187,
      "chos": 4188,
      "torpedo": 4189,
      "bles": 4190,
      "seconds": 4191,
      "travel": 4192,
      "distance": 4193,
      "management": 4194,
      "ano": 4195,
      "physical": 4196,
      "cert": 4197,
      "concluded": 4198,
      "citiz": 4199,
      "beaut": 4200,
      "bird": 4201,
      "harrison": 4202,
      "observed": 4203,
      "boston": 4204,
      "draft": 4205,
      "alleg": 4206,
      "battleship": 4207,
      "manchester": 4208,
      "share": 4209,
      "mond": 4210,
      "raid": 4211,
      "invasion": 4212,
      "table": 4213,
      "situation": 4214,
      "lic": 4215,
      "egypt": 4216,
      "prise": 4217,
      "affair": 4218,
      "sions": 4219,
      "versions": 4220,
      "results": 4221,
      "alongside": 4222,
      "identified": 4223,
      "supp": 4224,
      "stal": 4225,
      "swed": 4226,
      "conver": 4227,
      "sust": 4228,
      "alone": 4229,
      "personnel": 4230,
      "concent": 4231,
      "hat": 4232,
      "aga": 4233,
      "hair": 4234,
      "ressed": 4235,
      "sources": 4236,
      "chi": 4237,
      "anne": 4238,
      "benef": 4239,
      "appl": 4240,
      "outs": 4241,
      "ell": 4242,
      "ots": 4243,
      "owner": 4244,
      "mob": 4245,
      "hap": 4246,
      "missed": 4247,
      "agreement": 4248,
      "returning": 4249,
      "ration": 4250,
      "arent": 4251,
      "slightly": 4252,
      "anci": 4253,
      "historical": 4254,
      "mine": 4255,
      "armor": 4256,
      "ites": 4257,
      "historian": 4258,
      "paper": 4259,
      "brid": 4260,
      "paris": 4261,
      "cultural": 4262,
      "imperial": 4263,
      "pian": 4264,
      "crash": 4265,
      "nothing": 4266,
      "surroun": 4267,
      "appoint": 4268,
      "istics": 4269,
      "else": 4270,
      "influenced": 4271,
      "bbc": 4272,
      "ada": 4273,
      "wave": 4274,
      "minim": 4275,
      "types": 4276,
      "inte": 4277,
      "soundtrack": 4278,
      "kg": 4279,
      "vessel": 4280,
      "places": 4281,
      "freed": 4282,
      "orders": 4283,
      "nominated": 4284,
      "medal": 4285,
      "feed": 4286,
      "custom": 4287,
      "completely": 4288,
      "innings": 4289,
      "confirmed": 4290,
      "comedy": 4291,
      "struck": 4292,
      "promoted": 4293,
      "ify": 4294,
      "ridge": 4295,
      "drawn": 4296,
      "residents": 4297,
      "designated": 4298,
      "athlet": 4299,
      "commissioned": 4300,
      "core": 4301,
      "attend": 4302,
      "dog": 4303,
      "crown": 4304,
      "nas": 4305,
      "ays": 4306,
      "gets": 4307,
      "conflict": 4308,
      "preser": 4309,
      "tan": 4310,
      "mainly": 4311,
      "capture": 4312,
      "iced": 4313,
      "croat": 4314,
      "door": 4315,
      "solid": 4316,
      "powerful": 4317,
      "charts": 4318,
      "avenue": 4319,
      "tellig": 4320,
      "orche": 4321,
      "yer": 4322,
      "intellig": 4323,
      "sought": 4324,
      "encour": 4325,
      "justice": 4326,
      "lation": 4327,
      "aid": 4328,
      "seasons": 4329,
      "stephen": 4330,
      "opin": 4331,
      "offensive": 4332,
      "floor": 4333,
      "achieve": 4334,
      "waters": 4335,
      "metro": 4336,
      "explained": 4337,
      "reaching": 4338,
      "husband": 4339,
      "ume": 4340,
      "ancient": 4341,
      "brand": 4342,
      "fiction": 4343,
      "appearances": 4344,
      "offer": 4345,
      "shap": 4346,
      "canal": 4347,
      "italy": 4348,
      "sem": 4349,
      "dete": 4350,
      "older": 4351,
      "foc": 4352,
      "rear": 4353,
      "atom": 4354,
      "yan": 4355,
      "weapons": 4356,
      "growth": 4357,
      "looking": 4358,
      "supply": 4359,
      "americans": 4360,
      "instrument": 4361,
      "astic": 4362,
      "drama": 4363,
      "widely": 4364,
      "gained": 4365,
      "successfully": 4366,
      "proved": 4367,
      "officially": 4368,
      "pieces": 4369,
      "dang": 4370,
      "sher": 4371,
      "shell": 4372,
      "oso": 4373,
      "cine": 4374,
      "steam": 4375,
      "jersey": 4376,
      "baseball": 4377,
      "otto": 4378,
      "duke": 4379,
      "steel": 4380,
      "surrounding": 4381,
      "mann": 4382,
      "workers": 4383,
      "negot": 4384,
      "asia": 4385,
      "shel": 4386,
      "ov": 4387,
      "wy": 4388,
      "brothers": 4389,
      "ulations": 4390,
      "nit": 4391,
      "swit": 4392,
      "horses": 4393,
      "choice": 4394,
      "beyond": 4395,
      "gary": 4396,
      "logical": 4397,
      "mounted": 4398,
      "acu": 4399,
      "watch": 4400,
      "assa": 4401,
      "ireland": 4402,
      "hotel": 4403,
      "express": 4404,
      "jeff": 4405,
      "doing": 4406,
      "organized": 4407,
      "library": 4408,
      "rho": 4409,
      "element": 4410,
      "vania": 4411,
      "manu": 4412,
      "reign": 4413,
      "exc": 4414,
      "ahead": 4415,
      "eas": 4416,
      "says": 4417,
      "headquarters": 4418,
      "affected": 4419,
      "rhy": 4420,
      "normal": 4421,
      "partner": 4422,
      "rob": 4423,
      "gory": 4424,
      "capac": 4425,
      "causing": 4426,
      "laid": 4427,
      "fine": 4428,
      "visited": 4429,
      "speech": 4430,
      "victoria": 4431,
      "expressed": 4432,
      "bowl": 4433,
      "represented": 4434,
      "bodies": 4435,
      "rainfall": 4436,
      "theless": 4437,
      "leaders": 4438,
      "require": 4439,
      "pap": 4440,
      "cance": 4441,
      "vote": 4442,
      "mast": 4443,
      "famous": 4444,
      "techni": 4445,
      "equipment": 4446,
      "escape": 4447,
      "cool": 4448,
      "ito": 4449,
      "article": 4450,
      "matter": 4451,
      "imag": 4452,
      "crimin": 4453,
      "catholic": 4454,
      "apparent": 4455,
      "ku": 4456,
      "split": 4457,
      "von": 4458,
      "broken": 4459,
      "reports": 4460,
      "channel": 4461,
      "tells": 4462,
      "fired": 4463,
      "bush": 4464,
      "moon": 4465,
      "store": 4466,
      "endo": 4467,
      "occasion": 4468,
      "fred": 4469,
      "computer": 4470,
      "fuel": 4471,
      "prominent": 4472,
      "advanced": 4473,
      "nations": 4474,
      "strated": 4475,
      "advant": 4476,
      "analys": 4477,
      "category": 4478,
      "technology": 4479,
      "claims": 4480,
      "worldwide": 4481,
      "assemb": 4482,
      "skill": 4483,
      "defend": 4484,
      "strike": 4485,
      "negative": 4486,
      "manufact": 4487,
      "gri": 4488,
      "zed": 4489,
      "usual": 4490,
      "treatment": 4491,
      "reserve": 4492,
      "experiment": 4493,
      "rome": 4494,
      "leaves": 4495,
      "heavily": 4496,
      "activities": 4497,
      "cip": 4498,
      "kir": 4499,
      "sle": 4500,
      "spread": 4501,
      "dutch": 4502,
      "uled": 4503,
      "trees": 4504,
      "tay": 4505,
      "ert": 4506,
      "powers": 4507,
      "senate": 4508,
      "meanwhile": 4509,
      "condition": 4510,
      "actress": 4511,
      "extra": 4512,
      "unknown": 4513,
      "figures": 4514,
      "snow": 4515,
      "sens": 4516,
      "gment": 4517,
      "sport": 4518,
      "ero": 4519,
      "editor": 4520,
      "believe": 4521,
      "expedition": 4522,
      "historic": 4523,
      "walls": 4524,
      "why": 4525,
      "lb": 4526,
      "hands": 4527,
      "aired": 4528,
      "plement": 4529,
      "motor": 4530,
      "illu": 4531,
      "shore": 4532,
      "injury": 4533,
      "combin": 4534,
      "toward": 4535,
      "homer": 4536,
      "stations": 4537,
      "passes": 4538,
      "graphic": 4539,
      "arre": 4540,
      "ami": 4541,
      "data": 4542,
      "guar": 4543,
      "ckey": 4544,
      "landing": 4545,
      "unlike": 4546,
      "lives": 4547,
      "negoti": 4548,
      "bart": 4549,
      "golden": 4550,
      "symbol": 4551,
      "currently": 4552,
      "casual": 4553,
      "debuted": 4554,
      "typically": 4555,
      "challeng": 4556,
      "consisted": 4557,
      "necessary": 4558,
      "crossing": 4559,
      "sn": 4560,
      "sity": 4561,
      "holding": 4562,
      "attach": 4563,
      "zone": 4564,
      "rise": 4565,
      "uments": 4566,
      "ari": 4567,
      "dream": 4568,
      "argued": 4569,
      "vice": 4570,
      "ledge": 4571,
      "republ": 4572,
      "icts": 4573,
      "expans": 4574,
      "phone": 4575,
      "none": 4576,
      "cricket": 4577,
      "eliza": 4578,
      "opposed": 4579,
      "couple": 4580,
      "frequently": 4581,
      "dated": 4582,
      "heard": 4583,
      "ficient": 4584,
      "composition": 4585,
      "opposition": 4586,
      "brook": 4587,
      "reference": 4588,
      "polish": 4589,
      "formula": 4590,
      "shif": 4591,
      "twice": 4592,
      "aling": 4593,
      "industrial": 4594,
      "finish": 4595,
      "value": 4596,
      "yu": 4597,
      "modif": 4598,
      "dry": 4599,
      "poly": 4600,
      "rect": 4601,
      "description": 4602,
      "hope": 4603,
      "aspect": 4604,
      "animal": 4605,
      "elimin": 4606,
      "branch": 4607,
      "hear": 4608,
      "notable": 4609,
      "arrange": 4610,
      "maintained": 4611,
      "advert": 4612,
      "ounds": 4613,
      "heads": 4614,
      "trying": 4615,
      "supre": 4616,
      "protection": 4617,
      "sphere": 4618,
      "clin": 4619,
      "lying": 4620,
      "jes": 4621,
      "problem": 4622,
      "criticized": 4623,
      "anta": 4624,
      "operated": 4625,
      "wart": 4626,
      "moment": 4627,
      "georg": 4628,
      "growing": 4629,
      "nav": 4630,
      "carolina": 4631,
      "onel": 4632,
      "adapt": 4633,
      "phas": 4634,
      "compar": 4635,
      "glass": 4636,
      "joint": 4637,
      "note": 4638,
      "chosen": 4639,
      "ingu": 4640,
      "holly": 4641,
      "webs": 4642,
      "institute": 4643,
      "scottish": 4644,
      "ota": 4645,
      "pursu": 4646,
      "twelve": 4647,
      "plants": 4648,
      "mount": 4649,
      "producers": 4650,
      "micro": 4651,
      "cked": 4652,
      "bute": 4653,
      "rolling": 4654,
      "wounded": 4655,
      "classic": 4656,
      "comic": 4657,
      "seventh": 4658,
      "austri": 4659,
      "yo": 4660,
      "wheel": 4661,
      "web": 4662,
      "assembly": 4663,
      "kick": 4664,
      "caval": 4665,
      "grew": 4666,
      "philoso": 4667,
      "vari": 4668,
      "newspaper": 4669,
      "lau": 4670,
      "fication": 4671,
      "stood": 4672,
      "youth": 4673,
      "sites": 4674,
      "nuclear": 4675,
      "consecut": 4676,
      "independence": 4677,
      "degree": 4678,
      "lect": 4679,
      "phia": 4680,
      "billion": 4681,
      "fare": 4682,
      "atures": 4683,
      "voted": 4684,
      "awa": 4685,
      "kr": 4686,
      "republican": 4687,
      "rival": 4688,
      "bach": 4689,
      "risk": 4690,
      "serving": 4691,
      "oppos": 4692,
      "vot": 4693,
      "max": 4694,
      "simply": 4695,
      "imen": 4696,
      "alternative": 4697,
      "gers": 4698,
      "joe": 4699,
      "teenth": 4700,
      "bra": 4701,
      "follows": 4702,
      "bru": 4703,
      "weekly": 4704,
      "expansion": 4705,
      "perfect": 4706,
      "contained": 4707,
      "killing": 4708,
      "losing": 4709,
      "deck": 4710,
      "herself": 4711,
      "aware": 4712,
      "fresh": 4713,
      "regarded": 4714,
      "shop": 4715,
      "sia": 4716,
      "roof": 4717,
      "newly": 4718,
      "oppon": 4719,
      "christmas": 4720,
      "individuals": 4721,
      "fields": 4722,
      "honour": 4723,
      "agric": 4724,
      "scar": 4725,
      "div": 4726,
      "mem": 4727,
      "pennsyl": 4728,
      "ares": 4729,
      "integr": 4730,
      "reven": 4731,
      "emphas": 4732,
      "conce": 4733,
      "happen": 4734,
      "mand": 4735,
      "boats": 4736,
      "finding": 4737,
      "pir": 4738,
      "continent": 4739,
      "consecutive": 4740,
      "measure": 4741,
      "wilson": 4742,
      "holds": 4743,
      "throw": 4744,
      "eyes": 4745,
      "homes": 4746,
      "ji": 4747,
      "volume": 4748,
      "mentioned": 4749,
      "bid": 4750,
      "franch": 4751,
      "ranged": 4752,
      "creating": 4753,
      "taylor": 4754,
      "website": 4755,
      "lun": 4756,
      "chose": 4757,
      "cannot": 4758,
      "supporting": 4759,
      "unds": 4760,
      "ulty": 4761,
      "perman": 4762,
      "sections": 4763,
      "circ": 4764,
      "sets": 4765,
      "pier": 4766,
      "seas": 4767,
      "kee": 4768,
      "visual": 4769,
      "alexander": 4770,
      "goes": 4771,
      "mist": 4772,
      "contest": 4773,
      "capacity": 4774,
      "encounter": 4775,
      "push": 4776,
      "analysis": 4777,
      "participated": 4778,
      "themes": 4779,
      "ato": 4780,
      "lady": 4781,
      "initi": 4782,
      "democratic": 4783,
      "spin": 4784,
      "cock": 4785,
      "leadership": 4786,
      "opera": 4787,
      "pine": 4788,
      "paralle": 4789,
      "adopted": 4790,
      "iff": 4791,
      "colonel": 4792,
      "calls": 4793,
      "disease": 4794,
      "boys": 4795,
      "filmed": 4796,
      "mcc": 4797,
      "ros": 4798,
      "zen": 4799,
      "basis": 4800,
      "gain": 4801,
      "bron": 4802,
      "abandoned": 4803,
      "robin": 4804,
      "hang": 4805,
      "hay": 4806,
      "possibly": 4807,
      "genus": 4808,
      "girls": 4809,
      "distingu": 4810,
      "ils": 4811,
      "multi": 4812,
      "pennsylvania": 4813,
      "jay": 4814,
      "purpose": 4815,
      "hart": 4816,
      "mn": 4817,
      "zy": 4818,
      "contact": 4819,
      "freedom": 4820,
      "nan": 4821,
      "failure": 4822,
      "mike": 4823,
      "arc": 4824,
      "gameplay": 4825,
      "kid": 4826,
      "defensive": 4827,
      "seat": 4828,
      "aded": 4829,
      "rush": 4830,
      "judge": 4831,
      "disc": 4832,
      "strip": 4833,
      "ec": 4834,
      "irish": 4835,
      "treaty": 4836,
      "harry": 4837,
      "unique": 4838,
      "adult": 4839,
      "fu": 4840,
      "tric": 4841,
      "rod": 4842,
      "foundation": 4843,
      "palace": 4844,
      "constitution": 4845,
      "straight": 4846,
      "garden": 4847,
      "meters": 4848,
      "deploy": 4849,
      "interchange": 4850,
      "rooms": 4851,
      "juni": 4852,
      "brian": 4853,
      "guide": 4854,
      "iled": 4855,
      "glas": 4856,
      "mate": 4857,
      "principal": 4858,
      "egg": 4859,
      "dram": 4860,
      "sche": 4861,
      "southwest": 4862,
      "merch": 4863,
      "gill": 4864,
      "spain": 4865,
      "ideas": 4866,
      "xon": 4867,
      "aly": 4868,
      "retired": 4869,
      "surrender": 4870,
      "hockey": 4871,
      "improved": 4872,
      "occupied": 4873,
      "struction": 4874,
      "wars": 4875,
      "generation": 4876,
      "witness": 4877,
      "tag": 4878,
      "roles": 4879,
      "hydro": 4880,
      "younger": 4881,
      "suppor": 4882,
      "page": 4883,
      "basket": 4884,
      "agent": 4885,
      "bac": 4886,
      "myth": 4887,
      "kit": 4888,
      "inno": 4889,
      "speak": 4890,
      "budget": 4891,
      "scientific": 4892,
      "chamber": 4893,
      "titles": 4894,
      "wick": 4895,
      "vised": 4896,
      "istan": 4897,
      "repeated": 4898,
      "grounds": 4899,
      "achieved": 4900,
      "economy": 4901,
      "isra": 4902,
      "dollar": 4903,
      "equal": 4904,
      "piano": 4905,
      "elizabeth": 4906,
      "effective": 4907,
      "ctic": 4908,
      "fro": 4909,
      "count": 4910,
      "borough": 4911,
      "academ": 4912,
      "families": 4913,
      "province": 4914,
      "evacu": 4915,
      "trou": 4916,
      "briefly": 4917,
      "anda": 4918,
      "anni": 4919,
      "simple": 4920,
      "print": 4921,
      "eleven": 4922,
      "atmo": 4923,
      "online": 4924,
      "kins": 4925,
      "ini": 4926,
      "granted": 4927,
      "turns": 4928,
      "regional": 4929,
      "techn": 4930,
      "vehicles": 4931,
      "determined": 4932,
      "gather": 4933,
      "experienced": 4934,
      "conve": 4935,
      "firm": 4936,
      "rejected": 4937,
      "braz": 4938,
      "fame": 4939,
      "caught": 4940,
      "agg": 4941,
      "ita": 4942,
      "advantage": 4943,
      "gives": 4944,
      "recently": 4945,
      "fighter": 4946,
      "tered": 4947,
      "collap": 4948,
      "performing": 4949,
      "norm": 4950,
      "controlled": 4951,
      "kilometres": 4952,
      "md": 4953,
      "expanded": 4954,
      "angle": 4955,
      "receive": 4956,
      "secondary": 4957,
      "flooding": 4958,
      "attribut": 4959,
      "clou": 4960,
      "shor": 4961,
      "tact": 4962,
      "letters": 4963,
      "authorities": 4964,
      "ria": 4965,
      "ressive": 4966,
      "adding": 4967,
      "motional": 4968,
      "map": 4969,
      "didn": 4970,
      "burgh": 4971,
      "baby": 4972,
      "anton": 4973,
      "ohio": 4974,
      "cavalry": 4975,
      "flat": 4976,
      "supreme": 4977,
      "eld": 4978,
      "thro": 4979,
      "literature": 4980,
      "commonly": 4981,
      "credited": 4982,
      "acquired": 4983,
      "kh": 4984,
      "assistant": 4985,
      "describes": 4986,
      "fought": 4987,
      "ider": 4988,
      "tall": 4989,
      "cd": 4990,
      "ques": 4991,
      "narr": 4992,
      "safety": 4993,
      "commo": 4994,
      "guy": 4995,
      "regarding": 4996,
      "singing": 4997,
      "odo": 4998,
      "sort": 4999,
      "picture": 5000,
      "iments": 5001,
      "lum": 5002,
      "freeway": 5003,
      "cook": 5004,
      "protected": 5005,
      "accompan": 5006,
      "prefer": 5007,
      "scheduled": 5008,
      "kn": 5009,
      "philadel": 5010,
      "criticism": 5011,
      "lia": 5012,
      "soul": 5013,
      "utions": 5014,
      "suggests": 5015,
      "narrow": 5016,
      "centuries": 5017,
      "planning": 5018,
      "hr": 5019,
      "clark": 5020,
      "alty": 5021,
      "shooting": 5022,
      "cambridge": 5023,
      "tend": 5024,
      "locations": 5025,
      "georgia": 5026,
      "towns": 5027,
      "reading": 5028,
      "crime": 5029,
      "convention": 5030,
      "distribution": 5031,
      "iday": 5032,
      "falls": 5033,
      "connected": 5034,
      "soft": 5035,
      "height": 5036,
      "philadelphia": 5037,
      "math": 5038,
      "asc": 5039,
      "reput": 5040,
      "ults": 5041,
      "contain": 5042,
      "withdraw": 5043,
      "accompanied": 5044,
      "reaction": 5045,
      "code": 5046,
      "enge": 5047,
      "alli": 5048,
      "jen": 5049,
      "haps": 5050,
      "iful": 5051,
      "progress": 5052,
      "gulf": 5053,
      "victim": 5054,
      "lif": 5055,
      "campus": 5056,
      "gency": 5057,
      "decre": 5058,
      "perhaps": 5059,
      "ost": 5060,
      "attle": 5061,
      "escor": 5062,
      "finds": 5063,
      "bands": 5064,
      "existing": 5065,
      "save": 5066,
      "borne": 5067,
      "launch": 5068,
      "cars": 5069,
      "recon": 5070,
      "inde": 5071,
      "russia": 5072,
      "ligh": 5073,
      "nis": 5074,
      "facilities": 5075,
      "rules": 5076,
      "din": 5077,
      "coln": 5078,
      "estate": 5079,
      "laws": 5080,
      "exchange": 5081,
      "price": 5082,
      "trains": 5083,
      "arrival": 5084,
      "wrestling": 5085,
      "quite": 5086,
      "trip": 5087,
      "recru": 5088,
      "containing": 5089,
      "publication": 5090,
      "asser": 5091,
      "ottoman": 5092,
      "liverpool": 5093,
      "ceremony": 5094,
      "cia": 5095,
      "forming": 5096,
      "protect": 5097,
      "touchdown": 5098,
      "approved": 5099,
      "insu": 5100,
      "belong": 5101,
      "nint": 5102,
      "ador": 5103,
      "selection": 5104,
      "remo": 5105,
      "inth": 5106,
      "nintendo": 5107,
      "moral": 5108,
      "scholar": 5109,
      "herit": 5110,
      "evening": 5111,
      "cruiser": 5112,
      "entry": 5113,
      "ene": 5114,
      "fash": 5115,
      "lev": 5116,
      "exer": 5117,
      "poe": 5118,
      "headed": 5119,
      "agan": 5120,
      "product": 5121,
      "entirely": 5122,
      "structures": 5123,
      "columbia": 5124,
      "andrew": 5125,
      "rout": 5126,
      "target": 5127,
      "hits": 5128,
      "miller": 5129,
      "dedicated": 5130,
      "grey": 5131,
      "las": 5132,
      "contributed": 5133,
      "rian": 5134,
      "purchased": 5135,
      "korean": 5136,
      "singap": 5137,
      "resistance": 5138,
      "legacy": 5139,
      "wic": 5140,
      "publish": 5141,
      "mol": 5142,
      "allows": 5143,
      "provides": 5144,
      "slav": 5145,
      "ders": 5146,
      "jr": 5147,
      "sessions": 5148,
      "jean": 5149,
      "geo": 5150,
      "windows": 5151,
      "pel": 5152,
      "gone": 5153,
      "filled": 5154,
      "whit": 5155,
      "casualties": 5156,
      "prop": 5157,
      "employed": 5158,
      "brazil": 5159,
      "resem": 5160,
      "prepared": 5161,
      "carey": 5162,
      "battery": 5163,
      "missing": 5164,
      "bath": 5165,
      "engaged": 5166,
      "jewish": 5167,
      "junction": 5168,
      "poll": 5169,
      "intensity": 5170,
      "satis": 5171,
      "happy": 5172,
      "faith": 5173,
      "singapore": 5174,
      "gol": 5175,
      "francisco": 5176,
      "turning": 5177,
      "viewed": 5178,
      "melo": 5179,
      "lincoln": 5180,
      "eighth": 5181,
      "det": 5182,
      "regions": 5183,
      "iding": 5184,
      "aer": 5185,
      "oak": 5186,
      "rance": 5187,
      "correspon": 5188,
      "iring": 5189,
      "minist": 5190,
      "gene": 5191,
      "wright": 5192,
      "gay": 5193,
      "wan": 5194,
      "rence": 5195,
      "promotion": 5196,
      "preced": 5197,
      "twin": 5198,
      "apped": 5199,
      "rounded": 5200,
      "placing": 5201,
      "tip": 5202,
      "resour": 5203,
      "basketball": 5204,
      "coastal": 5205,
      "introduction": 5206,
      "defined": 5207,
      "playstation": 5208,
      "pitch": 5209,
      "ables": 5210,
      "desc": 5211,
      "charged": 5212,
      "ody": 5213,
      "bourne": 5214,
      "hms": 5215,
      "receiving": 5216,
      "focused": 5217,
      "satur": 5218,
      "walter": 5219,
      "closely": 5220,
      "lav": 5221,
      "isol": 5222,
      "corner": 5223,
      "disney": 5224,
      "views": 5225,
      "anderson": 5226,
      "dale": 5227,
      "proto": 5228,
      "opportunity": 5229,
      "cha": 5230,
      "plane": 5231,
      "cens": 5232,
      "belief": 5233,
      "lewis": 5234,
      "display": 5235,
      "evil": 5236,
      "steve": 5237,
      "hell": 5238,
      "consists": 5239,
      "sequel": 5240,
      "roughly": 5241,
      "raf": 5242,
      "ivity": 5243,
      "gang": 5244,
      "fashion": 5245,
      "railroad": 5246,
      "premier": 5247,
      "cles": 5248,
      "byz": 5249,
      "decor": 5250,
      "losses": 5251,
      "getting": 5252,
      "patro": 5253,
      "daniel": 5254,
      "mobile": 5255,
      "fix": 5256,
      "neighbor": 5257,
      "olympic": 5258,
      "formal": 5259,
      "anything": 5260,
      "rig": 5261,
      "eds": 5262,
      "inspir": 5263,
      "cies": 5264,
      "cris": 5265,
      "semi": 5266,
      "abs": 5267,
      "ola": 5268,
      "relations": 5269,
      "consul": 5270,
      "label": 5271,
      "intensi": 5272,
      "intelligence": 5273,
      "provin": 5274,
      "link": 5275,
      "hired": 5276,
      "rising": 5277,
      "byzant": 5278,
      "religion": 5279,
      "trust": 5280,
      "ura": 5281,
      "garian": 5282,
      "retire": 5283,
      "vel": 5284,
      "marks": 5285,
      "franchise": 5286,
      "lers": 5287,
      "recognized": 5288,
      "providing": 5289,
      "iny": 5290,
      "ounder": 5291,
      "politics": 5292,
      "cler": 5293,
      "task": 5294,
      "rand": 5295,
      "nhl": 5296,
      "apol": 5297,
      "bottom": 5298,
      "pton": 5299,
      "azz": 5300,
      "appeal": 5301,
      "developing": 5302,
      "ye": 5303,
      "chemical": 5304,
      "investigation": 5305,
      "relief": 5306,
      "shared": 5307,
      "appre": 5308,
      "ifying": 5309,
      "shape": 5310,
      "responsib": 5311,
      "armour": 5312,
      "credits": 5313,
      "fron": 5314,
      "alan": 5315,
      "earl": 5316,
      "rapidly": 5317,
      "walk": 5318,
      "phase": 5319,
      "malay": 5320,
      "resc": 5321,
      "germans": 5322,
      "professor": 5323,
      "temperature": 5324,
      "hollywood": 5325,
      "everything": 5326,
      "junior": 5327,
      "nast": 5328,
      "myster": 5329,
      "involve": 5330,
      "kentuck": 5331,
      "mam": 5332,
      "davis": 5333,
      "settlement": 5334,
      "naz": 5335,
      "iger": 5336,
      "ols": 5337,
      "bright": 5338,
      "bou": 5339,
      "journey": 5340,
      "rane": 5341,
      "cited": 5342,
      "covering": 5343,
      "plate": 5344,
      "achu": 5345,
      "popularity": 5346,
      "operating": 5347,
      "knew": 5348,
      "rub": 5349,
      "heim": 5350,
      "breeding": 5351,
      "bun": 5352,
      "shaped": 5353,
      "opinion": 5354,
      "portray": 5355,
      "domestic": 5356,
      "kim": 5357,
      "significantly": 5358,
      "beyonce": 5359,
      "ctors": 5360,
      "global": 5361,
      "knowledge": 5362,
      "intersection": 5363,
      "mountains": 5364,
      "izes": 5365,
      "mayor": 5366,
      "projects": 5367,
      "injured": 5368,
      "literary": 5369,
      "evolution": 5370,
      "limit": 5371,
      "clean": 5372,
      "reasons": 5373,
      "stages": 5374,
      "confeder": 5375,
      "heat": 5376,
      "assault": 5377,
      "unte": 5378,
      "escap": 5379,
      "synthe": 5380,
      "fear": 5381,
      "aste": 5382,
      "sounds": 5383,
      "challenge": 5384,
      "treated": 5385,
      "skin": 5386,
      "playoff": 5387,
      "substant": 5388,
      "missions": 5389,
      "dian": 5390,
      "dates": 5391,
      "ilton": 5392,
      "archae": 5393,
      "platform": 5394,
      "uss": 5395,
      "volcan": 5396,
      "rical": 5397,
      "photograph": 5398,
      "peninsu": 5399,
      "humans": 5400,
      "ario": 5401,
      "acres": 5402,
      "muslim": 5403,
      "divisions": 5404,
      "storyline": 5405,
      "mud": 5406,
      "aces": 5407,
      "distinct": 5408,
      "poem": 5409,
      "accur": 5410,
      "existence": 5411,
      "violence": 5412,
      "statement": 5413,
      "breaking": 5414,
      "adam": 5415,
      "arsen": 5416,
      "labour": 5417,
      "renamed": 5418,
      "watched": 5419,
      "cells": 5420,
      "illa": 5421,
      "internal": 5422,
      "chairman": 5423,
      "reputation": 5424,
      "eag": 5425,
      "orient": 5426,
      "rupt": 5427,
      "thirty": 5428,
      "collected": 5429,
      "stable": 5430,
      "stret": 5431,
      "bear": 5432,
      "grapher": 5433,
      "exact": 5434,
      "nevertheless": 5435,
      "hills": 5436,
      "allies": 5437,
      "proceed": 5438,
      "genre": 5439,
      "syd": 5440,
      "genet": 5441,
      "volunte": 5442,
      "expect": 5443,
      "wings": 5444,
      "females": 5445,
      "invent": 5446,
      "combination": 5447,
      "raw": 5448,
      "models": 5449,
      "nik": 5450,
      "cot": 5451,
      "kentucky": 5452,
      "swim": 5453,
      "outer": 5454,
      "sab": 5455,
      "increasingly": 5456,
      "itude": 5457,
      "kat": 5458,
      "donald": 5459,
      "capable": 5460,
      "blues": 5461,
      "astron": 5462,
      "declined": 5463,
      "corn": 5464,
      "symp": 5465,
      "neither": 5466,
      "rh": 5467,
      "roc": 5468,
      "typical": 5469,
      "abilities": 5470,
      "ires": 5471,
      "converted": 5472,
      "details": 5473,
      "buried": 5474,
      "gent": 5475,
      "diam": 5476,
      "camera": 5477,
      "neut": 5478,
      "depth": 5479,
      "aka": 5480,
      "enjoyed": 5481,
      "itled": 5482,
      "tests": 5483,
      "grave": 5484,
      "producing": 5485,
      "applied": 5486,
      "learned": 5487,
      "dean": 5488,
      "norway": 5489,
      "controversy": 5490,
      "chen": 5491,
      "poet": 5492,
      "sustained": 5493,
      "virt": 5494,
      "setts": 5495,
      "nur": 5496,
      "antly": 5497,
      "massachu": 5498,
      "olympics": 5499,
      "ette": 5500,
      "championships": 5501,
      "foss": 5502,
      "gray": 5503,
      "ride": 5504,
      "ads": 5505,
      "massachusetts": 5506,
      "advoc": 5507,
      "embar": 5508,
      "err": 5509,
      "torn": 5510,
      "mole": 5511,
      "warm": 5512,
      "entrance": 5513,
      "triple": 5514,
      "approached": 5515,
      "eco": 5516,
      "survey": 5517,
      "decade": 5518,
      "graded": 5519,
      "easily": 5520,
      "inum": 5521,
      "carrying": 5522,
      "brain": 5523,
      "chapel": 5524,
      "technical": 5525,
      "iles": 5526,
      "designs": 5527,
      "responded": 5528,
      "extension": 5529,
      "jon": 5530,
      "bling": 5531,
      "download": 5532,
      "credit": 5533,
      "duty": 5534,
      "nut": 5535,
      "discovery": 5536,
      "sects": 5537,
      "beautiful": 5538,
      "iro": 5539,
      "pear": 5540,
      "programs": 5541,
      "nate": 5542,
      "sud": 5543,
      "gradually": 5544,
      "secure": 5545,
      "typho": 5546,
      "banks": 5547,
      "succeeded": 5548,
      "bn": 5549,
      "specifically": 5550,
      "simpsons": 5551,
      "crowd": 5552,
      "arranged": 5553,
      "classical": 5554,
      "showing": 5555,
      "prize": 5556,
      "winner": 5557,
      "maria": 5558,
      "infe": 5559,
      "frag": 5560,
      "tren": 5561,
      "items": 5562,
      "prisoners": 5563,
      "munic": 5564,
      "finals": 5565,
      "assess": 5566,
      "ule": 5567,
      "bian": 5568,
      "udes": 5569,
      "seems": 5570,
      "vietnam": 5571,
      "similarly": 5572,
      "exclus": 5573,
      "matt": 5574,
      "indicated": 5575,
      "parties": 5576,
      "versary": 5577,
      "ignment": 5578,
      "additionally": 5579,
      "dub": 5580,
      "products": 5581,
      "stro": 5582,
      "constitut": 5583,
      "lasted": 5584,
      "earliest": 5585,
      "dal": 5586,
      "weakened": 5587,
      "threatened": 5588,
      "presidential": 5589,
      "ruled": 5590,
      "terior": 5591,
      "employe": 5592,
      "routes": 5593,
      "warning": 5594,
      "municipal": 5595,
      "rural": 5596,
      "mtv": 5597,
      "animated": 5598,
      "candidate": 5599,
      "kur": 5600,
      "talk": 5601,
      "cruisers": 5602,
      "sters": 5603,
      "fruit": 5604,
      "engineer": 5605,
      "legend": 5606,
      "cise": 5607,
      "copy": 5608,
      "retained": 5609,
      "circu": 5610,
      "sydney": 5611,
      "basic": 5612,
      "compo": 5613,
      "reform": 5614,
      "vul": 5615,
      "writes": 5616,
      "poland": 5617,
      "giant": 5618,
      "moore": 5619,
      "clar": 5620,
      "alogue": 5621,
      "nich": 5622,
      "maryland": 5623,
      "hugh": 5624,
      "styles": 5625,
      "peninsula": 5626,
      "cooper": 5627,
      "omy": 5628,
      "superi": 5629,
      "gross": 5630,
      "presents": 5631,
      "usa": 5632,
      "restr": 5633,
      "remix": 5634,
      "explor": 5635,
      "pup": 5636,
      "climate": 5637,
      "champions": 5638,
      "ani": 5639,
      "valu": 5640,
      "interior": 5641,
      "agency": 5642,
      "supplies": 5643,
      "adapted": 5644,
      "shado": 5645,
      "afterwards": 5646,
      "speaking": 5647,
      "mers": 5648,
      "icon": 5649,
      "issance": 5650,
      "seeing": 5651,
      "delivered": 5652,
      "wre": 5653,
      "engines": 5654,
      "diplo": 5655,
      "acid": 5656,
      "tony": 5657,
      "consequ": 5658,
      "message": 5659,
      "downtown": 5660,
      "magic": 5661,
      "interested": 5662,
      "cycle": 5663,
      "pleas": 5664,
      "rhodes": 5665,
      "engineering": 5666,
      "stopped": 5667,
      "yl": 5668,
      "storms": 5669,
      "gordon": 5670,
      "permanent": 5671,
      "hanna": 5672,
      "entitled": 5673,
      "dynast": 5674,
      "equival": 5675,
      "architecture": 5676,
      "siege": 5677,
      "convin": 5678,
      "supporters": 5679,
      "alien": 5680,
      "infl": 5681,
      "landfall": 5682,
      "drug": 5683,
      "surviv": 5684,
      "affairs": 5685,
      "citizens": 5686,
      "icks": 5687,
      "extremely": 5688,
      "settled": 5689,
      "affect": 5690,
      "spar": 5691,
      "causes": 5692,
      "bt": 5693,
      "jur": 5694,
      "wides": 5695,
      "bure": 5696,
      "asian": 5697,
      "importance": 5698,
      "images": 5699,
      "kon": 5700,
      "expen": 5701,
      "proposal": 5702,
      "deaths": 5703,
      "ries": 5704,
      "mulder": 5705,
      "restaur": 5706,
      "returns": 5707,
      "enem": 5708,
      "pus": 5709,
      "trig": 5710,
      "dd": 5711,
      "simon": 5712,
      "ratings": 5713,
      "composer": 5714,
      "seek": 5715,
      "wich": 5716,
      "holy": 5717,
      "deleg": 5718,
      "asks": 5719,
      "correct": 5720,
      "implement": 5721,
      "hull": 5722,
      "knots": 5723,
      "classification": 5724,
      "wonder": 5725,
      "streets": 5726,
      "aki": 5727,
      "ales": 5728,
      "albert": 5729,
      "appropri": 5730,
      "bringing": 5731,
      "patri": 5732,
      "pig": 5733,
      "angel": 5734,
      "retain": 5735,
      "entering": 5736,
      "kong": 5737,
      "adams": 5738,
      "survived": 5739,
      "controversi": 5740,
      "aftermath": 5741,
      "studied": 5742,
      "compon": 5743,
      "colonial": 5744,
      "describing": 5745,
      "competit": 5746,
      "fing": 5747,
      "offers": 5748,
      "references": 5749,
      "ento": 5750,
      "acre": 5751,
      "inet": 5752,
      "concerns": 5753,
      "connection": 5754,
      "bought": 5755,
      "mous": 5756,
      "mere": 5757,
      "incorporated": 5758,
      "eat": 5759,
      "medie": 5760,
      "saurus": 5761,
      "fict": 5762,
      "someone": 5763,
      "umes": 5764,
      "environmental": 5765,
      "remember": 5766,
      "shield": 5767,
      "strateg": 5768,
      "og": 5769,
      "catch": 5770,
      "rab": 5771,
      "isms": 5772,
      "sale": 5773,
      "medic": 5774,
      "lights": 5775,
      "portrayed": 5776,
      "decline": 5777,
      "arrested": 5778,
      "biography": 5779,
      "argent": 5780,
      "miss": 5781,
      "universe": 5782,
      "shots": 5783,
      "concerned": 5784,
      "tanks": 5785,
      "installed": 5786,
      "alliance": 5787,
      "bang": 5788,
      "purchase": 5789,
      "coin": 5790,
      "guil": 5791,
      "reduce": 5792,
      "izations": 5793,
      "funds": 5794,
      "entially": 5795,
      "lla": 5796,
      "tes": 5797,
      "hunting": 5798,
      "recalled": 5799,
      "omin": 5800,
      "nomination": 5801,
      "corporation": 5802,
      "agen": 5803,
      "carl": 5804,
      "feeling": 5805,
      "visible": 5806,
      "actual": 5807,
      "medieval": 5808,
      "universal": 5809,
      "liberal": 5810,
      "ansas": 5811,
      "jane": 5812,
      "academic": 5813,
      "spons": 5814,
      "objects": 5815,
      "cking": 5816,
      "starts": 5817,
      "leaf": 5818,
      "lets": 5819,
      "typhoon": 5820,
      "tz": 5821,
      "classified": 5822,
      "invited": 5823,
      "driving": 5824,
      "recognition": 5825,
      "chapter": 5826,
      "sufficient": 5827,
      "brist": 5828,
      "identity": 5829,
      "oto": 5830,
      "thousands": 5831,
      "pure": 5832,
      "circum": 5833,
      "crossed": 5834,
      "carbon": 5835,
      "harmon": 5836,
      "establishment": 5837,
      "conservative": 5838,
      "eral": 5839,
      "noting": 5840,
      "fici": 5841,
      "nee": 5842,
      "anniversary": 5843,
      "equipped": 5844,
      "ulate": 5845,
      "flash": 5846,
      "passage": 5847,
      "admitted": 5848,
      "veter": 5849,
      "princess": 5850,
      "consisting": 5851,
      "debate": 5852,
      "recommended": 5853,
      "decades": 5854,
      "appointment": 5855,
      "iser": 5856,
      "historians": 5857,
      "programme": 5858,
      "ala": 5859,
      "arsenal": 5860,
      "frame": 5861,
      "margin": 5862,
      "truth": 5863,
      "aria": 5864,
      "considerable": 5865,
      "thunder": 5866,
      "colony": 5867,
      "circle": 5868,
      "enemies": 5869,
      "hamilton": 5870,
      "aints": 5871,
      "claiming": 5872,
      "charges": 5873,
      "posted": 5874,
      "duties": 5875,
      "continuing": 5876,
      "manner": 5877,
      "remainder": 5878,
      "navig": 5879,
      "ung": 5880,
      "ranean": 5881,
      "pread": 5882,
      "lion": 5883,
      "ington": 5884,
      "classes": 5885,
      "communist": 5886,
      "gif": 5887,
      "rhyth": 5888,
      "audio": 5889,
      "behavior": 5890,
      "kenned": 5891,
      "widespread": 5892,
      "utc": 5893,
      "indon": 5894,
      "promote": 5895,
      "distr": 5896,
      "pictures": 5897,
      "animation": 5898,
      "willing": 5899,
      "crete": 5900,
      "ias": 5901,
      "flank": 5902,
      "indones": 5903,
      "electronic": 5904,
      "compr": 5905,
      "occasionally": 5906,
      "departure": 5907,
      "slowly": 5908,
      "looked": 5909,
      "nba": 5910,
      "populations": 5911,
      "massive": 5912,
      "aspects": 5913,
      "noon": 5914,
      "nether": 5915,
      "interpret": 5916,
      "psych": 5917,
      "oral": 5918,
      "attached": 5919,
      "iana": 5920,
      "knight": 5921,
      "nell": 5922,
      "romantic": 5923,
      "transition": 5924,
      "races": 5925,
      "mono": 5926,
      "athen": 5927,
      "diag": 5928,
      "orchestra": 5929,
      "owners": 5930,
      "resources": 5931,
      "cleve": 5932,
      "kennedy": 5933,
      "ware": 5934,
      "juli": 5935,
      "emergency": 5936,
      "parallel": 5937,
      "wearing": 5938,
      "jordan": 5939,
      "punk": 5940,
      "hypo": 5941,
      "continental": 5942,
      "grav": 5943,
      "haz": 5944,
      "vac": 5945,
      "destruction": 5946,
      "monument": 5947,
      "factory": 5948,
      "graphics": 5949,
      "assistance": 5950,
      "shut": 5951,
      "norman": 5952,
      "sunday": 5953,
      "howard": 5954,
      "senator": 5955,
      "ilation": 5956,
      "indiana": 5957,
      "clubs": 5958,
      "transportation": 5959,
      "liked": 5960,
      "certified": 5961,
      "occurs": 5962,
      "parish": 5963,
      "belt": 5964,
      "treas": 5965,
      "buff": 5966,
      "freder": 5967,
      "bern": 5968,
      "superior": 5969,
      "tie": 5970,
      "theater": 5971,
      "tested": 5972,
      "hut": 5973,
      "norwe": 5974,
      "address": 5975,
      "scully": 5976,
      "income": 5977,
      "lists": 5978,
      "memory": 5979,
      "vessels": 5980,
      "apping": 5981,
      "adventure": 5982,
      "fighters": 5983,
      "shark": 5984,
      "regon": 5985,
      "aked": 5986,
      "demol": 5987,
      "chorus": 5988,
      "passengers": 5989,
      "acknow": 5990,
      "hitler": 5991,
      "properties": 5992,
      "patrick": 5993,
      "conservation": 5994,
      "grass": 5995,
      "ryan": 5996,
      "amend": 5997,
      "quant": 5998,
      "icate": 5999,
      "vit": 6000,
      "ili": 6001,
      "transl": 6002,
      "intention": 6003,
      "involving": 6004,
      "equivalent": 6005,
      "portu": 6006,
      "terminus": 6007,
      "conduct": 6008,
      "weigh": 6009,
      "priest": 6010,
      "alco": 6011,
      "pope": 6012,
      "possess": 6013,
      "mathem": 6014,
      "wers": 6015,
      "heritage": 6016,
      "sculpt": 6017,
      "wwe": 6018,
      "rober": 6019,
      "oldest": 6020,
      "enix": 6021,
      "fled": 6022,
      "distur": 6023,
      "cope": 6024,
      "oregon": 6025,
      "ression": 6026,
      "possibility": 6027,
      "opt": 6028,
      "prede": 6029,
      "committed": 6030,
      "obtained": 6031,
      "regularly": 6032,
      "finishing": 6033,
      "rescue": 6034,
      "bean": 6035,
      "stands": 6036,
      "accused": 6037,
      "agonist": 6038,
      "prey": 6039,
      "allen": 6040,
      "illino": 6041,
      "mexican": 6042,
      "leton": 6043,
      "derived": 6044,
      "ninth": 6045,
      "consc": 6046,
      "dynasty": 6047,
      "favorite": 6048,
      "roger": 6049,
      "cathe": 6050,
      "reviewers": 6051,
      "cleveland": 6052,
      "porter": 6053,
      "hend": 6054,
      "segment": 6055,
      "douglas": 6056,
      "sleep": 6057,
      "agues": 6058,
      "inal": 6059,
      "worst": 6060,
      "replacement": 6061,
      "amaz": 6062,
      "illinois": 6063,
      "conscious": 6064,
      "crisis": 6065,
      "dick": 6066,
      "panel": 6067,
      "moves": 6068,
      "deput": 6069,
      "turk": 6070,
      "otic": 6071,
      "joining": 6072,
      "mediter": 6073,
      "iver": 6074,
      "hosted": 6075,
      "generated": 6076,
      "vehicle": 6077,
      "supposed": 6078,
      "lith": 6079,
      "assumed": 6080,
      "marke": 6081,
      "aboard": 6082,
      "sic": 6083,
      "aret": 6084,
      "stanley": 6085,
      "pink": 6086,
      "ller": 6087,
      "shear": 6088,
      "denied": 6089,
      "shir": 6090,
      "circulation": 6091,
      "appearing": 6092,
      "mates": 6093,
      "akers": 6094,
      "throne": 6095,
      "una": 6096,
      "factor": 6097,
      "tunnel": 6098,
      "pled": 6099,
      "diff": 6100,
      "representatives": 6101,
      "hone": 6102,
      "jum": 6103,
      "unusual": 6104,
      "iar": 6105,
      "reality": 6106,
      "premiere": 6107,
      "completion": 6108,
      "commanded": 6109,
      "bruce": 6110,
      "infr": 6111,
      "kevin": 6112,
      "fictional": 6113,
      "ez": 6114,
      "beatles": 6115,
      "mediterranean": 6116,
      "attor": 6117,
      "solar": 6118,
      "circuit": 6119,
      "auth": 6120,
      "outstanding": 6121,
      "strongly": 6122,
      "dating": 6123,
      "tied": 6124,
      "keeping": 6125,
      "costs": 6126,
      "responsibility": 6127,
      "isbn": 6128,
      "morgan": 6129,
      "norwegian": 6130,
      "pc": 6131,
      "bridges": 6132,
      "bristol": 6133,
      "ante": 6134,
      "begun": 6135,
      "materials": 6136,
      "wickets": 6137,
      "characteristics": 6138,
      "deem": 6139,
      "alleged": 6140,
      "vary": 6141,
      "exception": 6142,
      "persu": 6143,
      "salt": 6144,
      "cathedr": 6145,
      "monarch": 6146,
      "uan": 6147,
      "apt": 6148,
      "dragon": 6149,
      "painted": 6150,
      "hann": 6151,
      "praise": 6152,
      "methods": 6153,
      "surpr": 6154,
      "driven": 6155,
      "surviving": 6156,
      "scout": 6157,
      "arn": 6158,
      "sailed": 6159,
      "ione": 6160,
      "gus": 6161,
      "shaw": 6162,
      "racing": 6163,
      "eric": 6164,
      "prot": 6165,
      "swi": 6166,
      "cancer": 6167,
      "fried": 6168,
      "passenger": 6169,
      "representative": 6170,
      "telling": 6171,
      "ibility": 6172,
      "everyone": 6173,
      "nett": 6174,
      "opposite": 6175,
      "column": 6176,
      "carrier": 6177,
      "chain": 6178,
      "funding": 6179,
      "emerged": 6180,
      "habitat": 6181,
      "scheme": 6182,
      "erup": 6183,
      "differences": 6184,
      "atmosphere": 6185,
      "lisa": 6186,
      "mail": 6187,
      "pole": 6188,
      "abol": 6189,
      "onia": 6190,
      "cott": 6191,
      "aux": 6192,
      "pes": 6193,
      "analy": 6194,
      "thereafter": 6195,
      "inn": 6196,
      "criminal": 6197,
      "dynam": 6198,
      "attributed": 6199,
      "buy": 6200,
      "uct": 6201,
      "orange": 6202,
      "otherwise": 6203,
      "desire": 6204,
      "bombard": 6205,
      "coordin": 6206,
      "recovered": 6207,
      "weapon": 6208,
      "carto": 6209,
      "platinum": 6210,
      "somer": 6211,
      "korea": 6212,
      "hes": 6213,
      "plus": 6214,
      "cash": 6215,
      "adults": 6216,
      "poses": 6217,
      "dict": 6218,
      "legislat": 6219,
      "strategy": 6220,
      "stayed": 6221,
      "warri": 6222,
      "wrong": 6223,
      "casting": 6224,
      "lsen": 6225,
      "atro": 6226,
      "retirement": 6227,
      "morris": 6228,
      "politic": 6229,
      "reinforce": 6230,
      "effectively": 6231,
      "serves": 6232,
      "communities": 6233,
      "migr": 6234,
      "pav": 6235,
      "outbreak": 6236,
      "murray": 6237,
      "kan": 6238,
      "ministry": 6239,
      "fitted": 6240,
      "ultural": 6241,
      "facing": 6242,
      "bone": 6243,
      "homo": 6244,
      "ole": 6245,
      "thy": 6246,
      "fee": 6247,
      "musicians": 6248,
      "marines": 6249,
      "rier": 6250,
      "rug": 6251,
      "shed": 6252,
      "falling": 6253,
      "inity": 6254,
      "insur": 6255,
      "documentary": 6256,
      "accommo": 6257,
      "arrest": 6258,
      "ras": 6259,
      "crosses": 6260,
      "pattern": 6261,
      "nelson": 6262,
      "elections": 6263,
      "accounts": 6264,
      "robinson": 6265,
      "distinguished": 6266,
      "pse": 6267,
      "aine": 6268,
      "demonstr": 6269,
      "hil": 6270,
      "aug": 6271,
      "underground": 6272,
      "attracted": 6273,
      "neck": 6274,
      "batting": 6275,
      "shu": 6276,
      "inspiration": 6277,
      "aqu": 6278,
      "trials": 6279,
      "itz": 6280,
      "submarine": 6281,
      "convinced": 6282,
      "dissip": 6283,
      "parks": 6284,
      "wins": 6285,
      "strengthe": 6286,
      "movements": 6287,
      "votes": 6288,
      "pm": 6289,
      "solution": 6290,
      "injuries": 6291,
      "elder": 6292,
      "elev": 6293,
      "raise": 6294,
      "needs": 6295,
      "sees": 6296,
      "hin": 6297,
      "ients": 6298,
      "matthe": 6299,
      "separated": 6300,
      "shi": 6301,
      "sweden": 6302,
      "ceme": 6303,
      "ented": 6304,
      "bels": 6305,
      "garrison": 6306,
      "ensure": 6307,
      "sudden": 6308,
      "abled": 6309,
      "israel": 6310,
      "welsh": 6311,
      "renew": 6312,
      "battleships": 6313,
      "boil": 6314,
      "predecess": 6315,
      "wine": 6316,
      "radar": 6317,
      "commemor": 6318,
      "symph": 6319,
      "restored": 6320,
      "wear": 6321,
      "sover": 6322,
      "toronto": 6323,
      "assem": 6324,
      "faces": 6325,
      "atell": 6326,
      "quo": 6327,
      "difficulty": 6328,
      "intense": 6329,
      "compos": 6330,
      "ulture": 6331,
      "delayed": 6332,
      "tub": 6333,
      "facility": 6334,
      "authors": 6335,
      "standards": 6336,
      "seemed": 6337,
      "surrounded": 6338,
      "remn": 6339,
      "amy": 6340,
      "genes": 6341,
      "byzantine": 6342,
      "tomb": 6343,
      "rivers": 6344,
      "aza": 6345,
      "requested": 6346,
      "hoped": 6347,
      "depict": 6348,
      "measures": 6349,
      "tone": 6350,
      "childhood": 6351,
      "enses": 6352,
      "penalty": 6353,
      "impressed": 6354,
      "bag": 6355,
      "kal": 6356,
      "productions": 6357,
      "elsewhere": 6358,
      "netherlands": 6359,
      "bab": 6360,
      "deli": 6361,
      "apers": 6362,
      "absor": 6363,
      "internet": 6364,
      "reviewer": 6365,
      "puer": 6366,
      "temperatures": 6367,
      "mete": 6368,
      "loco": 6369,
      "consum": 6370,
      "dock": 6371,
      "send": 6372,
      "meets": 6373,
      "courts": 6374,
      "greatly": 6375,
      "moderate": 6376,
      "bie": 6377,
      "hans": 6378,
      "concern": 6379,
      "thel": 6380,
      "publishing": 6381,
      "rever": 6382,
      "convection": 6383,
      "iraq": 6384,
      "cathedral": 6385,
      "dangerous": 6386,
      "obtain": 6387,
      "examples": 6388,
      "satell": 6389,
      "jews": 6390,
      "bears": 6391,
      "rent": 6392,
      "queens": 6393,
      "involvement": 6394,
      "leads": 6395,
      "cement": 6396,
      "creative": 6397,
      "legs": 6398,
      "spoke": 6399,
      "gon": 6400,
      "bee": 6401,
      "ott": 6402,
      "adaptation": 6403,
      "easy": 6404,
      "agas": 6405,
      "hundreds": 6406,
      "recordings": 6407,
      "kelly": 6408,
      "dimen": 6409,
      "sts": 6410,
      "anger": 6411,
      "immediate": 6412,
      "liqu": 6413,
      "jazz": 6414,
      "scholars": 6415,
      "ifications": 6416,
      "eggs": 6417,
      "pak": 6418,
      "trained": 6419,
      "learn": 6420,
      "sweet": 6421,
      "fab": 6422,
      "gra": 6423,
      "russell": 6424,
      "formally": 6425,
      "pregn": 6426,
      "thomp": 6427,
      "anyone": 6428,
      "techniques": 6429,
      "beck": 6430,
      "comfort": 6431,
      "wooden": 6432,
      "uran": 6433,
      "journalist": 6434,
      "excell": 6435,
      "assass": 6436,
      "learning": 6437,
      "bris": 6438,
      "bast": 6439,
      "ayer": 6440,
      "encouraged": 6441,
      "bureau": 6442,
      "acks": 6443,
      "graduate": 6444,
      "lose": 6445,
      "firing": 6446,
      "accompl": 6447,
      "istry": 6448,
      "somewhat": 6449,
      "pale": 6450,
      "blu": 6451,
      "armen": 6452,
      "uge": 6453,
      "suffering": 6454,
      "wet": 6455,
      "hud": 6456,
      "premiered": 6457,
      "legislation": 6458,
      "prohib": 6459,
      "thompson": 6460,
      "determ": 6461,
      "dismissed": 6462,
      "determine": 6463,
      "promise": 6464,
      "modified": 6465,
      "croatian": 6466,
      "pilo": 6467,
      "powered": 6468,
      "trophy": 6469,
      "interests": 6470,
      "grace": 6471,
      "hatt": 6472,
      "convoy": 6473,
      "mature": 6474,
      "horror": 6475,
      "profit": 6476,
      "carter": 6477,
      "clay": 6478,
      "whereas": 6479,
      "steven": 6480,
      "forcing": 6481,
      "tran": 6482,
      "orb": 6483,
      "dna": 6484,
      "attempting": 6485,
      "alcohol": 6486,
      "inqu": 6487,
      "diet": 6488,
      "difference": 6489,
      "hub": 6490,
      "islam": 6491,
      "fles": 6492,
      "dish": 6493,
      "attacking": 6494,
      "rice": 6495,
      "ille": 6496,
      "puerto": 6497,
      "nfl": 6498,
      "changing": 6499,
      "veget": 6500,
      "poetry": 6501,
      "controversial": 6502,
      "calcul": 6503,
      "nbc": 6504,
      "pha": 6505,
      "liz": 6506,
      "questions": 6507,
      "sized": 6508,
      "harbor": 6509,
      "hid": 6510,
      "berlin": 6511,
      "township": 6512,
      "starred": 6513,
      "formerly": 6514,
      "huge": 6515,
      "spears": 6516,
      "cad": 6517,
      "biggest": 6518,
      "register": 6519,
      "mars": 6520,
      "closer": 6521,
      "astro": 6522,
      "eved": 6523,
      "conclusion": 6524,
      "guardian": 6525,
      "absence": 6526,
      "phr": 6527,
      "politan": 6528,
      "stones": 6529,
      "influences": 6530,
      "commonwealth": 6531,
      "monitor": 6532,
      "intent": 6533,
      "batman": 6534,
      "harris": 6535,
      "hungarian": 6536,
      "bats": 6537,
      "deemed": 6538,
      "wedding": 6539,
      "narrative": 6540,
      "rets": 6541,
      "diagno": 6542,
      "orial": 6543,
      "toll": 6544,
      "instruments": 6545,
      "informed": 6546,
      "brick": 6547,
      "parker": 6548,
      "detach": 6549,
      "lod": 6550,
      "apparently": 6551,
      "extin": 6552,
      "nels": 6553,
      "novels": 6554,
      "dee": 6555,
      "landed": 6556,
      "genetic": 6557,
      "suic": 6558,
      "files": 6559,
      "sight": 6560,
      "laboratory": 6561,
      "distributed": 6562,
      "jet": 6563,
      "khan": 6564,
      "toms": 6565,
      "landsc": 6566,
      "pas": 6567,
      "longest": 6568,
      "wig": 6569,
      "testing": 6570,
      "terror": 6571,
      "scand": 6572,
      "representing": 6573,
      "territories": 6574,
      "driver": 6575,
      "plain": 6576,
      "normally": 6577,
      "blow": 6578,
      "watching": 6579,
      "cloud": 6580,
      "enters": 6581,
      "operate": 6582,
      "loop": 6583,
      "armament": 6584,
      "disci": 6585,
      "matters": 6586,
      "restoration": 6587,
      "arrangement": 6588,
      "bronze": 6589,
      "apple": 6590,
      "helm": 6591,
      "bos": 6592,
      "victims": 6593,
      "depos": 6594,
      "attorney": 6595,
      "gallery": 6596,
      "secured": 6597,
      "engage": 6598,
      "visitors": 6599,
      "restrict": 6600,
      "ameter": 6601,
      "chel": 6602,
      "weekend": 6603,
      "coins": 6604,
      "basin": 6605,
      "unsuccessful": 6606,
      "hearing": 6607,
      "mainstream": 6608,
      "releases": 6609,
      "defended": 6610,
      "refuge": 6611,
      "tenance": 6612,
      "fishing": 6613,
      "believes": 6614,
      "dens": 6615,
      "comics": 6616,
      "substit": 6617,
      "giants": 6618,
      "agents": 6619,
      "depicted": 6620,
      "influential": 6621,
      "finn": 6622,
      "printed": 6623,
      "mack": 6624,
      "resolution": 6625,
      "mck": 6626,
      "stall": 6627,
      "dominated": 6628,
      "legisl": 6629,
      "houston": 6630,
      "wolf": 6631,
      "desert": 6632,
      "churches": 6633,
      "housing": 6634,
      "founder": 6635,
      "videos": 6636,
      "format": 6637,
      "indians": 6638,
      "phe": 6639,
      "rebell": 6640,
      "raaf": 6641,
      "amph": 6642,
      "fis": 6643,
      "ancy": 6644,
      "graphical": 6645,
      "fisher": 6646,
      "imes": 6647,
      "inary": 6648,
      "notably": 6649,
      "til": 6650,
      "ouse": 6651,
      "hole": 6652,
      "dramatic": 6653,
      "exit": 6654,
      "relationships": 6655,
      "behavi": 6656,
      "santa": 6657,
      "zero": 6658,
      "trek": 6659,
      "merged": 6660,
      "cous": 6661,
      "samuel": 6662,
      "onic": 6663,
      "swedish": 6664,
      "mani": 6665,
      "jacob": 6666,
      "mini": 6667,
      "roberts": 6668,
      "rep": 6669,
      "languages": 6670,
      "neighbour": 6671,
      "meteor": 6672,
      "diver": 6673,
      "offices": 6674,
      "skills": 6675,
      "string": 6676,
      "devil": 6677,
      "simpson": 6678,
      "goslav": 6679,
      "drums": 6680,
      "shr": 6681,
      "ultane": 6682,
      "simultane": 6683,
      "occupation": 6684,
      "rud": 6685,
      "pp": 6686,
      "stances": 6687,
      "device": 6688,
      "deployed": 6689,
      "forth": 6690,
      "jesus": 6691,
      "cabinet": 6692,
      "communication": 6693,
      "imet": 6694,
      "opponents": 6695,
      "dot": 6696,
      "cliff": 6697,
      "util": 6698,
      "frequent": 6699,
      "chess": 6700,
      "cs": 6701,
      "cemetery": 6702,
      "gib": 6703,
      "alab": 6704,
      "phan": 6705,
      "remin": 6706,
      "anthony": 6707,
      "emotional": 6708,
      "tox": 6709,
      "glac": 6710,
      "jason": 6711,
      "tot": 6712,
      "factors": 6713,
      "teeth": 6714,
      "operational": 6715,
      "reportedly": 6716,
      "rates": 6717,
      "warner": 6718,
      "dialogue": 6719,
      "dress": 6720,
      "scientists": 6721,
      "happened": 6722,
      "disput": 6723,
      "vs": 6724,
      "cessive": 6725,
      "bapt": 6726,
      "atus": 6727,
      "pill": 6728,
      "yugoslav": 6729,
      "employees": 6730,
      "agricultural": 6731,
      "mental": 6732,
      "maintenance": 6733,
      "footage": 6734,
      "experiences": 6735,
      "constitutional": 6736,
      "troit": 6737,
      "lowest": 6738,
      "illi": 6739,
      "aska": 6740,
      "successor": 6741,
      "abbey": 6742,
      "suitable": 6743,
      "ternal": 6744,
      "timore": 6745,
      "gaga": 6746,
      "thes": 6747,
      "negotiations": 6748,
      "tap": 6749,
      "inhabit": 6750,
      "dent": 6751,
      "obl": 6752,
      "detroit": 6753,
      "approval": 6754,
      "croatia": 6755,
      "understand": 6756,
      "revolutionary": 6757,
      "window": 6758,
      "expression": 6759,
      "wes": 6760,
      "orbit": 6761,
      "handed": 6762,
      "acknowled": 6763,
      "enthus": 6764,
      "gates": 6765,
      "mathemat": 6766,
      "drawing": 6767,
      "employment": 6768,
      "appreci": 6769,
      "executed": 6770,
      "discussed": 6771,
      "collect": 6772,
      "personality": 6773,
      "exposed": 6774,
      "oxy": 6775,
      "uous": 6776,
      "medium": 6777,
      "dum": 6778,
      "substantial": 6779,
      "ethnic": 6780,
      "flew": 6781,
      "retreat": 6782,
      "crus": 6783,
      "portions": 6784,
      "hook": 6785,
      "interstate": 6786,
      "tribute": 6787,
      "fatal": 6788,
      "clinton": 6789,
      "wag": 6790,
      "sper": 6791,
      "gap": 6792,
      "resign": 6793,
      "christop": 6794,
      "hunt": 6795,
      "pad": 6796,
      "aco": 6797,
      "tenth": 6798,
      "technique": 6799,
      "promp": 6800,
      "grown": 6801,
      "tornado": 6802,
      "melbourne": 6803,
      "berry": 6804,
      "afternoon": 6805,
      "aus": 6806,
      "sad": 6807,
      "accompany": 6808,
      "portra": 6809,
      "residential": 6810,
      "detailed": 6811,
      "xbox": 6812,
      "linked": 6813,
      "lis": 6814,
      "mme": 6815,
      "amb": 6816,
      "mov": 6817,
      "resigned": 6818,
      "existed": 6819,
      "nielsen": 6820,
      "drag": 6821,
      "origins": 6822,
      "evans": 6823,
      "confess": 6824,
      "iest": 6825,
      "walker": 6826,
      "organizations": 6827,
      "communications": 6828,
      "susp": 6829,
      "spher": 6830,
      "preferred": 6831,
      "listing": 6832,
      "militia": 6833,
      "iet": 6834,
      "goods": 6835,
      "draf": 6836,
      "marshall": 6837,
      "reveals": 6838,
      "kap": 6839,
      "prosecut": 6840,
      "teacher": 6841,
      "pushed": 6842,
      "prevented": 6843,
      "organisation": 6844,
      "stab": 6845,
      "arriving": 6846,
      "stewart": 6847,
      "balance": 6848,
      "barr": 6849,
      "pike": 6850,
      "carib": 6851,
      "seed": 6852,
      "neighborhood": 6853,
      "interpre": 6854,
      "manus": 6855,
      "anglo": 6856,
      "belg": 6857,
      "isolated": 6858,
      "moments": 6859,
      "swift": 6860,
      "forty": 6861,
      "closing": 6862,
      "sevent": 6863,
      "ube": 6864,
      "expo": 6865,
      "favorable": 6866,
      "partly": 6867,
      "halo": 6868,
      "sisters": 6869,
      "turkish": 6870,
      "vals": 6871,
      "arian": 6872,
      "chase": 6873,
      "imprison": 6874,
      "federation": 6875,
      "cart": 6876,
      "illustr": 6877,
      "covers": 6878,
      "anticip": 6879,
      "understanding": 6880,
      "designer": 6881,
      "departed": 6882,
      "lennon": 6883,
      "stance": 6884,
      "imens": 6885,
      "retri": 6886,
      "marry": 6887,
      "periods": 6888,
      "friendly": 6889,
      "colorado": 6890,
      "instrumental": 6891,
      "unes": 6892,
      "pione": 6893,
      "proced": 6894,
      "ordinary": 6895,
      "ranking": 6896,
      "sharp": 6897,
      "familiar": 6898,
      "stron": 6899,
      "mortal": 6900,
      "greece": 6901,
      "livan": 6902,
      "elli": 6903,
      "sarah": 6904,
      "fifteen": 6905,
      "aa": 6906,
      "usal": 6907,
      "impossible": 6908,
      "baltimore": 6909,
      "concerts": 6910,
      "extent": 6911,
      "austria": 6912,
      "absol": 6913,
      "arena": 6914,
      "mines": 6915,
      "regist": 6916,
      "icit": 6917,
      "budd": 6918,
      "participate": 6919,
      "instance": 6920,
      "chell": 6921,
      "seeking": 6922,
      "aire": 6923,
      "fc": 6924,
      "locomot": 6925,
      "hd": 6926,
      "nov": 6927,
      "waves": 6928,
      "deputy": 6929,
      "diamond": 6930,
      "yd": 6931,
      "trum": 6932,
      "citing": 6933,
      "irs": 6934,
      "maid": 6935,
      "diction": 6936,
      "tha": 6937,
      "perce": 6938,
      "taught": 6939,
      "sugar": 6940,
      "bases": 6941,
      "meter": 6942,
      "specimens": 6943,
      "lux": 6944,
      "meat": 6945,
      "dow": 6946,
      "finale": 6947,
      "patrol": 6948,
      "spending": 6949,
      "crystal": 6950,
      "sullivan": 6951,
      "picked": 6952,
      "lex": 6953,
      "mario": 6954,
      "jar": 6955,
      "amendment": 6956,
      "dave": 6957,
      "newspapers": 6958,
      "creator": 6959,
      "rarely": 6960,
      "stick": 6961,
      "dru": 6962,
      "bb": 6963,
      "soil": 6964,
      "ongo": 6965,
      "diameter": 6966,
      "sacri": 6967,
      "frederick": 6968,
      "cant": 6969,
      "patron": 6970,
      "alum": 6971,
      "precip": 6972,
      "ghost": 6973,
      "hey": 6974,
      "uro": 6975,
      "doesn": 6976,
      "bull": 6977,
      "metropolitan": 6978,
      "rows": 6979,
      "somerset": 6980,
      "igen": 6981,
      "deser": 6982,
      "obser": 6983,
      "oz": 6984,
      "uncertain": 6985,
      "false": 6986,
      "withdrew": 6987,
      "physic": 6988,
      "ultimate": 6989,
      "barbar": 6990,
      "directors": 6991,
      "citizen": 6992,
      "pounds": 6993,
      "poison": 6994,
      "pute": 6995,
      "divor": 6996,
      "pace": 6997,
      "permission": 6998,
      "encountered": 6999,
      "partially": 7000,
      "perspect": 7001,
      "upgraded": 7002,
      "prom": 7003,
      "woods": 7004,
      "exhibition": 7005,
      "timber": 7006,
      "lined": 7007,
      "difficulties": 7008,
      "forests": 7009,
      "policies": 7010,
      "gilbert": 7011,
      "schedule": 7012,
      "dir": 7013,
      "bombers": 7014,
      "discover": 7015,
      "helic": 7016,
      "anny": 7017,
      "legislature": 7018,
      "nad": 7019,
      "vet": 7020,
      "inaug": 7021,
      "thrill": 7022,
      "iva": 7023,
      "eval": 7024,
      "drin": 7025,
      "iowa": 7026,
      "suicide": 7027,
      "rescu": 7028,
      "cannon": 7029,
      "olas": 7030,
      "household": 7031,
      "smooth": 7032,
      "humor": 7033,
      "mint": 7034,
      "miami": 7035,
      "merchant": 7036,
      "fortress": 7037,
      "adjac": 7038,
      "rio": 7039,
      "advice": 7040,
      "pilots": 7041,
      "athletic": 7042,
      "shakes": 7043,
      "seattle": 7044,
      "raj": 7045,
      "adjacent": 7046,
      "loan": 7047,
      "prus": 7048,
      "magn": 7049,
      "traveled": 7050,
      "violent": 7051,
      "expensive": 7052,
      "disaster": 7053,
      "turrets": 7054,
      "sword": 7055,
      "signs": 7056,
      "indicate": 7057,
      "feud": 7058,
      "brun": 7059,
      "gardens": 7060,
      "comments": 7061,
      "benefit": 7062,
      "aj": 7063,
      "oft": 7064,
      "spur": 7065,
      "refers": 7066,
      "hed": 7067,
      "pines": 7068,
      "philosophy": 7069,
      "seats": 7070,
      "interesting": 7071,
      "armored": 7072,
      "uted": 7073,
      "wells": 7074,
      "oleon": 7075,
      "terri": 7076,
      "rebellion": 7077,
      "thetic": 7078,
      "ranging": 7079,
      "sector": 7080,
      "wie": 7081,
      "pare": 7082,
      "criticised": 7083,
      "values": 7084,
      "hong": 7085,
      "mato": 7086,
      "compete": 7087,
      "guards": 7088,
      "alabama": 7089,
      "australians": 7090,
      "pitched": 7091,
      "minimum": 7092,
      "missou": 7093,
      "tis": 7094,
      "destroyers": 7095,
      "prompted": 7096,
      "lemur": 7097,
      "struggle": 7098,
      "cker": 7099,
      "napoleon": 7100,
      "fined": 7101,
      "harbour": 7102,
      "alpha": 7103,
      "remove": 7104,
      "hav": 7105,
      "iate": 7106,
      "dia": 7107,
      "numbered": 7108,
      "atomic": 7109,
      "pakistan": 7110,
      "gau": 7111,
      "surprise": 7112,
      "satellite": 7113,
      "discipl": 7114,
      "eagle": 7115,
      "marketing": 7116,
      "whil": 7117,
      "sank": 7118,
      "nationally": 7119,
      "medicine": 7120,
      "collapse": 7121,
      "caribbean": 7122,
      "kyo": 7123,
      "manuscri": 7124,
      "soldier": 7125,
      "qualified": 7126,
      "mour": 7127,
      "administrative": 7128,
      "gery": 7129,
      "designation": 7130,
      "enterprise": 7131,
      "gren": 7132,
      "instru": 7133,
      "charlie": 7134,
      "neutral": 7135,
      "gle": 7136,
      "bai": 7137,
      "indeed": 7138,
      "vast": 7139,
      "lawrence": 7140,
      "teaching": 7141,
      "possession": 7142,
      "whilst": 7143,
      "chy": 7144,
      "collaboration": 7145,
      "articles": 7146,
      "spiritual": 7147,
      "restaurant": 7148,
      "protagonist": 7149,
      "scat": 7150,
      "oxygen": 7151,
      "wore": 7152,
      "rico": 7153,
      "baker": 7154,
      "minnes": 7155,
      "hamp": 7156,
      "rach": 7157,
      "helicop": 7158,
      "hindu": 7159,
      "mason": 7160,
      "paintings": 7161,
      "worship": 7162,
      "fifty": 7163,
      "eing": 7164,
      "pretty": 7165,
      "survivors": 7166,
      "echo": 7167,
      "loved": 7168,
      "tale": 7169,
      "describe": 7170,
      "riders": 7171,
      "migration": 7172,
      "wait": 7173,
      "depending": 7174,
      "nazi": 7175,
      "judic": 7176,
      "candidates": 7177,
      "travelled": 7178,
      "wake": 7179,
      "pressive": 7180,
      "ios": 7181,
      "clock": 7182,
      "dancing": 7183,
      "legislative": 7184,
      "inland": 7185,
      "dispute": 7186,
      "lone": 7187,
      "tight": 7188,
      "charter": 7189,
      "assisted": 7190,
      "rounds": 7191,
      "crews": 7192,
      "alive": 7193,
      "grammy": 7194,
      "cester": 7195,
      "boss": 7196,
      "villages": 7197,
      "dollars": 7198,
      "situated": 7199,
      "bowling": 7200,
      "afford": 7201,
      "displayed": 7202,
      "hungary": 7203,
      "categor": 7204,
      "inher": 7205,
      "pron": 7206,
      "victories": 7207,
      "concrete": 7208,
      "noble": 7209,
      "zes": 7210,
      "degre": 7211,
      "rugby": 7212,
      "kirk": 7213,
      "survive": 7214,
      "tware": 7215,
      "appropriate": 7216,
      "hem": 7217,
      "surge": 7218,
      "promised": 7219,
      "ologist": 7220,
      "reconna": 7221,
      "ateur": 7222,
      "minimal": 7223,
      "restricted": 7224,
      "velt": 7225,
      "jamin": 7226,
      "belgium": 7227,
      "iers": 7228,
      "serial": 7229,
      "software": 7230,
      "encing": 7231,
      "playoffs": 7232,
      "publications": 7233,
      "behaviour": 7234,
      "itim": 7235,
      "cel": 7236,
      "option": 7237,
      "marg": 7238,
      "amongst": 7239,
      "battalions": 7240,
      "diego": 7241,
      "symptoms": 7242,
      "colonies": 7243,
      "embr": 7244,
      "helping": 7245,
      "funeral": 7246,
      "uncle": 7247,
      "earthqu": 7248,
      "degrees": 7249,
      "sume": 7250,
      "eliminated": 7251,
      "partnership": 7252,
      "cade": 7253,
      "reconnaissance": 7254,
      "jona": 7255,
      "drivers": 7256,
      "poems": 7257,
      "benjamin": 7258,
      "keeper": 7259,
      "mining": 7260,
      "purposes": 7261,
      "subsid": 7262,
      "kiss": 7263,
      "montre": 7264,
      "yon": 7265,
      "eness": 7266,
      "orth": 7267,
      "vig": 7268,
      "mos": 7269,
      "oy": 7270,
      "isle": 7271,
      "colleg": 7272,
      "ining": 7273,
      "alfred": 7274,
      "christopher": 7275,
      "monster": 7276,
      "missis": 7277,
      "compilation": 7278,
      "repairs": 7279,
      "intel": 7280,
      "mississip": 7281,
      "cole": 7282,
      "voiced": 7283,
      "occasions": 7284,
      "trouble": 7285,
      "thinking": 7286,
      "fallen": 7287,
      "roots": 7288,
      "roose": 7289,
      "statue": 7290,
      "anime": 7291,
      "vietnames": 7292,
      "vietnamese": 7293,
      "flower": 7294,
      "essential": 7295,
      "jection": 7296,
      "console": 7297,
      "shock": 7298,
      "clu": 7299,
      "munition": 7300,
      "functions": 7301,
      "attendance": 7302,
      "minnesota": 7303,
      "publicly": 7304,
      "preserved": 7305,
      "horn": 7306,
      "agers": 7307,
      "buck": 7308,
      "gry": 7309,
      "heading": 7310,
      "businesses": 7311,
      "organised": 7312,
      "rupted": 7313,
      "loyal": 7314,
      "absolute": 7315,
      "preparation": 7316,
      "matthew": 7317,
      "alignment": 7318,
      "steps": 7319,
      "illness": 7320,
      "believing": 7321,
      "oul": 7322,
      "manhatt": 7323,
      "walking": 7324,
      "defeating": 7325,
      "touring": 7326,
      "lighting": 7327,
      "franklin": 7328,
      "sang": 7329,
      "manhattan": 7330,
      "cide": 7331,
      "highways": 7332,
      "altar": 7333,
      "backing": 7334,
      "imeter": 7335,
      "polar": 7336,
      "logist": 7337,
      "argument": 7338,
      "intensified": 7339,
      "roosevelt": 7340,
      "wider": 7341,
      "kas": 7342,
      "flights": 7343,
      "cinema": 7344,
      "laho": 7345,
      "horiz": 7346,
      "rocks": 7347,
      "keys": 7348,
      "competed": 7349,
      "amounts": 7350,
      "asking": 7351,
      "signal": 7352,
      "elabor": 7353,
      "amid": 7354,
      "residence": 7355,
      "therine": 7356,
      "resumed": 7357,
      "affil": 7358,
      "legitim": 7359,
      "consistent": 7360,
      "kansas": 7361,
      "conqu": 7362,
      "inspe": 7363,
      "assum": 7364,
      "signing": 7365,
      "cargo": 7366,
      "bent": 7367,
      "counties": 7368,
      "dra": 7369,
      "documents": 7370,
      "sick": 7371,
      "opponent": 7372,
      "aggressive": 7373,
      "montreal": 7374,
      "kw": 7375,
      "ammunition": 7376,
      "sunk": 7377,
      "subjects": 7378,
      "assists": 7379,
      "strategic": 7380,
      "retail": 7381,
      "excav": 7382,
      "submitted": 7383,
      "cylin": 7384,
      "alternate": 7385,
      "blin": 7386,
      "amateur": 7387,
      "portland": 7388,
      "backs": 7389,
      "registered": 7390,
      "audiences": 7391,
      "ingly": 7392,
      "iso": 7393,
      "aced": 7394,
      "provincial": 7395,
      "itors": 7396,
      "recur": 7397,
      "deliber": 7398,
      "aws": 7399,
      "engineers": 7400,
      "conspir": 7401,
      "ishment": 7402,
      "sau": 7403,
      "stell": 7404,
      "mississippi": 7405,
      "frig": 7406,
      "amin": 7407,
      "conventional": 7408,
      "doubt": 7409,
      "rie": 7410,
      "vii": 7411,
      "warren": 7412,
      "feelings": 7413,
      "nash": 7414,
      "acle": 7415,
      "tin": 7416,
      "lanes": 7417,
      "tribes": 7418,
      "dogs": 7419,
      "airborne": 7420,
      "predict": 7421,
      "beaten": 7422,
      "ownership": 7423,
      "nol": 7424,
      "cow": 7425,
      "completing": 7426,
      "fires": 7427,
      "stern": 7428,
      "netic": 7429,
      "waiting": 7430,
      "percentage": 7431,
      "uding": 7432,
      "bros": 7433,
      "rant": 7434,
      "arist": 7435,
      "shall": 7436,
      "sian": 7437,
      "campbell": 7438,
      "radical": 7439,
      "usd": 7440,
      "shells": 7441,
      "sig": 7442,
      "explosion": 7443,
      "astronom": 7444,
      "maj": 7445,
      "artistic": 7446,
      "shakespe": 7447,
      "behalf": 7448,
      "laugh": 7449,
      "worn": 7450,
      "charity": 7451,
      "stores": 7452,
      "rhythm": 7453,
      "rix": 7454,
      "tennes": 7455,
      "shakespeare": 7456,
      "chand": 7457,
      "hunter": 7458,
      "evolved": 7459,
      "bard": 7460,
      "recognised": 7461,
      "rip": 7462,
      "chronicle": 7463,
      "grim": 7464,
      "nucle": 7465,
      "persist": 7466,
      "billy": 7467,
      "globe": 7468,
      "divers": 7469,
      "blocks": 7470,
      "gab": 7471,
      "engagement": 7472,
      "revenue": 7473,
      "cze": 7474,
      "guine": 7475,
      "targets": 7476,
      "suspended": 7477,
      "ensu": 7478,
      "dwar": 7479,
      "aman": 7480,
      "pler": 7481,
      "margaret": 7482,
      "itated": 7483,
      "lakes": 7484,
      "rav": 7485,
      "ske": 7486,
      "coat": 7487,
      "jury": 7488,
      "stair": 7489,
      "prompt": 7490,
      "planets": 7491,
      "pene": 7492,
      "movies": 7493,
      "cos": 7494,
      "lucas": 7495,
      "guilty": 7496,
      "lope": 7497,
      "impression": 7498,
      "reluct": 7499,
      "mall": 7500,
      "boards": 7501,
      "poorly": 7502,
      "cartoon": 7503,
      "dess": 7504,
      "goth": 7505,
      "civilian": 7506,
      "offering": 7507,
      "layer": 7508,
      "egyptian": 7509,
      "mble": 7510,
      "delay": 7511,
      "measured": 7512,
      "ideal": 7513,
      "replacing": 7514,
      "feather": 7515,
      "filed": 7516,
      "mush": 7517,
      "threw": 7518,
      "pound": 7519,
      "provision": 7520,
      "aimed": 7521,
      "ima": 7522,
      "tennessee": 7523,
      "dul": 7524,
      "faster": 7525,
      "lips": 7526,
      "missouri": 7527,
      "armies": 7528,
      "beam": 7529,
      "visiting": 7530,
      "boundary": 7531,
      "repl": 7532,
      "maneu": 7533,
      "louisiana": 7534,
      "nice": 7535,
      "craw": 7536,
      "looks": 7537,
      "temporarily": 7538,
      "fixed": 7539,
      "aviation": 7540,
      "sket": 7541,
      "bic": 7542,
      "obvious": 7543,
      "galax": 7544,
      "clearly": 7545,
      "loose": 7546,
      "quiet": 7547,
      "represents": 7548,
      "simultaneously": 7549,
      "surgery": 7550,
      "taxon": 7551,
      "acceler": 7552,
      "philippines": 7553,
      "cular": 7554,
      "shipping": 7555,
      "sequences": 7556,
      "closure": 7557,
      "quad": 7558,
      "oon": 7559,
      "ariz": 7560,
      "sung": 7561,
      "educational": 7562,
      "readers": 7563,
      "birthday": 7564,
      "gran": 7565,
      "storage": 7566,
      "agriculture": 7567,
      "ora": 7568,
      "coverage": 7569,
      "pher": 7570,
      "agre": 7571,
      "ounced": 7572,
      "saved": 7573,
      "remnants": 7574,
      "palest": 7575,
      "recommend": 7576,
      "mitchell": 7577,
      "vulner": 7578,
      "metre": 7579,
      "dc": 7580,
      "intercept": 7581,
      "alog": 7582,
      "dino": 7583,
      "progressive": 7584,
      "fy": 7585,
      "marie": 7586,
      "strange": 7587,
      "butter": 7588,
      "cancelled": 7589,
      "boo": 7590,
      "protein": 7591,
      "institution": 7592,
      "patterns": 7593,
      "comparison": 7594,
      "context": 7595,
      "talent": 7596,
      "practices": 7597,
      "spotted": 7598,
      "valuable": 7599,
      "aside": 7600,
      "autum": 7601,
      "perspective": 7602,
      "dw": 7603,
      "overseas": 7604,
      "institutions": 7605,
      "slip": 7606,
      "tong": 7607,
      "wants": 7608,
      "fossil": 7609,
      "wasn": 7610,
      "notice": 7611,
      "motions": 7612,
      "reflected": 7613,
      "cuba": 7614,
      "rebuilt": 7615,
      "chet": 7616,
      "graham": 7617,
      "suggesting": 7618,
      "contributions": 7619,
      "propag": 7620,
      "thirteen": 7621,
      "altered": 7622,
      "application": 7623,
      "lesser": 7624,
      "fastest": 7625,
      "bones": 7626,
      "loaded": 7627,
      "acou": 7628,
      "sitting": 7629,
      "electro": 7630,
      "destroyer": 7631,
      "yam": 7632,
      "pulled": 7633,
      "iated": 7634,
      "beauty": 7635,
      "subspecies": 7636,
      "oke": 7637,
      "pent": 7638,
      "physics": 7639,
      "vertical": 7640,
      "thum": 7641,
      "ranks": 7642,
      "predomin": 7643,
      "summit": 7644,
      "wen": 7645,
      "ailed": 7646,
      "furthermore": 7647,
      "drugs": 7648,
      "valid": 7649,
      "escaped": 7650,
      "jobs": 7651,
      "ferry": 7652,
      "decides": 7653,
      "tokyo": 7654,
      "drove": 7655,
      "wicket": 7656,
      "abc": 7657,
      "pressing": 7658,
      "slaves": 7659,
      "adequ": 7660,
      "dod": 7661,
      "lacked": 7662,
      "kane": 7663,
      "bombing": 7664,
      "convers": 7665,
      "badly": 7666,
      "allmusic": 7667,
      "cutting": 7668,
      "confederate": 7669,
      "listen": 7670,
      "hypothe": 7671,
      "motiv": 7672,
      "illegal": 7673,
      "tack": 7674,
      "subur": 7675,
      "flagship": 7676,
      "intellect": 7677,
      "autumn": 7678,
      "bak": 7679,
      "ila": 7680,
      "spider": 7681,
      "bulk": 7682,
      "juris": 7683,
      "artney": 7684,
      "surve": 7685,
      "indies": 7686,
      "argues": 7687,
      "bare": 7688,
      "oles": 7689,
      "blind": 7690,
      "characterized": 7691,
      "check": 7692,
      "flowers": 7693,
      "eign": 7694,
      "clif": 7695,
      "severely": 7696,
      "sovereign": 7697,
      "umber": 7698,
      "icken": 7699,
      "founding": 7700,
      "sha": 7701,
      "striking": 7702,
      "controls": 7703,
      "musician": 7704,
      "persian": 7705,
      "tamil": 7706,
      "mills": 7707,
      "starring": 7708,
      "feeding": 7709,
      "sq": 7710,
      "exh": 7711,
      "lords": 7712,
      "prope": 7713,
      "earning": 7714,
      "distinctive": 7715,
      "tig": 7716,
      "wayne": 7717,
      "ranges": 7718,
      "mania": 7719,
      "trium": 7720,
      "arizona": 7721,
      "cc": 7722,
      "accum": 7723,
      "observations": 7724,
      "dense": 7725,
      "oxide": 7726,
      "ij": 7727,
      "yield": 7728,
      "mainland": 7729,
      "rede": 7730,
      "inhabitants": 7731,
      "mund": 7732,
      "rell": 7733,
      "shift": 7734,
      "explain": 7735,
      "condem": 7736,
      "saturday": 7737,
      "aro": 7738,
      "rook": 7739,
      "fate": 7740,
      "mirror": 7741,
      "guitarist": 7742,
      "dominant": 7743,
      "cave": 7744,
      "squadrons": 7745,
      "abund": 7746,
      "passion": 7747,
      "killer": 7748,
      "alber": 7749,
      "doors": 7750,
      "bonus": 7751,
      "liberty": 7752,
      "iary": 7753,
      "dylan": 7754,
      "pension": 7755,
      "commanding": 7756,
      "definition": 7757,
      "tempo": 7758,
      "excellent": 7759,
      "xx": 7760,
      "revival": 7761,
      "delaw": 7762,
      "idency": 7763,
      "shak": 7764,
      "oliv": 7765,
      "turb": 7766,
      "ieties": 7767,
      "jump": 7768,
      "spend": 7769,
      "meetings": 7770,
      "ique": 7771,
      "users": 7772,
      "explains": 7773,
      "phenom": 7774,
      "cultiv": 7775,
      "pearl": 7776,
      "compass": 7777,
      "nominations": 7778,
      "clash": 7779,
      "statistics": 7780,
      "parliamentary": 7781,
      "athletes": 7782,
      "stere": 7783,
      "oklaho": 7784,
      "kom": 7785,
      "xture": 7786,
      "demonstrated": 7787,
      "arctic": 7788,
      "descend": 7789,
      "faction": 7790,
      "arrive": 7791,
      "michel": 7792,
      "danger": 7793,
      "ava": 7794,
      "vard": 7795,
      "ambass": 7796,
      "maur": 7797,
      "carriers": 7798,
      "ache": 7799,
      "mrs": 7800,
      "artwork": 7801,
      "artific": 7802,
      "broadway": 7803,
      "hidden": 7804,
      "altit": 7805,
      "switzer": 7806,
      "vas": 7807,
      "backed": 7808,
      "aerial": 7809,
      "illy": 7810,
      "dall": 7811,
      "predicted": 7812,
      "utical": 7813,
      "holiday": 7814,
      "murphy": 7815,
      "interpretation": 7816,
      "conversion": 7817,
      "census": 7818,
      "switzerland": 7819,
      "duo": 7820,
      "mercur": 7821,
      "harvey": 7822,
      "pages": 7823,
      "northward": 7824,
      "reaches": 7825,
      "funny": 7826,
      "experimental": 7827,
      "honey": 7828,
      "nova": 7829,
      "prepare": 7830,
      "talking": 7831,
      "riding": 7832,
      "delaware": 7833,
      "mechanical": 7834,
      "peaking": 7835,
      "kees": 7836,
      "athy": 7837,
      "ropo": 7838,
      "helps": 7839,
      "batter": 7840,
      "declar": 7841,
      "connect": 7842,
      "symphony": 7843,
      "households": 7844,
      "slave": 7845,
      "amps": 7846,
      "barry": 7847,
      "considering": 7848,
      "apartment": 7849,
      "oklahoma": 7850,
      "partial": 7851,
      "texts": 7852,
      "edin": 7853,
      "sax": 7854,
      "skull": 7855,
      "lift": 7856,
      "labe": 7857,
      "bombs": 7858,
      "seriously": 7859,
      "retro": 7860,
      "towers": 7861,
      "austrian": 7862,
      "iran": 7863,
      "liquid": 7864,
      "luck": 7865,
      "rings": 7866,
      "iner": 7867,
      "feels": 7868,
      "swimming": 7869,
      "audition": 7870,
      "repeatedly": 7871,
      "juan": 7872,
      "bald": 7873,
      "choose": 7874,
      "dread": 7875,
      "useful": 7876,
      "predecessor": 7877,
      "urer": 7878,
      "attained": 7879,
      "westward": 7880,
      "isen": 7881,
      "blan": 7882,
      "sony": 7883,
      "vous": 7884,
      "definite": 7885,
      "thanks": 7886,
      "copper": 7887,
      "sla": 7888,
      "enna": 7889,
      "tales": 7890,
      "consequently": 7891,
      "circumstances": 7892,
      "lithuan": 7893,
      "dubbed": 7894,
      "perry": 7895,
      "waste": 7896,
      "beats": 7897,
      "kids": 7898,
      "delivery": 7899,
      "practical": 7900,
      "dawn": 7901,
      "princi": 7902,
      "melody": 7903,
      "perceived": 7904,
      "stig": 7905,
      "leslie": 7906,
      "sciento": 7907,
      "electricity": 7908,
      "papers": 7909,
      "friendship": 7910,
      "bacter": 7911,
      "posit": 7912,
      "zzle": 7913,
      "chemistry": 7914,
      "todd": 7915,
      "verte": 7916,
      "remarked": 7917,
      "iling": 7918,
      "congreg": 7919,
      "trigger": 7920,
      "virus": 7921,
      "madagas": 7922,
      "revolt": 7923,
      "compens": 7924,
      "improvements": 7925,
      "lem": 7926,
      "markets": 7927,
      "radiation": 7928,
      "tours": 7929,
      "ballad": 7930,
      "wool": 7931,
      "accurate": 7932,
      "enlisted": 7933,
      "acclaim": 7934,
      "denmark": 7935,
      "tactics": 7936,
      "jonathan": 7937,
      "dinosaur": 7938,
      "hammer": 7939,
      "personally": 7940,
      "stev": 7941,
      "lob": 7942,
      "burton": 7943,
      "coup": 7944,
      "atlanta": 7945,
      "dic": 7946,
      "manga": 7947,
      "tang": 7948,
      "metall": 7949,
      "airlines": 7950,
      "rett": 7951,
      "rihanna": 7952,
      "theatrical": 7953,
      "landscape": 7954,
      "adm": 7955,
      "franco": 7956,
      "sting": 7957,
      "gear": 7958,
      "marvel": 7959,
      "gos": 7960,
      "spell": 7961,
      "angular": 7962,
      "johnny": 7963,
      "hydrogen": 7964,
      "inals": 7965,
      "ruling": 7966,
      "rim": 7967,
      "keith": 7968,
      "acher": 7969,
      "stol": 7970,
      "pep": 7971,
      "nixon": 7972,
      "travels": 7973,
      "edwards": 7974,
      "ressing": 7975,
      "execution": 7976,
      "maker": 7977,
      "overw": 7978,
      "aig": 7979,
      "persons": 7980,
      "strengthened": 7981,
      "assembled": 7982,
      "explan": 7983,
      "sixteen": 7984,
      "alexand": 7985,
      "proof": 7986,
      "profile": 7987,
      "campaigns": 7988,
      "demands": 7989,
      "ibn": 7990,
      "bah": 7991,
      "mingham": 7992,
      "raising": 7993,
      "ruth": 7994,
      "paras": 7995,
      "powder": 7996,
      "burns": 7997,
      "intervent": 7998,
      "ptions": 7999,
      "bernard": 8000,
      "gender": 8001,
      "mong": 8002,
      "demanded": 8003,
      "illustrated": 8004,
      "intim": 8005,
      "daughters": 8006,
      "hore": 8007,
      "elevation": 8008,
      "ruption": 8009,
      "succession": 8010,
      "bene": 8011,
      "targe": 8012,
      "apolis": 8013,
      "burial": 8014,
      "oblig": 8015,
      "aggreg": 8016,
      "dispat": 8017,
      "clothing": 8018,
      "membership": 8019,
      "pitts": 8020,
      "kurt": 8021,
      "lain": 8022,
      "turret": 8023,
      "archbishop": 8024,
      "insisted": 8025,
      "compound": 8026,
      "wilhelm": 8027,
      "rebel": 8028,
      "compounds": 8029,
      "brilli": 8030,
      "settlers": 8031,
      "toy": 8032,
      "gentle": 8033,
      "arnold": 8034,
      "semin": 8035,
      "jimmy": 8036,
      "dressed": 8037,
      "nev": 8038,
      "phoenix": 8039,
      "mercury": 8040,
      "patt": 8041,
      "adventures": 8042,
      "adi": 8043,
      "cture": 8044,
      "bearing": 8045,
      "extend": 8046,
      "finger": 8047,
      "canter": 8048,
      "connecting": 8049,
      "struggled": 8050,
      "agger": 8051,
      "ticket": 8052,
      "madagascar": 8053,
      "abu": 8054,
      "fewer": 8055,
      "rebound": 8056,
      "tracy": 8057,
      "edited": 8058,
      "ghan": 8059,
      "rachel": 8060,
      "neil": 8061,
      "trading": 8062,
      "demolished": 8063,
      "een": 8064,
      "valent": 8065,
      "succeed": 8066,
      "investment": 8067,
      "volcano": 8068,
      "mort": 8069,
      "chal": 8070,
      "increases": 8071,
      "compliment": 8072,
      "insects": 8073,
      "conquest": 8074,
      "ctr": 8075,
      "decisions": 8076,
      "stronger": 8077,
      "kil": 8078,
      "prove": 8079,
      "yankees": 8080,
      "erected": 8081,
      "manuel": 8082,
      "removal": 8083,
      "dust": 8084,
      "liner": 8085,
      "earn": 8086,
      "warfare": 8087,
      "fourteen": 8088,
      "spart": 8089,
      "remark": 8090,
      "birmingham": 8091,
      "external": 8092,
      "rag": 8093,
      "developers": 8094,
      "advertising": 8095,
      "objective": 8096,
      "exposure": 8097,
      "aming": 8098,
      "answer": 8099,
      "jup": 8100,
      "placement": 8101,
      "lus": 8102,
      "glen": 8103,
      "bobby": 8104,
      "challenged": 8105,
      "exactly": 8106,
      "venue": 8107,
      "obama": 8108,
      "culmin": 8109,
      "pursue": 8110,
      "concentration": 8111,
      "ading": 8112,
      "defences": 8113,
      "discovers": 8114,
      "qualifying": 8115,
      "armoured": 8116,
      "cards": 8117,
      "deterior": 8118,
      "electrical": 8119,
      "som": 8120,
      "sak": 8121,
      "magazines": 8122,
      "defending": 8123,
      "quarterback": 8124,
      "wealthy": 8125,
      "tat": 8126,
      "tna": 8127,
      "confron": 8128,
      "herald": 8129,
      "sonic": 8130,
      "stuff": 8131,
      "sciences": 8132,
      "tram": 8133,
      "juven": 8134,
      "hearts": 8135,
      "trench": 8136,
      "tai": 8137,
      "masters": 8138,
      "pam": 8139,
      "exercise": 8140,
      "hudson": 8141,
      "twi": 8142,
      "amen": 8143,
      "acces": 8144,
      "approaching": 8145,
      "gence": 8146,
      "limits": 8147,
      "establishing": 8148,
      "cin": 8149,
      "ori": 8150,
      "mccartney": 8151,
      "caa": 8152,
      "dimension": 8153,
      "gie": 8154,
      "nered": 8155,
      "tho": 8156,
      "ontario": 8157,
      "connectic": 8158,
      "odox": 8159,
      "acknowledged": 8160,
      "connecticut": 8161,
      "harm": 8162,
      "doctr": 8163,
      "coron": 8164,
      "breath": 8165,
      "fasc": 8166,
      "hence": 8167,
      "icke": 8168,
      "sultan": 8169,
      "craz": 8170,
      "itted": 8171,
      "raids": 8172,
      "leonard": 8173,
      "centers": 8174,
      "monte": 8175,
      "understood": 8176,
      "putting": 8177,
      "commentary": 8178,
      "architectural": 8179,
      "gods": 8180,
      "morrison": 8181,
      "burning": 8182,
      "realized": 8183,
      "axis": 8184,
      "acoustic": 8185,
      "evalu": 8186,
      "indicating": 8187,
      "epic": 8188,
      "supplied": 8189,
      "initiated": 8190,
      "athe": 8191,
      "lium": 8192,
      "friday": 8193,
      "traveling": 8194,
      "select": 8195,
      "arrangements": 8196,
      "slavery": 8197,
      "canterbury": 8198,
      "glee": 8199,
      "announcement": 8200,
      "clip": 8201,
      "withdrawal": 8202,
      "strand": 8203,
      "improvement": 8204,
      "shorter": 8205,
      "bust": 8206,
      "tube": 8207,
      "ongoing": 8208,
      "lac": 8209,
      "unless": 8210,
      "vern": 8211,
      "athens": 8212,
      "precipitation": 8213,
      "fier": 8214,
      "pist": 8215,
      "parach": 8216,
      "visits": 8217,
      "hul": 8218,
      "volumes": 8219,
      "celebrated": 8220,
      "theore": 8221,
      "voices": 8222,
      "pipe": 8223,
      "stationed": 8224,
      "stress": 8225,
      "permitted": 8226,
      "uniform": 8227,
      "tape": 8228,
      "oct": 8229,
      "boom": 8230,
      "survival": 8231,
      "preparations": 8232,
      "ien": 8233,
      "bomber": 8234,
      "hate": 8235,
      "lig": 8236,
      "discussion": 8237,
      "wreck": 8238,
      "dissipated": 8239,
      "debt": 8240,
      "graduated": 8241,
      "wid": 8242,
      "justin": 8243,
      "hast": 8244,
      "hardy": 8245,
      "lov": 8246,
      "cann": 8247,
      "silent": 8248,
      "recovery": 8249,
      "evacuated": 8250,
      "conven": 8251,
      "shadow": 8252,
      "lang": 8253,
      "itary": 8254,
      "translation": 8255,
      "hosts": 8256,
      "photographs": 8257,
      "ovic": 8258,
      "industries": 8259,
      "fleming": 8260,
      "promotional": 8261,
      "extratro": 8262,
      "extratropical": 8263,
      "currency": 8264,
      "uefa": 8265,
      "potter": 8266,
      "dwarf": 8267,
      "beau": 8268,
      "attitude": 8269,
      "titan": 8270,
      "blast": 8271,
      "angered": 8272,
      "guese": 8273,
      "requires": 8274,
      "vancou": 8275,
      "vancouver": 8276,
      "roe": 8277,
      "collections": 8278,
      "voyage": 8279,
      "biographer": 8280,
      "penetr": 8281,
      "reporter": 8282,
      "terrain": 8283,
      "trick": 8284,
      "originated": 8285,
      "youngest": 8286,
      "estimates": 8287,
      "strongest": 8288,
      "pend": 8289,
      "confront": 8290,
      "crops": 8291,
      "tension": 8292,
      "suspect": 8293,
      "troop": 8294,
      "ucing": 8295,
      "onymous": 8296,
      "jupiter": 8297,
      "guinea": 8298,
      "referring": 8299,
      "exclusive": 8300,
      "grove": 8301,
      "tooth": 8302,
      "vertebr": 8303,
      "millenn": 8304,
      "tubes": 8305,
      "specimen": 8306,
      "donated": 8307,
      "antonio": 8308,
      "transit": 8309,
      "cuts": 8310,
      "regime": 8311,
      "colleagues": 8312,
      "ceased": 8313,
      "watershed": 8314,
      "mg": 8315,
      "manor": 8316,
      "supplement": 8317,
      "closest": 8318,
      "cruise": 8319,
      "minority": 8320,
      "indicates": 8321,
      "nag": 8322,
      "marking": 8323,
      "signature": 8324,
      "rangers": 8325,
      "expert": 8326,
      "trough": 8327,
      "thouse": 8328,
      "wii": 8329,
      "luke": 8330,
      "horizon": 8331,
      "dj": 8332,
      "stim": 8333,
      "programming": 8334,
      "devast": 8335,
      "speaker": 8336,
      "uranium": 8337,
      "drinking": 8338,
      "gments": 8339,
      "zig": 8340,
      "decide": 8341,
      "oked": 8342,
      "southeastern": 8343,
      "portuguese": 8344,
      "bradman": 8345,
      "attending": 8346,
      "panic": 8347,
      "phrase": 8348,
      "density": 8349,
      "rolled": 8350,
      "collins": 8351,
      "identify": 8352,
      "earthquake": 8353,
      "emphasis": 8354,
      "scattered": 8355,
      "sharks": 8356,
      "jama": 8357,
      "heaven": 8358,
      "parent": 8359,
      "gathered": 8360,
      "bisho": 8361,
      "rena": 8362,
      "lawyer": 8363,
      "territorial": 8364,
      "discuss": 8365,
      "concentrated": 8366,
      "merely": 8367,
      "democrats": 8368,
      "achievement": 8369,
      "advertise": 8370,
      "dwight": 8371,
      "leans": 8372,
      "mons": 8373,
      "collapsed": 8374,
      "vamp": 8375,
      "ende": 8376,
      "ader": 8377,
      "governments": 8378,
      "failing": 8379,
      "traditionally": 8380,
      "æthel": 8381,
      "bypass": 8382,
      "forecast": 8383,
      "alice": 8384,
      "topped": 8385,
      "photography": 8386,
      "cousin": 8387,
      "artificial": 8388,
      "bench": 8389,
      "scription": 8390,
      "interpreted": 8391,
      "voting": 8392,
      "annually": 8393,
      "continuous": 8394,
      "viv": 8395,
      "spaces": 8396,
      "kills": 8397,
      "principles": 8398,
      "clan": 8399,
      "provinces": 8400,
      "esp": 8401,
      "publisher": 8402,
      "makers": 8403,
      "outr": 8404,
      "maya": 8405,
      "tribe": 8406,
      "ision": 8407,
      "cros": 8408,
      "prisoner": 8409,
      "oliver": 8410,
      "competing": 8411,
      "applications": 8412,
      "gaz": 8413,
      "thal": 8414,
      "questioned": 8415,
      "predators": 8416,
      "hampshire": 8417,
      "prices": 8418,
      "coalition": 8419,
      "ncaa": 8420,
      "declaration": 8421,
      "edinburgh": 8422,
      "seized": 8423,
      "offense": 8424,
      "aes": 8425,
      "afghan": 8426,
      "indigen": 8427,
      "investigate": 8428,
      "accompanying": 8429,
      "ati": 8430,
      "orthodox": 8431,
      "adier": 8432,
      "lomb": 8433,
      "respective": 8434,
      "buffalo": 8435,
      "feld": 8436,
      "turner": 8437,
      "victorian": 8438,
      "conceived": 8439,
      "portrayal": 8440,
      "portrait": 8441,
      "minster": 8442,
      "reverse": 8443,
      "aber": 8444,
      "heroes": 8445,
      "optim": 8446,
      "mick": 8447,
      "consolid": 8448,
      "uma": 8449,
      "escort": 8450,
      "sending": 8451,
      "tent": 8452,
      "tenure": 8453,
      "fairly": 8454,
      "hawa": 8455,
      "universities": 8456,
      "broadcasting": 8457,
      "talks": 8458,
      "racial": 8459,
      "reinforcements": 8460,
      "stef": 8461,
      "stops": 8462,
      "dual": 8463,
      "ruler": 8464,
      "innov": 8465,
      "spoken": 8466,
      "veloc": 8467,
      "flex": 8468,
      "proportion": 8469,
      "astru": 8470,
      "terminal": 8471,
      "revenge": 8472,
      "abuse": 8473,
      "experiments": 8474,
      "flows": 8475,
      "beneath": 8476,
      "foster": 8477,
      "indigenous": 8478,
      "partis": 8479,
      "certainly": 8480,
      "nand": 8481,
      "elig": 8482,
      "cen": 8483,
      "representation": 8484,
      "hind": 8485,
      "flooded": 8486,
      "output": 8487,
      "goddess": 8488,
      "cotton": 8489,
      "beng": 8490,
      "courses": 8491,
      "magnit": 8492,
      "worthy": 8493,
      "volunteers": 8494,
      "recurring": 8495,
      "trunk": 8496,
      "supervis": 8497,
      "imetres": 8498,
      "hide": 8499,
      "enforce": 8500,
      "plum": 8501,
      "craig": 8502,
      "salv": 8503,
      "branches": 8504,
      "amor": 8505,
      "yorkshire": 8506,
      "hitting": 8507,
      "overwhel": 8508,
      "reward": 8509,
      "sect": 8510,
      "lind": 8511,
      "argentina": 8512,
      "disband": 8513,
      "ralph": 8514,
      "reconstruction": 8515,
      "profession": 8516,
      "fundament": 8517,
      "spy": 8518,
      "cav": 8519,
      "rar": 8520,
      "user": 8521,
      "contribution": 8522,
      "enthusi": 8523,
      "lloy": 8524,
      "ifer": 8525,
      "songwriter": 8526,
      "historically": 8527,
      "revised": 8528,
      "drown": 8529,
      "dioc": 8530,
      "redes": 8531,
      "commenting": 8532,
      "components": 8533,
      "recip": 8534,
      "ministers": 8535,
      "genesis": 8536,
      "cable": 8537,
      "jerry": 8538,
      "imagery": 8539,
      "solved": 8540,
      "handle": 8541,
      "tender": 8542,
      "celt": 8543,
      "memo": 8544,
      "grossing": 8545,
      "christianity": 8546,
      "underwent": 8547,
      "hammad": 8548,
      "patients": 8549,
      "companion": 8550,
      "drummer": 8551,
      "ambassador": 8552,
      "iance": 8553,
      "devices": 8554,
      "toxic": 8555,
      "xi": 8556,
      "inge": 8557,
      "destroying": 8558,
      "millennium": 8559,
      "reducing": 8560,
      "charted": 8561,
      "gaming": 8562,
      "shallow": 8563,
      "gospe": 8564,
      "infrastru": 8565,
      "reduction": 8566,
      "duration": 8567,
      "component": 8568,
      "till": 8569,
      "gaining": 8570,
      "authorized": 8571,
      "consult": 8572,
      "hir": 8573,
      "enhan": 8574,
      "unclear": 8575,
      "replied": 8576,
      "fying": 8577,
      "vor": 8578,
      "ulous": 8579,
      "identical": 8580,
      "reflect": 8581,
      "multiplayer": 8582,
      "ffield": 8583,
      "marge": 8584,
      "witch": 8585,
      "serge": 8586,
      "kam": 8587,
      "approaches": 8588,
      "tas": 8589,
      "insist": 8590,
      "corrid": 8591,
      "prev": 8592,
      "winners": 8593,
      "queensland": 8594,
      "ua": 8595,
      "elite": 8596,
      "samples": 8597,
      "proposals": 8598,
      "competitive": 8599,
      "connections": 8600,
      "reveal": 8601,
      "streak": 8602,
      "finland": 8603,
      "frequency": 8604,
      "requirements": 8605,
      "seventeen": 8606,
      "apy": 8607,
      "mosco": 8608,
      "traded": 8609,
      "hawk": 8610,
      "distant": 8611,
      "lloyd": 8612,
      "cket": 8613,
      "orleans": 8614,
      "resolved": 8615,
      "embarked": 8616,
      "arrives": 8617,
      "intervention": 8618,
      "uration": 8619,
      "wire": 8620,
      "surrendered": 8621,
      "translated": 8622,
      "lifetime": 8623,
      "characteristic": 8624,
      "climb": 8625,
      "smoke": 8626,
      "fed": 8627,
      "chronic": 8628,
      "urally": 8629,
      "norfolk": 8630,
      "significance": 8631,
      "sings": 8632,
      "nake": 8633,
      "platforms": 8634,
      "navigation": 8635,
      "neo": 8636,
      "researchers": 8637,
      "carn": 8638,
      "burned": 8639,
      "yn": 8640,
      "turkey": 8641,
      "springs": 8642,
      "whate": 8643,
      "finance": 8644,
      "stereo": 8645,
      "whatever": 8646,
      "dak": 8647,
      "romance": 8648,
      "quebec": 8649,
      "shin": 8650,
      "loud": 8651,
      "rider": 8652,
      "thrown": 8653,
      "hawaii": 8654,
      "crack": 8655,
      "confidence": 8656,
      "nicholas": 8657,
      "banned": 8658,
      "praising": 8659,
      "warriors": 8660,
      "itals": 8661,
      "ampton": 8662,
      "plaza": 8663,
      "belgian": 8664,
      "crimes": 8665,
      "suddenly": 8666,
      "commanders": 8667,
      "rebels": 8668,
      "varied": 8669,
      "exclusively": 8670,
      "inh": 8671,
      "crop": 8672,
      "atop": 8673,
      "ensed": 8674,
      "karl": 8675,
      "chore": 8676,
      "catherine": 8677,
      "smart": 8678,
      "vincent": 8679,
      "pairs": 8680,
      "celebration": 8681,
      "cox": 8682,
      "balls": 8683,
      "considers": 8684,
      "descent": 8685,
      "verses": 8686,
      "davies": 8687,
      "lide": 8688,
      "emmy": 8689,
      "scientology": 8690,
      "sack": 8691,
      "secre": 8692,
      "prix": 8693,
      "tab": 8694,
      "parody": 8695,
      "flames": 8696,
      "toured": 8697,
      "districts": 8698,
      "intr": 8699,
      "awak": 8700,
      "thorough": 8701,
      "reviewed": 8702,
      "counters": 8703,
      "taxes": 8704,
      "screenplay": 8705,
      "mansion": 8706,
      "trib": 8707,
      "sailing": 8708,
      "remote": 8709,
      "mum": 8710,
      "reactions": 8711,
      "sample": 8712,
      "cession": 8713,
      "cof": 8714,
      "handled": 8715,
      "hs": 8716,
      "lier": 8717,
      "shoulder": 8718,
      "advised": 8719,
      "bren": 8720,
      "icing": 8721,
      "leigh": 8722,
      "immigr": 8723,
      "tical": 8724,
      "aser": 8725,
      "shares": 8726,
      "bennett": 8727,
      "boilers": 8728,
      "intermedi": 8729,
      "scope": 8730,
      "truck": 8731,
      "intersects": 8732,
      "villa": 8733,
      "empty": 8734,
      "darwin": 8735,
      "hughes": 8736,
      "presidency": 8737,
      "diversity": 8738,
      "vulnerable": 8739,
      "ike": 8740,
      "affir": 8741,
      "judges": 8742,
      "resur": 8743,
      "scores": 8744,
      "opportunities": 8745,
      "proceeded": 8746,
      "strikes": 8747,
      "medals": 8748,
      "presentation": 8749,
      "sustain": 8750,
      "beer": 8751,
      "mans": 8752,
      "idol": 8753,
      "lover": 8754,
      "philosoph": 8755,
      "sile": 8756,
      "pull": 8757,
      "geoff": 8758,
      "acles": 8759,
      "harvard": 8760,
      "bombardment": 8761,
      "nose": 8762,
      "reinforced": 8763,
      "disturb": 8764,
      "aron": 8765,
      "saxon": 8766,
      "rocky": 8767,
      "marshal": 8768,
      "manufacturing": 8769,
      "telegraph": 8770,
      "structural": 8771,
      "rivalry": 8772,
      "knights": 8773,
      "cena": 8774,
      "drig": 8775,
      "swiss": 8776,
      "indonesia": 8777,
      "bann": 8778,
      "maine": 8779,
      "cleared": 8780,
      "nautical": 8781,
      "lasting": 8782,
      "infrastructure": 8783,
      "convict": 8784,
      "shan": 8785,
      "oslo": 8786,
      "exists": 8787,
      "traditions": 8788,
      "extending": 8789,
      "commissioner": 8790,
      "petition": 8791,
      "cameron": 8792,
      "observation": 8793,
      "exceed": 8794,
      "moscow": 8795,
      "explicit": 8796,
      "rally": 8797,
      "exile": 8798,
      "baron": 8799,
      "posts": 8800,
      "chancell": 8801,
      "stroke": 8802,
      "alaska": 8803,
      "peters": 8804,
      "protests": 8805,
      "encies": 8806,
      "lighted": 8807,
      "pittsburgh": 8808,
      "tiger": 8809,
      "gift": 8810,
      "drafted": 8811,
      "daw": 8812,
      "transported": 8813,
      "construct": 8814,
      "decorated": 8815,
      "riel": 8816,
      "drain": 8817,
      "milk": 8818,
      "realistic": 8819,
      "tonnes": 8820,
      "seal": 8821,
      "clothes": 8822,
      "gins": 8823,
      "airing": 8824,
      "swing": 8825,
      "kate": 8826,
      "ux": 8827,
      "essentially": 8828,
      "commenced": 8829,
      "mystery": 8830,
      "mckin": 8831,
      "funk": 8832,
      "eating": 8833,
      "moor": 8834,
      "drink": 8835,
      "nonetheless": 8836,
      "beating": 8837,
      "terry": 8838,
      "teles": 8839,
      "bred": 8840,
      "relatives": 8841,
      "itarian": 8842,
      "participation": 8843,
      "pover": 8844,
      "maintaining": 8845,
      "haven": 8846,
      "vick": 8847,
      "coaches": 8848,
      "restore": 8849,
      "triumph": 8850,
      "ores": 8851,
      "theories": 8852,
      "random": 8853,
      "thers": 8854,
      "runner": 8855,
      "cyclones": 8856,
      "mim": 8857,
      "withdrawn": 8858,
      "rivals": 8859,
      "canyon": 8860,
      "toler": 8861,
      "aya": 8862,
      "absent": 8863,
      "eleph": 8864,
      "turnpike": 8865,
      "witnesses": 8866,
      "relocated": 8867,
      "rodrig": 8868,
      "colours": 8869,
      "accessible": 8870,
      "choreo": 8871,
      "preparing": 8872,
      "reforms": 8873,
      "airline": 8874,
      "wallace": 8875,
      "instruct": 8876,
      "aide": 8877,
      "warnings": 8878,
      "colors": 8879,
      "carries": 8880,
      "microsoft": 8881,
      "honours": 8882,
      "cats": 8883,
      "cules": 8884,
      "twc": 8885,
      "inations": 8886,
      "editions": 8887,
      "guerr": 8888,
      "mixing": 8889,
      "owen": 8890,
      "meg": 8891,
      "viii": 8892,
      "rust": 8893,
      "monthly": 8894,
      "jtwc": 8895,
      "alt": 8896,
      "ribute": 8897,
      "volcanic": 8898,
      "usive": 8899,
      "mobil": 8900,
      "eva": 8901,
      "syria": 8902,
      "alban": 8903,
      "patient": 8904,
      "enzy": 8905,
      "inquir": 8906,
      "impl": 8907,
      "senators": 8908,
      "unexpected": 8909,
      "pete": 8910,
      "writings": 8911,
      "dell": 8912,
      "idae": 8913,
      "elic": 8914,
      "breast": 8915,
      "reich": 8916,
      "richmond": 8917,
      "displaced": 8918,
      "republicans": 8919,
      "routine": 8920,
      "amazing": 8921,
      "tul": 8922,
      "larry": 8923,
      "magnitude": 8924,
      "sheffield": 8925,
      "concerning": 8926,
      "israeli": 8927,
      "ighted": 8928,
      "interviews": 8929,
      "sculpture": 8930,
      "endor": 8931,
      "breaks": 8932,
      "kor": 8933,
      "mythology": 8934,
      "idal": 8935,
      "dying": 8936,
      "lightning": 8937,
      "chambers": 8938,
      "archaeological": 8939,
      "hollow": 8940,
      "blocked": 8941,
      "meteorological": 8942,
      "kis": 8943,
      "hurricanes": 8944,
      "nt": 8945,
      "chip": 8946,
      "interaction": 8947,
      "organic": 8948,
      "commercially": 8949,
      "mish": 8950,
      "displays": 8951,
      "reader": 8952,
      "learns": 8953,
      "variations": 8954,
      "bryan": 8955,
      "uki": 8956,
      "panzer": 8957,
      "confusion": 8958,
      "shifted": 8959,
      "sponsored": 8960,
      "judicial": 8961,
      "parkway": 8962,
      "malaysia": 8963,
      "chile": 8964,
      "jefferson": 8965,
      "illes": 8966,
      "grandfather": 8967,
      "corporate": 8968,
      "arguing": 8969,
      "dinner": 8970,
      "odd": 8971,
      "johnston": 8972,
      "dreadn": 8973,
      "sega": 8974,
      "segments": 8975,
      "cyrus": 8976,
      "dallas": 8977,
      "villain": 8978,
      "chelsea": 8979,
      "trend": 8980,
      "root": 8981,
      "bott": 8982,
      "clarke": 8983,
      "bly": 8984,
      "pard": 8985,
      "desper": 8986,
      "worlds": 8987,
      "fbi": 8988,
      "salary": 8989,
      "faculty": 8990,
      "constitu": 8991,
      "austin": 8992,
      "mare": 8993,
      "imposed": 8994,
      "variation": 8995,
      "planes": 8996,
      "soph": 8997,
      "paraly": 8998,
      "inhab": 8999,
      "stevens": 9000,
      "recover": 9001,
      "costu": 9002,
      "costume": 9003,
      "unlikely": 9004,
      "uton": 9005,
      "petro": 9006,
      "releg": 9007,
      "regiments": 9008,
      "kol": 9009,
      "landers": 9010,
      "tering": 9011,
      "crest": 9012,
      "diverse": 9013,
      "funded": 9014,
      "circular": 9015,
      "oriented": 9016,
      "parsons": 9017,
      "emotion": 9018,
      "dancers": 9019,
      "suspic": 9020,
      "impressive": 9021,
      "fortun": 9022,
      "opposing": 9023,
      "surprised": 9024,
      "educated": 9025,
      "adesh": 9026,
      "stretch": 9027,
      "adequate": 9028,
      "usage": 9029,
      "manage": 9030,
      "comfortable": 9031,
      "cattle": 9032,
      "zan": 9033,
      "iously": 9034,
      "biological": 9035,
      "sexuality": 9036,
      "angry": 9037,
      "decay": 9038,
      "precise": 9039,
      "courage": 9040,
      "examination": 9041,
      "chad": 9042,
      "neth": 9043,
      "constantin": 9044,
      "boulev": 9045,
      "snake": 9046,
      "wished": 9047,
      "spon": 9048,
      "inning": 9049,
      "iley": 9050,
      "danish": 9051,
      "susan": 9052,
      "brooks": 9053,
      "noticed": 9054,
      "armstrong": 9055,
      "tickets": 9056,
      "commerce": 9057,
      "brazilian": 9058,
      "diplomatic": 9059,
      "bold": 9060,
      "convic": 9061,
      "bible": 9062,
      "principle": 9063,
      "divorce": 9064,
      "gomer": 9065,
      "recreation": 9066,
      "sporting": 9067,
      "flies": 9068,
      "tum": 9069,
      "enger": 9070,
      "angles": 9071,
      "deeply": 9072,
      "zoo": 9073,
      "itis": 9074,
      "hyper": 9075,
      "wald": 9076,
      "organisms": 9077,
      "jin": 9078,
      "org": 9079,
      "newton": 9080,
      "dwell": 9081,
      "gamer": 9082,
      "shops": 9083,
      "ceded": 9084,
      "naming": 9085,
      "manip": 9086,
      "northwestern": 9087,
      "guests": 9088,
      "mv": 9089,
      "trap": 9090,
      "stuart": 9091,
      "cussion": 9092,
      "monast": 9093,
      "advancing": 9094,
      "divine": 9095,
      "bars": 9096,
      "girlfriend": 9097,
      "rifle": 9098,
      "pert": 9099,
      "canon": 9100,
      "inclusion": 9101,
      "steep": 9102,
      "tier": 9103,
      "sox": 9104,
      "ballo": 9105,
      "vital": 9106,
      "iveness": 9107,
      "stolen": 9108,
      "pursuit": 9109,
      "dim": 9110,
      "rog": 9111,
      "crazy": 9112,
      "travelling": 9113,
      "heavyweight": 9114,
      "hoping": 9115,
      "parachute": 9116,
      "metric": 9117,
      "prosper": 9118,
      "apollo": 9119,
      "disturbance": 9120,
      "processes": 9121,
      "directions": 9122,
      "bills": 9123,
      "fitz": 9124,
      "golf": 9125,
      "knee": 9126,
      "jacqu": 9127,
      "whale": 9128,
      "mell": 9129,
      "civilians": 9130,
      "ratio": 9131,
      "eur": 9132,
      "alam": 9133,
      "kaiser": 9134,
      "holes": 9135,
      "settlements": 9136,
      "ono": 9137,
      "itan": 9138,
      "scenario": 9139,
      "insurance": 9140,
      "hein": 9141,
      "ieth": 9142,
      "craf": 9143,
      "tourism": 9144,
      "kum": 9145,
      "opens": 9146,
      "tyler": 9147,
      "substitute": 9148,
      "utah": 9149,
      "locally": 9150,
      "harold": 9151,
      "pleased": 9152,
      "monastery": 9153,
      "erie": 9154,
      "gerald": 9155,
      "proteins": 9156,
      "challenges": 9157,
      "laps": 9158,
      "onica": 9159,
      "serbian": 9160,
      "camps": 9161,
      "potentially": 9162,
      "cau": 9163,
      "iders": 9164,
      "knows": 9165,
      "fault": 9166,
      "fifa": 9167,
      "eno": 9168,
      "compre": 9169,
      "ulating": 9170,
      "muhammad": 9171,
      "hamlet": 9172,
      "sentence": 9173,
      "otes": 9174,
      "equally": 9175,
      "satisfied": 9176,
      "lodge": 9177,
      "rookie": 9178,
      "altitude": 9179,
      "sheep": 9180,
      "phic": 9181,
      "followers": 9182,
      "ficiency": 9183,
      "sier": 9184,
      "locked": 9185,
      "benefits": 9186,
      "crush": 9187,
      "avian": 9188,
      "mise": 9189,
      "yout": 9190,
      "infer": 9191,
      "evident": 9192,
      "choir": 9193,
      "columns": 9194,
      "veteran": 9195,
      "dit": 9196,
      "integrated": 9197,
      "inhib": 9198,
      "delta": 9199,
      "options": 9200,
      "inated": 9201,
      "edon": 9202,
      "sean": 9203,
      "pod": 9204,
      "avia": 9205,
      "ivan": 9206,
      "offshore": 9207,
      "caes": 9208,
      "dreams": 9209,
      "participants": 9210,
      "error": 9211,
      "statements": 9212,
      "asha": 9213,
      "requiring": 9214,
      "explaining": 9215,
      "extinct": 9216,
      "peas": 9217,
      "bub": 9218,
      "constantine": 9219,
      "peo": 9220,
      "similarities": 9221,
      "persuaded": 9222,
      "jurisdiction": 9223,
      "addressed": 9224,
      "functional": 9225,
      "pierre": 9226,
      "conspiracy": 9227,
      "parad": 9228,
      "rains": 9229,
      "categories": 9230,
      "implemented": 9231,
      "allo": 9232,
      "weld": 9233,
      "plates": 9234,
      "documented": 9235,
      "pregnant": 9236,
      "capturing": 9237,
      "youtube": 9238,
      "pitcher": 9239,
      "cbs": 9240,
      "oted": 9241,
      "operates": 9242,
      "farmers": 9243,
      "boulevard": 9244,
      "devoted": 9245,
      "reservo": 9246,
      "correspond": 9247,
      "tern": 9248,
      "counted": 9249,
      "links": 9250,
      "socialist": 9251,
      "scandal": 9252,
      "quit": 9253,
      "fortune": 9254,
      "veterans": 9255,
      "peg": 9256,
      "tough": 9257,
      "ao": 9258,
      "schum": 9259,
      "trio": 9260,
      "wildlife": 9261,
      "massacre": 9262,
      "initiative": 9263,
      "stown": 9264,
      "gow": 9265,
      "carp": 9266,
      "cardiff": 9267,
      "iko": 9268,
      "accommodate": 9269,
      "gothic": 9270,
      "sas": 9271,
      "spawn": 9272,
      "indonesian": 9273,
      "reef": 9274,
      "disorder": 9275,
      "persona": 9276,
      "feared": 9277,
      "ista": 9278,
      "tactical": 9279,
      "nights": 9280,
      "apo": 9281,
      "caster": 9282,
      "prototype": 9283,
      "tide": 9284,
      "forever": 9285,
      "grams": 9286,
      "boundaries": 9287,
      "complained": 9288,
      "isons": 9289,
      "claren": 9290,
      "escorted": 9291,
      "virtually": 9292,
      "galaxy": 9293,
      "favourite": 9294,
      "borrow": 9295,
      "wiscon": 9296,
      "anthem": 9297,
      "domain": 9298,
      "colored": 9299,
      "studying": 9300,
      "wisconsin": 9301,
      "maps": 9302,
      "ahl": 9303,
      "weakening": 9304,
      "inf": 9305,
      "fork": 9306,
      "laf": 9307,
      "lance": 9308,
      "rp": 9309,
      "enon": 9310,
      "enos": 9311,
      "leop": 9312,
      "booth": 9313,
      "threats": 9314,
      "manuscript": 9315,
      "anarch": 9316,
      "ails": 9317,
      "hostile": 9318,
      "lian": 9319,
      "knocked": 9320,
      "kle": 9321,
      "dium": 9322,
      "paint": 9323,
      "het": 9324,
      "dealing": 9325,
      "uru": 9326,
      "lax": 9327,
      "lotte": 9328,
      "honorary": 9329,
      "trapped": 9330,
      "keen": 9331,
      "hurt": 9332,
      "chev": 9333,
      "cence": 9334,
      "danny": 9335,
      "cord": 9336,
      "montgomer": 9337,
      "upset": 9338,
      "guild": 9339,
      "tribut": 9340,
      "kyle": 9341,
      "extensively": 9342,
      "gig": 9343,
      "restri": 9344,
      "atically": 9345,
      "tools": 9346,
      "neuro": 9347,
      "glor": 9348,
      "tir": 9349,
      "johann": 9350,
      "ferr": 9351,
      "athle": 9352,
      "ika": 9353,
      "henri": 9354,
      "preserve": 9355,
      "islamic": 9356,
      "usalem": 9357,
      "fon": 9358,
      "relev": 9359,
      "sentenced": 9360,
      "switch": 9361,
      "illo": 9362,
      "myself": 9363,
      "conflicts": 9364,
      "gospel": 9365,
      "locate": 9366,
      "highlighted": 9367,
      "tribune": 9368,
      "ffin": 9369,
      "skir": 9370,
      "confident": 9371,
      "macarthur": 9372,
      "jerusalem": 9373,
      "midnight": 9374,
      "dil": 9375,
      "vik": 9376,
      "viewer": 9377,
      "rushing": 9378,
      "tasked": 9379,
      "boeing": 9380,
      "teammate": 9381,
      "rams": 9382,
      "tigers": 9383,
      "velocity": 9384,
      "cage": 9385,
      "tea": 9386,
      "honors": 9387,
      "tus": 9388,
      "provisions": 9389,
      "politicians": 9390,
      "inherited": 9391,
      "owing": 9392,
      "discrimin": 9393,
      "housed": 9394,
      "ashes": 9395,
      "flee": 9396,
      "rays": 9397,
      "shack": 9398,
      "partners": 9399,
      "montgomery": 9400,
      "tune": 9401,
      "abroad": 9402,
      "lacking": 9403,
      "rocket": 9404,
      "taste": 9405,
      "frontier": 9406,
      "circul": 9407,
      "twit": 9408,
      "tol": 9409,
      "refere": 9410,
      "renewed": 9411,
      "scholarship": 9412,
      "ups": 9413,
      "recruited": 9414,
      "noise": 9415,
      "formations": 9416,
      "barnes": 9417,
      "hybrid": 9418,
      "humanity": 9419,
[...]
