{
  "version": "1.0",
  "truncation": null,
  "padding": null,
  "added_tokens": [
    {
      "id": 0,
      "content": "<|system|>",
      "single_word": false,
      "lstrip": false,
      "rstrip": false,
      "normalized": false,
      "special": true
    },
    {
      "id": 1,
      "content": "<|user|>",
      "single_word": false,
      "lstrip": false,
      "rstrip": false,
      "normalized": false,
      "special": true
    },
    {
      "id": 2,
      "content": "<|assistant|>",
      "single_word": false,
      "lstrip": false,
      "rstrip": false,
      "normalized": false,
      "special": true
    },
    {
      "id": 3,
      "content": "<|end|>",
      "single_word": false,
      "lstrip": false,
      "rstrip": false,
      "normalized": false,
      "special": true
    }
  ],
  "normalizer": {
    "type": "NFC"
  },
  "pre_tokenizer": {
    "type": "ByteLevel",
    "add_prefix_space": false,
    "trim_offsets": true,
    "use_regex": true
  },
  "post_processor": {
    "type": "ByteLevel",
    "add_prefix_space": true,
    "trim_offsets": false,
    "use_regex": true
  },
  "decoder": {
    "type": "ByteLevel",
    "add_prefix_space": true,
    "trim_offsets": true,
    "use_regex": true
  },
  "model": {
    "type": "BPE",
    "dropout": null,
    "unk_token": null,
    "continuing_subword_prefix": null,
    "end_of_word_suffix": null,
    "fuse_unk": false,
    "byte_fallback": false,
    "vocab": {
      "<|system|>": 0,
      "<|user|>": 1,
      "<|assistant|>": 2,
      "<|end|>": 3,
      "!": 4,
      "\"": 5,
      "#": 6,
      "$": 7,
      "%": 8,
      "&": 9,
      "'": 10,
      "(": 11,
      ")": 12,
      "*": 13,
      "+": 14,
      ",": 15,
      "-": 16,
      ".": 17,
      "/": 18,
      "0": 19,
      "1": 20,
      "2": 21,
      "3": 22,
      "4": 23,
      "5": 24,
      "6": 25,
      "7": 26,
      "8": 27,
      "9": 28,
      ":": 29,
      ";": 30,
      "<": 31,
      "=": 32,
      ">": 33,
      "?": 34,
      "@": 35,
      "A": 36,
      "B": 37,
      "C": 38,
      "D": 39,
      "E": 40,
      "F": 41,
      "G": 42,
      "H": 43,
      "I": 44,
      "J": 45,
      "K": 46,
      "L": 47,
      "M": 48,
      "N": 49,
      "O": 50,
      "P": 51,
      "Q": 52,
      "R": 53,
      "S": 54,
      "T": 55,
      "U": 56,
      "V": 57,
      "W": 58,
      "X": 59,
      "Y": 60,
      "Z": 61,
      "[": 62,
      "\\": 63,
      "]": 64,
      "^": 65,
      "_": 66,
      "`": 67,
      "a": 68,
      "b": 69,
      "c": 70,
      "d": 71,
      "e": 72,
      "f": 73,
      "g": 74,
      "h": 75,
      "i": 76,
      "j": 77,
      "k": 78,
      "l": 79,
      "m": 80,
      "n": 81,
      "o": 82,
      "p": 83,
      "q": 84,
      "r": 85,
      "s": 86,
      "t": 87,
      "u": 88,
      "v": 89,
      "w": 90,
      "x": 91,
      "y": 92,
      "z": 93,
      "|": 94,
      "}": 95,
      "~": 96,
      "¡": 97,
      "¢": 98,
      "£": 99,
      "¤": 100,
      "¥": 101,
      "¦": 102,
      "§": 103,
      "¨": 104,
      "©": 105,
      "ª": 106,
      "«": 107,
      "¬": 108,
      "®": 109,
      "¯": 110,
      "°": 111,
      "±": 112,
      "²": 113,
      "³": 114,
      "´": 115,
      "µ": 116,
      "¶": 117,
      "·": 118,
      "¸": 119,
      "¹": 120,
      "º": 121,
      "»": 122,
      "¼": 123,
      "½": 124,
      "¾": 125,
      "¿": 126,
      "Â": 127,
      "Ã": 128,
      "Ä": 129,
      "Å": 130,
      "Æ": 131,
      "Ç": 132,
      "È": 133,
      "É": 134,
      "Ê": 135,
      "Ë": 136,
      "Ì": 137,
      "Í": 138,
      "Î": 139,
      "Ï": 140,
      "Ð": 141,
      "Ñ": 142,
      "Ò": 143,
      "Ó": 144,
      "Ô": 145,
      "Õ": 146,
      "Ö": 147,
      "×": 148,
      "Ø": 149,
      "Ù": 150,
      "Ú": 151,
      "Û": 152,
      "Ü": 153,
      "Ý": 154,
      "Þ": 155,
      "ß": 156,
      "à": 157,
      "á": 158,
      "â": 159,
      "ã": 160,
      "ä": 161,
      "å": 162,
      "æ": 163,
      "ç": 164,
      "è": 165,
      "é": 166,
      "ê": 167,
      "ë": 168,
      "ì": 169,
      "í": 170,
      "ï": 171,
      "ð": 172,
      "Ċ": 173,
      "Ġ": 174,
      "Ģ": 175,
      "ģ": 176,
      "Ĥ": 177,
      "ĥ": 178,
      "Ħ": 179,
      "ħ": 180,
      "Ĩ": 181,
      "ĩ": 182,
      "Ī": 183,
      "ī": 184,
      "Ĭ": 185,
      "ĭ": 186,
      "Į": 187,
      "į": 188,
      "İ": 189,
      "ı": 190,
      "Ĳ": 191,
      "ĳ": 192,
      "Ĵ": 193,
      "ĵ": 194,
      "Ķ": 195,
      "ķ": 196,
      "ĸ": 197,
      "Ĺ": 198,
      "ĺ": 199,
      "Ļ": 200,
      "ļ": 201,
      "Ľ": 202,
      "ľ": 203,
      "Ŀ": 204,
      "ŀ": 205,
      "Ł": 206,
      "ł": 207,
      "Ń": 208,
      "Ġt": 209,
      "Ġa": 210,
      "in": 211,
      "he": 212,
      "re": 213,
      "on": 214,
      "er": 215,
      "Ġs": 216,
      "Ġthe": 217,
      "or": 218,
      "ou": 219,
      "Ġw": 220,
      "at": 221,
      "nd": 222,
      "Ġc": 223,
      "it": 224,
      "es": 225,
      "Ġf": 226,
      "ing": 227,
      "is": 228,
      "en": 229,
      "Ġb": 230,
      "Ġp": 231,
      "an": 232,
      "Ġo": 233,
      "Ġto": 234,
      "ed": 235,
      "al": 236,
      "ar": 237,
      "Ġand": 238,
      "Ġm": 239,
      "Ġin": 240,
      "Ġof": 241,
      "le": 242,
      "Ġd": 243,
      "om": 244,
      "ic": 245,
      "ion": 246,
      "Ġh": 247,
      "as": 248,
      "il": 249,
      "Ġy": 250,
      "Ġth": 251,
      "ro": 252,
      "Ġl": 253,
      "Ġyou": 254,
      "ve": 255,
      "ent": 256,
      "st": 257,
      "âĢ": 258,
      "Ġe": 259,
      "Ġre": 260,
      "ct": 261,
      "Ġn": 262,
      "ĠS": 263,
      "et": 264,
      "Ġg": 265,
      "ĠT": 266,
      "Ġfor": 267,
      "el": 268,
      "Ġis": 269,
      "ĠC": 270,
      "ay": 271,
      "Ġon": 272,
      "id": 273,
      "ow": 274,
      "ot": 275,
      "ĠI": 276,
      "ac": 277,
      "ĠA": 278,
      "ol": 279,
      "Ġbe": 280,
      "ig": 281,
      "ly": 282,
      "ith": 283,
      "am": 284,
      "us": 285,
      "im": 286,
      "ad": 287,
      "ur": 288,
      "Ġwith": 289,
      "ver": 290,
      "ation": 291,
      "Ġst": 292,
      "ĠM": 293,
      "ĠP": 294,
      "ut": 295,
      "ir": 296,
      "âĢĻ": 297,
      "ch": 298,
      "ĠB": 299,
      "ill": 300,
      "ce": 301,
      "ers": 302,
      "our": 303,
      "Ġthat": 304,
      "Ġare": 305,
      "Ġit": 306,
      "un": 307,
      "ul": 308,
      "Ġal": 309,
      "Ġpro": 310,
      "ĠW": 311,
      "Ġhe": 312,
      "ge": 313,
      "ra": 314,
      "out": 315,
      "Ġan": 316,
      "Ġyour": 317,
      "oo": 318,
      "ter": 319,
      "Ġwe": 320,
      "pp": 321,
      "if": 322,
      "ĠD": 323,
      "ke": 324,
      "ĠF": 325,
      "se": 326,
      "Ġha": 327,
      "ess": 328,
      "ĠR": 329,
      "ĠH": 330,
      "ab": 331,
      "Ġor": 332,
      "est": 333,
      "Ġcom": 334,
      "Ġcon": 335,
      "Ġwh": 336,
      "Ġ2": 337,
      "ore": 338,
      "igh": 339,
      "Ġas": 340,
      "Ġat": 341,
      "ew": 342,
      "Ġfr": 343,
      "Ġ1": 344,
      "ĠL": 345,
      "ort": 346,
      "ate": 347,
      "ure": 348,
      "her": 349,
      "ĠThe": 350,
      "em": 351,
      "qu": 352,
      "ri": 353,
      "Ġex": 354,
      "ity": 355,
      "Ġse": 356,
      "pe": 357,
      "Ġv": 358,
      "ist": 359,
      "ĠG": 360,
      "art": 361,
      "ant": 362,
      "ĠE": 363,
      "Ġwill": 364,
      "ĠN": 365,
      "Ġcan": 366,
      "ust": 367,
      "ment": 368,
      "Ġfrom": 369,
      "Ġr": 370,
      "ive": 371,
      "Ġsh": 372,
      "op": 373,
      "ld": 374,
      "Ġthis": 375,
      "Ġus": 376,
      "nt": 377,
      "ight": 378,
      "oc": 379,
      "and": 380,
      "Ġhave": 381,
      "um": 382,
      "ain": 383,
      "up": 384,
      "Ġ(": 385,
      "th": 386,
      "Ġde": 387,
      "all": 388,
      "ĠO": 389,
      "os": 390,
      "ome": 391,
      "ies": 392,
      "ard": 393,
      "Ġch": 394,
      "00": 395,
      "The": 396,
      "Ġby": 397,
      "ear": 398,
      "Ġpl": 399,
      "res": 400,
      "ĠâĢ": 401,
      "Ġwas": 402,
      "ide": 403,
      "ack": 404,
      "Ġle": 405,
      "age": 406,
      "ast": 407,
      "ect": 408,
      "ost": 409,
      "ice": 410,
      "ial": 411,
      "Ġall": 412,
      "rou": 413,
      "Ġour": 414,
      "ag": 415,
      "Ġwor": 416,
      "Ġsu": 417,
      "Ġnot": 418,
      "king": 419,
      "able": 420,
      "ell": 421,
      "iv": 422,
      "per": 423,
      "od": 424,
      "are": 425,
      "ud": 426,
      "ine": 427,
      "ail": 428,
      "Ġhas": 429,
      "Ġab": 430,
      "Ġne": 431,
      "ĠJ": 432,
      "ip": 433,
      "gh": 434,
      "ions": 435,
      "ere": 436,
      "ake": 437,
      "ire": 438,
      "Ġj": 439,
      "Ġup": 440,
      "pt": 441,
      "ff": 442,
      "ks": 443,
      "Ġad": 444,
      "Ġout": 445,
      "ĠU": 446,
      "Ġ20": 447,
      "Ġk": 448,
      "Ġcomp": 449,
      "very": 450,
      "ould": 451,
      "Ġdo": 452,
      "ind": 453,
      "cc": 454,
      "Ġmore": 455,
      "ry": 456,
      "du": 457,
      "hen": 458,
      "one": 459,
      "ated": 460,
      "orm": 461,
      "ase": 462,
      "ace": 463,
      "ime": 464,
      "Ġen": 465,
      "..": 466,
      "ĠSt": 467,
      "ite": 468,
      "act": 469,
      "iz": 470,
      "ie": 471,
      "ood": 472,
      "og": 473,
      "Ġso": 474,
      "Ġoff": 475,
      "ther": 476,
      "ign": 477,
      "Ġtheir": 478,
      "so": 479,
      "ĠTh": 480,
      "pl": 481,
      "Ġcont": 482,
      "Ġint": 483,
      "ich": 484,
      "cl": 485,
      "ĠIn": 486,
      "ber": 487,
      "Ġte": 488,
      "'s": 489,
      "ally": 490,
      "erv": 491,
      "Ġcl": 492,
      "Ġme": 493,
      "ĠK": 494,
      "ans": 495,
      "ance": 496,
      "ĠY": 497,
      "ach": 498,
      "Ġnew": 499,
      "ĠV": 500,
      "ak": 501,
      "ep": 502,
      "reat": 503,
      "ll": 504,
      "ia": 505,
      "Ġone": 506,
      "ong": 507,
      "ue": 508,
      "ous": 509,
      "Ġbut": 510,
      "Ġ3": 511,
      "Ġim": 512,
      "form": 513,
      "Ġapp": 514,
      "ib": 515,
      "Ġtr": 516,
      "ays": 517,
      "ame": 518,
      "Ġqu": 519,
      "ap": 520,
      "ick": 521,
      "ub": 522,
      "ree": 523,
      "âĢĿ": 524,
      "Ġabout": 525,
      "Ġsp": 526,
      "Ġman": 527,
      "Ġthey": 528,
      "Ġyear": 529,
      "ations": 530,
      "Ġres": 531,
      "ount": 532,
      "Ġper": 533,
      "ove": 534,
      "Ġalso": 535,
      "Ġun": 536,
      "und": 537,
      "Ġsa": 538,
      "ile": 539,
      "Ġtime": 540,
      "ook": 541,
      "ark": 542,
      "ary": 543,
      "ĠCh": 544,
      "vel": 545,
      "ult": 546,
      "ike": 547,
      "ings": 548,
      "Ġro": 549,
      "ond": 550,
      "own": 551,
      "Ġget": 552,
      "ction": 553,
      "Ġwhich": 554,
      "Ġfe": 555,
      "ven": 556,
      "Ġmy": 557,
      "ors": 558,
      "ents": 559,
      "Ġany": 560,
      "ĠWe": 561,
      "ord": 562,
      "ild": 563,
      "av": 564,
      "ition": 565,
      "int": 566,
      "Ġneed": 567,
      "Ġpart": 568,
      "Ġpr": 569,
      "Ġwho": 570,
      "ĠIt": 571,
      "ater": 572,
      "te": 573,
      "Ġover": 574,
      "ress": 575,
      "Ġgo": 576,
      "Ġacc": 577,
      "port": 578,
      "Ġother": 579,
      "Ġdes": 580,
      "lp": 581,
      "ence": 582,
      "ish": 583,
      "Ġ-": 584,
      "oy": 585,
      "Ġ201": 586,
      "com": 587,
      "Ġbeen": 588,
      "ens": 589,
      "Ġsome": 590,
      "clud": 591,
      "ade": 592,
      "Ġar": 593,
      "ck": 594,
      "Ġhelp": 595,
      "wn": 596,
      "Ġpre": 597,
      "Ġsc": 598,
      "Ġkn": 599,
      "Ġspe": 600,
      "ov": 601,
      "ob": 602,
      "Ġwork": 603,
      "Ġhis": 604,
      "Ġwhen": 605,
      "day": 606,
      "Ġthem": 607,
      "ru": 608,
      "Ġcol": 609,
      "iew": 610,
      "ĠâĢľ": 611,
      "Ġdis": 612,
      "Ġprodu": 613,
      "Ġserv": 614,
      "irst": 615,
      "ound": 616,
      "ning": 617,
      "mer": 618,
      "Ġ4": 619,
      "ical": 620,
      "ool": 621,
      "rough": 622,
      "Th": 623,
      "Ġlike": 624,
      "Ġprov": 625,
      "Ġ5": 626,
      "low": 627,
      "Ġag": 628,
      "Ġ&": 629,
      "ose": 630,
      "ft": 631,
      "Ġadd": 632,
      "ĠâĢĵ": 633,
      "Ġinclud": 634,
      "Ġits": 635,
      "ĠRe": 636,
      "red": 637,
      "Ġbu": 638,
      "Ġif": 639,
      "ĠThis": 640,
      "Ġmake": 641,
      "ely": 642,
      "ices": 643,
      "ang": 644,
      "Ġthan": 645,
      "Ġpe": 646,
      "anc": 647,
      "old": 648,
      "vers": 649,
      "fter": 650,
      "ne": 651,
      "Ġthere": 652,
      "Ġhow": 653,
      "ory": 654,
      "pport": 655,
      "ont": 656,
      "Ġwhat": 657,
      "iness": 658,
      "Ġjust": 659,
      "ature": 660,
      "Ġcomm": 661,
      "Ġtw": 662,
      "hed": 663,
      "Ġloc": 664,
      "ough": 665,
      "Ġrec": 666,
      "round": 667,
      "Ġinto": 668,
      "here": 669,
      "We": 670,
      "ting": 671,
      "Ġfirst": 672,
      "ful": 673,
      "20": 674,
      "gr": 675,
      "Ġthrough": 676,
      "Ġuse": 677,
      "||": 678,
      "usiness": 679,
      "ons": 680,
      "lect": 681,
      "Ġevery": 682,
      "Ġhome": 683,
      "ual": 684,
      "ates": 685,
      "lic": 686,
      "Ġback": 687,
      "tern": 688,
      "Ġam": 689,
      "lease": 690,
      "ments": 691,
      "ities": 692,
      "ily": 693,
      "ople": 694,
      "Ġexper": 695,
      "ange": 696,
      "Ġfl": 697,
      "fere": 698,
      "urn": 699,
      "ric": 700,
      "formation": 701,
      "Ġwould": 702,
      "Ġmost": 703,
      "amp": 704,
      "Ġco": 705,
      "xt": 706,
      "Ġwell": 707,
      "ating": 708,
      "Ġmay": 709,
      "Ġem": 710,
      "Ġwere": 711,
      "...": 712,
      "Ġher": 713,
      "les": 714,
      "ious": 715,
      "Ġonly": 716,
      "Ġknow": 717,
      "oth": 718,
      "Ġph": 719,
      "Ġdesign": 720,
      "vent": 721,
      "ject": 722,
      "Ġtra": 723,
      "end": 724,
      "ustom": 725,
      "Ġwant": 726,
      "Ġplay": 727,
      "Ġsee": 728,
      "Ġbet": 729,
      "ian": 730,
      "row": 731,
      "Ġav": 732,
      "ĠYou": 733,
      "Ġtwo": 734,
      "any": 735,
      "Ġbl": 736,
      "bs": 737,
      "Ġind": 738,
      "we": 739,
      "cial": 740,
      "ink": 741,
      "use": 742,
      "Ġhad": 743,
      "ise": 744,
      "Ġno": 745,
      "als": 746,
      "itt": 747,
      "Ġpeople": 748,
      "Ġke": 749,
      "Ġproduct": 750,
      "Ġ$": 751,
      "ph": 752,
      "ĠHe": 753,
      "Ġgreat": 754,
      "Ġsaid": 755,
      "Ġsm": 756,
      "ts": 757,
      "In": 758,
      "ty": 759,
      "ible": 760,
      "Ġ6": 761,
      "Ġbest": 762,
      "ock": 763,
      "Ġbusiness": 764,
      "enc": 765,
      "ife": 766,
      "ng": 767,
      "iss": 768,
      "Ġstart": 769,
      "uring": 770,
      "Ġafter": 771,
      "ĠPro": 772,
      "Ġhigh": 773,
      "ath": 774,
      "Ġund": 775,
      "ased": 776,
      "ility": 777,
      "Ġcons": 778,
      "ss": 779,
      "ific": 780,
      "This": 781,
      "air": 782,
      "Ġdif": 783,
      "Ġfin": 784,
      "Ġvery": 785,
      "ull": 786,
      "Ġthese": 787,
      "Ġbr": 788,
      "ailable": 789,
      "ience": 790,
      "yst": 791,
      "hip": 792,
      "Ġday": 793,
      "Ġyears": 794,
      "Ġact": 795,
      "its": 796,
      "fore": 797,
      "ets": 798,
      "oint": 799,
      "Ġwee": 800,
      "Ġmany": 801,
      "Ġhere": 802,
      "Ġcar": 803,
      "hes": 804,
      "Ġbec": 805,
      "Ġinformation": 806,
      "Ġimp": 807,
      "ward": 808,
      "Ġreg": 809,
      "Ġfind": 810,
      "Ġgood": 811,
      "aking": 812,
      "ĠCom": 813,
      "cess": 814,
      "Ġteam": 815,
      "Ġgu": 816,
      "ract": 817,
      "Ġown": 818,
      "Ġnow": 819,
      "Ġunder": 820,
      "line": 821,
      "erson": 822,
      "pen": 823,
      "Ġfam": 824,
      "Ġcustom": 825,
      "pect": 826,
      "ower": 827,
      "oss": 828,
      "Ġway": 829,
      "Ġins": 830,
      "Ġ\"": 831,
      "Ġinc": 832,
      "ystem": 833,
      "velop": 834,
      "ular": 835,
      "li": 836,
      "ax": 837,
      "Ġrem": 838,
      "Ġsec": 839,
      "Ġmon": 840,
      "ĠSh": 841,
      "Ġset": 842,
      "ash": 843,
      "Ġ7": 844,
      "ational": 845,
      "get": 846,
      "ĠSe": 847,
      "ited": 848,
      "Ġtake": 849,
      "ĠDe": 850,
      "Ġshe": 851,
      "ner": 852,
      "Ġwhere": 853,
      "unity": 854,
      "ason": 855,
      "Ġinv": 856,
      "Ġche": 857,
      "ize": 858,
      "Ġac": 859,
      "nds": 860,
      "Ġ10": 861,
      "view": 862,
      "Ġeas": 863,
      "Ġavailable": 864,
      "Ġvis": 865,
      "Ġbel": 866,
      "atch": 867,
      "ert": 868,
      ").": 869,
      "uch": 870,
      "ollow": 871,
      "ouse": 872,
      "ause": 873,
      "io": 874,
      "land": 875,
      "Ġdel": 876,
      "aw": 877,
      "Ġ8": 878,
      "Ġprovid": 879,
      "Ġmin": 880,
      "Ġmade": 881,
      "ble": 882,
      "ĠUn": 883,
      "Ġent": 884,
      "Ġrequ": 885,
      "Ġright": 886,
      "Ġeven": 887,
      "Ġshow": 888,
      "erm": 889,
      "Ġlong": 890,
      "Ġshould": 891,
      "chool": 892,
      "Ġdec": 893,
      "Ġcre": 894,
      "Ġsupport": 895,
      "ality": 896,
      "az": 897,
      "ork": 898,
      "arket": 899,
      "Ġdown": 900,
      "Ġinst": 901,
      "Ġ19": 902,
      "alth": 903,
      "hat": 904,
      "ren": 905,
      "elf": 906,
      "gan": 907,
      "let": 908,
      "ix": 909,
      "000": 910,
      "ĠIf": 911,
      "Ġread": 912,
      "chn": 913,
      "der": 914,
      "olog": 915,
      "Ġret": 916,
      "Ġlook": 917,
      "Ġdon": 918,
      "Ġdiffere": 919,
      "oun": 920,
      "ug": 921,
      "riv": 922,
      "arm": 923,
      "ank": 924,
      "ooking": 925,
      "ale": 926,
      "ave": 927,
      "Ġdet": 928,
      "Ġrel": 929,
      "ption": 930,
      "Ġmod": 931,
      "arn": 932,
      "oad": 933,
      "ues": 934,
      "rib": 935,
      "pr": 936,
      "Ġthen": 937,
      "Ġlast": 938,
      "ident": 939,
      "ĠNew": 940,
      "Ġsur": 941,
      "ient": 942,
      "Ġbefore": 943,
      "ics": 944,
      "Ġbo": 945,
      "Ġeff": 946,
      "Ġcur": 947,
      "Ġart": 948,
      "Ġcould": 949,
      "Ġmuch": 950,
      "arch": 951,
      "Ġ9": 952,
      "gram": 953,
      "way": 954,
      "'t": 955,
      "irect": 956,
      "Ġdevelop": 957,
      "ener": 958,
      "Ġcall": 959,
      "Ġmem": 960,
      "ee": 961,
      "ages": 962,
      "Ġtrans": 963,
      "ps": 964,
      "ered": 965,
      "Ġfree": 966,
      "ative": 967,
      "aut": 968,
      "Ġsystem": 969,
      "Ġused": 970,
      "ict": 971,
      "âĢľ": 972,
      "Ġlist": 973,
      "Ġworld": 974,
      "Ġoffer": 975,
      "ĠFr": 976,
      "oor": 977,
      "Ġservice": 978,
      "fect": 979,
      "Ġperson": 980,
      "Ġpur": 981,
      "Ġsk": 982,
      "Ġaround": 983,
      "co": 984,
      "Ġeach": 985,
      "ple": 986,
      "Ġfollow": 987,
      "Ġlove": 988,
      "Ġcle": 989,
      "els": 990,
      "Ġsim": 991,
      "Ġlife": 992,
      "Ġwhile": 993,
      "ather": 994,
      "ures": 995,
      "akes": 996,
      "Ġfeature": 997,
      "Ġopen": 998,
      "pping": 999,
      "Ġstud": 1000,
      "Ġatt": 1001,
      "Re": 1002,
      "rit": 1003,
      "ces": 1004,
      "ession": 1005,
      "Ġcare": 1006,
      "Ġtoo": 1007,
      "Ġmonth": 1008,
      "ours": 1009,
      "olut": 1010,
      "ins": 1011,
      "Ġlead": 1012,
      "room": 1013,
      "Ġnum": 1014,
      "Ġplace": 1015,
      "ott": 1016,
      "ĠPl": 1017,
      "ining": 1018,
      "ĠAl": 1019,
      "Ġrun": 1020,
      "ĠCl": 1021,
      "ĠBe": 1022,
      "other": 1023,
      "Ġhand": 1024,
      "ced": 1025,
      "Ġagain": 1026,
      "rent": 1027,
      "arge": 1028,
      "ĠAnd": 1029,
      "ince": 1030,
      "Ġbuild": 1031,
      "Ġcompany": 1032,
      "aint": 1033,
      "ĠLe": 1034,
      "ines": 1035,
      "Ġtop": 1036,
      "Ġsuch": 1037,
      "Ġexperience": 1038,
      "Ġkeep": 1039,
      "Ġra": 1040,
      "Ġpres": 1041,
      "Ġbeing": 1042,
      "iving": 1043,
      "Ġform": 1044,
      "),": 1045,
      "10": 1046,
      "Ġdifferent": 1047,
      "Ġend": 1048,
      "Ġprof": 1049,
      "ĠAd": 1050,
      "ĠAr": 1051,
      "Ġfamily": 1052,
      "iel": 1053,
      "It": 1054,
      "ĠFor": 1055,
      "Ġfun": 1056,
      "Ġrece": 1057,
      "ene": 1058,
      "ways": 1059,
      "arg": 1060,
      "Ġplan": 1061,
      "Ġsign": 1062,
      "Ġwater": 1063,
      "iqu": 1064,
      "If": 1065,
      "Ġser": 1066,
      "ied": 1067,
      "ars": 1068,
      "ik": 1069,
      "ired": 1070,
      "Ġroom": 1071,
      "St": 1072,
      "ata": 1073,
      "ives": 1074,
      "ys": 1075,
      "Ġproject": 1076,
      "orth": 1077,
      "Ġarea": 1078,
      "ĠTe": 1079,
      "ĠBl": 1080,
      "read": 1081,
      "atur": 1082,
      "Ġprocess": 1083,
      "Ġdoes": 1084,
      "Ġtechn": 1085,
      "alk": 1086,
      "Ġpost": 1087,
      "ety": 1088,
      "rand": 1089,
      "Ġmed": 1090,
      "ital": 1091,
      "Ġallow": 1092,
      "Ġproper": 1093,
      "ames": 1094,
      "Ġlot": 1095,
      "ĠAn": 1096,
      "Ġmarket": 1097,
      "Ġgr": 1098,
      "oot": 1099,
      "ross": 1100,
      "Ġthose": 1101,
      "50": 1102,
      "joy": 1103,
      "Ġadv": 1104,
      "ĠEx": 1105,
      "Ġaccess": 1106,
      "ever": 1107,
      "Ġboth": 1108,
      "Ġlight": 1109,
      "Ġusing": 1110,
      "Ġbecause": 1111,
      "ants": 1112,
      "Ġinter": 1113,
      "Ġimport": 1114,
      "bers": 1115,
      "ness": 1116,
      "ER": 1117,
      "Ġ202": 1118,
      "less": 1119,
      "Ġfull": 1120,
      "Ġext": 1121,
      "imes": 1122,
      "Ġcount": 1123,
      "erest": 1124,
      "Ġweek": 1125,
      "nce": 1126,
      "Ġchild": 1127,
      "ĠAs": 1128,
      "Ġstr": 1129,
      "Ġprogram": 1130,
      "ass": 1131,
      "Ġdisc": 1132,
      "ĠAll": 1133,
      "Ġgame": 1134,
      "Ġthree": 1135,
      "Ġservices": 1136,
      "Ġed": 1137,
      "ery": 1138,
      "Ġaut": 1139,
      "Ġvar": 1140,
      "ually": 1141,
      "ivers": 1142,
      "Ġdays": 1143,
      "ah": 1144,
      "led": 1145,
      "Ġduring": 1146,
      "ween": 1147,
      "Ġfound": 1148,
      "Ġsmall": 1149,
      "Ġcent": 1150,
      "Ġincluding": 1151,
      "19": 1152,
      "ails": 1153,
      "Ġwebs": 1154,
      "Ġnext": 1155,
      "Ġrep": 1156,
      "Ġprovide": 1157,
      "reen": 1158,
      "Ġfew": 1159,
      "tt": 1160,
      "Ġrest": 1161,
      "ving": 1162,
      ".âĢĿ": 1163,
      "Ġfrie": 1164,
      "Ġexp": 1165,
      "ĠQ": 1166,
      "Ġpol": 1167,
      "ier": 1168,
      "Ġhapp": 1169,
      "nect": 1170,
      "30": 1171,
      "Ġref": 1172,
      "au": 1173,
      "Ġwin": 1174,
      "Ġpay": 1175,
      "Ġonline": 1176,
      "ized": 1177,
      "br": 1178,
      "Ġsure": 1179,
      "Ġproducts": 1180,
      "ield": 1181,
      "Ġbetween": 1182,
      "ublic": 1183,
      "Ġcome": 1184,
      "Ġorder": 1185,
      "Ġdid": 1186,
      "att": 1187,
      "ittle": 1188,
      "Ġsub": 1189,
      "Ġfeel": 1190,
      "Ġstill": 1191,
      "Ġval": 1192,
      "Ġalways": 1193,
      "Ġperfect": 1194,
      "Ġvisit": 1195,
      "ology": 1196,
      "Ġcontact": 1197,
      "Ġgoing": 1198,
      "You": 1199,
      "Ġbeaut": 1200,
      "ware": 1201,
      "ral": 1202,
      "ved": 1203,
      "Ġcontin": 1204,
      "ern": 1205,
      "Ġ12": 1206,
      "Ġcour": 1207,
      "Ġcurrent": 1208,
      "Ġgl": 1209,
      "ĠCol": 1210,
      "Ġitem": 1211,
      "Ġ0": 1212,
      "Ġevent": 1213,
      "ished": 1214,
      "Ġposs": 1215,
      "Ġpoint": 1216,
      "Ġphot": 1217,
      "Ġev": 1218,
      "ĠThey": 1219,
      "ĠSc": 1220,
      "ccess": 1221,
      "IN": 1222,
      "roup": 1223,
      "Ġsame": 1224,
      "Ġtoday": 1225,
      "Ġreally": 1226,
      "Ġve": 1227,
      "ior": 1228,
      "ĠWh": 1229,
      "ards": 1230,
      "Ġann": 1231,
      "Ġhealth": 1232,
      "gy": 1233,
      "Ġexc": 1234,
      "RE": 1235,
      "Ġide": 1236,
      "rist": 1237,
      "Ġspecial": 1238,
      "iver": 1239,
      "ium": 1240,
      "Ġhim": 1241,
      "Ġstand": 1242,
      "Ġlooking": 1243,
      "Ġseason": 1244,
      "Ġappro": 1245,
      "ling": 1246,
      "Ġenjoy": 1247,
      "Ġinterest": 1248,
      "Ġorgan": 1249,
      "Ġquest": 1250,
      "Ġcost": 1251,
      "Ġquality": 1252,
      "thing": 1253,
      "outh": 1254,
      "Ġpat": 1255,
      "Ġcor": 1256,
      "ĠTr": 1257,
      "ton": 1258,
      "Ġeasy": 1259,
      "uss": 1260,
      ",âĢĿ": 1261,
      "uc": 1262,
      "âĢ¦": 1263,
      "Ġdef": 1264,
      "Ġview": 1265,
      "Ġfil": 1266,
      "Ġreal": 1267,
      "Ġstre": 1268,
      "ĠZ": 1269,
      "ĠInd": 1270,
      "man": 1271,
      "Ġmeet": 1272,
      "Ġnumber": 1273,
      "Ġwithin": 1274,
      "Ġdirect": 1275,
      "eng": 1276,
      "Ġwebsite": 1277,
      "Ġbetter": 1278,
      "Ġty": 1279,
      "Ġimportant": 1280,
      "Ġable": 1281,
      "itional": 1282,
      "Ġbig": 1283,
      "ĠSp": 1284,
      "iful": 1285,
      "Ġworking": 1286,
      "Ġplease": 1287,
      "Ġperform": 1288,
      "Ġdist": 1289,
      "Ġreport": 1290,
      "Ġthings": 1291,
      "ined": 1292,
      "Ġsaf": 1293,
      "Ġ200": 1294,
      "Ġgive": 1295,
      "Ġgrow": 1296,
      "ĠTo": 1297,
      "Ġlittle": 1298,
      "Ġopt": 1299,
      "Ġresult": 1300,
      "ruct": 1301,
      "Ġlocal": 1302,
      "Ġgener": 1303,
      "Ġcomple": 1304,
      "Ġschool": 1305,
      "fort": 1306,
      "ĠCon": 1307,
      "Ġsecond": 1308,
      "ĠThere": 1309,
      "Ġconf": 1310,
      "ode": 1311,
      "Ġcommunity": 1312,
      "ote": 1313,
      "ploy": 1314,
      "lection": 1315,
      "Ġcheck": 1316,
      "ves": 1317,
      "ĠCent": 1318,
      "bo": 1319,
      "iday": 1320,
      "ĠUS": 1321,
      "ON": 1322,
      "Ġhead": 1323,
      "Ġwithout": 1324,
      "Ġsit": 1325,
      "be": 1326,
      "aterial": 1327,
      "Ġsl": 1328,
      "ider": 1329,
      "stand": 1330,
      "Ġthough": 1331,
      "ately": 1332,
      "to": 1333,
      "yle": 1334,
      "For": 1335,
      "Ġbelow": 1336,
      "Ġoper": 1337,
      "orn": 1338,
      "itc": 1339,
      "raph": 1340,
      "oney": 1341,
      "Ġshare": 1342,
      "Ġsince": 1343,
      "ĠHow": 1344,
      "ision": 1345,
      "ories": 1346,
      "of": 1347,
      "ĠPh": 1348,
      "aces": 1349,
      "Ġhard": 1350,
      "What": 1351,
      "Ġtri": 1352,
      "Ġpurch": 1353,
      "ift": 1354,
      "Ġmust": 1355,
      "eth": 1356,
      "Ġpartic": 1357,
      "Ġvide": 1358,
      "tect": 1359,
      "Ġdata": 1360,
      "ique": 1361,
      "Ġbed": 1362,
      "Ġequ": 1363,
      "Ġlevel": 1364,
      "ooks": 1365,
      "ales": 1366,
      "Ġla": 1367,
      "Ġthink": 1368,
      "Ġiss": 1369,
      "AT": 1370,
      "Ġair": 1371,
      "Ġput": 1372,
      "Ġear": 1373,
      "ĠCo": 1374,
      "ĠMan": 1375,
      "Ġspace": 1376,
      "Ġresp": 1377,
      "ential": 1378,
      "Ġfeatures": 1379,
      "ĠPr": 1380,
      "ley": 1381,
      "Ġdri": 1382,
      "illion": 1383,
      "ĠBut": 1384,
      "rol": 1385,
      "12": 1386,
      "Ġneeds": 1387,
      "ush": 1388,
      "aj": 1389,
      "ients": 1390,
      "Ġeng": 1391,
      "Ġprofession": 1392,
      "ĠOr": 1393,
      "Ġpower": 1394,
      "ĠRes": 1395,
      "ww": 1396,
      "self": 1397,
      "Ġspec": 1398,
      "Ġincre": 1399,
      "gg": 1400,
      "ms": 1401,
      "Ġindust": 1402,
      "ĠWith": 1403,
      "sc": 1404,
      "ody": 1405,
      "agement": 1406,
      "ains": 1407,
      "ently": 1408,
      "duct": 1409,
      "pped": 1410,
      "Ġbuy": 1411,
      "Ġinvest": 1412,
      "ĠSo": 1413,
      "Ġhouse": 1414,
      "aster": 1415,
      "Ġest": 1416,
      "ĠÂ": 1417,
      "ator": 1418,
      "cept": 1419,
      "meric": 1420,
      "Ġcond": 1421,
      "Ġmaking": 1422,
      "Ġsite": 1423,
      "Ġmov": 1424,
      "ency": 1425,
      "con": 1426,
      "ats": 1427,
      "ember": 1428,
      "ability": 1429,
      "part": 1430,
      "Ġbeautiful": 1431,
      "ĠShe": 1432,
      "icle": 1433,
      "ann": 1434,
      "Ġimpro": 1435,
      "Ġconnect": 1436,
      "Ġbook": 1437,
      "comm": 1438,
      "Ġbre": 1439,
      "Ġoffers": 1440,
      "ission": 1441,
      "Ġtry": 1442,
      "ribut": 1443,
      "inal": 1444,
      "ills": 1445,
      "ĠâĢĺ": 1446,
      "Ġpack": 1447,
      "Ġapplic": 1448,
      "Ġinclude": 1449,
      "Ġ30": 1450,
      "As": 1451,
      "Ġclean": 1452,
      "ĠFe": 1453,
      "Ġprice": 1454,
      "aff": 1455,
      "Ġpos": 1456,
      "Our": 1457,
      "Ġopport": 1458,
      "Ġcreat": 1459,
      "Ġcr": 1460,
      "Ġanother": 1461,
      "ists": 1462,
      "oh": 1463,
      "Ġcreate": 1464,
      "Ġlearn": 1465,
      "Ġlarge": 1466,
      "Ġpop": 1467,
      "af": 1468,
      "Ġfac": 1469,
      "Ġinf": 1470,
      "Pro": 1471,
      "Ġstore": 1472,
      "ury": 1473,
      "Ġold": 1474,
      "ights": 1475,
      "ĠOn": 1476,
      "Ġfour": 1477,
      "Ġexpl": 1478,
      "atter": 1479,
      "mber": 1480,
      "Ġ18": 1481,
      "ĠOur": 1482,
      "Ġ/": 1483,
      "ec": 1484,
      "oose": 1485,
      "side": 1486,
      "ases": 1487,
      "Ġbro": 1488,
      "load": 1489,
      "Ġstate": 1490,
      "Ġsoc": 1491,
      "Ġx": 1492,
      "ird": 1493,
      "ĠApp": 1494,
      "Ġupd": 1495,
      "Ġhot": 1496,
      "work": 1497,
      "Ġmet": 1498,
      "pend": 1499,
      "Ġ15": 1500,
      "by": 1501,
      "Ġcustomers": 1502,
      "ĠBr": 1503,
      "ST": 1504,
      "ope": 1505,
      "tend": 1506,
      "How": 1507,
      "ok": 1508,
      "ised": 1509,
      "Ġreview": 1510,
      "ĠFl": 1511,
      "aring": 1512,
      "ney": 1513,
      "Ġsay": 1514,
      "Ġsupp": 1515,
      "ilt": 1516,
      "ina": 1517,
      "Ġaff": 1518,
      "Ġprom": 1519,
      "Ġsoft": 1520,
      "Ġ11": 1521,
      "Ġpar": 1522,
      "Ġminut": 1523,
      "Ġi": 1524,
      "Ġreturn": 1525,
      "urs": 1526,
      "Ġintern": 1527,
      "gether": 1528,
      "Ġtogether": 1529,
      "ering": 1530,
      "Ġalong": 1531,
      "ĠComm": 1532,
      "cent": 1533,
      "Ġmus": 1534,
      "Ġens": 1535,
      "Ġfood": 1536,
      "Ġrange": 1537,
      "ids": 1538,
      "Ġexpect": 1539,
      "Ġjob": 1540,
      "Ġaway": 1541,
      "ording": 1542,
      "Ġcomes": 1543,
      "Ġmight": 1544,
      "Ġfact": 1545,
      "ows": 1546,
      "Ġnear": 1547,
      "Ġprotect": 1548,
      "Ġdev": 1549,
      "Ġeffect": 1550,
      "ocus": 1551,
      "Ġcap": 1552,
      "Ġchange": 1553,
      "Sh": 1554,
      "ners": 1555,
      "Ġemail": 1556,
      "ĠChrist": 1557,
      "uck": 1558,
      "Ġ2019": 1559,
      "ified": 1560,
      "Ġlet": 1561,
      "ĠAmeric": 1562,
      "Ġsuccess": 1563,
      "Ġnews": 1564,
      "Ġinstall": 1565,
      "Ġproble": 1566,
      "ĠIs": 1567,
      "Ġpage": 1568,
      "ically": 1569,
      "por": 1570,
      "gin": 1571,
      "enef": 1572,
      "med": 1573,
      "Ġfollowing": 1574,
      "Ġpossible": 1575,
      "ĠServ": 1576,
      "Ġclos": 1577,
      "15": 1578,
      "ex": 1579,
      "fact": 1580,
      "ele": 1581,
      "Ġactiv": 1582,
      "Ġworks": 1583,
      "uper": 1584,
      "enn": 1585,
      "Ġchildren": 1586,
      "Ġshort": 1587,
      "Ġel": 1588,
      "Ġchang": 1589,
      "lish": 1590,
      "itions": 1591,
      "ify": 1592,
      "ĠCar": 1593,
      "Ġless": 1594,
      "AN": 1595,
      "ron": 1596,
      "Ġacross": 1597,
      "ane": 1598,
      "ips": 1599,
      "There": 1600,
      "Ġbas": 1601,
      "Ġsing": 1602,
      "raft": 1603,
      "Ġsolut": 1604,
      "Ġpast": 1605,
      "ape": 1606,
      "iting": 1607,
      "iversity": 1608,
      "Ġproperty": 1609,
      "Ġmaterial": 1610,
      "ams": 1611,
      "Ġquick": 1612,
      "iety": 1613,
      "Ġfav": 1614,
      "ots": 1615,
      "Ġmembers": 1616,
      "ense": 1617,
      "Wh": 1618,
      "ivid": 1619,
      "Ġsw": 1620,
      "commend": 1621,
      "pos": 1622,
      "Ġpersonal": 1623,
      "Ġob": 1624,
      "Ġpresent": 1625,
      "rem": 1626,
      "Ġtrad": 1627,
      "ieve": 1628,
      "Ġlive": 1629,
      "Ġhours": 1630,
      "Ġpublic": 1631,
      "Ġelect": 1632,
      "til": 1633,
      "Ġgot": 1634,
      "Ġname": 1635,
      "Ch": 1636,
      "Ġnight": 1637,
      "Ġtimes": 1638,
      "AR": 1639,
      "Ġpract": 1640,
      "Ġmoney": 1641,
      "Ġbring": 1642,
      "Ġjo": 1643,
      "ateg": 1644,
      "ising": 1645,
      "Ġaccount": 1646,
      "Ġcert": 1647,
      "ĠCont": 1648,
      "ĠEng": 1649,
      "Ġside": 1650,
      "Ġ100": 1651,
      "ĠMar": 1652,
      "Ġturn": 1653,
      "oice": 1654,
      "pecial": 1655,
      "itchen": 1656,
      "Ġmove": 1657,
      "ym": 1658,
      "Ġbased": 1659,
      "Ġcut": 1660,
      "ĠYour": 1661,
      "11": 1662,
      "Ġsize": 1663,
      "Ġvideo": 1664,
      "uture": 1665,
      "Ġemploy": 1666,
      "ĠNo": 1667,
      "Ġagainst": 1668,
      "ipping": 1669,
      "ries": 1670,
      "ĠCan": 1671,
      "Ġcourse": 1672,
      "une": 1673,
      "Ġconst": 1674,
      "OR": 1675,
      "cri": 1676,
      "uly": 1677,
      "Ġnever": 1678,
      "uro": 1679,
      "ances": 1680,
      "ared": 1681,
      "apt": 1682,
      "ĠDes": 1683,
      "Ġmakes": 1684,
      "Ġvers": 1685,
      "Ġcomfort": 1686,
      "ummer": 1687,
      "Ġstay": 1688,
      "Ġmult": 1689,
      "Ġcity": 1690,
      "âĢĶ": 1691,
      "Ġline": 1692,
      "Ġsom": 1693,
      "unch": 1694,
      "come": 1695,
      "ĠAm": 1696,
      "Ġfocus": 1697,
      "ding": 1698,
      "ests": 1699,
      "Ġdetails": 1700,
      "ready": 1701,
      "ĠMay": 1702,
      "Com": 1703,
      "Ġchar": 1704,
      "ĠCity": 1705,
      "ivery": 1706,
      "Ġnet": 1707,
      "ĠâĢĶ": 1708,
      "ĠCount": 1709,
      "Ġland": 1710,
      "Ġuntil": 1711,
      "AL": 1712,
      "Ġtem": 1713,
      "ured": 1714,
      "sh": 1715,
      "Ġpa": 1716,
      "ĠWor": 1717,
      "aur": 1718,
      "arent": 1719,
      "Ġbenef": 1720,
      "ienc": 1721,
      "Ġhist": 1722,
      "Ġwr": 1723,
      "Ġpie": 1724,
      "fer": 1725,
      "He": 1726,
      "ration": 1727,
      "Ġbuilding": 1728,
      "ED": 1729,
      "Ad": 1730,
      "alf": 1731,
      "atest": 1732,
      "hether": 1733,
      "ĠChe": 1734,
      "ones": 1735,
      "raw": 1736,
      "ination": 1737,
      "ĠX": 1738,
      "Ġ24": 1739,
      "ES": 1740,
      "Ġcamp": 1741,
      "Ġ.": 1742,
      "Ġtool": 1743,
      "app": 1744,
      "the": 1745,
      "Ġtravel": 1746,
      "Ġask": 1747,
      "Ġdr": 1748,
      "ization": 1749,
      "Ġfriends": 1750,
      "Ġste": 1751,
      "An": 1752,
      "verage": 1753,
      "Ġunderstand": 1754,
      "'re": 1755,
      "osp": 1756,
      "Ġstudents": 1757,
      "ball": 1758,
      "Ġindustry": 1759,
      "Ġgroup": 1760,
      "ĠAt": 1761,
      "ump": 1762,
      "Ġtre": 1763,
      "Ġdesigned": 1764,
      "irt": 1765,
      "18": 1766,
      "pro": 1767,
      "Ġrecommend": 1768,
      "Ġhaving": 1769,
      "Ġquestions": 1770,
      "Ġsol": 1771,
      "wards": 1772,
      "omen": 1773,
      "Ġ14": 1774,
      "ides": 1775,
      "Ġitems": 1776,
      "ai": 1777,
      "Ġfit": 1778,
      "To": 1779,
      "Ġdeal": 1780,
      "Ġwhy": 1781,
      "Ġmain": 1782,
      "Ġmaint": 1783,
      "veral": 1784,
      "orts": 1785,
      "ived": 1786,
      "EN": 1787,
      "ĠGu": 1788,
      "Ġstep": 1789,
      "ention": 1790,
      "Ġ|": 1791,
      "Ġrequire": 1792,
      "Ġfuture": 1793,
      "Ġ2020": 1794,
      "book": 1795,
      "ograph": 1796,
      "Ġdevelopment": 1797,
      "25": 1798,
      "Ġlocated": 1799,
      "Ġwind": 1800,
      "Ġunique": 1801,
      "mm": 1802,
      "atural": 1803,
      "Ġalready": 1804,
      "Ġprint": 1805,
      "ement": 1806,
      "Ġlow": 1807,
      "ten": 1808,
      "play": 1809,
      "Ġgetting": 1810,
      "!!": 1811,
      "Ġ#": 1812,
      "ister": 1813,
      "Ġorig": 1814,
      "Ġtreat": 1815,
      "ufact": 1816,
      "resh": 1817,
      "Ġpriv": 1818,
      "sw": 1819,
      "//": 1820,
      "99": 1821,
      "Ġ:": 1822,
      "Ġtechnology": 1823,
      "Ġmonths": 1824,
      "rop": 1825,
      "Ġcommun": 1826,
      "16": 1827,
      "Ġcolor": 1828,
      "ource": 1829,
      "yn": 1830,
      "Ġannoun": 1831,
      "Ġhold": 1832,
      "vious": 1833,
      "Ġleft": 1834,
      "Ġ16": 1835,
      "ĠMe": 1836,
      "ĠPark": 1837,
      "Ġsell": 1838,
      "Ġspecific": 1839,
      "Ġcard": 1840,
      "Ġbecome": 1841,
      "ĠNe": 1842,
      "hor": 1843,
      "anies": 1844,
      "Ġcomplet": 1845,
      "ĠOff": 1846,
      "elebr": 1847,
      "yl": 1848,
      "Ġmillion": 1849,
      ".\"": 1850,
      "Ġdem": 1851,
      "ored": 1852,
      "aging": 1853,
      "When": 1854,
      "Ġbath": 1855,
      "ĠWhen": 1856,
      "Ġbeh": 1857,
      "Ġminutes": 1858,
      "Ġseveral": 1859,
      "ilities": 1860,
      "Ġprofessional": 1861,
      "lex": 1862,
      "Ġoffic": 1863,
      "ĠThese": 1864,
      "ĠMed": 1865,
      "Ġcase": 1866,
      "Ġfront": 1867,
      "Ġconc": 1868,
      "Ġwa": 1869,
      "iles": 1870,
      "://": 1871,
      "Ġhost": 1872,
      "rict": 1873,
      "Ġcomplete": 1874,
      "ajor": 1875,
      "ĠSchool": 1876,
      "Ġdone": 1877,
      "Ġoptions": 1878,
      "Ġlim": 1879,
      "Ġyet": 1880,
      "de": 1881,
      "urther": 1882,
      "14": 1883,
      "ĠSu": 1884,
      "Ġliving": 1885,
      "Ġcomb": 1886,
      "Ġseries": 1887,
      "Ġterm": 1888,
      "ober": 1889,
      "Ġfund": 1890,
      "Ġcou": 1891,
      "Ġsocial": 1892,
      "Ġpot": 1893,
      "Ġstarted": 1894,
      "obile": 1895,
      "oom": 1896,
      "Ġsho": 1897,
      "Ġprovides": 1898,
      "Ġtour": 1899,
      "Ġgames": 1900,
      "Ġcountry": 1901,
      "Ġmeans": 1902,
      "astic": 1903,
      "Ġes": 1904,
      "Ġcontrol": 1905,
      "ividual": 1906,
      "ference": 1907,
      "Ġele": 1908,
      "Ġlatest": 1909,
      "Ġkey": 1910,
      "Ġrese": 1911,
      "Ġever": 1912,
      "back": 1913,
      "Ġ2021": 1914,
      "Ġincludes": 1915,
      "ĠBu": 1916,
      "rom": 1917,
      "ĠWhat": 1918,
      "gle": 1919,
      "Ġoffice": 1920,
      "ĠComp": 1921,
      "irm": 1922,
      "Ġevents": 1923,
      "Ġnon": 1924,
      "ĠPlease": 1925,
      "All": 1926,
      "urity": 1927,
      "anks": 1928,
      "Ġselect": 1929,
      "ches": 1930,
      "rap": 1931,
      "Ġvol": 1932,
      "Ġoften": 1933,
      "ID": 1934,
      "Please": 1935,
      "redit": 1936,
      "Ġhol": 1937,
      "ruction": 1938,
      "Ġmusic": 1939,
      "ĠBo": 1940,
      "__": 1941,
      "Ġconsider": 1942,
      "Ġfloor": 1943,
      "Ġeverything": 1944,
      "ring": 1945,
      "min": 1946,
      "Ġcustomer": 1947,
      "ably": 1948,
      "Ġbrand": 1949,
      "Ġrecord": 1950,
      "Ġmar": 1951,
      "Ġstaff": 1952,
      "nov": 1953,
      "AC": 1954,
      "Ġreceive": 1955,
      "Ġkind": 1956,
      "ĠIntern": 1957,
      "urch": 1958,
      "Ġchall": 1959,
      "Ġmom": 1960,
      "Ġstyle": 1961,
      "Ġstrong": 1962,
      "Ġimprove": 1963,
      "ohn": 1964,
      "Ġwon": 1965,
      "Ġstory": 1966,
      "Ġhig": 1967,
      "On": 1968,
      "ental": 1969,
      "Ġdue": 1970,
      "Ġdiscuss": 1971,
      "Ġareas": 1972,
      "ources": 1973,
      "ism": 1974,
      "iven": 1975,
      "ĠJan": 1976,
      "Ġmind": 1977,
      "Ġ2018": 1978,
      "Ġtest": 1979,
      "ained": 1980,
      "now": 1981,
      "Ġleg": 1982,
      "igital": 1983,
      "Ġensure": 1984,
      "ĠThat": 1985,
      "oll": 1986,
      "ster": 1987,
      "Ġlog": 1988,
      "Ġrele": 1989,
      "Ġocc": 1990,
      "Ġveh": 1991,
      "aged": 1992,
      "itive": 1993,
      "Ġready": 1994,
      "ux": 1995,
      "acy": 1996,
      "Ġenough": 1997,
      "Ġ25": 1998,
      "IT": 1999,
      "cription": 2000,
      "ouch": 2001,
      "Ġcontent": 2002,
      "IC": 2003,
      "Ġchoose": 2004,
      "Ġbegin": 2005,
      "ĠUniversity": 2006,
      "for": 2007,
      "ĠOne": 2008,
      "son": 2009,
      "ĠSouth": 2010,
      "urance": 2011,
      "reet": 2012,
      "ional": 2013,
      "Ġsimple": 2014,
      "par": 2015,
      "17": 2016,
      "Ġ'": 2017,
      "ĠGr": 2018,
      "ĠEn": 2019,
      "Ġport": 2020,
      "--": 2021,
      "Ġcompanies": 2022,
      "Ġkitchen": 2023,
      "Ġsearch": 2024,
      "pm": 2025,
      "ĠQu": 2026,
      "Ġadded": 2027,
      "ops": 2028,
      "isting": 2029,
      "Ġener": 2030,
      "err": 2031,
      "Ġrepl": 2032,
      "rain": 2033,
      "Ġflow": 2034,
      "ĠDo": 2035,
      "ample": 2036,
      "augh": 2037,
      "idd": 2038,
      "Ġseem": 2039,
      "Ġfoot": 2040,
      "ĠNorth": 2041,
      "Ġindividual": 2042,
      "ched": 2043,
      "Ġ50": 2044,
      "Ġsingle": 2045,
      "ille": 2046,
      "rew": 2047,
      "Ġheart": 2048,
      "Ġredu": 2049,
      "ĠSm": 2050,
      "ĠDay": 2051,
      "iam": 2052,
      "Ġclose": 2053,
      "'ll": 2054,
      "ites": 2055,
      "arden": 2056,
      "Ġmajor": 2057,
      "Ġdate": 2058,
      "Ġweb": 2059,
      "Ġtot": 2060,
      "ĠHigh": 2061,
      "ĠBro": 2062,
      "Ġfriend": 2063,
      "Ġz": 2064,
      "ancial": 2065,
      "Ġword": 2066,
      "Ġearly": 2067,
      "ĠAust": 2068,
      "Ġthing": 2069,
      "ĠMin": 2070,
      "Ġwalk": 2071,
      "Ġperformance": 2072,
      "Ġfield": 2073,
      "Ġbreak": 2074,
      "Ġsales": 2075,
      "atform": 2076,
      "Ġmot": 2077,
      "With": 2078,
      "Ġpurchase": 2079,
      "ĠCal": 2080,
      "Ġpri": 2081,
      "coming": 2082,
      "Ġhom": 2083,
      "Ġlocation": 2084,
      "Cl": 2085,
      "Ġonce": 2086,
      "cle": 2087,
      "time": 2088,
      "Ġexperienc": 2089,
      "iation": 2090,
      "Ġaddress": 2091,
      "Ex": 2092,
      "âĢ¢": 2093,
      "Ġfive": 2094,
      "uary": 2095,
      "azing": 2096,
      "60": 2097,
      "Ġaddition": 2098,
      "Ġfavor": 2099,
      "Ġcelebr": 2100,
      "Ġothers": 2101,
      "me": 2102,
      "asing": 2103,
      "Ġcal": 2104,
      "amer": 2105,
      "ĠEuro": 2106,
      "ĠGod": 2107,
      "Ġvalue": 2108,
      "Ġphone": 2109,
      "ĠInst": 2110,
      "Ġbit": 2111,
      "Ġtrack": 2112,
      "Ġthroughout": 2113,
      "ipment": 2114,
      "Ġopportunity": 2115,
      "Ġpict": 2116,
      "Ġabove": 2117,
      "22": 2118,
      "Ġclients": 2119,
      "ĠTw": 2120,
      "Ġcurrently": 2121,
      "Ph": 2122,
      "Ġfore": 2123,
      "Ġpopular": 2124,
      "roll": 2125,
      "aim": 2126,
      "Ġlik": 2127,
      "ĠAss": 2128,
      "ees": 2129,
      "Ġfire": 2130,
      "Ġ13": 2131,
      "Ġbox": 2132,
      "Ġtraining": 2133,
      "vert": 2134,
      "most": 2135,
      "Al": 2136,
      "Ġvia": 2137,
      "Ġprovided": 2138,
      "ĠÂ£": 2139,
      "resent": 2140,
      "40": 2141,
      "Ġforward": 2142,
      "ĠCO": 2143,
      "inks": 2144,
      "aining": 2145,
      "Ġappear": 2146,
      "ream": 2147,
      "ibility": 2148,
      "Ġfar": 2149,
      "ĠPol": 2150,
      "ĠCounty": 2151,
      "ensive": 2152,
      "ager": 2153,
      "opy": 2154,
      "Ġey": 2155,
      "Ġass": 2156,
      "itor": 2157,
      "itted": 2158,
      "Ġresults": 2159,
      "Ġwond": 2160,
      "lished": 2161,
      "Ġbedroom": 2162,
      "ĠMy": 2163,
      "Ġbar": 2164,
      "Ġlarg": 2165,
      "ĠMore": 2166,
      "nes": 2167,
      "Ġsummer": 2168,
      "Ġsays": 2169,
      "clus": 2170,
      "Ġ17": 2171,
      "ĠUnited": 2172,
      "Ġmiss": 2173,
      "ural": 2174,
      "iate": 2175,
      "Ġbody": 2176,
      "Ġeveryone": 2177,
      "ided": 2178,
      "Ġroad": 2179,
      "ĠAir": 2180,
      "ask": 2181,
      "over": 2182,
      "Ġtype": 2183,
      "pper": 2184,
      "Ġhum": 2185,
      "ibr": 2186,
      "Ġsoon": 2187,
      "ger": 2188,
      "ony": 2189,
      "imate": 2190,
      "Ġenc": 2191,
      "13": 2192,
      "Ġwood": 2193,
      "aturday": 2194,
      "cast": 2195,
      "Ġextra": 2196,
      "Ġhope": 2197,
      "AS": 2198,
      "ither": 2199,
      "Ġmanufact": 2200,
      "Ġeduc": 2201,
      "Ġ2022": 2202,
      "arr": 2203,
      "Ġfurther": 2204,
      "Ġmess": 2205,
      "Ġnatural": 2206,
      "ĠHowever": 2207,
      "ret": 2208,
      "Ġclear": 2209,
      "Ġdoing": 2210,
      "elcome": 2211,
      "Ġdou": 2212,
      "illed": 2213,
      "atic": 2214,
      "uff": 2215,
      "Ġknown": 2216,
      "IS": 2217,
      "orage": 2218,
      "Ġmanagement": 2219,
      "ĠDis": 2220,
      "aps": 2221,
      "fully": 2222,
      "Ġyoung": 2223,
      "Ġenergy": 2224,
      "Ġtable": 2225,
      "Ġpick": 2226,
      "Ġtaking": 2227,
      "ek": 2228,
      "Ġmatch": 2229,
      "Ġrequired": 2230,
      "oon": 2231,
      "ĠUs": 2232,
      "Ġmach": 2233,
      "Ġinvol": 2234,
      "eter": 2235,
      "oved": 2236,
      "ires": 2237,
      "'ve": 2238,
      "Ġmean": 2239,
      "Ġpress": 2240,
      "ply": 2241,
      "ĠTra": 2242,
      "Ġbuilt": 2243,
      "aily": 2244,
      "Ġdelivery": 2245,
      "conom": 2246,
      "Ġhappy": 2247,
      "inc": 2248,
      "sel": 2249,
      "icy": 2250,
      "Ġtook": 2251,
      "idge": 2252,
      "Ġparticip": 2253,
      "icro": 2254,
      "iod": 2255,
      "Ġful": 2256,
      "Ġamount": 2257,
      "Ġwrit": 2258,
      "Cont": 2259,
      "Ġrespons": 2260,
      "Ġyourself": 2261,
      "ĠFriday": 2262,
      "Ġvarious": 2263,
      "Ġcalled": 2264,
      "ĠEd": 2265,
      "Ġtal": 2266,
      "aken": 2267,
      "OU": 2268,
      "ĠPer": 2269,
      "Ġmedia": 2270,
      "ĠRep": 2271,
      "Ġaccom": 2272,
      "Ġmen": 2273,
      "Ġlaw": 2274,
      "egr": 2275,
      "itch": 2276,
      "face": 2277,
      "Ġoption": 2278,
      "bor": 2279,
      "Ġcover": 2280,
      "Ġet": 2281,
      "Ġsend": 2282,
      "Ġsun": 2283,
      "Ġcame": 2284,
      "pecially": 2285,
      "Ġpoints": 2286,
      "ellent": 2287,
      "Ġwatch": 2288,
      "ĠJohn": 2289,
      "Ġcontinue": 2290,
      "Ġmeas": 2291,
      "ilar": 2292,
      "Ġcoming": 2293,
      "Ġwide": 2294,
      "abor": 2295,
      "Ġtext": 2296,
      "Ġtell": 2297,
      "unday": 2298,
      "airs": 2299,
      "Ġresearch": 2300,
      "obal": 2301,
      "ged": 2302,
      "Be": 2303,
      "Ġ...": 2304,
      "Ġfast": 2305,
      "ĠKe": 2306,
      "ino": 2307,
      "Ġcharact": 2308,
      "atures": 2309,
      "ram": 2310,
      "go": 2311,
      "Ã©": 2312,
      "80": 2313,
      "Ġtyp": 2314,
      "Ġwhite": 2315,
      "ING": 2316,
      "ĠCenter": 2317,
      "Ġadditional": 2318,
      "Ġautom": 2319,
      "Ġansw": 2320,
      "alls": 2321,
      "Ġissues": 2322,
      "imum": 2323,
      "Ġincluded": 2324,
      "lement": 2325,
      "Ġinsp": 2326,
      "head": 2327,
      "arning": 2328,
      "ĠUK": 2329,
      "Ġplatform": 2330,
      "Ġface": 2331,
      "ĠPart": 2332,
      "Ġlink": 2333,
      "year": 2334,
      "mercial": 2335,
      "âĢĵ": 2336,
      "pril": 2337,
      "umb": 2338,
      "ĠPar": 2339,
      "Ġdoesn": 2340,
      "ĠOct": 2341,
      "Ġseen": 2342,
      "ĠState": 2343,
      "ĠWorld": 2344,
      "ledge": 2345,
      "Ġsuper": 2346,
      "onday": 2347,
      "Ġmag": 2348,
      ".,": 2349,
      "ĠWest": 2350,
      "rodu": 2351,
      "edding": 2352,
      "icult": 2353,
      "Ġplayers": 2354,
      "Ġfre": 2355,
      "itter": 2356,
      "Ġattend": 2357,
      "oogle": 2358,
      "wood": 2359,
      "ĠVal": 2360,
      "ĠNot": 2361,
      "Ġblog": 2362,
      "Ġago": 2363,
      "mas": 2364,
      "Ġhalf": 2365,
      "Ġsle": 2366,
      "Ġneeded": 2367,
      "Ġsafe": 2368,
      "Ġways": 2369,
      "not": 2370,
      "ead": 2371,
      "Ġach": 2372,
      "ises": 2373,
      "iple": 2374,
      "Ġusers": 2375,
      "Ġallows": 2376,
      "Ġleast": 2377,
      "Ġcertain": 2378,
      "Ġdrive": 2379,
      "ffic": 2380,
      "ĠGl": 2381,
      "Ġord": 2382,
      "Ġhappen": 2383,
      "ĠReg": 2384,
      "icles": 2385,
      "Ġweeks": 2386,
      "ades": 2387,
      "ĠEurope": 2388,
      "Ġamazing": 2389,
      "Ġrelations": 2390,
      "Ġdog": 2391,
      "rive": 2392,
      "Ġcoll": 2393,
      "Ġdam": 2394,
      "Ġspend": 2395,
      "No": 2396,
      "irl": 2397,
      "Ġlater": 2398,
      "Ġsoftware": 2399,
      "ung": 2400,
      "Ġengine": 2401,
      "Ġprep": 2402,
      "Ġfinal": 2403,
      "Ġbott": 2404,
      "Ġrent": 2405,
      "Ġclick": 2406,
      "mit": 2407,
      "ĠBar": 2408,
      "aced": 2409,
      "Ġtown": 2410,
      "ĠEm": 2411,
      "oud": 2412,
      "ĠIm": 2413,
      "eds": 2414,
      "Ġcreated": 2415,
      "Ġprivate": 2416,
      "ables": 2417,
      "Ġtax": 2418,
      "ief": 2419,
      "Ġcredit": 2420,
      "ued": 2421,
      "alt": 2422,
      "Ġproblem": 2423,
      "Ġsix": 2424,
      "just": 2425,
      "AM": 2426,
      "Ġ2017": 2427,
      "Ġrunning": 2428,
      "Ġentire": 2429,
      "ĠHere": 2430,
      "lege": 2431,
      "Ġmark": 2432,
      "org": 2433,
      "Ġhair": 2434,
      "orning": 2435,
      "OT": 2436,
      "Ġheld": 2437,
      "Ġofficial": 2438,
      "Ġcontract": 2439,
      "ĠSaturday": 2440,
      "ands": 2441,
      "Ġred": 2442,
      "Ġsale": 2443,
      "Ġpain": 2444,
      "Ġvariety": 2445,
      "Ġperiod": 2446,
      "ĠHome": 2447,
      "Ġregular": 2448,
      "hers": 2449,
      "Ġ[": 2450,
      "Ġpotential": 2451,
      "cy": 2452,
      "Ġhistory": 2453,
      "Ġtouch": 2454,
      "Ġgiven": 2455,
      "anced": 2456,
      "Ġimpact": 2457,
      "Ġcool": 2458,
      "Ġoriginal": 2459,
      "Ġsitu": 2460,
      "Ġfamil": 2461,
      "ĠNational": 2462,
      "ĠAfter": 2463,
      "arter": 2464,
      "Ġjour": 2465,
      "ators": 2466,
      "Ġversion": 2467,
      "ians": 2468,
      "Ġmodel": 2469,
      "Ġprojects": 2470,
      "Ġwhole": 2471,
      "ĠAmerican": 2472,
      "arant": 2473,
      "Ġwent": 2474,
      "ming": 2475,
      "Ġeasily": 2476,
      "Ġblack": 2477,
      "Ġapplication": 2478,
      "Ġrestaur": 2479,
      ",\"": 2480,
      "ĠAug": 2481,
      "ĠDr": 2482,
      "Ġfunction": 2483,
      "ival": 2484,
      "Ġaccording": 2485,
      "nder": 2486,
      "Ġsound": 2487,
      "Ġdiff": 2488,
      "ĠAut": 2489,
      "ham": 2490,
      "ague": 2491,
      "Ġdisplay": 2492,
      "Ġsystems": 2493,
      "Ġskin": 2494,
      "ada": 2495,
      "Ġconsum": 2496,
      "Ġoutside": 2497,
      "Ġcollect": 2498,
      "Ġpub": 2499,
      "Ġactivities": 2500,
      "Ġ+": 2501,
      "Ġgift": 2502,
      "aching": 2503,
      "crib": 2504,
      "Ġthird": 2505,
      "ength": 2506,
      "ĠSept": 2507,
      "Ġparticular": 2508,
      "ĠSte": 2509,
      "isk": 2510,
      "ĠJuly": 2511,
      "New": 2512,
      "Ġespecially": 2513,
      "Ġtakes": 2514,
      "So": 2515,
      "Ġincrease": 2516,
      "Ġequipment": 2517,
      "Ġround": 2518,
      "ĠPe": 2519,
      "ĠArt": 2520,
      "earch": 2521,
      "elt": 2522,
      "ze": 2523,
      "ĠJune": 2524,
      "icated": 2525,
      "Ġinside": 2526,
      "ĠMarch": 2527,
      "Ġreason": 2528,
      "Ġposition": 2529,
      "Ġmeeting": 2530,
      "Ġtotal": 2531,
      "put": 2532,
      "Ġfavorite": 2533,
      "ĠAustral": 2534,
      "Ġfab": 2535,
      "Ġmodern": 2536,
      "aving": 2537,
      "ĠInc": 2538,
      "ulation": 2539,
      "overed": 2540,
      "Ġparent": 2541,
      "Ġcollection": 2542,
      "ĠSw": 2543,
      "And": 2544,
      "Ġlay": 2545,
      "aus": 2546,
      "ication": 2547,
      "hips": 2548,
      "iet": 2549,
      "Ġdry": 2550,
      "Ġlo": 2551,
      "Ġpercent": 2552,
      "Ġcult": 2553,
      "ĠYork": 2554,
      "ĠSunday": 2555,
      "Ġdidn": 2556,
      "ole": 2557,
      "ĠJanuary": 2558,
      "ground": 2559,
      "Ġage": 2560,
      "cember": 2561,
      "Ġprevious": 2562,
      "24": 2563,
      "Ġapply": 2564,
      "Ġthought": 2565,
      "At": 2566,
      "ĠStreet": 2567,
      "Ġsil": 2568,
      "ĠWill": 2569,
      "ET": 2570,
      "Ġpan": 2571,
      "Ġskills": 2572,
      "Ġgoal": 2573,
      "ogn": 2574,
      "ĠMc": 2575,
      "Ġchoice": 2576,
      "wor": 2577,
      "ĠApril": 2578,
      "bout": 2579,
      "Ġeffic": 2580,
      "Ġwonder": 2581,
      "angu": 2582,
      "Ġinj": 2583,
      "light": 2584,
      "Ġcommon": 2585,
      "urg": 2586,
      "Ġfinish": 2587,
      "ovember": 2588,
      "Ġsomeone": 2589,
      "Ġmember": 2590,
      "Ġwomen": 2591,
      "Ġreceived": 2592,
      "**": 2593,
      "ively": 2594,
      "ville": 2595,
      "Ġclub": 2596,
      "Ġfinancial": 2597,
      "Ġkids": 2598,
      "Ġ40": 2599,
      "ĠCor": 2600,
      "Ġrecently": 2601,
      "Ġvac": 2602,
      "Ġproviding": 2603,
      "ĠUp": 2604,
      "Ġsche": 2605,
      "Ġetc": 2606,
      "ecut": 2607,
      "Ġcondition": 2608,
      "ĠFace": 2609,
      "ION": 2610,
      "ana": 2611,
      "Ġbag": 2612,
      "Ġleave": 2613,
      "aker": 2614,
      "ached": 2615,
      "Ġsafety": 2616,
      "ĠHealth": 2617,
      "Ġwhether": 2618,
      "Ġexample": 2619,
      "oid": 2620,
      "Ġsave": 2621,
      "Ġess": 2622,
      "Ġfall": 2623,
      "Ġeither": 2624,
      "kend": 2625,
      "aby": 2626,
      "OS": 2627,
      "ĠBlack": 2628,
      "Ġhit": 2629,
      "Ġbase": 2630,
      "Ġoil": 2631,
      "idence": 2632,
      "yd": 2633,
      "Ġant": 2634,
      "LS": 2635,
      "Ġdownload": 2636,
      "izes": 2637,
      "'m": 2638,
      "Ġrate": 2639,
      "ĠAdd": 2640,
      "ĠSec": 2641,
      "ĠMon": 2642,
      "Ġsqu": 2643,
      "Ġchanges": 2644,
      "Ġprices": 2645,
      "imal": 2646,
      "Ġdeliver": 2647,
      "Ġbus": 2648,
      "Ġquickly": 2649,
      "Ġstock": 2650,
      "ĠOut": 2651,
      "Ġ,": 2652,
      "Ġtaken": 2653,
      "Ġtalk": 2654,
      "che": 2655,
      "board": 2656,
      "Ġground": 2657,
      "ĠFin": 2658,
      "ĠAre": 2659,
      "ĠChristmas": 2660,
      "right": 2661,
      "Ġidea": 2662,
      "hing": 2663,
      "ĠEl": 2664,
      "ipped": 2665,
      "Ġdraw": 2666,
      "oring": 2667,
      "21": 2668,
      "Ġproduction": 2669,
      "Ġrole": 2670,
      "Ġdigital": 2671,
      "Des": 2672,
      "Ġstorage": 2673,
      "ĠDesign": 2674,
      "ĠMonday": 2675,
      "rec": 2676,
      "Ġintegr": 2677,
      "ype": 2678,
      "cer": 2679,
      "Ġlonger": 2680,
      "selves": 2681,
      "ĠDirect": 2682,
      "Ġmobile": 2683,
      "Ġ2016": 2684,
      "ctor": 2685,
      "Ġphotos": 2686,
      "Ġactually": 2687,
      "Ġinit": 2688,
      "uge": 2689,
      "ler": 2690,
      "ox": 2691,
      "door": 2692,
      "rs": 2693,
      "Ġsat": 2694,
      "Ġpaint": 2695,
      "Ġquestion": 2696,
      "ĠService": 2697,
      "Ġplans": 2698,
      "Ġnote": 2699,
      "Ġsolutions": 2700,
      "Read": 2701,
      "ĠDep": 2702,
      "Ġmaterials": 2703,
      "Ġbusinesses": 2704,
      "Ġfresh": 2705,
      "Ġbehind": 2706,
      "70": 2707,
      "ĠAg": 2708,
      "Ġpiece": 2709,
      "ĠTV": 2710,
      "Ġself": 2711,
      "Ġcomput": 2712,
      "house": 2713,
      "Ġcharg": 2714,
      "100": 2715,
      "Ġsolution": 2716,
      "23": 2717,
      "Ġgrowth": 2718,
      "Ġpartners": 2719,
      "Ġknowledge": 2720,
      "though": 2721,
      "LE": 2722,
      "Ġswe": 2723,
      "hib": 2724,
      "Ġident": 2725,
      "Ġrecent": 2726,
      "cing": 2727,
      "Ġstandard": 2728,
      "Ġboard": 2729,
      "ification": 2730,
      "unities": 2731,
      "Ġdetail": 2732,
      "Add": 2733,
      "ĠBusiness": 2734,
      "istration": 2735,
      "Ġsecurity": 2736,
      "uk": 2737,
      "Ġnecess": 2738,
      "ĠSk": 2739,
      "ĠGroup": 2740,
      "Ġinsurance": 2741,
      "Ġmount": 2742,
      "ĠDon": 2743,
      "Ġdifficult": 2744,
      "Ġmarketing": 2745,
      "Ġjoin": 2746,
      "Your": 2747,
      "Ġnetwork": 2748,
      "Ġeconom": 2749,
      "ondon": 2750,
      "Ġleading": 2751,
      "Ġbal": 2752,
      "Ġbra": 2753,
      "Ġhtt": 2754,
      "off": 2755,
      "Ġquite": 2756,
      "Ġprior": 2757,
      "Ġwarm": 2758,
      "Ġfully": 2759,
      "Ġexcellent": 2760,
      "Ġmorning": 2761,
      "Ġpaper": 2762,
      "Ġaccept": 2763,
      "Ġcouple": 2764,
      "partment": 2765,
      "Ġbelieve": 2766,
      "Ġple": 2767,
      "ĠNet": 2768,
      "inking": 2769,
      "Ġhon": 2770,
      "Ġrepresent": 2771,
      "ume": 2772,
      "Ġscreen": 2773,
      "ĠRed": 2774,
      "Ġalmost": 2775,
      "ĠNow": 2776,
      "izing": 2777,
      "Ġshows": 2778,
      "Ġdoor": 2779,
      "itable": 2780,
      "75": 2781,
      "hood": 2782,
      "hel": 2783,
      "ĠSer": 2784,
      "ĠHouse": 2785,
      "ĠFeb": 2786,
      "Ġcenter": 2787,
      "eed": 2788,
      "Â®": 2789,
      "Ġcode": 2790,
      "ĠGe": 2791,
      "Ġshipping": 2792,
      "ĠOctober": 2793,
      "Ġdaily": 2794,
      "Ġsimply": 2795,
      "Ġtrip": 2796,
      "ĠPres": 2797,
      "ursday": 2798,
      "Ġpool": 2799,
      "Ġannounced": 2800,
      "Ġlooks": 2801,
      "ĠGoogle": 2802,
      "Ġtools": 2803,
      "based": 2804,
      "HE": 2805,
      "ĠRoad": 2806,
      "ties": 2807,
      "Ġabs": 2808,
      "ounc": 2809,
      "olf": 2810,
      "Ġvehicle": 2811,
      "Ġrout": 2812,
      "Ġrequest": 2813,
      "cover": 2814,
      "ĠInt": 2815,
      "ules": 2816,
      "Ġlearning": 2817,
      "Un": 2818,
      "Ġcareer": 2819,
      "ĠDel": 2820,
      "irth": 2821,
      "ĠSeptember": 2822,
      "ĠServices": 2823,
      "Ġ21": 2824,
      "ĠAcc": 2825,
      "ha": 2826,
      "osed": 2827,
      "ednes": 2828,
      "dule": 2829,
      "Ġarticle": 2830,
      "Ġsmo": 2831,
      "Ġworth": 2832,
      "Ġded": 2833,
      "Ġcomfortable": 2834,
      "Ġrelease": 2835,
      "Ġanything": 2836,
      "Ġdirectly": 2837,
      "Ġparts": 2838,
      "ivity": 2839,
      "Ġchalleng": 2840,
      "riend": 2841,
      "ĠHol": 2842,
      "Ġhelps": 2843,
      "US": 2844,
      "Ġdeb": 2845,
      "ging": 2846,
      "iron": 2847,
      "ison": 2848,
      "lier": 2849,
      "ĠFrom": 2850,
      "Ġauthor": 2851,
      "ĠWind": 2852,
      "Ġchance": 2853,
      "Ġconstruction": 2854,
      "Ġsent": 2855,
      "ĠDecember": 2856,
      "90": 2857,
      "gress": 2858,
      "ĠJust": 2859,
      "oe": 2860,
      "ĠAc": 2861,
      "45": 2862,
      "Pl": 2863,
      "Ġtick": 2864,
      "Ġpractice": 2865,
      "Ġ22": 2866,
      "Ġfilm": 2867,
      "mod": 2868,
      "reg": 2869,
      "ĠFacebook": 2870,
      "ĠStud": 2871,
      "Ġplaying": 2872,
      "My": 2873,
      "uesday": 2874,
      "Ġcamer": 2875,
      "Ġproblems": 2876,
      "ffee": 2877,
      "idents": 2878,
      "ĠRead": 2879,
      "Ġsugg": 2880,
      "ĠNovember": 2881,
      "Here": 2882,
      "Ġpass": 2883,
      "ĠBy": 2884,
      "Ġuser": 2885,
      "Ġsimilar": 2886,
      "Ġhighly": 2887,
      "Ġinterested": 2888,
      "Ġsignific": 2889,
      "Ġarr": 2890,
      "Ġissue": 2891,
      "Ġwedding": 2892,
      "ĠAugust": 2893,
      "Ġsmart": 2894,
      "De": 2895,
      "Ġgarden": 2896,
      "AD": 2897,
      "Ġprem": 2898,
      "ething": 2899,
      "Ġcontribut": 2900,
      "Ġplant": 2901,
      "Ġideas": 2902,
      "Ġplanning": 2903,
      "Ġreach": 2904,
      "acing": 2905,
      "Ġstra": 2906,
      "Do": 2907,
      "Ġlikely": 2908,
      "Ġsubs": 2909,
      "200": 2910,
      "ĠLa": 2911,
      "ĠAv": 2912,
      "Ġfurn": 2913,
      "Ġdevice": 2914,
      "95": 2915,
      "Ġinnov": 2916,
      "ructure": 2917,
      "Ġtypes": 2918,
      "eral": 2919,
      "Ġlives": 2920,
      "Ġsn": 2921,
      "ednesday": 2922,
      "Ġaction": 2923,
      "Ġweekend": 2924,
      "Ġweather": 2925,
      "Ġcosts": 2926,
      "ĠSan": 2927,
      "Ġbenefits": 2928,
      "ett": 2929,
      "Ġshop": 2930,
      "Ġexpert": 2931,
      "ĠAf": 2932,
      "EO": 2933,
      "emic": 2934,
      "Ġmultiple": 2935,
      "Ġphys": 2936,
      "Ġwanted": 2937,
      "ĠPa": 2938,
      "One": 2939,
      "Ġpret": 2940,
      "Ġparty": 2941,
      "Ġdefin": 2942,
      "Ġmoment": 2943,
      "avy": 2944,
      "Ġnice": 2945,
      "Ġhotel": 2946,
      "Ġut": 2947,
      "iding": 2948,
      "my": 2949,
      "www": 2950,
      "rect": 2951,
      "riving": 2952,
      "Ġbathroom": 2953,
      "Ġhomes": 2954,
      "aches": 2955,
      "nam": 2956,
      "Get": 2957,
      "OM": 2958,
      "Ġdecor": 2959,
      "Ġprob": 2960,
      "Pr": 2961,
      "Ġinternational": 2962,
      "iff": 2963,
      "Fe": 2964,
      "Ġstop": 2965,
      "ĠStates": 2966,
      "ership": 2967,
      "mail": 2968,
      "Ġconditions": 2969,
      "Ġwal": 2970,
      "ĠLondon": 2971,
      "Ġstarting": 2972,
      "35": 2973,
      "Ġgives": 2974,
      "Ġfeed": 2975,
      "Ġoffering": 2976,
      "rown": 2977,
      "ouncil": 2978,
      "Ġhowever": 2979,
      "Ġtold": 2980,
      "Ġmix": 2981,
      "iring": 2982,
      "uit": 2983,
      "hern": 2984,
      "Ġstudy": 2985,
      "ĠHot": 2986,
      "ĠYear": 2987,
      "EC": 2988,
      "Ġbud": 2989,
      "where": 2990,
      "PS": 2991,
      "ruary": 2992,
      "Ġimage": 2993,
      "Ġreviews": 2994,
      "Ġexpected": 2995,
      "Ġgold": 2996,
      "ĠMarket": 2997,
      "Ġdress": 2998,
      "ĠDet": 2999,
      "Ġ2015": 3000,
      "Ġpretty": 3001,
      "Ġtrail": 3002,
      "Ġdeep": 3003,
      "asons": 3004,
      "After": 3005,
      "olution": 3006,
      "Ġwear": 3007,
      "oman": 3008,
      "ĠAssoc": 3009,
      "Ġlif": 3010,
      "ĠInformation": 3011,
      "ĠFree": 3012,
      "Ġencour": 3013,
      "Ġopportunities": 3014,
      "enance": 3015,
      "Ġexact": 3016,
      "ester": 3017,
      "amily": 3018,
      "oday": 3019,
      "Ġsepar": 3020,
      "ford": 3021,
      "Ġmatter": 3022,
      "Ġdom": 3023,
      "Ġworked": 3024,
      "Ġroll": 3025,
      "Ġrecogn": 3026,
      "Ġmid": 3027,
      "But": 3028,
      "ension": 3029,
      "enty": 3030,
      "anch": 3031,
      "Ġhigher": 3032,
      "Ġcommercial": 3033,
      "Ġguarant": 3034,
      "Ġfill": 3035,
      "Ġwall": 3036,
      "Ġ23": 3037,
      "aign": 3038,
      "etimes": 3039,
      "Ġhands": 3040,
      "Ġlate": 3041,
      "Ġintrodu": 3042,
      "Ġtemper": 3043,
      "Ġguide": 3044,
      "Ġsomething": 3045,
      "ried": 3046,
      "Ġfabric": 3047,
      "Ġsty": 3048,
      "cel": 3049,
      "ĠPre": 3050,
      "Ġshopping": 3051,
      "Ġsignificant": 3052,
      "Ġdouble": 3053,
      "cm": 3054,
      "Ġneigh": 3055,
      "Ġclaim": 3056,
      "Ġtreatment": 3057,
      "ĠCle": 3058,
      "ĠSoc": 3059,
      "erve": 3060,
      "Ġusually": 3061,
      "Ġenter": 3062,
      "wh": 3063,
      "Ġball": 3064,
      "ĠNews": 3065,
      "Ġmax": 3066,
      "Ġgar": 3067,
      "arth": 3068,
      "ĠReal": 3069,
      "ĠPat": 3070,
      "ara": 3071,
      "ama": 3072,
      "orge": 3073,
      "Ġisn": 3074,
      "Con": 3075,
      "ares": 3076,
      "Ġsens": 3077,
      "ube": 3078,
      "Ġteams": 3079,
      "ese": 3080,
      "erved": 3081,
      "rie": 3082,
      "Ġstat": 3083,
      "Ġholiday": 3084,
      "Ġdest": 3085,
      "lin": 3086,
      "place": 3087,
      "Ġtrying": 3088,
      "iddle": 3089,
      "Ġcharacter": 3090,
      "erc": 3091,
      "ĠIN": 3092,
      "mon": 3093,
      "Ġplayer": 3094,
      "Ġfix": 3095,
      "ĠInternational": 3096,
      "Ġgreen": 3097,
      "Ġprevent": 3098,
      "Ġreading": 3099,
      "Ġstri": 3100,
      "Ġep": 3101,
      "ellow": 3102,
      "lim": 3103,
      "ey": 3104,
      "Ġessential": 3105,
      "Ġheat": 3106,
      "ĠHar": 3107,
      "adu": 3108,
      "Ġestab": 3109,
      "ĠPort": 3110,
      "ges": 3111,
      "ĠClub": 3112,
      "Ġregard": 3113,
      "Ġapplications": 3114,
      "pose": 3115,
      "Ġcand": 3116,
      "Ġcomment": 3117,
      "Ġaverage": 3118,
      "AP": 3119,
      "ĠIns": 3120,
      "isc": 3121,
      "Ġgiving": 3122,
      "EL": 3123,
      "Ġanyone": 3124,
      "Ġ60": 3125,
      "ĠSome": 3126,
      "ĠGreat": 3127,
      "na": 3128,
      "Ġspeed": 3129,
      "Ġlower": 3130,
      "Ġsubject": 3131,
      "Ġcrit": 3132,
      "Ġtrue": 3133,
      "Ġstreng": 3134,
      "Ġconven": 3135,
      "Ġaffect": 3136,
      "Ġappoint": 3137,
      "Ġideal": 3138,
      "ashion": 3139,
      "oin": 3140,
      "ishing": 3141,
      "ilit": 3142,
      "ĠIndia": 3143,
      "Ġnorm": 3144,
      "Ġimages": 3145,
      "zz": 3146,
      "Ġtips": 3147,
      "Ġsett": 3148,
      "Ġgoals": 3149,
      "amed": 3150,
      "earn": 3151,
      "Ġloss": 3152,
      "Ġadjust": 3153,
      "ĠThursday": 3154,
      "ĠDav": 3155,
      "App": 3156,
      "ĠHer": 3157,
      "hest": 3158,
      "Ġemer": 3159,
      "ĠPlay": 3160,
      "Ġbooks": 3161,
      "itten": 3162,
      "Ġviews": 3163,
      "ĠOf": 3164,
      "amb": 3165,
      "Ġgeneral": 3166,
      "field": 3167,
      "ography": 3168,
      "VID": 3169,
      "Ġconsult": 3170,
      "rig": 3171,
      "Ġbatter": 3172,
      "ples": 3173,
      "Ġcannot": 3174,
      "Ġdeterm": 3175,
      "key": 3176,
      "Ġ28": 3177,
      "Ġtrust": 3178,
      "Ġasked": 3179,
      "views": 3180,
      "Ġdepend": 3181,
      "ĠSim": 3182,
      "Ġearn": 3183,
      "aves": 3184,
      "vey": 3185,
      "IP": 3186,
      "Ġfamilies": 3187,
      "ington": 3188,
      "ĠSpr": 3189,
      "ĠAng": 3190,
      "26": 3191,
      "Ġqual": 3192,
      "Ġsteel": 3193,
      "ĠSystem": 3194,
      "akers": 3195,
      "unte": 3196,
      "Ġglobal": 3197,
      "ought": 3198,
      "ĠCons": 3199,
      "idential": 3200,
      "iture": 3201,
      "Ġattract": 3202,
      "eal": 3203,
      "imately": 3204,
      "Ġfile": 3205,
      "Ġdecision": 3206,
      "mission": 3207,
      "Ġones": 3208,
      "Ġappli": 3209,
      "Ġpayment": 3210,
      "Contact": 3211,
      "Ġcreating": 3212,
      "ospital": 3213,
      "Ġtraditional": 3214,
      "Ġmachine": 3215,
      "ute": 3216,
      "epend": 3217,
      "Ġcir": 3218,
      "Ġretail": 3219,
      "Ġachieve": 3220,
      "uel": 3221,
      "Ġelse": 3222,
      "28": 3223,
      "ĠLoc": 3224,
      "Ġcook": 3225,
      "hold": 3226,
      "Ġresources": 3227,
      "Ġcompet": 3228,
      "Ġphoto": 3229,
      "Ġbad": 3230,
      "cul": 3231,
      "Ar": 3232,
      "ibrary": 3233,
      "anguage": 3234,
      "irit": 3235,
      "ĠTuesday": 3236,
      "artment": 3237,
      "ĠGet": 3238,
      "Ġplaces": 3239,
      "IL": 3240,
      "Ġrequirements": 3241,
      "enge": 3242,
      "Ġsold": 3243,
      "Ġaud": 3244,
      "Ġcaus": 3245,
      "Ġreleased": 3246,
      "Ġcommit": 3247,
      "iant": 3248,
      "Ġprograms": 3249,
      "Ġhuge": 3250,
      "Ġconcern": 3251,
      "Ġaward": 3252,
      "ĠAct": 3253,
      "Ġguests": 3254,
      "Ġlimited": 3255,
      "Ġsuggest": 3256,
      "Ġestate": 3257,
      "Ġwonderful": 3258,
      "Ġemployees": 3259,
      "Ġsecure": 3260,
      "change": 3261,
      "Ġrad": 3262,
      "rab": 3263,
      "Ġrespect": 3264,
      "Ġinvolved": 3265,
      "âĤ": 3266,
      "phone": 3267,
      "Ġhour": 3268,
      "Ġability": 3269,
      "Ġinfl": 3270,
      "Ġmedical": 3271,
      "Ġsurround": 3272,
      "Ġroof": 3273,
      "Ġdevices": 3274,
      "Ġ26": 3275,
      "ĠEast": 3276,
      "ĠWednesday": 3277,
      "Ġlic": 3278,
      "Ġfans": 3279,
      "Ġimmed": 3280,
      "These": 3281,
      "roid": 3282,
      "aming": 3283,
      "ĠWater": 3284,
      "ĠTrans": 3285,
      "acks": 3286,
      "ĠMod": 3287,
      "Ġafford": 3288,
      "Ġrelax": 3289,
      "Ġ@": 3290,
      "rows": 3291,
      "Ġtast": 3292,
      "Ġelectric": 3293,
      "Ġaim": 3294,
      "Ġcapt": 3295,
      "Ġcharge": 3296,
      "Ġfig": 3297,
      "Ġeducation": 3298,
      "ĠAfric": 3299,
      "Ġtransport": 3300,
      "Ġprobably": 3301,
      "Che": 3302,
      "ĠDist": 3303,
      "Ġfirm": 3304,
      "ĠMich": 3305,
      "add": 3306,
      "Ġrooms": 3307,
      "Ġplayed": 3308,
      "RO": 3309,
      "Ġformer": 3310,
      "Ġdeg": 3311,
      "Ġhuman": 3312,
      "Ġmoving": 3313,
      "Ġreli": 3314,
      "press": 3315,
      "ĠFebruary": 3316,
      "ĠWhile": 3317,
      "unt": 3318,
      "Ġdecided": 3319,
      "venue": 3320,
      "ening": 3321,
      "ris": 3322,
      "Ġunit": 3323,
      "Ġsuccessful": 3324,
      "Ġwriting": 3325,
      "Ġpromot": 3326,
      "Ġsupply": 3327,
      "Ġwords": 3328,
      "ĠTechn": 3329,
      "Ġparking": 3330,
      "ĠEst": 3331,
      "net": 3332,
      "Ġpark": 3333,
      "Ġextrem": 3334,
      "ĠCour": 3335,
      "Ġcat": 3336,
      "Ġspot": 3337,
      "Ġclient": 3338,
      "Ġcolors": 3339,
      "ĠAmerica": 3340,
      "Ġimpress": 3341,
      "apan": 3342,
      "Ġadvant": 3343,
      "Ġmiles": 3344,
      "Ġhous": 3345,
      "ĠOpen": 3346,
      "Ġwelcome": 3347,
      "Ġorders": 3348,
      "Ġupdate": 3349,
      "Ġrisk": 3350,
      "Ġnecessary": 3351,
      "ĠHis": 3352,
      "vest": 3353,
      "ports": 3354,
      ":||": 3355,
      "Ġweight": 3356,
      "Ġfeet": 3357,
      "Ġfarm": 3358,
      "ny": 3359,
      "itect": 3360,
      "Ġ2014": 3361,
      "Ġcards": 3362,
      "Ġsource": 3363,
      "65": 3364,
      "clusive": 3365,
      "oors": 3366,
      "aly": 3367,
      "Se": 3368,
      "Tr": 3369,
      "ĠCare": 3370,
      "ĠEnglish": 3371,
      "ĠProduct": 3372,
      "Ġreported": 3373,
      "Ġop": 3374,
      "Ġwait": 3375,
      "Ġrelated": 3376,
      "Ġparents": 3377,
      "Ġselection": 3378,
      "Ġtim": 3379,
      "band": 3380,
      "About": 3381,
      "elling": 3382,
      "Ġcraft": 3383,
      "Ġgrowing": 3384,
      "wide": 3385,
      "ĠAnt": 3386,
      "azon": 3387,
      "Ġclass": 3388,
      "itely": 3389,
      "icks": 3390,
      "Ġcy": 3391,
      "Ġcases": 3392,
      "ception": 3393,
      "ĠMag": 3394,
      "Ġcampaign": 3395,
      "Ġmessage": 3396,
      "Ġarriv": 3397,
      "Ġload": 3398,
      "Ġ27": 3399,
      "urb": 3400,
      "Ġanswer": 3401,
      "unning": 3402,
      "Ġeffective": 3403,
      "Ġgirl": 3404,
      "Ġsection": 3405,
      "ĠChar": 3406,
      "chitect": 3407,
      "Ġwinter": 3408,
      "Ġcomments": 3409,
      "Loc": 3410,
      "Ġenh": 3411,
      "Ġcause": 3412,
      "ipe": 3413,
      "Phone": 3414,
      "Ġoutdoor": 3415,
      "ounter": 3416,
      "Ġneg": 3417,
      "Ġcarry": 3418,
      "ĠEvery": 3419,
      "Ġorganization": 3420,
      "27": 3421,
      "Bl": 3422,
      "Ġwish": 3423,
      "ule": 3424,
      "oph": 3425,
      "ancing": 3426,
      "Ġeasier": 3427,
      "ĠGold": 3428,
      "Ġsurpr": 3429,
      "Ġattention": 3430,
      "à¤": 3431,
      "ĠPost": 3432,
      "ĠKing": 3433,
      "Ġmat": 3434,
      "ida": 3435,
      "iforn": 3436,
      "Ġinvestment": 3437,
      "Ġaw": 3438,
      "ĠAM": 3439,
      "box": 3440,
      "ĠRec": 3441,
      "Ġloved": 3442,
      "Ġsaw": 3443,
      "oke": 3444,
      "ĠCheck": 3445,
      "From": 3446,
      "Ġscore": 3447,
      "ica": 3448,
      "Ġpositive": 3449,
      "Ġpartner": 3450,
      "Ġlaunch": 3451,
      "ĠProgram": 3452,
      "Ġagre": 3453,
      "Le": 3454,
      "Ġhear": 3455,
      "Ġcomputer": 3456,
      "By": 3457,
      "Ġobject": 3458,
      "ĠGreen": 3459,
      "Ġdistribut": 3460,
      "nal": 3461,
      "roups": 3462,
      "Ġapproach": 3463,
      "Ġterms": 3464,
      "oos": 3465,
      "Ġprim": 3466,
      "Ġhelping": 3467,
      "Ġannual": 3468,
      "Ġgoes": 3469,
      "istic": 3470,
      "Ġsong": 3471,
      "Ġcoffee": 3472,
      "33": 3473,
      "Ġcross": 3474,
      "ĠFirst": 3475,
      "ĠAustralia": 3476,
      "rest": 3477,
      "Ġpattern": 3478,
      "ari": 3479,
      "OL": 3480,
      "ĠGo": 3481,
      "asy": 3482,
      "bon": 3483,
      "Ġschedule": 3484,
      "bit": 3485,
      "Ġver": 3486,
      "Ġeye": 3487,
      "roud": 3488,
      "ault": 3489,
      "ĠSpe": 3490,
      "Ġavoid": 3491,
      "down": 3492,
      "useum": 3493,
      "IM": 3494,
      "Ġcompletely": 3495,
      "acity": 3496,
      "Ġstories": 3497,
      "ifornia": 3498,
      "gest": 3499,
      "arget": 3500,
      "500": 3501,
      "Ġlevels": 3502,
      "Ġlost": 3503,
      "Ġsports": 3504,
      "urning": 3505,
      "Ġdiscount": 3506,
      "Ġflex": 3507,
      "Ġmanufacture": 3508,
      "Ġadvice": 3509,
      "pre": 3510,
      "Ġupon": 3511,
      "Ġlength": 3512,
      "Ġjourney": 3513,
      "Ġaccommod": 3514,
      "rial": 3515,
      "enior": 3516,
      "____": 3517,
      "ĠHall": 3518,
      "Ġgas": 3519,
      "rag": 3520,
      "Ġcamera": 3521,
      "ensions": 3522,
      "Ġlab": 3523,
      "ĠPM": 3524,
      "val": 3525,
      "Product": 3526,
      "More": 3527,
      "Ġregion": 3528,
      "attle": 3529,
      "inner": 3530,
      "ĠProf": 3531,
      "Ġexplore": 3532,
      "Ġconvers": 3533,
      "ĠLake": 3534,
      "Ġcountries": 3535,
      "Ġsites": 3536,
      "Ġserve": 3537,
      "UR": 3538,
      "Ġpieces": 3539,
      "Ġpatients": 3540,
      "Ġrates": 3541,
      "Ġdur": 3542,
      "Ġnational": 3543,
      "Ġbirth": 3544,
      "Ġcab": 3545,
      "ĠOver": 3546,
      "Ġcolour": 3547,
      "Ġlux": 3548,
      "ĠMem": 3549,
      "Ġreve": 3550,
      "Ġbaby": 3551,
      "EM": 3552,
      "Ġcateg": 3553,
      "Ġcleaning": 3554,
      "Ġsession": 3555,
      "ĠMus": 3556,
      "Ġdamage": 3557,
      "Ġrepair": 3558,
      "ocks": 3559,
      "Ġcorrect": 3560,
      "Ġbeach": 3561,
      "Ġult": 3562,
      "ĠWhite": 3563,
      "aks": 3564,
      "iber": 3565,
      "ĠAb": 3566,
      "Ġexisting": 3567,
      "Ġapprox": 3568,
      "ĠRet": 3569,
      "istry": 3570,
      "Ġcell": 3571,
      "Ġbudget": 3572,
      "ĠBest": 3573,
      "Ġfriendly": 3574,
      "Ġnature": 3575,
      "Ġlots": 3576,
      "Ġlargest": 3577,
      "ĠDevelop": 3578,
      "Ġpolicy": 3579,
      "Ġcold": 3580,
      "Ġmaintenance": 3581,
      "iter": 3582,
      "Ġrather": 3583,
      "Ġexam": 3584,
      "âĤ¬": 3585,
      "bed": 3586,
      "ĠInter": 3587,
      "Ġslow": 3588,
      "Ġaccur": 3589,
      "ancy": 3590,
      "Ġahead": 3591,
      "ĠIsland": 3592,
      "Ġexperienced": 3593,
      "Ġupdated": 3594,
      "Te": 3595,
      "agram": 3596,
      "ĠFound": 3597,
      "fast": 3598,
      "ĠCommunity": 3599,
      "Ġstar": 3600,
      "ĠWar": 3601,
      "âĢĿ.": 3602,
      "Ġble": 3603,
      "Ġinteresting": 3604,
      "Ġtele": 3605,
      "yond": 3606,
      "ĠBay": 3607,
      "ĠAlso": 3608,
      "Ġproperties": 3609,
      "illage": 3610,
      "estival": 3611,
      "Ġsteps": 3612,
      "Ġfine": 3613,
      "ctions": 3614,
      "Ġstudent": 3615,
      "Ġsal": 3616,
      "ĠCustom": 3617,
      "umber": 3618,
      "ĠPresident": 3619,
      "View": 3620,
      "amic": 3621,
      "iling": 3622,
      "Ġbottom": 3623,
      "ĠDepartment": 3624,
      "Ġsleep": 3625,
      "Ġten": 3626,
      "Ġseems": 3627,
      "Ġblue": 3628,
      "ky": 3629,
      "88": 3630,
      "Ġopening": 3631,
      "Ġprec": 3632,
      "Ġdi": 3633,
      "29": 3634,
      "vis": 3635,
      "ters": 3636,
      "Ġcomplex": 3637,
      "met": 3638,
      "Ġexecut": 3639,
      "ald": 3640,
      "Is": 3641,
      "rench": 3642,
      "Ġexpress": 3643,
      "Ġcompleted": 3644,
      "ĠRem": 3645,
      "Ġuses": 3646,
      "Ġremember": 3647,
      "Ġowner": 3648,
      "Ġsurface": 3649,
      "lies": 3650,
      "new": 3651,
      "Ġstraight": 3652,
      "Ġprotection": 3653,
      "ĠJapan": 3654,
      "Ġdark": 3655,
      "Ġtowards": 3656,
      "ĠOffice": 3657,
      "icate": 3658,
      "Ġexpand": 3659,
      "erous": 3660,
      "Ġcollabor": 3661,
      "Ġpers": 3662,
      "Ġcopy": 3663,
      "Ġstru": 3664,
      "rast": 3665,
      "rought": 3666,
      "ĠCalifornia": 3667,
      "Ġpictures": 3668,
      "que": 3669,
      "Ġdeveloped": 3670,
      "ĠGener": 3671,
      "Ġapprec": 3672,
      "Ġpull": 3673,
      "Ġblock": 3674,
      "ĠGerm": 3675,
      "Ġnothing": 3676,
      "Ġsetting": 3677,
      "Ġoffered": 3678,
      "Ġfant": 3679,
      "Ġimplement": 3680,
      "inter": 3681,
      "hop": 3682,
      "Ġhealthy": 3683,
      "Res": 3684,
      "Ġstrateg": 3685,
      "atory": 3686,
      "Ġcash": 3687,
      "Ġfinished": 3688,
      "Ġpath": 3689,
      "ĠWash": 3690,
      ".)": 3691,
      "Ġstress": 3692,
      "acement": 3693,
      "Ġupdates": 3694,
      "Ġcart": 3695,
      "Ġoverall": 3696,
      "iction": 3697,
      "care": 3698,
      "ND": 3699,
      "atives": 3700,
      "ĠApple": 3701,
      "Ġsym": 3702,
      "Ġruns": 3703,
      "ĠPlan": 3704,
      "Me": 3705,
      "porate": 3706,
      "ael": 3707,
      "44": 3708,
      "sp": 3709,
      "ĠEach": 3710,
      "Ġaware": 3711,
      "oul": 3712,
      "htt": 3713,
      "ags": 3714,
      "Ġdifference": 3715,
      "ĠCanada": 3716,
      "Ġfail": 3717,
      "TS": 3718,
      "Don": 3719,
      "ĠTime": 3720,
      "Ġhor": 3721,
      "ĠLight": 3722,
      "ona": 3723,
      "Ġrelationship": 3724,
      "ĠLet": 3725,
      "Ġbank": 3726,
      "Ġcreative": 3727,
      "ĠMet": 3728,
      "ĠWindows": 3729,
      "Ġexcited": 3730,
      "Ġpicture": 3731,
      "Ġsatis": 3732,
      "ampions": 3733,
      "En": 3734,
      "urt": 3735,
      "ĠBeach": 3736,
      "rel": 3737,
      "Ġhighest": 3738,
      "Ġefficient": 3739,
      "OW": 3740,
      "Ġdedicated": 3741,
      "Ġexhib": 3742,
      "ĠUse": 3743,
      "Ġcourt": 3744,
      "Ġshoot": 3745,
      "duc": 3746,
      "ston": 3747,
      "Ġcas": 3748,
      "Ġincred": 3749,
      "Ġthank": 3750,
      "ĠGood": 3751,
      "Ġeffort": 3752,
      "Ġinstead": 3753,
      "Ġquarter": 3754,
      "irtual": 3755,
      "Ġtransfer": 3756,
      "Ġbright": 3757,
      "otton": 3758,
      "Ġplus": 3759,
      "ĠBel": 3760,
      "onse": 3761,
      "Ġinteract": 3762,
      "ĠCOVID": 3763,
      "oves": 3764,
      "ĠWell": 3765,
      "ĠPower": 3766,
      "Ġitself": 3767,
      "Col": 3768,
      "Ġwhe": 3769,
      "Ġproud": 3770,
      "Ġinform": 3771,
      "comes": 3772,
      "Ġlinks": 3773,
      "idered": 3774,
      "istance": 3775,
      "ocol": 3776,
      "Ġdefinitely": 3777,
      "Ġdiv": 3778,
      "Ġdemand": 3779,
      "ĠRiver": 3780,
      "Ġshared": 3781,
      "ĠSuper": 3782,
      "ĠMount": 3783,
      "Ġgets": 3784,
      "nces": 3785,
      "ustain": 3786,
      "ĠTex": 3787,
      "ĠCompany": 3788,
      "ma": 3789,
      "ĠMac": 3790,
      "icing": 3791,
      "anging": 3792,
      "icip": 3793,
      "Ġdining": 3794,
      "Ġthemselves": 3795,
      "Ġanim": 3796,
      "ategy": 3797,
      "dom": 3798,
      "Ġbenefit": 3799,
      "ĠVis": 3800,
      "igation": 3801,
      "ĠPay": 3802,
      "ĠST": 3803,
      "Ġfair": 3804,
      "ĠâĢ¦": 3805,
      "Ġled": 3806,
      "umn": 3807,
      "Acc": 3808,
      "Ġextend": 3809,
      "ĠBoard": 3810,
      "Ġupgr": 3811,
      "fit": 3812,
      "ĠTwitter": 3813,
      "Ġ29": 3814,
      "rey": 3815,
      "Ġprogress": 3816,
      "Not": 3817,
      "set": 3818,
      "istics": 3819,
      "Ġpet": 3820,
      "ray": 3821,
      "Ġdrop": 3822,
      "annel": 3823,
      "inary": 3824,
      "ĠChina": 3825,
      "Ġenv": 3826,
      "ĠCollege": 3827,
      "vant": 3828,
      "ĠLeague": 3829,
      "):": 3830,
      "Ġplenty": 3831,
      "Ġrights": 3832,
      "ĠPhot": 3833,
      "ĠFire": 3834,
      "ĠCouncil": 3835,
      "Ġcovered": 3836,
      "Ġreduce": 3837,
      "Ġsituation": 3838,
      "REE": 3839,
      "ceed": 3840,
      "Ġsmooth": 3841,
      "Ġpm": 3842,
      "ker": 3843,
      "ĠID": 3844,
      "ĠFlor": 3845,
      "Click": 3846,
      "Ġvolunte": 3847,
      "Ġmotor": 3848,
      "ĠAnn": 3849,
      "Ġdro": 3850,
      "ils": 3851,
      "porary": 3852,
      "aled": 3853,
      "ipp": 3854,
      "Ġpressure": 3855,
      "Ġactivity": 3856,
      "Ġactive": 3857,
      "Ġthanks": 3858,
      "ðŁ": 3859,
      "iced": 3860,
      "pri": 3861,
      "Ġreports": 3862,
      "ĠCamp": 3863,
      "Ġfacilities": 3864,
      "iated": 3865,
      "bl": 3866,
      "Ġbroad": 3867,
      "Ġhistor": 3868,
      "Ġorganiz": 3869,
      "oving": 3870,
      "ĠJack": 3871,
      "Ġindepend": 3872,
      "Ġhandle": 3873,
      "chan": 3874,
      "Ġclosed": 3875,
      "ĠSub": 3876,
      "ĠMake": 3877,
      "Ġgroups": 3878,
      "arrant": 3879,
      "ĠSch": 3880,
      "ĠClick": 3881,
      "ups": 3882,
      "Ġreflect": 3883,
      "ĠMicro": 3884,
      "Ġinstallation": 3885,
      "Are": 3886,
      "ĠTeam": 3887,
      "Qu": 3888,
      "zy": 3889,
      "aturing": 3890,
      "Ġshape": 3891,
      "Ġevening": 3892,
      "Ġinternet": 3893,
      "gency": 3894,
      "dd": 3895,
      "ĠHel": 3896,
      "ĠIT": 3897,
      "Ġconcept": 3898,
      "Sub": 3899,
      "ĠWood": 3900,
      "Ġ2012": 3901,
      "orial": 3902,
      "Ġwrite": 3903,
      "gu": 3904,
      "Or": 3905,
      "ĠSil": 3906,
      "AY": 3907,
      "ĠEv": 3908,
      "anta": 3909,
      "While": 3910,
      "IG": 3911,
      "....": 3912,
      "Ġsense": 3913,
      "Ġmeasure": 3914,
      "ĠSing": 3915,
      "Ġbeauty": 3916,
      "They": 3917,
      "Ġdesigns": 3918,
      "Ġ199": 3919,
      "Ġeight": 3920,
      "Ġrace": 3921,
      "Ġserious": 3922,
      "ĠIndian": 3923,
      "Ġpackage": 3924,
      "Ġowners": 3925,
      "othing": 3926,
      "ĠPC": 3927,
      "ĠFamily": 3928,
      "free": 3929,
      "Ġpurpose": 3930,
      "ownload": 3931,
      "Ġadvent": 3932,
      "Ġmaster": 3933,
      "ĠRoom": 3934,
      "illing": 3935,
      "ĠAssociation": 3936,
      "ĠManagement": 3937,
      "Ġsched": 3938,
      "icking": 3939,
      "ĠBre": 3940,
      "Ġfurniture": 3941,
      "Ġbegan": 3942,
      "Ġvict": 3943,
      "itation": 3944,
      "Ġstage": 3945,
      "Ġmanage": 3946,
      "Ġcontain": 3947,
      "Ġlisted": 3948,
      "Ġfashion": 3949,
      "Ġlines": 3950,
      "pite": 3951,
      "Ġtrade": 3952,
      "ĠAmazon": 3953,
      "ĠChurch": 3954,
      "Ġspent": 3955,
      "soft": 3956,
      "ĠBrit": 3957,
      "like": 3958,
      "Ġspring": 3959,
      "CH": 3960,
      "Ġri": 3961,
      "Thank": 3962,
      "Ġdream": 3963,
      "Ġrain": 3964,
      "Ġfeeling": 3965,
      "ailability": 3966,
      "Ġadmin": 3967,
      "Ġbeginning": 3968,
      "ĠElect": 3969,
      "ĠSur": 3970,
      "Ġschools": 3971,
      "ĠPhil": 3972,
      "Ġprefer": 3973,
      "Ġlaun": 3974,
      "Ġwww": 3975,
      "ĠThen": 3976,
      "ĠPal": 3977,
      "Why": 3978,
      "ĠTop": 3979,
      "ĠLaw": 3980,
      "Ġexciting": 3981,
      "ivered": 3982,
      "ĠCr": 3983,
      "Ġmodels": 3984,
      "umin": 3985,
      "ĠDirector": 3986,
      "Ġtruly": 3987,
      "Ġpair": 3988,
      "Ġwritten": 3989,
      "ĠPrice": 3990,
      "empt": 3991,
      "aper": 3992,
      "Ġaltern": 3993,
      "Ġacqu": 3994,
      "Ġexactly": 3995,
      "ĠWeb": 3996,
      "Ġrestaurant": 3997,
      "illa": 3998,
      "rup": 3999,
      "Ġresidents": 4000,
      "Sp": 4001,
      "36": 4002,
      "bu": 4003,
      "ads": 4004,
      "Bu": 4005,
      "Ġnumbers": 4006,
      "Ġmention": 4007,
      "nown": 4008,
      "Ġpaid": 4009,
      "aries": 4010,
      "odes": 4011,
      "Ġhop": 4012,
      "Ġtrain": 4013,
      "oyal": 4014,
      "Ġprofessionals": 4015,
      "Ġtraffic": 4016,
      "Ġdescrib": 4017,
      "Ġpublished": 4018,
      "str": 4019,
      "Ġhttps": 4020,
      "antly": 4021,
      "Ġwindow": 4022,
      "ĠSl": 4023,
      "Ġfight": 4024,
      "Ġrespond": 4025,
      "ĠMost": 4026,
      "ibly": 4027,
      "ago": 4028,
      "ĠInf": 4029,
      "Ġbattery": 4030,
      "Ġwild": 4031,
      "55": 4032,
      "Ġship": 4033,
      "ications": 4034,
      "ios": 4035,
      "ado": 4036,
      "ildren": 4037,
      "Ġsnow": 4038,
      "ĠBuild": 4039,
      "Ġ80": 4040,
      "asure": 4041,
      "ĠCap": 4042,
      "ĠSun": 4043,
      "ifications": 4044,
      "irus": 4045,
      "ĠRuss": 4046,
      "Reg": 4047,
      "Ġinfo": 4048,
      "IV": 4049,
      "Ġmother": 4050,
      "Ġoccas": 4051,
      "Up": 4052,
      "Ġconsist": 4053,
      "Ġmovie": 4054,
      "het": 4055,
      "wise": 4056,
      "Ġfee": 4057,
      "Ġstrength": 4058,
      "ĠLife": 4059,
      "Ġwid": 4060,
      "perty": 4061,
      "Ġchallenge": 4062,
      "Check": 4063,
      "Ġdriving": 4064,
      "Ġremain": 4065,
      "ĠTexas": 4066,
      "Ġ90": 4067,
      "Ġbreat": 4068,
      "aling": 4069,
      "Ġsand": 4070,
      "Ġlocations": 4071,
      "iately": 4072,
      "Ġchallenges": 4073,
      "Ġstation": 4074,
      "Ġ2013": 4075,
      "top": 4076,
      "CC": 4077,
      "Ġannounce": 4078,
      "Ġresponsible": 4079,
      "Ġseven": 4080,
      "ĠBlue": 4081,
      "fr": 4082,
      "Ġstatement": 4083,
      "Ġpropos": 4084,
      "za": 4085,
      "hens": 4086,
      "Ġcontinu": 4087,
      "hol": 4088,
      "ota": 4089,
      "Ġsolid": 4090,
      "ico": 4091,
      "essions": 4092,
      "ords": 4093,
      "ĠType": 4094,
      "Ġopp": 4095,
      "Ġthinking": 4096,
      "Ġadvantage": 4097,
      "Ġ31": 4098,
      "34": 4099,
      "Ġlanguage": 4100,
      "ĠMot": 4101,
      "Ġgrand": 4102,
      "Ġlandsc": 4103,
      "ifts": 4104,
      "Ġselected": 4105,
      "bour": 4106,
      "Ġmission": 4107,
      "ĠBank": 4108,
      "Ġmetal": 4109,
      "Ġexperts": 4110,
      "Ġslight": 4111,
      "Ġsus": 4112,
      "Ġimm": 4113,
      "Ġtemperature": 4114,
      "Ġhelped": 4115,
      "Ġpow": 4116,
      "Ġ--": 4117,
      "Ġpages": 4118,
      "Ġmap": 4119,
      "Ġbrought": 4120,
      "Ġlegal": 4121,
      "Ġextremely": 4122,
      "Ġbuying": 4123,
      "Ġbeyond": 4124,
      "more": 4125,
      "ĠEuropean": 4126,
      "ĠInternet": 4127,
      "Ġcentre": 4128,
      "LC": 4129,
      "erg": 4130,
      "Ġflat": 4131,
      "Ġvideos": 4132,
      "ĠSol": 4133,
      "ĠTown": 4134,
      "Ġfinally": 4135,
      "Ġcompon": 4136,
      "Ġtarget": 4137,
      "estern": 4138,
      "istant": 4139,
      "77": 4140,
      "SP": 4141,
      "ĠSaf": 4142,
      "ĠUSA": 4143,
      "Now": 4144,
      "atically": 4145,
      "Ġsometimes": 4146,
      "orrow": 4147,
      "Ġspread": 4148,
      "standing": 4149,
      "Ġbi": 4150,
      "ĠStar": 4151,
      "Ġindividuals": 4152,
      "Ġchurch": 4153,
      "ĠColor": 4154,
      "Ġgen": 4155,
      "Ġpowerful": 4156,
      "Ġgave": 4157,
      "aughter": 4158,
      "erry": 4159,
      "ĠDec": 4160,
      "istered": 4161,
      "Ġkeeping": 4162,
      "tee": 4163,
      "Ġinitial": 4164,
      "Ġunderstanding": 4165,
      "Ġplaced": 4166,
      "icon": 4167,
      "mitted": 4168,
      "opt": 4169,
      "Ġlarger": 4170,
      "uth": 4171,
      "oys": 4172,
      "Ġaspect": 4173,
      "Ġculture": 4174,
      "ĠCentral": 4175,
      "EW": 4176,
      "Ġconference": 4177,
      "Ġinstruct": 4178,
      "ĠJes": 4179,
      "lands": 4180,
      "Ġheavy": 4181,
      "MS": 4182,
      "Ġexerc": 4183,
      "Ġpeace": 4184,
      "Ġthous": 4185,
      "ĠShow": 4186,
      "Ġexperiences": 4187,
      "Ġsweet": 4188,
      "Ġband": 4189,
      "ĠAndroid": 4190,
      "Ġdelivered": 4191,
      "Ġrev": 4192,
      "ĠBra": 4193,
      "Ġepis": 4194,
      "Ġpolice": 4195,
      "Ġmanager": 4196,
      "Ġcars": 4197,
      "Ġcapacity": 4198,
      "ĠTour": 4199,
      "ĠTO": 4200,
      "uled": 4201,
      "Ġill": 4202,
      "38": 4203,
      "ĠTHE": 4204,
      "Ġtree": 4205,
      "AB": 4206,
      "Ġsizes": 4207,
      "ette": 4208,
      "Ne": 4209,
      "ned": 4210,
      "See": 4211,
      "Ġconsidered": 4212,
      "Ġneighbor": 4213,
      "ula": 4214,
      "Ġearlier": 4215,
      "ĠProject": 4216,
      "Ġunits": 4217,
      "rug": 4218,
      "Ġbasic": 4219,
      "la": 4220,
      "Ġwants": 4221,
      "Ġimmediately": 4222,
      "Ġabsolut": 4223,
      "ĠAP": 4224,
      "ĠValley": 4225,
      "Ġpo": 4226,
      "Ġbiggest": 4227,
      "rip": 4228,
      "ĠRE": 4229,
      "Ġadding": 4230,
      "ĠOther": 4231,
      "Ġstores": 4232,
      "Ġphysical": 4233,
      "Ġallowed": 4234,
      "ownt": 4235,
      "ĠDavid": 4236,
      "Ġincreased": 4237,
      "ĠHotel": 4238,
      "ologies": 4239,
      "Ġnormal": 4240,
      "Find": 4241,
      "Ġreliable": 4242,
      "ero": 4243,
      "Ġshown": 4244,
      "rical": 4245,
      "CT": 4246,
      "She": 4247,
      "Ġmyself": 4248,
      "âĦ": 4249,
      "Ġfrequ": 4250,
      "Ġnotice": 4251,
      "Ġbackground": 4252,
      "Ġonto": 4253,
      "ĠWork": 4254,
      "Ġdeath": 4255,
      "That": 4256,
      "gage": 4257,
      "Ġdead": 4258,
      "Ġstreet": 4259,
      "Ġfiles": 4260,
      "Ġloan": 4261,
      "Ġmeaning": 4262,
      "odcast": 4263,
      "Ġnearly": 4264,
      "Ġfly": 4265,
      "ĠOnce": 4266,
      "Ġaffordable": 4267,
      "Ġguid": 4268,
      "Ġcast": 4269,
      "Ġgradu": 4270,
      "Ġenviron": 4271,
      "Ġfantastic": 4272,
      "Ġvisitors": 4273,
      "Ġhy": 4274,
      "craft": 4275,
      "Ġswim": 4276,
      "Free": 4277,
      "ĠPublic": 4278,
      "Ġeyes": 4279,
      "owl": 4280,
      "Ġremove": 4281,
      "Ġproduce": 4282,
      "ocket": 4283,
      "Every": 4284,
      "Ġ2011": 4285,
      "rd": 4286,
      "ulations": 4287,
      "Im": 4288,
      "Ġspirit": 4289,
      "Ġarchitect": 4290,
      "Ġmaintain": 4291,
      "Ġbillion": 4292,
      "ented": 4293,
      "Ġcommunities": 4294,
      "Ġconnection": 4295,
      "Ġdoll": 4296,
      "49": 4297,
      "Ġvehicles": 4298,
      "urrent": 4299,
      "friend": 4300,
      "Ġsuitable": 4301,
      "ĠMart": 4302,
      "Ġsem": 4303,
      "Ġfelt": 4304,
      "Ġrestaurants": 4305,
      "Ġwalking": 4306,
      "ĠDan": 4307,
      "Ġbedrooms": 4308,
      "Ġflowers": 4309,
      "iol": 4310,
      "Ġartist": 4311,
      "Sc": 4312,
      "allery": 4313,
      "ĠBack": 4314,
      "ato": 4315,
      "asc": 4316,
      "night": 4317,
      "Ġgraph": 4318,
      "Ġshot": 4319,
      "works": 4320,
      "vin": 4321,
      "Ġbecame": 4322,
      "48": 4323,
      "Ġsquare": 4324,
      "terior": 4325,
      "ĠBig": 4326,
      "ĠIS": 4327,
      "Ġuseful": 4328,
      "see": 4329,
      "oices": 4330,
      "Ġpros": 4331,
      "ĠJe": 4332,
      "isions": 4333,
      "ronic": 4334,
      "Ġstrategy": 4335,
      "Ġcabin": 4336,
      "ishes": 4337,
      "aith": 4338,
      "ĠDistrict": 4339,
      "ĠView": 4340,
      "tr": 4341,
      "order": 4342,
      "Ġdistance": 4343,
      "Ġdiscover": 4344,
      "ĠAngel": 4345,
      "ady": 4346,
      "ĠMark": 4347,
      "ĠCall": 4348,
      "Ġcru": 4349,
      "inated": 4350,
      "Ġinterior": 4351,
      "ĠList": 4352,
      "Ġsuff": 4353,
      "Ġbrands": 4354,
      "Ġwire": 4355,
      "Ġconduct": 4356,
      "Ġimag": 4357,
      "Ġresponse": 4358,
      "unk": 4359,
      "Ġchanged": 4360,
      "ĠContact": 4361,
      "ĠSee": 4362,
      "Ġreasons": 4363,
      "Ġminute": 4364,
      "ĠSal": 4365,
      "Ġ2010": 4366,
      "Ġcm": 4367,
      "acious": 4368,
      "Ġinterview": 4369,
      "Ġbasis": 4370,
      "Ġ70": 4371,
      "ĠCard": 4372,
      "Ġcirc": 4373,
      "ĠMr": 4374,
      "Ġdirector": 4375,
      "ros": 4376,
      "ĠFore": 4377,
      "ĠExper": 4378,
      "CA": 4379,
      "imensions": 4380,
      "ĠVe": 4381,
      "Ġfootball": 4382,
      "Ġcorner": 4383,
      "ĠFlorida": 4384,
      "ĠThanks": 4385,
      "Ġwel": 4386,
      "Ġstrugg": 4387,
      "ĠStr": 4388,
      "Ġlovely": 4389,
      "Ġbul": 4390,
      "Ġcloud": 4391,
      "Ġu": 4392,
      "ading": 4393,
      "ĠCentre": 4394,
      "ĠMor": 4395,
      "Ġcandid": 4396,
      "Ġarrange": 4397,
      "BA": 4398,
      "Ġobs": 4399,
      "Ġsharing": 4400,
      "amm": 4401,
      "Ġbrings": 4402,
      "Ġfavour": 4403,
      "Ġteac": 4404,
      "Ġson": 4405,
      "eria": 4406,
      "Can": 4407,
      "mb": 4408,
      "37": 4409,
      "ĠVol": 4410,
      "Ġserved": 4411,
      "force": 4412,
      "Ġbooking": 4413,
      "Ġfamous": 4414,
      "Ġfacility": 4415,
      "Ġfan": 4416,
      "Ġplants": 4417,
      "ainless": 4418,
      "iency": 4419,
      "Ġnamed": 4420,
      "ĠIr": 4421,
      "Ġdep": 4422,
      "Ġconvenient": 4423,
      "Ġinstalled": 4424,
      "Ġregarding": 4425,
      "Ġupcoming": 4426,
      "\".": 4427,
      "oop": 4428,
      "Ġmonitor": 4429,
      "ENT": 4430,
      "Ġselling": 4431,
      "Ġcommunication": 4432,
      "39": 4433,
      "Ġseeing": 4434,
      "ĠThank": 4435,
      "Ġneck": 4436,
      "enities": 4437,
      "ĠPack": 4438,
      "Ġsustain": 4439,
      "ĠFrench": 4440,
      "iny": 4441,
      "ĠInstagram": 4442,
      "umm": 4443,
      "icious": 4444,
      "Post": 4445,
      "Ġlock": 4446,
      "Ġmatt": 4447,
      "ĠEduc": 4448,
      "Ġflav": 4449,
      "esome": 4450,
      "âĦ¢": 4451,
      "Ġmulti": 4452,
      "Ġstructure": 4453,
      "Ġadvert": 4454,
      "Ġinjury": 4455,
      "Ġframe": 4456,
      "Ġcoach": 4457,
      "andemic": 4458,
      "Ġpatient": 4459,
      "Ġtechnical": 4460,
      "Ġnation": 4461,
      "Ġincreasing": 4462,
      "ĠEngland": 4463,
      "ude": 4464,
      "Ġmer": 4465,
      "32": 4466,
      "Ġmoved": 4467,
      "Ġcontains": 4468,
      "Ġmo": 4469,
      "ĠPaul": 4470,
      "Ġwinning": 4471,
      "Ġerr": 4472,
      "Ġmenu": 4473,
      "Ġappointment": 4474,
      "Ġcry": 4475,
      "66": 4476,
      "Ġhelpful": 4477,
      "Ġlighting": 4478,
      "Ġshel": 4479,
      "ological": 4480,
      "AG": 4481,
      "Ġjobs": 4482,
      "reek": 4483,
      "ĠFeatures": 4484,
      "Ġmaximum": 4485,
      "iverse": 4486,
      "ĠFind": 4487,
      "ĠBook": 4488,
      "Ġbike": 4489,
      "arily": 4490,
      "ĠFood": 4491,
      "oma": 4492,
      "ĠCup": 4493,
      "Spe": 4494,
      "aught": 4495,
      "Ġdoors": 4496,
      "Ġstarts": 4497,
      "Ġadvance": 4498,
      "Ġton": 4499,
      "Ġmicro": 4500,
      "oost": 4501,
      "Ġemot": 4502,
      "weight": 4503,
      "Ġpurchased": 4504,
      "ĠCEO": 4505,
      "ĠJames": 4506,
      "idays": 4507,
      "undred": 4508,
      "Ġinflu": 4509,
      "Ġtow": 4510,
      "used": 4511,
      "ĠMany": 4512,
      "Ġ35": 4513,
      "ĠAny": 4514,
      "Ġlaunched": 4515,
      "adem": 4516,
      "otes": 4517,
      "Ġbelie": 4518,
      "inally": 4519,
      "ĠDevelopment": 4520,
      "iques": 4521,
      "ayer": 4522,
      "inger": 4523,
      "pet": 4524,
      "Ġstunning": 4525,
      "Ġdriver": 4526,
      "asks": 4527,
      "Ġexclusive": 4528,
      "Ġmail": 4529,
      "Over": 4530,
      "Ġfinding": 4531,
      "ĠTom": 4532,
      "Ġopened": 4533,
      "Ġride": 4534,
      "Fr": 4535,
      "ograp": 4536,
      "ĠEngine": 4537,
      "ĠPet": 4538,
      "Ġmonthly": 4539,
      "ĠEven": 4540,
      "BC": 4541,
      "Ġregister": 4542,
      "Ġgarage": 4543,
      "Ġbalance": 4544,
      "iamond": 4545,
      "ĠManager": 4546,
      "ĠForm": 4547,
      "Ġplastic": 4548,
      "Ġidentify": 4549,
      "Ġproced": 4550,
      "well": 4551,
      "Ġentry": 4552,
      "Ġoperations": 4553,
      "ideo": 4554,
      "arranty": 4555,
      "term": 4556,
      "fl": 4557,
      "Ġseparate": 4558,
      "Ġvary": 4559,
      "ounds": 4560,
      "fol": 4561,
      "Ġbrows": 4562,
      "ĠRock": 4563,
      "Av": 4564,
      "ĠRob": 4565,
      "IF": 4566,
      "Ġturned": 4567,
      "unately": 4568,
      "Ġcontinues": 4569,
      "Ġjew": 4570,
      "ken": 4571,
      "Description": 4572,
      "----": 4573,
      "ously": 4574,
      "Ġwasn": 4575,
      "Ġborn": 4576,
      "Us": 4577,
      "Ġcapital": 4578,
      "ĠHand": 4579,
      "ervation": 4580,
      "Ġguest": 4581,
      "Ġleaders": 4582,
      "noon": 4583,
      "Ġentert": 4584,
      "Ġtickets": 4585,
      "ĠFoundation": 4586,
      "ĠRel": 4587,
      "rooms": 4588,
      "ened": 4589,
      "cut": 4590,
      "ĠRich": 4591,
      "ĠLand": 4592,
      "Ġobt": 4593,
      "78": 4594,
      "ĠSeries": 4595,
      "Ġstuff": 4596,
      "imb": 4597,
      "Ġapartment": 4598,
      "ĠGrand": 4599,
      "Ġwindows": 4600,
      "Ġbusy": 4601,
      "Ġrefer": 4602,
      "Ġartists": 4603,
      "ying": 4604,
      "inate": 4605,
      "ĠOnline": 4606,
      "Ġdeals": 4607,
      "Ġwife": 4608,
      "cher": 4609,
      "opyright": 4610,
      "Ġcounter": 4611,
      "Ġrob": 4612,
      "merce": 4613,
      "rian": 4614,
      "ĠJesus": 4615,
      "Am": 4616,
      "Ġrock": 4617,
      "ethod": 4618,
      "ĠWashington": 4619,
      "ĠPrem": 4620,
      "ĠSupport": 4621,
      "Ġleather": 4622,
      "Ġwrong": 4623,
      "Ġposted": 4624,
      "ĠII": 4625,
      "RA": 4626,
      "Ġven": 4627,
      "Ġappropri": 4628,
      "Ġspaces": 4629,
      "ences": 4630,
      "ĠLove": 4631,
      "Home": 4632,
      "Ġtrees": 4633,
      "ĠGal": 4634,
      "Ġfees": 4635,
      "Ġwaiting": 4636,
      "letter": 4637,
      "alu": 4638,
      "ĠWeek": 4639,
      "Some": 4640,
      "Ġoccur": 4641,
      "Ġattempt": 4642,
      "Ġcentral": 4643,
      "ĠMal": 4644,
      "life": 4645,
      "Ġheard": 4646,
      "Ġforget": 4647,
      "ka": 4648,
      "haps": 4649,
      "Ġmiddle": 4650,
      "Ġapart": 4651,
      "ĠBath": 4652,
      "endar": 4653,
      "Ġcoverage": 4654,
      "ĠToday": 4655,
      "enses": 4656,
      "atever": 4657,
      "Ġclin": 4658,
      "Ġwash": 4659,
      "ĠStand": 4660,
      "Dis": 4661,
      "ĠAfrica": 4662,
      "lines": 4663,
      "Ġallowing": 4664,
      "irection": 4665,
      "Ġelements": 4666,
      "agn": 4667,
      "Ġoperating": 4668,
      "Ġcollege": 4669,
      "ĠTre": 4670,
      "ĠDetails": 4671,
      "rief": 4672,
      "ĠBet": 4673,
      "gar": 4674,
      "ij": 4675,
      "Ġestablished": 4676,
      "esy": 4677,
      "Ġpanel": 4678,
      "azine": 4679,
      "Ġdise": 4680,
      "Ġluck": 4681,
      "ãģ": 4682,
      "ĠHill": 4683,
      "Join": 4684,
      "Ġrequires": 4685,
      "Ġvision": 4686,
      "Ġfeedback": 4687,
      "usband": 4688,
      "Ġtheme": 4689,
      "SS": 4690,
      "Ġenvironment": 4691,
      "Ġdecl": 4692,
      "appy": 4693,
      "Ġconnected": 4694,
      "Ġpen": 4695,
      "Ġapproximately": 4696,
      "Other": 4697,
      "ĠHead": 4698,
      "Ġrules": 4699,
      "apter": 4700,
      "Ġpremium": 4701,
      "Thanks": 4702,
      "Ġcompared": 4703,
      "outs": 4704,
      "Ġsea": 4705,
      "Ġutil": 4706,
      "rupt": 4707,
      "Ġfollowed": 4708,
      "Ġce": 4709,
      "Ġspons": 4710,
      "Ġcore": 4711,
      "Ġefforts": 4712,
      "Ġincome": 4713,
      "Ġrecommended": 4714,
      "'d": 4715,
      "Su": 4716,
      "Ġdesk": 4717,
      "Ġplug": 4718,
      "Ġorganizations": 4719,
      "Ġadvanced": 4720,
      "85": 4721,
      "Ġpresented": 4722,
      "onus": 4723,
      "ĠFull": 4724,
      "su": 4725,
      "cean": 4726,
      "istr": 4727,
      "Ġsouth": 4728,
      "ferences": 4729,
      "pective": 4730,
      "anking": 4731,
      "Ġinches": 4732,
      "lor": 4733,
      "Ġmechan": 4734,
      "ĠCourt": 4735,
      "iar": 4736,
      "ĠStep": 4737,
      "ourses": 4738,
      "ĠSize": 4739,
      "ems": 4740,
      "Ġstret": 4741,
      "Ġremind": 4742,
      "ĠMatt": 4743,
      "Ġeat": 4744,
      "Ġexception": 4745,
      "ga": 4746,
      "Ġoptim": 4747,
      "ĠOF": 4748,
      "Ġinnovative": 4749,
      "made": 4750,
      "Ġspl": 4751,
      "Man": 4752,
      "Ġstick": 4753,
      "Ġshower": 4754,
      "ternal": 4755,
      "Ġaren": 4756,
      "Ġchanging": 4757,
      "date": 4758,
      "Ġbeg": 4759,
      "atab": 4760,
      "Ġworry": 4761,
      "Yes": 4762,
      "Ġstandards": 4763,
      "Ġluxury": 4764,
      "td": 4765,
      "Ġcertainly": 4766,
      "Ġnames": 4767,
      "According": 4768,
      "ĠData": 4769,
      "Ġpandemic": 4770,
      "Ġdemon": 4771,
      "Ġbask": 4772,
      "ĠiPhone": 4773,
      "Ġinspired": 4774,
      "Ġcatch": 4775,
      "Last": 4776,
      "Ġmarkets": 4777,
      "Ġrental": 4778,
      "Ġdoub": 4779,
      "Ġshowing": 4780,
      "Ġjoined": 4781,
      "Ġsaying": 4782,
      "ĠGeneral": 4783,
      "ĠGar": 4784,
      "osing": 4785,
      "Ġparticularly": 4786,
      "ĠStart": 4787,
      "iration": 4788,
      "Ġfold": 4789,
      "Ġcelebrate": 4790,
      "Ġwine": 4791,
      "Ġexchange": 4792,
      "Ġrefund": 4793,
      "Ġring": 4794,
      "Ġcombination": 4795,
      "Ġice": 4796,
      "rete": 4797,
      "isation": 4798,
      "Ġsmaller": 4799,
      "uries": 4800,
      "Ġwar": 4801,
      "Ġleader": 4802,
      "vern": 4803,
      "Ġdegree": 4804,
      "ĠAccess": 4805,
      "yer": 4806,
      "ixt": 4807,
      "Ġrich": 4808,
      "ĠSet": 4809,
      "Ġproduced": 4810,
      "inations": 4811,
      "Ġ45": 4812,
      "ĠBed": 4813,
      "ĠÐ": 4814,
      "Â£": 4815,
      "sy": 4816,
      "Ġcalcul": 4817,
      "ĠConnect": 4818,
      "aid": 4819,
      "Â°": 4820,
      "31": 4821,
      "Ġlights": 4822,
      "Ġsport": 4823,
      "ĠMain": 4824,
      "CO": 4825,
      "Ġhundred": 4826,
      "BS": 4827,
      "ĠLou": 4828,
      "aser": 4829,
      "going": 4830,
      "Ġtrou": 4831,
      "emporary": 4832,
      "Ġcalls": 4833,
      "ki": 4834,
      "Ġfeaturing": 4835,
      "ĠSign": 4836,
      "eries": 4837,
      "ĠHist": 4838,
      "oosing": 4839,
      "ĠTake": 4840,
      "ano": 4841,
      "ĠStore": 4842,
      "atively": 4843,
      "otal": 4844,
      "Ġsuit": 4845,
      "Ġalone": 4846,
      "Ġ500": 4847,
      "action": 4848,
      "ĠBen": 4849,
      "owntown": 4850,
      "ĠWord": 4851,
      "urd": 4852,
      "Ġnut": 4853,
      "Ġprovider": 4854,
      "Ġanywhere": 4855,
      "ĠMichael": 4856,
      "iled": 4857,
      "ĠSince": 4858,
      "Ġsilver": 4859,
      "ĠEstate": 4860,
      "46": 4861,
      "Ġnorth": 4862,
      "Let": 4863,
      "Ġwoman": 4864,
      "Ġdepending": 4865,
      "outhern": 4866,
      "ĠMary": 4867,
      "Ġhaven": 4868,
      "Int": 4869,
      "ĠON": 4870,
      "Ġposts": 4871,
      "ĠLim": 4872,
      "Ġemb": 4873,
      "Ġreturns": 4874,
      "ribe": 4875,
      "ĠLED": 4876,
      "Ġvs": 4877,
      "Ġprepared": 4878,
      "ĠTor": 4879,
      "Ġafternoon": 4880,
      "Ġenjoyed": 4881,
      "ĠRest": 4882,
      "win": 4883,
      "Ġkm": 4884,
      "Ġtried": 4885,
      "Ġneighborhood": 4886,
      "Ġpush": 4887,
      "Ġpolit": 4888,
      "Ġstatus": 4889,
      "Ġoperation": 4890,
      "Ind": 4891,
      "Ġhusband": 4892,
      "list": 4893,
      "ĠMad": 4894,
      "Ġdeveloping": 4895,
      "Ġhospital": 4896,
      "ĠFREE": 4897,
      "Ġcontinued": 4898,
      "Ġtaste": 4899,
      "Ġthick": 4900,
      "ĠIndust": 4901,
      "Ġswitch": 4902,
      "Ġscen": 4903,
      "Ġgreater": 4904,
      "Ġmemory": 4905,
      "ĠMaster": 4906,
      "ĠCarol": 4907,
      "Ġstone": 4908,
      "Ġconfirm": 4909,
      "Ġcup": 4910,
      "Ġvoice": 4911,
      "Ġtom": 4912,
      "Ġserving": 4913,
      "Ġaccessories": 4914,
      "arks": 4915,
      "Ġpal": 4916,
      "Ġguarantee": 4917,
      "Ġwat": 4918,
      "ĠPeople": 4919,
      "Fi": 4920,
      "Ġconsumers": 4921,
      "Ġcotton": 4922,
      "FL": 4923,
      "Ġeleg": 4924,
      "Ġteeth": 4925,
      "Ġsigned": 4926,
      "Ġtransform": 4927,
      "Ġchain": 4928,
      "fin": 4929,
      "ipes": 4930,
      "ĠMedia": 4931,
      "ĠMel": 4932,
      "Ġsessions": 4933,
      "ĠArea": 4934,
      "ĠProv": 4935,
      "Price": 4936,
      "ĠPlus": 4937,
      "UT": 4938,
      "reate": 4939,
      "Ġvisual": 4940,
      "Ġraised": 4941,
      "ooper": 4942,
      "ĠAtt": 4943,
      "uty": 4944,
      "47": 4945,
      "Ġprimary": 4946,
      "Ġgolf": 4947,
      "Ġedge": 4948,
      "GB": 4949,
      "Ġlooked": 4950,
      "Ġapps": 4951,
      "estyle": 4952,
      "âĢ³": 4953,
      "Ġdecide": 4954,
      "ĠSam": 4955,
      "Rel": 4956,
      "Welcome": 4957,
      "ĠSqu": 4958,
      "mical": 4959,
      "orthern": 4960,
      "Ġkept": 4961,
      "Ġbreakfast": 4962,
      "Ġstates": 4963,
      "DF": 4964,
      "Med": 4965,
      "Ġlimit": 4966,
      "Ġdinner": 4967,
      "ĠLong": 4968,
      "Ġleaves": 4969,
      "ĠAlex": 4970,
      "ATION": 4971,
      "icago": 4972,
      "Ġdelight": 4973,
      "nergy": 4974,
      "ptions": 4975,
      "01": 4976,
      "IR": 4977,
      "ĠMicrosoft": 4978,
      "Ġsurv": 4979,
      "Ġminimum": 4980,
      "Ġfocused": 4981,
      "Ġfunds": 4982,
      "quality": 4983,
      "Ġshap": 4984,
      "osure": 4985,
      "orgeous": 4986,
      "Ġcritical": 4987,
      "Ġ=": 4988,
      "ini": 4989,
      "rehens": 4990,
      "Ġisland": 4991,
      "ĠCond": 4992,
      "Ġcommitted": 4993,
      "ĠMil": 4994,
      "col": 4995,
      "Ġemergency": 4996,
      "Ġmanaged": 4997,
      "ĠYOU": 4998,
      "Ġbecoming": 4999,
      "Have": 5000,
      "Ġsector": 5001,
      "ye": 5002,
      "issions": 5003,
      "Ġenhance": 5004,
      "Ġautomatically": 5005,
      "UN": 5006,
      "eless": 5007,
      "ĠReview": 5008,
      "Ġmovement": 5009,
      "lights": 5010,
      "Ġfilled": 5011,
      "ederal": 5012,
      "Ġworkers": 5013,
      "Ġremains": 5014,
      "ĠWhether": 5015,
      "Ġvirtual": 5016,
      "Ġdetailed": 5017,
      "ĠTwo": 5018,
      "Ġmm": 5019,
      "ĠUnder": 5020,
      "ĠQue": 5021,
      "Ġexpensive": 5022,
      "ĠLog": 5023,
      "ycl": 5024,
      "Just": 5025,
      "ĠCA": 5026,
      "Ġwebsites": 5027,
      "Ġ*": 5028,
      "Ġvalu": 5029,
      "aven": 5030,
      "Ġmedium": 5031,
      "mp": 5032,
      "Ġslightly": 5033,
      "ĠThom": 5034,
      "cell": 5035,
      "ĠMusic": 5036,
      "ĠFort": 5037,
      "Ġcoast": 5038,
      "Ġspending": 5039,
      "Ġgone": 5040,
      "Ġeconomic": 5041,
      "ĠWi": 5042,
      "leg": 5043,
      "Ġge": 5044,
      "ears": 5045,
      "zer": 5046,
      "ĠMuseum": 5047,
      "Ġletter": 5048,
      "ĠEducation": 5049,
      "flow": 5050,
      "Ġspeak": 5051,
      "ĠBox": 5052,
      "Ġthousands": 5053,
      "Ġlogo": 5054,
      "osh": 5055,
      "Ġleaving": 5056,
      "Ġreturned": 5057,
      "body": 5058,
      "Ġappropriate": 5059,
      "Ġboat": 5060,
      "ĠFarm": 5061,
      "Ġicon": 5062,
      "hire": 5063,
      "itors": 5064,
      "Ġcategory": 5065,
      "Ġadapt": 5066,
      "Ġleadership": 5067,
      "ĠSpring": 5068,
      "irmed": 5069,
      "Ġtesting": 5070,
      "Ġextensive": 5071,
      "ortgage": 5072,
      "Ġincredible": 5073,
      "unction": 5074,
      "Ġfather": 5075,
      "rote": 5076,
      "prene": 5077,
      "ĠBritish": 5078,
      "âĢĿ,": 5079,
      "Ġnav": 5080,
      "Ġpresident": 5081,
      "Ġincor": 5082,
      "Ġbringing": 5083,
      "Ġshoes": 5084,
      "Ġsurvey": 5085,
      "MA": 5086,
      "ĠMill": 5087,
      "Ġsup": 5088,
      "ĠSpecial": 5089,
      "inese": 5090,
      "ĠAvailable": 5091,
      "Ġsubmit": 5092,
      "Ġtrend": 5093,
      "Ġbought": 5094,
      "Ġmeasures": 5095,
      "Ġbird": 5096,
      "Ġfish": 5097,
      "Ġresidential": 5098,
      "obe": 5099,
      "Ġarticles": 5100,
      "Ġsets": 5101,
      "point": 5102,
      "Ġsav": 5103,
      "Ġpainting": 5104,
      "Ġeffects": 5105,
      "nament": 5106,
      "Ġlunch": 5107,
      "Ġshut": 5108,
      "Ġrelationships": 5109,
      "igned": 5110,
      "MLS": 5111,
      "Ġperfectly": 5112,
      "ander": 5113,
      "Ġavailability": 5114,
      "Ġhttp": 5115,
      "Ġquiet": 5116,
      "bol": 5117,
      "antic": 5118,
      "Ġsenior": 5119,
      "Ġappearance": 5120,
      "Ġcharacters": 5121,
      "Ġdaughter": 5122,
      "Ġforms": 5123,
      "Ġdogs": 5124,
      "reprene": 5125,
      "Ġequipped": 5126,
      "incip": 5127,
      "Ġscene": 5128,
      "Ġvisiting": 5129,
      "Ġinvent": 5130,
      "acking": 5131,
      "esh": 5132,
      "ĠCode": 5133,
      "Custom": 5134,
      "Ġjump": 5135,
      "Ġcouldn": 5136,
      "Ġgain": 5137,
      "Ġfaster": 5138,
      "ĠNetwork": 5139,
      "ĠMiss": 5140,
      "Step": 5141,
      "Ġalthough": 5142,
      "Ġexpertise": 5143,
      "Ġpred": 5144,
      "Ġpoly": 5145,
      "encies": 5146,
      "Ġseat": 5147,
      "Ġsurg": 5148,
      "Ġlisting": 5149,
      "ĠSoft": 5150,
      "ĠOh": 5151,
      "Ġgra": 5152,
      "Ġepisode": 5153,
      "MP": 5154,
      "Ġprofile": 5155,
      "Ġdepartment": 5156,
      "First": 5157,
      "Ġmaybe": 5158,
      "bre": 5159,
      "Ġanimals": 5160,
      "estic": 5161,
      "ĠBrown": 5162,
      "alog": 5163,
      "Ġhosting": 5164,
      "inn": 5165,
      "Ġformat": 5166,
      "uality": 5167,
      "Ġregistered": 5168,
      "Ġscheduled": 5169,
      "Ġspect": 5170,
      "Ġtalking": 5171,
      "Ġindependent": 5172,
      "omet": 5173,
      "burg": 5174,
      "Ġaccident": 5175,
      "ĠClean": 5176,
      "odel": 5177,
      "Ġolder": 5178,
      "OC": 5179,
      "Ġdisapp": 5180,
      "ĠLead": 5181,
      "ship": 5182,
      "ĠIP": 5183,
      "Ġindustrial": 5184,
      "isher": 5185,
      "Ġintend": 5186,
      "Ġwearing": 5187,
      "Ġdates": 5188,
      "rowd": 5189,
      "Ġrub": 5190,
      "ender": 5191,
      "86": 5192,
      "Ġterr": 5193,
      "ĠLtd": 5194,
      "ĠVir": 5195,
      "Ġencourage": 5196,
      "Ġdirection": 5197,
      "ĠMade": 5198,
      "ĠAND": 5199,
      "Ġnotes": 5200,
      "Ġvalues": 5201,
      "Ġtask": 5202,
      "bsite": 5203,
      "Ġtail": 5204,
      "Ġer": 5205,
      "reens": 5206,
      "ae": 5207,
      "ĠTur": 5208,
      "han": 5209,
      "Ġparties": 5210,
      "Ġdetermine": 5211,
      "Ġbrother": 5212,
      "ĠMer": 5213,
      "Ġsort": 5214,
      "Ġmanufacturing": 5215,
      "Ġagency": 5216,
      "ĠSports": 5217,
      "west": 5218,
      "Ġheight": 5219,
      "ĠTim": 5220,
      "Ġsettings": 5221,
      "Ġcities": 5222,
      "ĠMont": 5223,
      "ctors": 5224,
      "Ġgather": 5225,
      "Pre": 5226,
      "ya": 5227,
      "Ġsurf": 5228,
      "Features": 5229,
      "Ġ>": 5230,
      "ĠCat": 5231,
      "SE": 5232,
      "igan": 5233,
      "ror": 5234,
      "osen": 5235,
      "Ġthoughts": 5236,
      "Rep": 5237,
      "iser": 5238,
      "ĠAward": 5239,
      "gen": 5240,
      "iment": 5241,
      "ĠMult": 5242,
      "2019": 5243,
      "intage": 5244,
      "Ġestim": 5245,
      "cles": 5246,
      "Ġter": 5247,
      "Ġknew": 5248,
      "Ġawesome": 5249,
      "Ġconfidence": 5250,
      "Ġjud": 5251,
      "Ġleads": 5252,
      "Ġabsolutely": 5253,
      "ĠChampions": 5254,
      "Ġ2009": 5255,
      "Ġsurrounding": 5256,
      "iner": 5257,
      "ĠOld": 5258,
      "rapy": 5259,
      "front": 5260,
      "Ġsupporting": 5261,
      "Ġrare": 5262,
      "Ġprotected": 5263,
      "ĠPoint": 5264,
      "Ġpayments": 5265,
      "ĠRad": 5266,
      "Ġamong": 5267,
      "Ġ32": 5268,
      "Ġfigure": 5269,
      "TH": 5270,
      "ĠWal": 5271,
      "ĠGame": 5272,
      "ĠLearn": 5273,
      "Ġcontroll": 5274,
      "hab": 5275,
      "Ġrestrict": 5276,
      "Ġpreviously": 5277,
      "Ġcombined": 5278,
      "Ġdetect": 5279,
      "PM": 5280,
      "itle": 5281,
      "no": 5282,
      "rees": 5283,
      "oms": 5284,
      "Ġfaith": 5285,
      "Ġdang": 5286,
      "ĠSmith": 5287,
      "opping": 5288,
      "ĠShipping": 5289,
      "Ġdelicious": 5290,
      "Ġbehav": 5291,
      "ĠDem": 5292,
      "Follow": 5293,
      "Ġbasket": 5294,
      "ellig": 5295,
      "Learn": 5296,
      "ĠÃ": 5297,
      "ĠRober": 5298,
      "However": 5299,
      "Ġticket": 5300,
      "cks": 5301,
      "Ġcream": 5302,
      "eline": 5303,
      "Ġconfig": 5304,
      "Ġrear": 5305,
      "ĠDrive": 5306,
      "ĠKeep": 5307,
      "Ġhighlight": 5308,
      "ovel": 5309,
      "Sm": 5310,
      "ĠSecurity": 5311,
      "ĠMex": 5312,
      "Ġflight": 5313,
      "Ġnumerous": 5314,
      "Ġprot": 5315,
      "Ġsatisf": 5316,
      "ĠFranc": 5317,
      "itness": 5318,
      "oles": 5319,
      "Ġreplacement": 5320,
      "with": 5321,
      "Ġsigns": 5322,
      "iking": 5323,
      "iance": 5324,
      "Ġscale": 5325,
      "Ġachie": 5326,
      "Ġstruct": 5327,
      "Ġagent": 5328,
      "fortunately": 5329,
      "rehensive": 5330,
      "Ġproperly": 5331,
      "Aut": 5332,
      "Ġraise": 5333,
      "Sign": 5334,
      "Ġopin": 5335,
      "Ġcovers": 5336,
      "Ġcere": 5337,
      "ĠOffic": 5338,
      "Ġsuppli": 5339,
      "struction": 5340,
      "Ġvent": 5341,
      "ĠNY": 5342,
      "ĠTechnology": 5343,
      "ĠAtl": 5344,
      "ĠCoast": 5345,
      "ĠMax": 5346,
      "Ġpartnership": 5347,
      "Ġprepare": 5348,
      "Ġjoint": 5349,
      "Ġpractices": 5350,
      "Ġlisten": 5351,
      "Ġsy": 5352,
      "Ġbeat": 5353,
      "ĠAT": 5354,
      "Ġflexible": 5355,
      "sm": 5356,
      "pat": 5357,
      "Ġphotograph": 5358,
      "esterday": 5359,
      "working": 5360,
      "IA": 5361,
      "Ġblend": 5362,
      "Ġreality": 5363,
      "Ġrelevant": 5364,
      "vell": 5365,
      "iable": 5366,
      "Share": 5367,
      "tra": 5368,
      "ĠCert": 5369,
      "ĠDou": 5370,
      "ĠHy": 5371,
      "ĠWay": 5372,
      "Ġcourses": 5373,
      "ĠWhy": 5374,
      "icine": 5375,
      "ĠIts": 5376,
      "ĠLos": 5377,
      "OD": 5378,
      "Ġscr": 5379,
      "ulated": 5380,
      "Ġmissing": 5381,
      "anche": 5382,
      "Ġsources": 5383,
      "Ke": 5384,
      "Ġlearned": 5385,
      "Ġapproved": 5386,
      "Ġserver": 5387,
      "Ġhousing": 5388,
      "lets": 5389,
      "oration": 5390,
      "van": 5391,
      "Ġbirthday": 5392,
      "Press": 5393,
      "Ġvan": 5394,
      "Ġtea": 5395,
      "cause": 5396,
      "Ġlibrary": 5397,
      "Ġft": 5398,
      "mark": 5399,
      "Ġtrading": 5400,
      "Ġfeatured": 5401,
      "hent": 5402,
      "Ġjack": 5403,
      "Ġcutting": 5404,
      "Ġtun": 5405,
      "etime": 5406,
      "Ġdig": 5407,
      "Ġadventure": 5408,
      "away": 5409,
      "CE": 5410,
      "ersonal": 5411,
      "ocolate": 5412,
      "olutions": 5413,
      "Ġfavourite": 5414,
      "Ġwrote": 5415,
      "Ġthr": 5416,
      "Ġhimself": 5417,
      "Ġfell": 5418,
      "Ġsubscrib": 5419,
      "udd": 5420,
      "ait": 5421,
      "Ġliter": 5422,
      "ĠGarden": 5423,
      "Ġfo": 5424,
      "known": 5425,
      "Ġgoods": 5426,
      "ĠFund": 5427,
      "prise": 5428,
      "Tw": 5429,
      "vision": 5430,
      "Ġflu": 5431,
      "Since": 5432,
      "ĠGuide": 5433,
      "Ġcorporate": 5434,
      "Ġwatching": 5435,
      "Ġboost": 5436,
      "Ġtransl": 5437,
      "atabase": 5438,
      "Ġreserved": 5439,
      "89": 5440,
      "ictor": 5441,
      "ĠInclud": 5442,
      "ĠFil": 5443,
      "Ġbreath": 5444,
      "Ġinstructions": 5445,
      "Ġsolar": 5446,
      "ĠOrgan": 5447,
      "ua": 5448,
      "Ġdurable": 5449,
      "Ġharm": 5450,
      "ĠPan": 5451,
      "ilitary": 5452,
      "Ġreplace": 5453,
      "Ġspacious": 5454,
      "Ġden": 5455,
      "ĠChicago": 5456,
      "ĠHom": 5457,
      "Ġscience": 5458,
      "ifying": 5459,
      "ĠDev": 5460,
      "ĠLive": 5461,
      "Ġefficiency": 5462,
      "https": 5463,
      "Ġcris": 5464,
      "Ġfactors": 5465,
      "Ġdistrict": 5466,
      "ĠHave": 5467,
      "rier": 5468,
      "ĠOper": 5469,
      "Ġcomponents": 5470,
      "alian": 5471,
      "Today": 5472,
      "Ġhappens": 5473,
      "ademy": 5474,
      "rid": 5475,
      "Ġcommitment": 5476,
      "gl": 5477,
      "79": 5478,
      "ĠDiv": 5479,
      "Ġworldwide": 5480,
      "Ġpump": 5481,
      "Ġpractical": 5482,
      "Ġagreement": 5483,
      "Ġmil": 5484,
      "ĠResearch": 5485,
      "DA": 5486,
      "proof": 5487,
      "Ġfourth": 5488,
      "Ġeconomy": 5489,
      "Ġblood": 5490,
      "ĠChristian": 5491,
      "Ġdental": 5492,
      "OP": 5493,
      "ĠSand": 5494,
      "ĠScott": 5495,
      "Ġputting": 5496,
      "Ġmill": 5497,
      "ĠMid": 5498,
      "ĠWomen": 5499,
      "Ġaccurate": 5500,
      "Ġregistration": 5501,
      "ĠFestival": 5502,
      "Ġiniti": 5503,
      "Ġbuildings": 5504,
      "Ġtechniques": 5505,
      "Ġtight": 5506,
      "Wor": 5507,
      "Ġstudio": 5508,
      "Sim": 5509,
      "Ġstars": 5510,
      "May": 5511,
      "Ġconcerns": 5512,
      "isco": 5513,
      "Ġir": 5514,
      "Ġmeant": 5515,
      "ruit": 5516,
      "Ġmoist": 5517,
      "ĠTH": 5518,
      "Ġrenov": 5519,
      "oted": 5520,
      "Ġ2008": 5521,
      "Ġvacc": 5522,
      "Ġconfirmed": 5523,
      "Ġjoy": 5524,
      "ĠName": 5525,
      "Ġreached": 5526,
      "Ġmist": 5527,
      "Ġfem": 5528,
      "ca": 5529,
      "Ġdepos": 5530,
      "Ġdeck": 5531,
      "quir": 5532,
      "ĠTem": 5533,
      "Ġmode": 5534,
      "Ġactual": 5535,
      "Ġguys": 5536,
      "05": 5537,
      "inar": 5538,
      "ita": 5539,
      "idden": 5540,
      "elines": 5541,
      "Ġhyd": 5542,
      "ĠExt": 5543,
      "Ġdemonstr": 5544,
      "SA": 5545,
      "Ġadopt": 5546,
      "ello": 5547,
      "Ġhire": 5548,
      "Ġcolours": 5549,
      "rivate": 5550,
      "ums": 5551,
      "orough": 5552,
      "âĢĺ": 5553,
      "Ġedition": 5554,
      "ĠHD": 5555,
      "Ġsides": 5556,
      "à¸": 5557,
      "Ġapplied": 5558,
      "Ġvillage": 5559,
      "ola": 5560,
      "anges": 5561,
      "Ġevalu": 5562,
      "76": 5563,
      "Ġseconds": 5564,
      "ĠPri": 5565,
      "Ġvacation": 5566,
      "Car": 5567,
      "Ġgorgeous": 5568,
      "itiz": 5569,
      "case": 5570,
      "igate": 5571,
      "Ġbecomes": 5572,
      "Ġkit": 5573,
      "Ġchannel": 5574,
      "Ġfra": 5575,
      "ĠâĤ¬": 5576,
      "Ġrot": 5577,
      "ĠWall": 5578,
      "Ġdecisions": 5579,
      "Ġwalls": 5580,
      "Ġfunding": 5581,
      "High": 5582,
      "ĠSP": 5583,
      "Book": 5584,
      "Location": 5585,
      "inch": 5586,
      "othes": 5587,
      "een": 5588,
      "Off": 5589,
      "Ġchat": 5590,
      "berg": 5591,
      "Ġshops": 5592,
      "ĠShop": 5593,
      "erts": 5594,
      "ĠEqu": 5595,
      "Ġinternal": 5596,
      "sequ": 5597,
      "LL": 5598,
      "Ġtruck": 5599,
      "Ġpleased": 5600,
      "Gu": 5601,
      "ĠNov": 5602,
      "ĠTheir": 5603,
      "Ġgeneration": 5604,
      "stone": 5605,
      "ript": 5606,
      "ighter": 5607,
      "Ġfuel": 5608,
      "Ġforce": 5609,
      "ĠWil": 5610,
      "Ġcable": 5611,
      "Ġdrug": 5612,
      "Ġtherefore": 5613,
      "afe": 5614,
      "ĠUl": 5615,
      "oral": 5616,
      "ĠHam": 5617,
      "Ġprocessing": 5618,
      "Ġweekly": 5619,
      "elry": 5620,
      "Ġcaused": 5621,
      "Ġenable": 5622,
      "scribe": 5623,
      "Ġyouth": 5624,
      "Ġknows": 5625,
      "Ġgear": 5626,
      "essional": 5627,
      "omb": 5628,
      "ĠAC": 5629,
      "Ġeveryday": 5630,
      "Great": 5631,
      "ĠScience": 5632,
      "Ġfol": 5633,
      "Ġtend": 5634,
      "gal": 5635,
      "Ġbonus": 5636,
      "Ġgifts": 5637,
      "Email": 5638,
      "cont": 5639,
      "ardens": 5640,
      "Ġpresence": 5641,
      "Ġexercise": 5642,
      "Once": 5643,
      "eler": 5644,
      "ĠConference": 5645,
      "Per": 5646,
      "Ġshall": 5647,
      "ĠCam": 5648,
      "ĠSales": 5649,
      "Ġnearby": 5650,
      "Ġsq": 5651,
      "Most": 5652,
      "rome": 5653,
      "water": 5654,
      "Ġalternative": 5655,
      "bert": 5656,
      "urns": 5657,
      "Ġgovern": 5658,
      "Ġstyles": 5659,
      "Ġtechnologies": 5660,
      "Ġdesigner": 5661,
      "ĠAccount": 5662,
      "yard": 5663,
      "Ġprinted": 5664,
      "ĠFair": 5665,
      "Â©": 5666,
      "Ġprocesses": 5667,
      "Mar": 5668,
      "Ġtough": 5669,
      "ults": 5670,
      "ĠArts": 5671,
      "Any": 5672,
      "Ġourselves": 5673,
      "Ġ300": 5674,
      "800": 5675,
      "!!!": 5676,
      "ĠSocial": 5677,
      "Ġparticipants": 5678,
      "Ġparticipate": 5679,
      "Ġthreat": 5680,
      "ĠSociety": 5681,
      "Ð¾": 5682,
      "Ġestablish": 5683,
      "Ġoccasion": 5684,
      "iams": 5685,
      "Ġdyn": 5686,
      "Ġended": 5687,
      "Ġdestination": 5688,
      "Ġimproved": 5689,
      "Use": 5690,
      "undry": 5691,
      "Ġwhose": 5692,
      "ĠMedical": 5693,
      "orter": 5694,
      "Ġvalid": 5695,
      "ĠDigital": 5696,
      "Ġcharges": 5697,
      "Ġsubst": 5698,
      "Ġmini": 5699,
      "42": 5700,
      "ĠLibrary": 5701,
      "Ġsupports": 5702,
      "Ġcheap": 5703,
      "ĠAngeles": 5704,
      "300": 5705,
      "Ġearth": 5706,
      "inct": 5707,
      "ibilities": 5708,
      "Ġdrink": 5709,
      "ĠCost": 5710,
      "atre": 5711,
      "Ġsupported": 5712,
      "hi": 5713,
      "Ġcentury": 5714,
      "Ġhappened": 5715,
      "Ġstretch": 5716,
      "mosp": 5717,
      "Ġdrivers": 5718,
      "yan": 5719,
      "ament": 5720,
      "ora": 5721,
      "ĠEnter": 5722,
      "Ġentr": 5723,
      "Ġpu": 5724,
      "Ġheating": 5725,
      "aded": 5726,
      "ores": 5727,
      "59": 5728,
      "ĠOnly": 5729,
      "hand": 5730,
      "ocking": 5731,
      "ĠWild": 5732,
      "Ġvolume": 5733,
      "Ġpromote": 5734,
      "Ġkeeps": 5735,
      "ĠLord": 5736,
      "Ġath": 5737,
      "Ġâ": 5738,
      "ena": 5739,
      "Det": 5740,
      "Ġshares": 5741,
      "Ġ36": 5742,
      "ĠCommission": 5743,
      "atin": 5744,
      "ennis": 5745,
      "Ġwheel": 5746,
      "Ġcrew": 5747,
      "Ġgrant": 5748,
      "Ġ48": 5749,
      "Ġgenerally": 5750,
      "Ġviol": 5751,
      "Ġreco": 5752,
      "ius": 5753,
      "Ġworkshop": 5754,
      "nel": 5755,
      "Ġcomprehensive": 5756,
      "Ġscored": 5757,
      "ĠPolice": 5758,
      "ĠNOT": 5759,
      "ĠInvest": 5760,
      "Ġimportance": 5761,
      "Ġholidays": 5762,
      "Out": 5763,
      "ĠJour": 5764,
      "Ġaudio": 5765,
      "rastructure": 5766,
      "ĠChinese": 5767,
      "Ġtopics": 5768,
      "ĠNumber": 5769,
      "iest": 5770,
      "ĠCommit": 5771,
      "ĠFrance": 5772,
      "Ġrat": 5773,
      "Ġroute": 5774,
      "Ġplanned": 5775,
      "Ġgirls": 5776,
      "ĠSa": 5777,
      "ĠTravel": 5778,
      "Ġfilter": 5779,
      "Search": 5780,
      "Dr": 5781,
      "Ġcrowd": 5782,
      "orable": 5783,
      "Tube": 5784,
      "ĠControl": 5785,
      "asts": 5786,
      "ĠPress": 5787,
      "ffect": 5788,
      "Ġappeal": 5789,
      "Ġcharm": 5790,
      "PA": 5791,
      "Ġchair": 5792,
      "Ġwaste": 5793,
      "Ġwinner": 5794,
      "Ġfields": 5795,
      "icies": 5796,
      "ĠBur": 5797,
      "ala": 5798,
      "Each": 5799,
      "Ð°": 5800,
      "Ġstainless": 5801,
      "iers": 5802,
      "Note": 5803,
      "Ġmountain": 5804,
      "ĠHospital": 5805,
      "ERS": 5806,
      "road": 5807,
      "arp": 5808,
      "eper": 5809,
      "Vis": 5810,
      "ivil": 5811,
      "ĠAud": 5812,
      "Ġyellow": 5813,
      "Also": 5814,
      "Ġmeetings": 5815,
      "site": 5816,
      "âĢĶâĢĶ": 5817,
      "olars": 5818,
      "ĠPrint": 5819,
      "ĠMarketing": 5820,
      "ĠEnergy": 5821,
      "ĠUSB": 5822,
      "Ġlistings": 5823,
      "ĠMach": 5824,
      "power": 5825,
      "Ġowned": 5826,
      "ĠRequ": 5827,
      "Download": 5828,
      "Ġhonest": 5829,
      "ĠSn": 5830,
      "Ġdent": 5831,
      "Ġtub": 5832,
      "ĠâĢ¢": 5833,
      "ĠMo": 5834,
      "Ġpurchasing": 5835,
      "Ġfloors": 5836,
      "agers": 5837,
      "Ġspecifically": 5838,
      "Ġfeels": 5839,
      "ospit": 5840,
      "Ġregularly": 5841,
      "Ġchart": 5842,
      "Ã¡": 5843,
      "ĠAdv": 5844,
      "ucks": 5845,
      "Ġthrow": 5846,
      "ĠReviews": 5847,
      "ĠHum": 5848,
      "Ġremote": 5849,
      "Ġupper": 5850,
      "ĠBer": 5851,
      "ĠÂ©": 5852,
      "Shipping": 5853,
      "Ġleague": 5854,
      "Ġkick": 5855,
      "Ġappreciate": 5856,
      "Ġfixed": 5857,
      "while": 5858,
      "sych": 5859,
      "Ġmanufacturer": 5860,
      "hetic": 5861,
      "Ġteaching": 5862,
      "pected": 5863,
      "ĠCreat": 5864,
      "ĠTest": 5865,
      "autiful": 5866,
      "Ġlose": 5867,
      "Ġconversation": 5868,
      "FC": 5869,
      "Listing": 5870,
      "Ġplate": 5871,
      "Ġdisease": 5872,
      "Ġrevealed": 5873,
      "Call": 5874,
      "anish": 5875,
      "Ġhardware": 5876,
      "Ġelig": 5877,
      "kin": 5878,
      "ĠDuring": 5879,
      "Ġasking": 5880,
      "pid": 5881,
      "ulous": 5882,
      "Ġarm": 5883,
      "Ġfle": 5884,
      "ĠSteel": 5885,
      "Ġcoord": 5886,
      "Ġguaranteed": 5887,
      "Ġbill": 5888,
      "Ġtempl": 5889,
      "eller": 5890,
      "pan": 5891,
      "Ġdepart": 5892,
      "Ġ2023": 5893,
      "ĠDen": 5894,
      "ĠAustralian": 5895,
      "Art": 5896,
      "ĠSmart": 5897,
      "ĠFre": 5898,
      "Part": 5899,
      "Ġrise": 5900,
      "ĠNor": 5901,
      "gers": 5902,
      "itage": 5903,
      "ĠLast": 5904,
      "bur": 5905,
      "adium": 5906,
      "Ġlack": 5907,
      "friendly": 5908,
      "unting": 5909,
      "43": 5910,
      "Ġchosen": 5911,
      "ĠDelivery": 5912,
      "Size": 5913,
      "ĠBal": 5914,
      "Ġfishing": 5915,
      "ĠVirgin": 5916,
      "Ġdu": 5917,
      "iece": 5918,
      "hus": 5919,
      "ĠEnd": 5920,
      "ĠBrand": 5921,
      "PC": 5922,
      "Ġmir": 5923,
      "ĠDate": 5924,
      "ĠVer": 5925,
      "Ġwhatever": 5926,
      "ĠAvenue": 5927,
      "oto": 5928,
      "Ġmachines": 5929,
      "Ġtech": 5930,
      "ĠOb": 5931,
      "Ġpodcast": 5932,
      "Ġstrategies": 5933,
      "ĠLouis": 5934,
      "Ġaccommodation": 5935,
      "spe": 5936,
      "icians": 5937,
      "icket": 5938,
      "Ġrecords": 5939,
      "Ġbrief": 5940,
      "ani": 5941,
      "Ġotherwise": 5942,
      "cue": 5943,
      "Ġarrived": 5944,
      "ersey": 5945,
      "Ġrevenue": 5946,
      "inating": 5947,
      "ĠMeet": 5948,
      "ĠDescription": 5949,
      "wear": 5950,
      "\",": 5951,
      "Ġappears": 5952,
      "Ġcontemporary": 5953,
      "Ġproviders": 5954,
      "vere": 5955,
      "anda": 5956,
      "ERE": 5957,
      "ocu": 5958,
      "Ġatmosp": 5959,
      "Ġstream": 5960,
      "ario": 5961,
      "Ġrenew": 5962,
      "Ġment": 5963,
      "ĠCast": 5964,
      "ĠFriend": 5965,
      "Ġtopic": 5966,
      "ilst": 5967,
      "Top": 5968,
      "Ġdiscussion": 5969,
      "print": 5970,
      "ĠLab": 5971,
      "ĠWalk": 5972,
      "Ġpopulation": 5973,
      "reland": 5974,
      "Ġbond": 5975,
      "iders": 5976,
      "Ġaspects": 5977,
      "Fl": 5978,
      "uction": 5979,
      "ĠWorks": 5980,
      "ĠBecause": 5981,
      "Ġquote": 5982,
      "Ġmentioned": 5983,
      "pon": 5984,
      "69": 5985,
      "LA": 5986,
      "Where": 5987,
      "ĠSupp": 5988,
      "Ġpackaging": 5989,
      "vention": 5990,
      "Ġtab": 5991,
      "ĠðŁ": 5992,
      "ĠKitchen": 5993,
      "ĠProducts": 5994,
      "Ġphotograp": 5995,
      "Ġlifestyle": 5996,
      "folio": 5997,
      "ikes": 5998,
      "ĠSummer": 5999,
      "Ġsupplies": 6000,
      "ĠSale": 6001,
      "kins": 6002,
      "ĠTrust": 6003,
      "verse": 6004,
      "ĠPlace": 6005,
      "chers": 6006,
      "iors": 6007,
      "abilities": 6008,
      "ĠRef": 6009,
      "Ġinspiration": 6010,
      "Ġarrive": 6011,
      "reams": 6012,
      "Ġnine": 6013,
      "Ġbags": 6014,
      "ĠHard": 6015,
      "Ġappliances": 6016,
      "Ġrecovery": 6017,
      "orney": 6018,
      "Ġimpressive": 6019,
      "Ġsitting": 6020,
      "ecutive": 6021,
      "ĠiP": 6022,
      "itionally": 6023,
      "Ġveget": 6024,
      "Ġdespite": 6025,
      "Ġvend": 6026,
      "ORE": 6027,
      "ĠMic": 6028,
      "ĠChief": 6029,
      "ĠKn": 6030,
      "anged": 6031,
      "Copyright": 6032,
      "cohol": 6033,
      "eared": 6034,
      "Ġhouses": 6035,
      "Ġchoosing": 6036,
      "Ġaccessible": 6037,
      "Ġvaluable": 6038,
      "ĠGermany": 6039,
      "Ġattack": 6040,
      "Ġmental": 6041,
      "ĠMen": 6042,
      "Ġextended": 6043,
      "Ġfat": 6044,
      "ĠBas": 6045,
      "ansion": 6046,
      "Ġemployee": 6047,
      "ĠLike": 6048,
      "Ġaffil": 6049,
      "Ġamenities": 6050,
      "usion": 6051,
      "ĠHaw": 6052,
      "Ġintegrated": 6053,
      "Make": 6054,
      "Ġshowed": 6055,
      "Ġphotography": 6056,
      "rowse": 6057,
      "Ġstylish": 6058,
      "Ġholding": 6059,
      "men": 6060,
      "Ðµ": 6061,
      "ĠLo": 6062,
      "pons": 6063,
      "Ġwilling": 6064,
      "ĠSilver": 6065,
      "ĠGlobal": 6066,
      "64": 6067,
      "ĠVictor": 6068,
      "Ġdebut": 6069,
      "Ed": 6070,
      "Ġfruit": 6071,
      "Ġoutput": 6072,
      "Ġsimpl": 6073,
      "Ġbegins": 6074,
      "Ġoutstanding": 6075,
      "plore": 6076,
      "Ġaccounts": 6077,
      "Ret": 6078,
      "Ġremov": 6079,
      "gend": 6080,
      "Ġwarranty": 6081,
      "zen": 6082,
      "Ġnewsletter": 6083,
      "Hi": 6084,
      "Ġlandscape": 6085,
      "Ġhotels": 6086,
      "Ġjournal": 6087,
      "ĠHelp": 6088,
      "Ġbur": 6089,
      "ĠUnion": 6090,
      "ĠChildren": 6091,
      "Ġnom": 6092,
      "Ġmotiv": 6093,
      "arsh": 6094,
      "Ġplays": 6095,
      "SC": 6096,
      "ppers": 6097,
      "Ġinjuries": 6098,
      "Ġfacing": 6099,
      "Ġindic": 6100,
      "Ġdance": 6101,
      "uration": 6102,
      "Many": 6103,
      "Ġages": 6104,
      "ĠCross": 6105,
      "09": 6106,
      "Ġcalling": 6107,
      "Inst": 6108,
      "Ġremoved": 6109,
      "Ġmis": 6110,
      "ĠLLC": 6111,
      "ĠCD": 6112,
      "days": 6113,
      "Del": 6114,
      "mony": 6115,
      "ĠNight": 6116,
      "Ġseeking": 6117,
      "ĠSom": 6118,
      "hem": 6119,
      "ĠChris": 6120,
      "Ġintroduced": 6121,
      "ĠWilliams": 6122,
      "ĠInsurance": 6123,
      "ĠAlthough": 6124,
      "Pe": 6125,
      "Ġinstru": 6126,
      "Ġbrowser": 6127,
      "Best": 6128,
      "ĠRoyal": 6129,
      "EST": 6130,
      "ench": 6131,
      "Ġshipped": 6132,
      "Ġdra": 6133,
      "Ġcollaboration": 6134,
      "Ġresource": 6135,
      "Ġlicens": 6136,
      "Ġhousehold": 6137,
      "ĠDub": 6138,
      "Ġease": 6139,
      "hew": 6140,
      "Ġdiagn": 6141,
      "ĠEasy": 6142,
      "Ġswimming": 6143,
      "Ġclothing": 6144,
      "ĠMa": 6145,
      "Ġoverl": 6146,
      "Ġrug": 6147,
      "apers": 6148,
      "ml": 6149,
      "ĠAirport": 6150,
      "cking": 6151,
      "ĠYes": 6152,
      "Ġconsumer": 6153,
      "FA": 6154,
      "ĠAbout": 6155,
      "Ġpoor": 6156,
      "Ġpresentation": 6157,
      "ĠSU": 6158,
      "Ġcommission": 6159,
      "HS": 6160,
      "Ġnovel": 6161,
      "ĠItalian": 6162,
      "ras": 6163,
      "Ġhang": 6164,
      "Jan": 6165,
      "Ġattached": 6166,
      "Ġreceiving": 6167,
      "ĠCy": 6168,
      "Ġelim": 6169,
      "Ġflooring": 6170,
      "Ġentreprene": 6171,
      "ulate": 6172,
      "ĠAcademy": 6173,
      "irement": 6174,
      "Ġfamiliar": 6175,
      "Ġconstruct": 6176,
      "gn": 6177,
      "ĠReport": 6178,
      "Ġrepe": 6179,
      "ĠFoot": 6180,
      "Ġlift": 6181,
      "poses": 6182,
      "Ġchoices": 6183,
      "Ġcalendar": 6184,
      "87": 6185,
      "Ġcro": 6186,
      "Open": 6187,
      "Ġscient": 6188,
      "Ġvenue": 6189,
      "Ġseek": 6190,
      "Ġsecret": 6191,
      "adian": 6192,
      "Ġresponsibility": 6193,
      "Ġperman": 6194,
      "Ġradio": 6195,
      "icken": 6196,
      "Ġpricing": 6197,
      "Ġanimal": 6198,
      "Ġgro": 6199,
      "Ġmeal": 6200,
      "edy": 6201,
      "amsung": 6202,
      "Ġbuyers": 6203,
      "ĠJew": 6204,
      "Ġcompat": 6205,
      "41": 6206,
      "Ġexist": 6207,
      "Ġesc": 6208,
      "Ġprogramme": 6209,
      "ĠWestern": 6210,
      "riage": 6211,
      "ĠBoth": 6212,
      "PR": 6213,
      "Ġlayer": 6214,
      "Ġelectrical": 6215,
      "TA": 6216,
      "Ġcarefully": 6217,
      "lock": 6218,
      "Ġmoments": 6219,
      "Ġsurgery": 6220,
      "ĠYouTube": 6221,
      "Ġreb": 6222,
      "ĠWatch": 6223,
      "Start": 6224,
      "ĠCharl": 6225,
      "ĠZeal": 6226,
      "Ġmembership": 6227,
      "Ġloves": 6228,
      "Ġsomew": 6229,
      "Ġbrain": 6230,
      "ether": 6231,
      "ĠGeorge": 6232,
      "LY": 6233,
      "Ġelegant": 6234,
      "ĠFrank": 6235,
      "Ġobvious": 6236,
      "During": 6237,
      "Ġhistoric": 6238,
      "Ġsounds": 6239,
      "Ġboy": 6240,
      "Ġunless": 6241,
      "Ġveter": 6242,
      "ĠFun": 6243,
      "Ġyard": 6244,
      "Ġfitness": 6245,
      "06": 6246,
      "Ġends": 6247,
      "Ġperhaps": 6248,
      "Ġgrade": 6249,
      "ĠTimes": 6250,
      "Ġauto": 6251,
      "cert": 6252,
      "Ġpaying": 6253,
      "ademic": 6254,
      "Ġhorse": 6255,
      "ĠIreland": 6256,
      "rated": 6257,
      "inder": 6258,
      "________": 6259,
      "ĠLow": 6260,
      "kes": 6261,
      "Ġholds": 6262,
      "Co": 6263,
      "Ġegg": 6264,
      "ĠMobile": 6265,
      "ĠNote": 6266,
      "Ġupgrade": 6267,
      "berry": 6268,
      "Ġtoward": 6269,
      "Ġorganic": 6270,
      "Ġjoining": 6271,
      "osition": 6272,
      "Ġconcrete": 6273,
      "Ġcheckout": 6274,
      "ĠCommittee": 6275,
      "Ġfunctions": 6276,
      "Ġvictory": 6277,
      "ĠJun": 6278,
      "Ġfif": 6279,
      "Ġcampus": 6280,
      "Ġongoing": 6281,
      "ĠPac": 6282,
      "Ġexecutive": 6283,
      "Ġcloser": 6284,
      "Ġ75": 6285,
      "Ġaccompl": 6286,
      "ĠAwards": 6287,
      "then": 6288,
      "Ġchemical": 6289,
      "07": 6290,
      "Ġprivacy": 6291,
      "Ġlicense": 6292,
      "08": 6293,
      "Ġclimate": 6294,
      "Ġbigger": 6295,
      "rox": 6296,
      "ĠEnjoy": 6297,
      "Ġconfident": 6298,
      "edom": 6299,
      "ĠTri": 6300,
      "Ġlabel": 6301,
      "ĠAuthor": 6302,
      "Ġmissed": 6303,
      "Ġchallenging": 6304,
      "Ġhearing": 6305,
      "ĠScot": 6306,
      "Ġdatabase": 6307,
      "was": 6308,
      "tle": 6309,
      "ĠZealand": 6310,
      "Ġcooking": 6311,
      "ĠSanta": 6312,
      "Ġcancer": 6313,
      "Related": 6314,
      "Ġyesterday": 6315,
      "Go": 6316,
      "riger": 6317,
      "ĠSmall": 6318,
      "Ġrepairs": 6319,
      "azz": 6320,
      "under": 6321,
      "ĠFollow": 6322,
      "Ġairport": 6323,
      "Ġcra": 6324,
      "oga": 6325,
      "Ġtall": 6326,
      "Ġhundreds": 6327,
      "Ġmethod": 6328,
      "2020": 6329,
      "ĠFOR": 6330,
      "Ġfits": 6331,
      "ĠNext": 6332,
      "ĠJapanese": 6333,
      "actions": 6334,
      "ĠGerman": 6335,
      "ĠDi": 6336,
      "ĠMat": 6337,
      "Ġengineering": 6338,
      "Ġdistribution": 6339,
      "Comm": 6340,
      "Ġbrown": 6341,
      "Tra": 6342,
      "lying": 6343,
      "Ġped": 6344,
      "Ġadvertising": 6345,
      "ech": 6346,
      "Ġconvert": 6347,
      "Ġ2007": 6348,
      "iversary": 6349,
      "ĠSearch": 6350,
      "Ġplatforms": 6351,
      "ĠGeorg": 6352,
      "Ġsmartphone": 6353,
      "Ġpurposes": 6354,
      "Eng": 6355,
      "Ġliqu": 6356,
      "!)": 6357,
      "Ġmatches": 6358,
      "EE": 6359,
      "Ġslee": 6360,
      "Ġinnovation": 6361,
      "RI": 6362,
      "Ġgrown": 6363,
      "ĠBuilding": 6364,
      "ĠProtect": 6365,
      "husi": 6366,
      "Ġtrends": 6367,
      "ella": 6368,
      "56": 6369,
      "opped": 6370,
      "Ġdowntown": 6371,
      "Ġrom": 6372,
      "Ġriver": 6373,
      "Ġsustainable": 6374,
      "mond": 6375,
      "Date": 6376,
      "ĠMountain": 6377,
      "Ġconsidering": 6378,
      "ls": 6379,
      "ĠStock": 6380,
      "vas": 6381,
      "Ġcos": 6382,
      "Ġsmile": 6383,
      "ĠSH": 6384,
      "ĠCong": 6385,
      "ĠJul": 6386,
      "Ġtasks": 6387,
      "abled": 6388,
      "ework": 6389,
      "formance": 6390,
      "Ġversat": 6391,
      "ĠVideo": 6392,
      "Ġpocket": 6393,
      "Ġang": 6394,
      "Ġmostly": 6395,
      "ĠDom": 6396,
      "Ġerror": 6397,
      "ushed": 6398,
      "Serv": 6399,
      "Ġexpectations": 6400,
      "Ġclothes": 6401,
      "OV": 6402,
      "04": 6403,
      "clusion": 6404,
      "rency": 6405,
      "SU": 6406,
      "Gr": 6407,
      "Ġwet": 6408,
      "Ġagree": 6409,
      "essed": 6410,
      "ĠMike": 6411,
      "Ġbrush": 6412,
      "oured": 6413,
      "ĠJoe": 6414,
      "ĠGames": 6415,
      "Ġanswers": 6416,
      "Pay": 6417,
      "TC": 6418,
      "ĠKnow": 6419,
      "ĠCarolina": 6420,
      "ĠLu": 6421,
      "lication": 6422,
      "Take": 6423,
      "Ġrapid": 6424,
      "Ġrow": 6425,
      "ĠDisc": 6426,
      "otten": 6427,
      "ĠStation": 6428,
      "how": 6429,
      "Ġsuccessfully": 6430,
      "urban": 6431,
      "Ġreaders": 6432,
      "ĠAri": 6433,
      "ĠAsia": 6434,
      "Ġtank": 6435,
      "Ġauthent": 6436,
      "Ġmajority": 6437,
      "ĠLiving": 6438,
      "car": 6439,
      "ĠLin": 6440,
      "Ġdomain": 6441,
      "ĠBill": 6442,
      "Comp": 6443,
      "Ġdish": 6444,
      "02": 6445,
      "AND": 6446,
      "Ġatmosphere": 6447,
      "Ġpink": 6448,
      "ĠPeter": 6449,
      "Ġtag": 6450,
      "Ġsavings": 6451,
      "Ġsuite": 6452,
      "Ġcolle": 6453,
      "Ġiron": 6454,
      "Ġforest": 6455,
      "Ġreference": 6456,
      "claim": 6457,
      "Ġimpl": 6458,
      "Ġoffices": 6459,
      "Ġsymbol": 6460,
      "lymp": 6461,
      "utch": 6462,
      "Ġboxes": 6463,
      "Ġdepth": 6464,
      "lo": 6465,
      "Ġrefresh": 6466,
      "ĠKore": 6467,
      "ĠSpace": 6468,
      "ĠBall": 6469,
      "stal": 6470,
      "Ġanti": 6471,
      "itar": 6472,
      "ĠDog": 6473,
      "Whether": 6474,
      "Ġinfrastructure": 6475,
      "Ġbear": 6476,
      "Ġperformed": 6477,
      "==": 6478,
      "Ġinvestors": 6479,
      "weet": 6480,
      "ĠTraining": 6481,
      "Ġpackages": 6482,
      "Ġalongside": 6483,
      "iations": 6484,
      "Ġmarried": 6485,
      "bury": 6486,
      "Ġcred": 6487,
      "Ġlin": 6488,
      "Who": 6489,
      "ĠCountry": 6490,
      "Ġcharged": 6491,
      "ĠJose": 6492,
      "Ġstands": 6493,
      "covery": 6494,
      "ĠLevel": 6495,
      "Ġclaims": 6496,
      "Ġfulf": 6497,
      "Ġcertified": 6498,
      "ĠMaterial": 6499,
      "Ġadds": 6500,
      "Ġtut": 6501,
      "ĠEvent": 6502,
      "pty": 6503,
      "Ġinput": 6504,
      "oker": 6505,
      "Ġhall": 6506,
      "achel": 6507,
      "ĠItaly": 6508,
      "Ġfollows": 6509,
      "ura": 6510,
      "Ġtrial": 6511,
      "ools": 6512,
      "ĠAdmin": 6513,
      "Ġhealthcare": 6514,
      "Ġprinting": 6515,
      "Ġlapt": 6516,
      "Ġrail": 6517,
      "Ġfestival": 6518,
      "Ġoccup": 6519,
      "Ġoperate": 6520,
      "idth": 6521,
      "obby": 6522,
      "Ġserves": 6523,
      "Ġeffectively": 6524,
      "Ġremaining": 6525,
      "ĠQuest": 6526,
      "plete": 6527,
      "ĠLink": 6528,
      "Ġkinds": 6529,
      "ĠIde": 6530,
      "Ġtalent": 6531,
      "Ġwouldn": 6532,
      "Rec": 6533,
      "faction": 6534,
      "ĠEarth": 6535,
      "Ġwra": 6536,
      "earning": 6537,
      "Ġstorm": 6538,
      "Ġmessages": 6539,
      "Ġmile": 6540,
      "Ġdescription": 6541,
      "Ġvolunteers": 6542,
      "Ġspr": 6543,
      "Ġanc": 6544,
      "urious": 6545,
      "Ġdial": 6546,
      "Ġeducational": 6547,
      "Ġaffected": 6548,
      "Ġrose": 6549,
      "Ġsurprise": 6550,
      "Ġcompl": 6551,
      "Ġtransportation": 6552,
      "cluding": 6553,
      "ĠDisney": 6554,
      "Ġamb": 6555,
      "Ġpatterns": 6556,
      "TM": 6557,
      "Ġbottle": 6558,
      "Cour": 6559,
      "anchester": 6560,
      "Ġbeds": 6561,
      "Ġalumin": 6562,
      "Ġadvis": 6563,
      "ĠAfrican": 6564,
      "arly": 6565,
      "Ġ150": 6566,
      "Ġexternal": 6567,
      "Ġpor": 6568,
      "Ġdegrees": 6569,
      "Ġminor": 6570,
      "ĠKey": 6571,
      "Ġprincip": 6572,
      "atus": 6573,
      "Ġelement": 6574,
      "ĠAR": 6575,
      "Ġfoundation": 6576,
      "Full": 6577,
      "ĠSafety": 6578,
      "ĠMonth": 6579,
      "ĠTax": 6580,
      "Ġcute": 6581,
      "oof": 6582,
      "Ġpolicies": 6583,
      "Ġcreates": 6584,
      "axy": 6585,
      "Ġinch": 6586,
      "person": 6587,
      "Ġaccepted": 6588,
      "Ġelev": 6589,
      "Ġdiverse": 6590,
      "03": 6591,
      "Ġuns": 6592,
      "ĠDC": 6593,
      "Ġcompar": 6594,
      "Ġvibr": 6595,
      "Ġengagement": 6596,
      "Ġsister": 6597,
      "ooth": 6598,
      "Ġbattle": 6599,
      "okes": 6600,
      "Ġfest": 6601,
      "Ġpatio": 6602,
      "Ġsaving": 6603,
      "Ġmouth": 6604,
      "Ġpicked": 6605,
      "Ġmanaging": 6606,
      "ĠOR": 6607,
      "Ġenthusi": 6608,
      "irms": 6609,
      "ATE": 6610,
      "ĠCH": 6611,
      "Rem": 6612,
      "ĠWin": 6613,
      "ĠJo": 6614,
      "ĠSy": 6615,
      "Ġmortgage": 6616,
      "ĠBuy": 6617,
      "Ġbowl": 6618,
      "pack": 6619,
      "Ġpray": 6620,
      "roy": 6621,
      "ĠRepublic": 6622,
      "ounge": 6623,
      "onav": 6624,
      "ĠExecutive": 6625,
      "ĠMembers": 6626,
      "Ġsheet": 6627,
      "Ġstated": 6628,
      "Ġeth": 6629,
      "ĠEnt": 6630,
      "alys": 6631,
      "67": 6632,
      "va": 6633,
      "mes": 6634,
      "sole": 6635,
      "Ġsch": 6636,
      "Ġban": 6637,
      "ĠVillage": 6638,
      "Ġcycle": 6639,
      "Ġ2000": 6640,
      "ĠMartin": 6641,
      "ĠJim": 6642,
      "Looking": 6643,
      "profit": 6644,
      "Ġshooting": 6645,
      "http": 6646,
      "ĠMexico": 6647,
      "can": 6648,
      "rease": 6649,
      "rick": 6650,
      "Ġrecycl": 6651,
      "des": 6652,
      "ificate": 6653,
      "asp": 6654,
      "68": 6655,
      "NA": 6656,
      "ĠGolf": 6657,
      "earing": 6658,
      "EX": 6659,
      "Property": 6660,
      "dated": 6661,
      "Ġenjoying": 6662,
      "%.": 6663,
      "400": 6664,
      "ĠProperty": 6665,
      "Ġguidance": 6666,
      "ĠRun": 6667,
      "ĠSar": 6668,
      "Good": 6669,
      "Ġdoctor": 6670,
      "odge": 6671,
      "Ġmilitary": 6672,
      "Ġusual": 6673,
      "ĠIll": 6674,
      "ĠPR": 6675,
      "Pol": 6676,
      "ansas": 6677,
      "Ġrecorded": 6678,
      "Ġinvited": 6679,
      "Ġtack": 6680,
      "Ġconvenience": 6681,
      "ted": 6682,
      "lywood": 6683,
      "tw": 6684,
      "Ġexceptional": 6685,
      "ician": 6686,
      "Ġbroken": 6687,
      "phones": 6688,
      "ĠGen": 6689,
      "Ġhar": 6690,
      "igious": 6691,
      "ĠExpress": 6692,
      "ĠMap": 6693,
      "ĠOwn": 6694,
      "Ġtravell": 6695,
      "ĠPerfect": 6696,
      "ĠThrough": 6697,
      "ste": 6698,
      "Ġtwice": 6699,
      "ache": 6700,
      "Ġeligible": 6701,
      "Ġinn": 6702,
      "Ġeditor": 6703,
      "Ġtomorrow": 6704,
      "ovid": 6705,
      "lev": 6706,
      "Ġelectronic": 6707,
      "Ġcapture": 6708,
      "Ġther": 6709,
      "Ġsan": 6710,
      "star": 6711,
      "Ġcultural": 6712,
      "Ġteach": 6713,
      "ĠRose": 6714,
      "ĠJohnson": 6715,
      "Hel": 6716,
      "hops": 6717,
      "Ġexhibition": 6718,
      "Ġbeer": 6719,
      "ĠThomas": 6720,
      "ĠUN": 6721,
      "Act": 6722,
      "yp": 6723,
      "Ġappeared": 6724,
      "astern": 6725,
      "ims": 6726,
      "Ġski": 6727,
      "ĠBi": 6728,
      "ĠSystems": 6729,
      "Ġtip": 6730,
      "2021": 6731,
      "Ġthus": 6732,
      "ĠCommun": 6733,
      "ĠParis": 6734,
      "ĠCir": 6735,
      "Ġlightweight": 6736,
      "ext": 6737,
      "Ġimprovement": 6738,
      "ĠTrail": 6739,
      "eping": 6740,
      "acle": 6741,
      "Ġcounty": 6742,
      "ĠOhio": 6743,
      "iameter": 6744,
      "Ġofficials": 6745,
      "Ġindoor": 6746,
      "ĠPolicy": 6747,
      "Ġwireless": 6748,
      "paper": 6749,
      "Ġdebt": 6750,
      "Ġfounded": 6751,
      "Ġwest": 6752,
      "ĠCollection": 6753,
      "Ġceremony": 6754,
      "amps": 6755,
      "ĠRights": 6756,
      "Ġbound": 6757,
      "TV": 6758,
      "onavirus": 6759,
      "Ġportfolio": 6760,
      "ĠPage": 6761,
      "Ġhosted": 6762,
      "ĠCreek": 6763,
      "Ġcreation": 6764,
      "Ġinterface": 6765,
      "Ġattractive": 6766,
      "ĠPenn": 6767,
      "ĠElectric": 6768,
      "List": 6769,
      "elly": 6770,
      "ĠSpanish": 6771,
      "uce": 6772,
      "Ġpure": 6773,
      "Ġathlet": 6774,
      "Back": 6775,
      "Ġcarbon": 6776,
      "Ġextension": 6777,
      "ĠSolutions": 6778,
      "Want": 6779,
      "Ġdiamond": 6780,
      "Ġspecies": 6781,
      "Ġgun": 6782,
      "Ġcomplim": 6783,
      "Â·": 6784,
      "Ġsongs": 6785,
      "pection": 6786,
      "Ġtalks": 6787,
      "ĠMichigan": 6788,
      "Ġpositions": 6789,
      "ĠOlymp": 6790,
      "72": 6791,
      "Ġkid": 6792,
      "Ġreward": 6793,
      "Ġengage": 6794,
      "Ġjewelry": 6795,
      "Ġawareness": 6796,
      "Ġtruth": 6797,
      "nding": 6798,
      "Ġtrained": 6799,
      "Ġreduced": 6800,
      "ĠFinancial": 6801,
      "Ġnegot": 6802,
      "Ġdesire": 6803,
      "Ġentrance": 6804,
      "Ġawards": 6805,
      "Ġknowing": 6806,
      "build": 6807,
      "Ġultimate": 6808,
      "rate": 6809,
      "Ġpitch": 6810,
      "ĠSquare": 6811,
      "gas": 6812,
      "ĠTrump": 6813,
      "Ġdonation": 6814,
      "Ġdocu": 6815,
      "ĠLittle": 6816,
      "ĠVan": 6817,
      "Ġdust": 6818,
      "ĠAsh": 6819,
      "Ġfear": 6820,
      "ĠHistory": 6821,
      "Ġintended": 6822,
      "rael": 6823,
      "ria": 6824,
      "from": 6825,
      "Ġresistance": 6826,
      "orry": 6827,
      "gs": 6828,
      "ĠAS": 6829,
      "||$": 6830,
      "pond": 6831,
      "ĠChair": 6832,
      "Another": 6833,
      "essor": 6834,
      "Ġsearching": 6835,
      "ĠAccording": 6836,
      "Well": 6837,
      "Ġactions": 6838,
      "Ġimproving": 6839,
      "Material": 6840,
      "Ġclearly": 6841,
      "ja": 6842,
      "ĠSeason": 6843,
      "irts": 6844,
      "ĠTerm": 6845,
      "Ġmuseum": 6846,
      "Ġinfect": 6847,
      "Ġresolution": 6848,
      "Ġdraft": 6849,
      "Ġprompt": 6850,
      "Ġtotally": 6851,
      "amin": 6852,
      "Ġnoted": 6853,
      "ÃŃ": 6854,
      "Ġtap": 6855,
      "Ġcelebration": 6856,
      "Ġversions": 6857,
      "ĠSelect": 6858,
      "ickets": 6859,
      "Ġlett": 6860,
      "Ġrough": 6861,
      "Ã³": 6862,
      "Ġmanual": 6863,
      "Ġgreatest": 6864,
      "Ġbelong": 6865,
      "Ġchocolate": 6866,
      "Ġcookies": 6867,
      "Ġtournament": 6868,
      "yth": 6869,
      "84": 6870,
      "Ġdefe": 6871,
      "Ġnewly": 6872,
      "ĠAutom": 6873,
      "umbing": 6874,
      "Ġclassic": 6875,
      "Ġ?": 6876,
      "âĢĻ.": 6877,
      "Ġtooth": 6878,
      "ĠAuto": 6879,
      "Ġqualified": 6880,
      "Ġcompli": 6881,
      "Ġdevelopers": 6882,
      "aren": 6883,
      "semb": 6884,
      "ĠSup": 6885,
      "Ġdisappoint": 6886,
      "ĠRobert": 6887,
      "Ġconsultation": 6888,
      "asting": 6889,
      "ĠCab": 6890,
      "Ġpic": 6891,
      "Ġvote": 6892,
      "ĠMiddle": 6893,
      "ĠHor": 6894,
      "pool": 6895,
      "annels": 6896,
      "ĠVirginia": 6897,
      "Ġnative": 6898,
      "Ġfunctional": 6899,
      "Posted": 6900,
      "Ġsplit": 6901,
      "Ġdelay": 6902,
      "po": 6903,
      "Ġnegative": 6904,
      "Pub": 6905,
      "ĠOil": 6906,
      "Ġissued": 6907,
      "ployment": 6908,
      "ĠCas": 6909,
      "Ġhappening": 6910,
      "Ġordered": 6911,
      "Ġnurs": 6912,
      "News": 6913,
      "ĠNeed": 6914,
      "oston": 6915,
      "Ġearned": 6916,
      "ĠLocal": 6917,
      "onto": 6918,
      "PL": 6919,
      "ĠRo": 6920,
      "Ġpolitical": 6921,
      "ĠCur": 6922,
      "ĠDI": 6923,
      "ĠColorado": 6924,
      "Ġstanding": 6925,
      "2018": 6926,
      "ection": 6927,
      "Ġdecades": 6928,
      "ĠRange": 6929,
      "ĠEU": 6930,
      "Ġthorough": 6931,
      "Ġ400": 6932,
      "una": 6933,
      "Ġprofit": 6934,
      "ĠCustomer": 6935,
      "inyl": 6936,
      "ĠBefore": 6937,
      "Ġensuring": 6938,
      "ĠLine": 6939,
      "ĠDownload": 6940,
      "Ġtransition": 6941,
      "ĠCloud": 6942,
      "arrow": 6943,
      "iences": 6944,
      "Ġrating": 6945,
      "Ġexcept": 6946,
      "ĠJones": 6947,
      "ĠWho": 6948,
      "ĠParty": 6949,
      "ogether": 6950,
      "ded": 6951,
      "Ø§": 6952,
      "Ġtables": 6953,
      "Ġforeign": 6954,
      "Ġdating": 6955,
      "isl": 6956,
      "ockets": 6957,
      "Ġ33": 6958,
      "Mon": 6959,
      "Ġtoile": 6960,
      "Ġsoil": 6961,
      "Ġgrab": 6962,
      "illiant": 6963,
      "Spec": 6964,
      "itz": 6965,
      "Ġcarpet": 6966,
      "Ġmovies": 6967,
      "Ġdollars": 6968,
      "Ġspots": 6969,
      "Ġarrival": 6970,
      "Ġeventually": 6971,
      "olve": 6972,
      "ĠOrig": 6973,
      "Key": 6974,
      "Ġcandidates": 6975,
      "season": 6976,
      "ien": 6977,
      "aked": 6978,
      "Ġlabor": 6979,
      "Ġmatching": 6980,
      "ĠFloor": 6981,
      "ĠSea": 6982,
      "ĠCanadian": 6983,
      "ban": 6984,
      "ocr": 6985,
      "Ġcaught": 6986,
      "Ġwooden": 6987,
      "istan": 6988,
      "Ġpanels": 6989,
      "illy": 6990,
      "Ġoriginally": 6991,
      "ĠFL": 6992,
      "ĠDie": 6993,
      "Ġhonor": 6994,
      "ĠField": 6995,
      "Trans": 6996,
      "Ġhospit": 6997,
      "ĠOak": 6998,
      "Ġconstantly": 6999,
      "gment": 7000,
      "osite": 7001,
      "Ġinformed": 7002,
      "Ġeating": 7003,
      "Ġempty": 7004,
      "Ġphones": 7005,
      "ĠBlog": 7006,
      "ef": 7007,
      "ĠEV": 7008,
      "worth": 7009,
      "Ġris": 7010,
      "Ġtemperatures": 7011,
      "Ġtwe": 7012,
      "Ġconcent": 7013,
      "ĠSite": 7014,
      "ulture": 7015,
      "Ġ55": 7016,
      "ĠLee": 7017,
      "Ġfort": 7018,
      "Ġvital": 7019,
      "Ġec": 7020,
      "ĠOrder": 7021,
      "Ġbutton": 7022,
      "ãĥ": 7023,
      "ĠLook": 7024,
      "ensity": 7025,
      "ĠEll": 7026,
      "ĠCart": 7027,
      "Ġconsists": 7028,
      "Ġintellig": 7029,
      "imize": 7030,
      "ĠDef": 7031,
      "ĠFA": 7032,
      "Ġdescribed": 7033,
      "Ġtracking": 7034,
      "Ġunable": 7035,
      "Ġlake": 7036,
      "izer": 7037,
      "EA": 7038,
      "Ġprepar": 7039,
      "ĠJeff": 7040,
      "Ġflower": 7041,
      "Ġmagazine": 7042,
      "FT": 7043,
      "Ġnic": 7044,
      "ati": 7045,
      "DS": 7046,
      "Ġscript": 7047,
      "asant": 7048,
      "ĠKen": 7049,
      "CL": 7050,
      "Ġmanufacturers": 7051,
      "rives": 7052,
      "Gener": 7053,
      "Ġlit": 7054,
      "Ġpets": 7055,
      "Ġburn": 7056,
      "ĠOk": 7057,
      "ĠYoung": 7058,
      "Ġmemories": 7059,
      "150": 7060,
      "ouston": 7061,
      "Ġoven": 7062,
      "edd": 7063,
      "fficient": 7064,
      "Ġupload": 7065,
      "ĠId": 7066,
      "Ġvintage": 7067,
      "SK": 7068,
      "Ġfactor": 7069,
      "erves": 7070,
      "Ġhandling": 7071,
      "mal": 7072,
      "iami": 7073,
      "ĠDays": 7074,
      "Ġsociety": 7075,
      "ĠSouthern": 7076,
      "ĠPub": 7077,
      "Ġdamaged": 7078,
      "Ġpill": 7079,
      "Ġattended": 7080,
      "Ġskill": 7081,
      "ĠFac": 7082,
      "Ġchief": 7083,
      "Ġagents": 7084,
      "ĠLarge": 7085,
      "Ġnights": 7086,
      "bar": 7087,
      "Ġevidence": 7088,
      "Ġstrategic": 7089,
      "ĠDu": 7090,
      "Ġteachers": 7091,
      "Ġassoc": 7092,
      "ta": 7093,
      "Ġcancell": 7094,
      "Sec": 7095,
      "ĠMLS": 7096,
      "Additional": 7097,
      "Ġregional": 7098,
      "ĠUsing": 7099,
      "Ġmixed": 7100,
      "Ġenables": 7101,
      "you": 7102,
      "Ġsoul": 7103,
      "ĠVery": 7104,
      "****": 7105,
      "SH": 7106,
      "Ġcontest": 7107,
      "ategory": 7108,
      "Ġju": 7109,
      "apore": 7110,
      "ĠNorthern": 7111,
      "Ġexplain": 7112,
      "Ġturns": 7113,
      "ĠEvents": 7114,
      "ĠStandard": 7115,
      "Time": 7116,
      "Ġhits": 7117,
      "Ġmanner": 7118,
      "ĠBul": 7119,
      "Ġsequ": 7120,
      "ĠLimited": 7121,
      "Ġdisplayed": 7122,
      "ĠMinister": 7123,
      "aul": 7124,
      "bro": 7125,
      "enced": 7126,
      "ĠGra": 7127,
      "ĠJournal": 7128,
      "Ġteacher": 7129,
      "ĠOl": 7130,
      "Ġsyn": 7131,
      "umes": 7132,
      "ĠAff": 7133,
      "Ġseam": 7134,
      "ĠEr": 7135,
      "sea": 7136,
      "Ġwhilst": 7137,
      "Ġmeals": 7138,
      "Ġpriority": 7139,
      "ĠMur": 7140,
      "amber": 7141,
      "oses": 7142,
      "host": 7143,
      "Ġindustries": 7144,
      "ĠStudio": 7145,
      "?âĢĿ": 7146,
      "Ġtelevision": 7147,
      "Ġsole": 7148,
      "poration": 7149,
      "ĠSamsung": 7150,
      "ĠPot": 7151,
      "Ġbridge": 7152,
      "obs": 7153,
      "anger": 7154,
      "Ġshift": 7155,
      "Ġfacilit": 7156,
      "Ġdeposit": 7157,
      "Ġbes": 7158,
      "Ġminimal": 7159,
      "Ġfro": 7160,
      "alysis": 7161,
      "Ġcharity": 7162,
      "ba": 7163,
      "Ġseasons": 7164,
      "ĠStory": 7165,
      "duction": 7166,
      "ĠQuality": 7167,
      "ĠExperience": 7168,
      "Ġmatters": 7169,
      "Ġphase": 7170,
      "MC": 7171,
      "Ġcop": 7172,
      "ĠRen": 7173,
      "Ġexamples": 7174,
      "Ġcarried": 7175,
      "ĠTech": 7176,
      "Ġlived": 7177,
      "ĠColumb": 7178,
      "izza": 7179,
      "ĠSen": 7180,
      "Ġsituated": 7181,
      "entle": 7182,
      "zes": 7183,
      "Ġfundra": 7184,
      "Ġlessons": 7185,
      "doors": 7186,
      "Ġshots": 7187,
      "aze": 7188,
      "ĠiOS": 7189,
      "Direct": 7190,
      "Ġspark": 7191,
      "Ġflood": 7192,
      "Ġclimb": 7193,
      "Ġaid": 7194,
      "Ġdefense": 7195,
      "Ġguess": 7196,
      "Ġdesired": 7197,
      "ĠCredit": 7198,
      "Ġflash": 7199,
      "PD": 7200,
      "ĠChoose": 7201,
      "ĠSpec": 7202,
      "ĠPartners": 7203,
      "RS": 7204,
      "Ġcooper": 7205,
      "zil": 7206,
      "Ġtrailer": 7207,
      "ĠProfessional": 7208,
      "52": 7209,
      "Ġpainted": 7210,
      "Ġinvestig": 7211,
      "Ġcharging": 7212,
      "Ġlaws": 7213,
      "ĠColl": 7214,
      "Ġ2006": 7215,
      "ĠSher": 7216,
      "57": 7217,
      "Ġap": 7218,
      "OK": 7219,
      "sized": 7220,
      "ĠPA": 7221,
      "utter": 7222,
      "ĠSon": 7223,
      "Ġthread": 7224,
      "ĠHeart": 7225,
      "Ġtraveling": 7226,
      "Ġsubscription": 7227,
      "isters": 7228,
      "awn": 7229,
      "Ġchampions": 7230,
      "Ġbeautifully": 7231,
      "Ð¸": 7232,
      "oes": 7233,
      "otic": 7234,
      "ĠConsult": 7235,
      "ĠModel": 7236,
      "Ġsigning": 7237,
      "Ġsalt": 7238,
      "Ġeast": 7239,
      "Ġdrinks": 7240,
      "ĠJackson": 7241,
      "Ġviewing": 7242,
      "Ġdomestic": 7243,
      "ĠInstall": 7244,
      "Ġdesigners": 7245,
      "bles": 7246,
      "ĠTable": 7247,
      "ĠJon": 7248,
      "Ġflexibility": 7249,
      "ĠEmail": 7250,
      "Ġdreams": 7251,
      "ĠWeight": 7252,
      "Ġsight": 7253,
      "ĠMotor": 7254,
      "ĠFall": 7255,
      "Ġpredict": 7256,
      "ĠCook": 7257,
      "ounsel": 7258,
      "ĠEp": 7259,
      "CD": 7260,
      "Ġsky": 7261,
      "umps": 7262,
      "Ġtou": 7263,
      "Ġclosely": 7264,
      "ãĤ": 7265,
      "Ġgaming": 7266,
      "ampion": 7267,
      "Ġbars": 7268,
      "Ġreplaced": 7269,
      "Ġder": 7270,
      "brid": 7271,
      "foot": 7272,
      "Ġensures": 7273,
      "Ġvisited": 7274,
      "Ġhidden": 7275,
      "ĠPhone": 7276,
      "inds": 7277,
      "Ġdynamic": 7278,
      "urrently": 7279,
      "Ġodd": 7280,
      "oir": 7281,
      "Ġdoubt": 7282,
      "rum": 7283,
      "ials": 7284,
      "aping": 7285,
      "Log": 7286,
      "Ġblank": 7287,
      "but": 7288,
      "Ġnor": 7289,
      "Ġglad": 7290,
      "Ġtreated": 7291,
      "limited": 7292,
      "Two": 7293,
      "ydney": 7294,
      "ĠFrancisco": 7295,
      "ĠGro": 7296,
      "Ġarts": 7297,
      "osis": 7298,
      "ĠForest": 7299,
      "Ġmagn": 7300,
      "ancer": 7301,
      "Ġturning": 7302,
      "Ġvolunteer": 7303,
      "Ġpride": 7304,
      "Ġmarked": 7305,
      "Ġtur": 7306,
      "agues": 7307,
      "ĠAN": 7308,
      "Ġwriter": 7309,
      "Ġdiscovered": 7310,
      "ailing": 7311,
      "Ġexplained": 7312,
      "Ġinner": 7313,
      "Ġgym": 7314,
      "acular": 7315,
      "related": 7316,
      "Ġmerch": 7317,
      "ĠMA": 7318,
      "Ġsignificantly": 7319,
      "Ġcontrast": 7320,
      "zona": 7321,
      "Ġcake": 7322,
      "ĠRs": 7323,
      "ĠStyle": 7324,
      "ĠPS": 7325,
      "IGH": 7326,
      "cellent": 7327,
      "Ġorganized": 7328,
      "Ġperspective": 7329,
      "edia": 7330,
      "Ġguard": 7331,
      "ĠManchester": 7332,
      "Ġdrawing": 7333,
      "Ġreception": 7334,
      "Ġagreed": 7335,
      "Available": 7336,
      "Ġsituations": 7337,
      "ĠHope": 7338,
      "Ġcompr": 7339,
      "Ġsetup": 7340,
      "Ġsew": 7341,
      "lyn": 7342,
      "Ġalcohol": 7343,
      "gent": 7344,
      "Ġdispl": 7345,
      "Ġarchitecture": 7346,
      "ĠAnnual": 7347,
      "Ġcrucial": 7348,
      "Ġceiling": 7349,
      "ĠNon": 7350,
      "Ġlosing": 7351,
      "ĠVisit": 7352,
      "Type": 7353,
      "ĠAD": 7354,
      "bridge": 7355,
      "Ġchances": 7356,
      "Ġroutine": 7357,
      "ĠGas": 7358,
      "ĠHERE": 7359,
      "ĠIsrael": 7360,
      "58": 7361,
      "long": 7362,
      "Ġpil": 7363,
      "phas": 7364,
      "cious": 7365,
      "Watch": 7366,
      "Ġ38": 7367,
      "Ġobtain": 7368,
      "level": 7369,
      "which": 7370,
      "Ġbench": 7371,
      "Ġprocedure": 7372,
      "ĠWordPress": 7373,
      "ĠGalaxy": 7374,
      "den": 7375,
      "Ġinvite": 7376,
      "Ġdiscounts": 7377,
      "ulpt": 7378,
      "Ġstreets": 7379,
      "rite": 7380,
      "itude": 7381,
      "Ġforg": 7382,
      "Ġboys": 7383,
      "Ġfinance": 7384,
      "ĠHomes": 7385,
      "anguages": 7386,
      "Ġloving": 7387,
      "ĠContin": 7388,
      "ĠRev": 7389,
      "Ġsolve": 7390,
      "Ġscheme": 7391,
      "Ġnetworks": 7392,
      "Ġrealize": 7393,
      "burgh": 7394,
      "Ġinterests": 7395,
      "Ġfunctionality": 7396,
      "Ġtrouble": 7397,
      "adow": 7398,
      "Ġtrips": 7399,
      "Ab": 7400,
      "Ġrein": 7401,
      "ummary": 7402,
      "Ġsoph": 7403,
      "Ġspray": 7404,
      "Ġelectricity": 7405,
      "2022": 7406,
      "74": 7407,
      "Ġhomeown": 7408,
      "aylor": 7409,
      "Ġzone": 7410,
      "ĠFed": 7411,
      "ĠFlow": 7412,
      "Ġlaundry": 7413,
      "Ġanticip": 7414,
      "Ġdelivering": 7415,
      "Ġrubber": 7416,
      "Ġcapabilities": 7417,
      "ĠLot": 7418,
      "inding": 7419,
      "ĠSecond": 7420,
      "Ġpassion": 7421,
      "Ġconsistent": 7422,
      "Ġstaying": 7423,
      "Ġchannels": 7424,
      "ht": 7425,
      "Ġinventory": 7426,
      "iates": 7427,
      "nic": 7428,
      "arters": 7429,
      "ĠPDF": 7430,
      "Ġfactory": 7431,
      "ptoms": 7432,
      "Ġawarded": 7433,
      "Ġfigures": 7434,
      "parent": 7435,
      "Ġfrequently": 7436,
      "ells": 7437,
      "ocal": 7438,
      "Ġorganis": 7439,
      "inem": 7440,
      "ossible": 7441,
      "Ġcategories": 7442,
      "Ġauthentic": 7443,
      "73": 7444,
      "Hz": 7445,
      "Ġabsor": 7446,
      "ĠKids": 7447,
      "Ġofficially": 7448,
      "Ġloans": 7449,
      "Ġentertain": 7450,
      "Ġworn": 7451,
      "ĠMir": 7452,
      "ĠRight": 7453,
      "ĠAve": 7454,
      "BI": 7455,
      "54": 7456,
      "BD": 7457,
      "iger": 7458,
      "vents": 7459,
      "home": 7460,
      "rad": 7461,
      "Ġhistorical": 7462,
      "athe": 7463,
      "Ġrule": 7464,
      "Ġsample": 7465,
      "ĠDaily": 7466,
      "Before": 7467,
      "ĠPacific": 7468,
      "Next": 7469,
      "da": 7470,
      "being": 7471,
      "iano": 7472,
      "Ġcompact": 7473,
      "Ġinteractive": 7474,
      "Gl": 7475,
      "inos": 7476,
      "Ġblocks": 7477,
      "Ġexterior": 7478,
      "Ġsafely": 7479,
      "Ġware": 7480,
      "Ġexpansion": 7481,
      "Ġcheese": 7482,
      "state": 7483,
      "olic": 7484,
      "Ġrequests": 7485,
      "ĠGeorgia": 7486,
      "Ġcommand": 7487,
      "lessly": 7488,
      "Ġroles": 7489,
      "Ġfemale": 7490,
      "bourne": 7491,
      "otive": 7492,
      "Ġfranch": 7493,
      "ĠFord": 7494,
      "Ġopinion": 7495,
      "Ġprocedures": 7496,
      "Ġpermanent": 7497,
      "Ġconnections": 7498,
      "Ġofficer": 7499,
      "iat": 7500,
      "Ġmold": 7501,
      "Ġsam": 7502,
      "Ġ34": 7503,
      "ixture": 7504,
      "ĠFour": 7505,
      "Ġtie": 7506,
      "ĠBridge": 7507,
      "fall": 7508,
      "ĠPop": 7509,
      "Ġdual": 7510,
      "ĠPoly": 7511,
      "iana": 7512,
      "Ġlegs": 7513,
      "Ġspeaking": 7514,
      "ulty": 7515,
      "Ġcapable": 7516,
      "ĠSky": 7517,
      "ĠGallery": 7518,
      "itan": 7519,
      "Ġcolumn": 7520,
      "Ġsatisfaction": 7521,
      "ĠKingdom": 7522,
      "inity": 7523,
      "ĠPremier": 7524,
      "ilton": 7525,
      "Ġproposed": 7526,
      "anite": 7527,
      "Ġgallery": 7528,
      "cons": 7529,
      "Ġcoat": 7530,
      "active": 7531,
      "Count": 7532,
      "Ġpurchases": 7533,
      "ĠUSD": 7534,
      "Ġcrisis": 7535,
      "ĠJoin": 7536,
      "Ġresear": 7537,
      "Ġdram": 7538,
      "Ġtours": 7539,
      "Ġsum": 7540,
      "Ġsac": 7541,
      "ĠGirl": 7542,
      "Although": 7543,
      "ially": 7544,
      "Ġincredibly": 7545,
      "ĠSenior": 7546,
      "aturally": 7547,
      "Ġlicensed": 7548,
      "Bec": 7549,
      "ĠFront": 7550,
      "Ġentered": 7551,
      "ĠTele": 7552,
      "Ġriding": 7553,
      "cycle": 7554,
      "born": 7555,
      "Ġmainly": 7556,
      "Ġlucky": 7557,
      "Ġdistinct": 7558,
      "Ġpossibly": 7559,
      "Ġfilms": 7560,
      "Ġpin": 7561,
      "stract": 7562,
      "Reviews": 7563,
      "alle": 7564,
      "Ġcauses": 7565,
      "Ġlets": 7566,
      "Ġimmediate": 7567,
      "Ġdetermined": 7568,
      "vy": 7569,
      "Ġproven": 7570,
      "aped": 7571,
      "Ġcovering": 7572,
      "Ġemployment": 7573,
      "Ġemotional": 7574,
      "98": 7575,
      "ĠRam": 7576,
      "Ġdonations": 7577,
      "ĠSoftware": 7578,
      "ĠBoston": 7579,
      "ĠFact": 7580,
      "Ġpassed": 7581,
      "Ġguidelines": 7582,
      "Ġcompatible": 7583,
      "Ġopens": 7584,
      "Ġhighlights": 7585,
      "ĠWebsite": 7586,
      "anes": 7587,
      "Ġmonitoring": 7588,
      "!âĢĿ": 7589,
      "Ġflights": 7590,
      "reation": 7591,
      "Ġcouncil": 7592,
      "Ġcitiz": 7593,
      "ragon": 7594,
      "Ġtests": 7595,
      "Ġacademic": 7596,
      "Ġshoulder": 7597,
      "ĠCR": 7598,
      "Ġimprovements": 7599,
      "EG": 7600,
      "ĠDown": 7601,
      "ĠConstruction": 7602,
      "Ġbasketball": 7603,
      "rics": 7604,
      "Ġacres": 7605,
      "Ġreporting": 7606,
      "Ġassist": 7607,
      "ĠJersey": 7608,
      "Ġguy": 7609,
      "ĠSteve": 7610,
      "Ġmeets": 7611,
      "ĠAndrew": 7612,
      "Ġclicking": 7613,
      "ĠShould": 7614,
      "Ġfireplace": 7615,
      "missions": 7616,
      "Ġstrengthen": 7617,
      "Ġincreases": 7618,
      "ĠPrivate": 7619,
      "ĠInfo": 7620,
      "ĠiPad": 7621,
      "ensation": 7622,
      "Ġ!": 7623,
      "ĠWinter": 7624,
      "imp": 7625,
      "oting": 7626,
      "Ġpowder": 7627,
      "asters": 7628,
      "Ġ65": 7629,
      "Ġfitted": 7630,
      "Year": 7631,
      "ĠMess": 7632,
      "ĠNatural": 7633,
      "Ġaccuracy": 7634,
      "Ġcontribute": 7635,
      "lig": 7636,
      "Ġrank": 7637,
      "Ġexcess": 7638,
      "erman": 7639,
      "Ġlikes": 7640,
      "Ġmotion": 7641,
      "Ġobjects": 7642,
      "250": 7643,
      "Ġversatile": 7644,
      "Ġhoping": 7645,
      "do": 7646,
      "PU": 7647,
      "run": 7648,
      "Ġrecognized": 7649,
      "Ġmusical": 7650,
      "Form": 7651,
      "iller": 7652,
      "Ġadjustable": 7653,
      "GE": 7654,
      "Ġretirement": 7655,
      "ART": 7656,
      "Ġinfluence": 7657,
      "Ġpacked": 7658,
      "ronics": 7659,
      "Ġbathrooms": 7660,
      "Ġstable": 7661,
      "Ġadministr": 7662,
      "Ġparks": 7663,
      "Ġsignature": 7664,
      "Ġglass": 7665,
      "Ġcancel": 7666,
      "ĠNFL": 7667,
      "63": 7668,
      "Ġcycl": 7669,
      "word": 7670,
      "Ġcells": 7671,
      "ĠHouston": 7672,
      "Ġresort": 7673,
      "Ġmoves": 7674,
      "ĠHold": 7675,
      "SL": 7676,
      "Ġthin": 7677,
      "Ġdropped": 7678,
      "Ġ120": 7679,
      "Ġestimated": 7680,
      "Ġintegration": 7681,
      "Ġsubmitted": 7682,
      "cluded": 7683,
      "yers": 7684,
      "Ġpublish": 7685,
      "ĠSC": 7686,
      "Ġpresents": 7687,
      "ĠCamer": 7688,
      "ĠHills": 7689,
      "ĠRussia": 7690,
      "km": 7691,
      "ĠSpain": 7692,
      "ĠBreak": 7693,
      "Ġtexture": 7694,
      "Ġgraphics": 7695,
      "IVE": 7696,
      "ĠPRO": 7697,
      "ĠCro": 7698,
      "Cons": 7699,
      "ĠMP": 7700,
      "II": 7701,
      "ingle": 7702,
      "Ġrecording": 7703,
      "Ġtiny": 7704,
      "resents": 7705,
      "ÑĤ": 7706,
      "UL": 7707,
      "hour": 7708,
      "ĠChall": 7709,
      "Care": 7710,
      "Par": 7711,
      "ĠTry": 7712,
      "Ġgrew": 7713,
      "Ġliquid": 7714,
      "Ġ2005": 7715,
      "ĠEngineering": 7716,
      "ĠDivision": 7717,
      "Ġhole": 7718,
      "real": 7719,
      "Cent": 7720,
      "Ġrestrictions": 7721,
      "ĠOfficer": 7722,
      "VD": 7723,
      "Ġbearing": 7724,
      "Ġletters": 7725,
      "itting": 7726,
      "ĠBible": 7727,
      "Will": 7728,
      "Water": 7729,
      "Ġcameras": 7730,
      "Ġdim": 7731,
      "Ġarrest": 7732,
      "Ġapartments": 7733,
      "ĠWhe": 7734,
      "ĠProm": 7735,
      "ĠKent": 7736,
      "ĠEmer": 7737,
      "agon": 7738,
      "62": 7739,
      "Ġbid": 7740,
      "Ġtells": 7741,
      "Ġmeat": 7742,
      "Ġmaintained": 7743,
      "AA": 7744,
      "uan": 7745,
      "Ġocean": 7746,
      "ĠMiami": 7747,
      "Ġproof": 7748,
      "ĠCome": 7749,
      "tery": 7750,
      "fe": 7751,
      "Ġinjured": 7752,
      "lee": 7753,
      "roph": 7754,
      "Ġperforming": 7755,
      "Ġhero": 7756,
      "Ġsaved": 7757,
      "irty": 7758,
      "Ġcasino": 7759,
      "900": 7760,
      "Ġrecipe": 7761,
      "Ġfederal": 7762,
      "Ġseed": 7763,
      "ĠThree": 7764,
      "Ġworkshops": 7765,
      "Ġran": 7766,
      "ĠHen": 7767,
      "aste": 7768,
      "oven": 7769,
      "Ġforecast": 7770,
      "uts": 7771,
      "Public": 7772,
      "Ġign": 7773,
      "Ġward": 7774,
      "Ġcrash": 7775,
      "Ġmoisture": 7776,
      "alo": 7777,
      "Day": 7778,
      "ĠFab": 7779,
      "orders": 7780,
      "olved": 7781,
      "Ġsending": 7782,
      "bi": 7783,
      "Ġprop": 7784,
      "Ġcoaching": 7785,
      "Ġcomplic": 7786,
      "edu": 7787,
      "Ġblow": 7788,
      "uits": 7789,
      "Pack": 7790,
      "ĠTherefore": 7791,
      "ĠSingapore": 7792,
      "Ġformal": 7793,
      "Ġdeveloper": 7794,
      "Ġcasual": 7795,
      "Ġpurs": 7796,
      "ĠSpirit": 7797,
      "Ġcommunicate": 7798,
      "Show": 7799,
      "iversal": 7800,
      "ĠBroad": 7801,
      "Ġclosing": 7802,
      "John": 7803,
      "Ġexpenses": 7804,
      "equ": 7805,
      "ĠSecret": 7806,
      "Like": 7807,
      "Bel": 7808,
      "allas": 7809,
      "Cle": 7810,
      "Ġroads": 7811,
      "Ġbrilliant": 7812,
      "writ": 7813,
      "ĠHon": 7814,
      "ĠEconom": 7815,
      "Ġsemi": 7816,
      "Ġachieved": 7817,
      "Oct": 7818,
      "Ġing": 7819,
      "Ġreturning": 7820,
      "Enjoy": 7821,
      "iki": 7822,
      "Ġlayout": 7823,
      "Ġseller": 7824,
      "adel": 7825,
      "Ġtaxes": 7826,
      "Ġlifetime": 7827,
      "ĠRestaur": 7828,
      "ateful": 7829,
      "pton": 7830,
      "Ġsatisfied": 7831,
      "Subscribe": 7832,
      "look": 7833,
      "Ġnoise": 7834,
      "Ġcontinuing": 7835,
      "Ġhes": 7836,
      "Americ": 7837,
      "Ġincident": 7838,
      "Ġanx": 7839,
      "oster": 7840,
      "ubs": 7841,
      "alled": 7842,
      "ĠPract": 7843,
      "ĠWhere": 7844,
      "Ġusage": 7845,
      "step": 7846,
      "heast": 7847,
      "IST": 7848,
      "Ġdefault": 7849,
      "aints": 7850,
      "Love": 7851,
      "Ġrecommendations": 7852,
      "ĠRealty": 7853,
      "ĠLuc": 7854,
      "Ġpleasure": 7855,
      "lers": 7856,
      "Ġfirms": 7857,
      "ĠNC": 7858,
      "SD": 7859,
      "ĠCapital": 7860,
      "rell": 7861,
      "iveness": 7862,
      "Ġwashing": 7863,
      "Ġprocessed": 7864,
      "Ġbow": 7865,
      "Ġinsight": 7866,
      "Ġnoticed": 7867,
      "ĠArizona": 7868,
      "ĠBB": 7869,
      "Ġemphas": 7870,
      "Ġsuperior": 7871,
      "Ġcandidate": 7872,
      "Ġuniversity": 7873,
      "ĠSydney": 7874,
      "ements": 7875,
      "pends": 7876,
      "Ġemails": 7877,
      "Ġdefend": 7878,
      "zzle": 7879,
      "Ġpace": 7880,
      "ĠRussian": 7881,
      "Ġrelief": 7882,
      "Color": 7883,
      "Ġannouncement": 7884,
      "ĠGift": 7885,
      "Ġchecking": 7886,
      "Ġcodes": 7887,
      "Ġforever": 7888,
      "Ġbrew": 7889,
      "ĠBlu": 7890,
      "Ġanniversary": 7891,
      "Ġrepresents": 7892,
      "charge": 7893,
      "Ġcollected": 7894,
      "ĠKar": 7895,
      "600": 7896,
      "Ġmarks": 7897,
      "Ġspin": 7898,
      "Made": 7899,
      "âĢ¦.": 7900,
      "ĠPen": 7901,
      "Ġpsych": 7902,
      "ĠPu": 7903,
      "ava": 7904,
      "Ġpreferred": 7905,
      "ĠQueen": 7906,
      "Ġnormally": 7907,
      "Stud": 7908,
      "month": 7909,
      "ĠToronto": 7910,
      "ĠNick": 7911,
      "aters": 7912,
      "ĠMachine": 7913,
      "WE": 7914,
      "Even": 7915,
      "Ġwealth": 7916,
      "Ġking": 7917,
      "Ġlaptop": 7918,
      "fa": 7919,
      "Ġvast": 7920,
      "ĠProcess": 7921,
      "ĠCovid": 7922,
      "61": 7923,
      "whel": 7924,
      "secut": 7925,
      "Cal": 7926,
      "Ġfellow": 7927,
      "Business": 7928,
      "ĠTurn": 7929,
      "olis": 7930,
      "Ġgenerate": 7931,
      "Ġattach": 7932,
      "otted": 7933,
      "pending": 7934,
      "sey": 7935,
      "onom": 7936,
      "Ġyes": 7937,
      "UM": 7938,
      "Ġaims": 7939,
      "itate": 7940,
      "etry": 7941,
      "owered": 7942,
      "Fin": 7943,
      "53": 7944,
      "Ġinstance": 7945,
      "lete": 7946,
      "ESS": 7947,
      "ĠPrime": 7948,
      "URE": 7949,
      "71": 7950,
      "ĠSat": 7951,
      "Ġdangerous": 7952,
      "ĠPersonal": 7953,
      "Ġphil": 7954,
      "ders": 7955,
      "piece": 7956,
      "ĠHost": 7957,
      "??": 7958,
      "ographic": 7959,
      "ĠUt": 7960,
      "Ġprospect": 7961,
      "Ġdelighted": 7962,
      "Ġ(@": 7963,
      "athan": 7964,
      "ĠJud": 7965,
      "ãĢ": 7966,
      "ĠLas": 7967,
      "ĠDoes": 7968,
      "ACT": 7969,
      "ALL": 7970,
      "Ġexclus": 7971,
      "holders": 7972,
      "Ġiconic": 7973,
      "enefits": 7974,
      "Details": 7975,
      "Ġurban": 7976,
      "ordan": 7977,
      "Ġkeys": 7978,
      "Black": 7979,
      "Ġyours": 7980,
      "Ġstations": 7981,
      "Ġstopped": 7982,
      "Ġwins": 7983,
      "ucky": 7984,
      "ulf": 7985,
      "Ġexploring": 7986,
      "Ġinvolve": 7987,
      "Ġclubs": 7988,
      "gets": 7989,
      "BO": 7990,
      "ĠQuick": 7991,
      "sec": 7992,
      "School": 7993,
      "Ġtile": 7994,
      "ĠSE": 7995,
      "Ġentirely": 7996,
      "Ġcompare": 7997,
      "tage": 7998,
      "quis": 7999,
      "anning": 8000,
      "Ġautomatic": 8001,
      "ĠSchools": 8002,
      "acc": 8003,
      "Ġsuggestions": 8004,
      "Ġacceler": 8005,
      "Ġremoval": 8006,
      "Ġprogramming": 8007,
      "ĠBuilt": 8008,
      "izz": 8009,
      "83": 8010,
      "Min": 8011,
      "Ġcontext": 8012,
      ");": 8013,
      "Visit": 8014,
      "Ġwaist": 8015,
      "ĠHuman": 8016,
      "Ġtape": 8017,
      "Ġequal": 8018,
      "minute": 8019,
      "Ñģ": 8020,
      "Ġsugar": 8021,
      "aka": 8022,
      "Bed": 8023,
      "ĠLeg": 8024,
      "ĠUr": 8025,
      "Ġscrew": 8026,
      "ĠBang": 8027,
      "Ġbuck": 8028,
      "ĠCON": 8029,
      "Ġdiscip": 8030,
      "Ġ42": 8031,
      "eration": 8032,
      "Ġtreatments": 8033,
      "screen": 8034,
      "Ġattending": 8035,
      "Ġwitness": 8036,
      "Ġindex": 8037,
      "Ġlens": 8038,
      "Ġcommunications": 8039,
      "82": 8040,
      "Ġancient": 8041,
      "Ġcush": 8042,
      "ĠBase": 8043,
      "ĠOS": 8044,
      "ĠLearning": 8045,
      "Ġslot": 8046,
      "Ġshapes": 8047,
      "Ġgovernment": 8048,
      "Ġshade": 8049,
      ")|": 8050,
      "uling": 8051,
      "ĠNEW": 8052,
      "Net": 8053,
      "Ġvisible": 8054,
      "ounce": 8055,
      "Ġscholars": 8056,
      "Hello": 8057,
      "Ġrelatively": 8058,
      "ICE": 8059,
      "oz": 8060,
      "Ġinsights": 8061,
      "ĠCru": 8062,
      "Ġcivil": 8063,
      "Ġattorney": 8064,
      "ĠArab": 8065,
      "Ġrelaxing": 8066,
      "Ġhasn": 8067,
      "Ġmagic": 8068,
      "Ġmaintaining": 8069,
      "Ġmine": 8070,
      "Ġinspection": 8071,
      "Ġmattress": 8072,
      "Ġtrails": 8073,
      "eway": 8074,
      "oading": 8075,
      "Ġmask": 8076,
      "ila": 8077,
      "Ġbehavior": 8078,
      "bing": 8079,
      "rat": 8080,
      "wich": 8081,
      "à¥": 8082,
      "ĠÂ»": 8083,
      "Ġaccommodate": 8084,
      "ĠDry": 8085,
      "ais": 8086,
      "riers": 8087,
      "Ġheading": 8088,
      "Ġmass": 8089,
      "Ġvibrant": 8090,
      "ĠOpt": 8091,
      "Ġbroadcast": 8092,
      "ĠKim": 8093,
      "email": 8094,
      "Ġadministration": 8095,
      "Ġbuyer": 8096,
      "ĠGolden": 8097,
      "Ġdivision": 8098,
      "ĠEs": 8099,
      "amework": 8100,
      "Ġpersonalized": 8101,
      "rich": 8102,
      "ĠLA": 8103,
      "Ġimagine": 8104,
      "arity": 8105,
      "washer": 8106,
      "page": 8107,
      "Ġlistening": 8108,
      "Ġpossibility": 8109,
      "Ġmic": 8110,
      "cor": 8111,
      "Ġconcerned": 8112,
      "Ġmeters": 8113,
      "ĠSav": 8114,
      "Ġarray": 8115,
      "och": 8116,
      "giving": 8117,
      "Ġfifth": 8118,
      "hors": 8119,
      "ĠMD": 8120,
      "Ġsuppliers": 8121,
      "Ġpharm": 8122,
      "ĠWilliam": 8123,
      "Ġsymptoms": 8124,
      "Ġmakeup": 8125,
      "iler": 8126,
      "Ġmig": 8127,
      "Ġbeaches": 8128,
      "ĠPur": 8129,
      "dale": 8130,
      "onym": 8131,
      "Ġdiscussed": 8132,
      "sen": 8133,
      "ela": 8134,
      "Ġpitc": 8135,
      "Ġtoys": 8136,
      "Ġpromise": 8137,
      "ĠInn": 8138,
      "ĠManufact": 8139,
      "Ġtonight": 8140,
      "Ġartwork": 8141,
      "Ġidentified": 8142,
      "La": 8143,
      "wan": 8144,
      "Ġcompliment": 8145,
      "ĠUk": 8146,
      "Ġreasonable": 8147,
      "ĠDaniel": 8148,
      "Help": 8149,
      "Ġbelieves": 8150,
      "Ġbold": 8151,
      "Ġmilk": 8152,
      "RC": 8153,
      "Ġchose": 8154,
      "Ġportion": 8155,
      "ĠResources": 8156,
      "51": 8157,
      "Ġgardens": 8158,
      "Ġfreedom": 8159,
      "ĠVegas": 8160,
      "Ġspeakers": 8161,
      "Keep": 8162,
      "Ġ250": 8163,
      "Ġoutdoors": 8164,
      "Ġofficers": 8165,
      "ĠRyan": 8166,
      "aron": 8167,
      "ĠTru": 8168,
      "ĠBrazil": 8169,
      "ĠSM": 8170,
      "UD": 8171,
      "ĠCut": 8172,
      "Ġcommittee": 8173,
      "Ġtrim": 8174,
      "uls": 8175,
      "Ġrust": 8176,
      "Ġkil": 8177,
      "Ġsevere": 8178,
      "ali": 8179,
      "edge": 8180,
      "store": 8181,
      "Ġunw": 8182,
      "ĠTips": 8183,
      "Special": 8184,
      "Em": 8185,
      "ĠStaff": 8186,
      "ashes": 8187,
      "ÑĢ": 8188,
      "ĠInstead": 8189,
      "Total": 8190,
      "ĠDiego": 8191,
      "hell": 8192,
      "lix": 8193,
      "ulner": 8194,
      "TER": 8195,
      "neys": 8196,
      "Ġinstant": 8197,
      "Ġaest": 8198,
      "ultural": 8199,
      "ĠExchange": 8200,
      "Ġwidth": 8201,
      "Ac": 8202,
      "ione": 8203,
      "Ġgenu": 8204,
      "Ġrid": 8205,
      "Ð½": 8206,
      "Ġagencies": 8207,
      "Ġbanks": 8208,
      "ĠRod": 8209,
      "Ġtechnique": 8210,
      "respond": 8211,
      "isa": 8212,
      "Ġregulations": 8213,
      "ĠRegional": 8214,
      "ĠJac": 8215,
      "Ġvirus": 8216,
      "Ġseemed": 8217,
      "emed": 8218,
      "ĠSport": 8219,
      "bow": 8220,
      "urer": 8221,
      "--------": 8222,
      "Ġoutfit": 8223,
      "ppy": 8224,
      "ĠKit": 8225,
      "Ġtrusted": 8226,
      "reme": 8227,
      "ĠRos": 8228,
      "Ġcompress": 8229,
      "ĠSEO": 8230,
      "Of": 8231,
      "Ġwhenever": 8232,
      "TE": 8233,
      "ĠMS": 8234,
      "Ġdecade": 8235,
      "ĠAustin": 8236,
      "bal": 8237,
      "Ġtalented": 8238,
      "RL": 8239,
      "Ġfoam": 8240,
      "Ġluxurious": 8241,
      "ĠCool": 8242,
      "Ġlinked": 8243,
      "Dimensions": 8244,
      "ĠConf": 8245,
      "Ġintroduce": 8246,
      "Ġbread": 8247,
      "Ġmarriage": 8248,
      "Ġwinners": 8249,
      "Ã¼": 8250,
      "UST": 8251,
      "Ġtrick": 8252,
      "Ġflo": 8253,
      "Ġseats": 8254,
      "Ġexport": 8255,
      "Ġdelivers": 8256,
      "ĠBob": 8257,
      "Ġstake": 8258,
      "Ġdepends": 8259,
      "Ġtransaction": 8260,
      "Ġentering": 8261,
      "ĠHoliday": 8262,
      "Ġsurfaces": 8263,
      "Ġpockets": 8264,
      "ĠDun": 8265,
      "Ġacquis": 8266,
      "ogue": 8267,
      "ji": 8268,
      "ĠMini": 8269,
      "ouses": 8270,
      "Ġrig": 8271,
      "ĠGive": 8272,
      "Court": 8273,
      "ĠVen": 8274,
      "Ġapproval": 8275,
      "ĠSum": 8276,
      "Ġresistant": 8277,
      "Comments": 8278,
      "ints": 8279,
      "Ġpreparation": 8280,
      "Ġhiring": 8281,
      "nesota": 8282,
      "Ġspectacular": 8283,
      "Ġstrip": 8284,
      "inator": 8285,
      "ĠCry": 8286,
      "Ġtrig": 8287,
      "ĠEX": 8288,
      "iability": 8289,
      "Ġtoilet": 8290,
      "Build": 8291,
      "ĠPick": 8292,
      "Ġpregn": 8293,
      "Ġfailed": 8294,
      "amil": 8295,
      "Ġinvestigation": 8296,
      "Ġwidely": 8297,
      "Ġprize": 8298,
      "ĠCath": 8299,
      "ĠClin": 8300,
      "ĠAgent": 8301,
      "Ġalarm": 8302,
      "anna": 8303,
      "serv": 8304,
      "Ġheads": 8305,
      "Ġrand": 8306,
      "Ġcustomized": 8307,
      "ĠRay": 8308,
      "Ġfasc": 8309,
      "Ġwheels": 8310,
      "Ġchairs": 8311,
      "NC": 8312,
      "Ġnewest": 8313,
      "ĠLocation": 8314,
      "Ġconducted": 8315,
      "Ġborder": 8316,
      "Ġactor": 8317,
      "Ġpoll": 8318,
      "Ġexceed": 8319,
      "Ġmanagers": 8320,
      "eramic": 8321,
      "ifting": 8322,
      "ĠRh": 8323,
      "Ġlocally": 8324,
      "Ġdealing": 8325,
      "orship": 8326,
      "ĠTer": 8327,
      "ĠShare": 8328,
      "Ġ37": 8329,
      "Ġoverwhel": 8330,
      "Ġweap": 8331,
      "Ġwhom": 8332,
      "ĠJr": 8333,
      "Ġconditioning": 8334,
      "Ġpowered": 8335,
      "ĠLic": 8336,
      "Ġtradition": 8337,
      "tein": 8338,
      "Ġhel": 8339,
      "Ġhopes": 8340,
      "Ġgentle": 8341,
      "Ġhealing": 8342,
      "ĠLength": 8343,
      "Ġincorpor": 8344,
      "Ġentertaining": 8345,
      "96": 8346,
      "Ġduty": 8347,
      "Ġforced": 8348,
      "Ġinitiative": 8349,
      "Ġconstant": 8350,
      "Ġunf": 8351,
      "Ġcloset": 8352,
      "Ġjun": 8353,
      "Ġsurprised": 8354,
      "GA": 8355,
      "uter": 8356,
      "Ġshr": 8357,
      "Ġspeaker": 8358,
      "icial": 8359,
      "ĠBand": 8360,
      "Ġscreens": 8361,
      "Need": 8362,
      "ĠStadium": 8363,
      "ĠSpeed": 8364,
      "ottage": 8365,
      "ITY": 8366,
      "ĠScotland": 8367,
      "à¦": 8368,
      "Weight": 8369,
      "ĠRadio": 8370,
      "Ġconv": 8371,
      "Ġreducing": 8372,
      "ĠMun": 8373,
      "Ġfounder": 8374,
      "Aug": 8375,
      "Ġrib": 8376,
      "ĠEag": 8377,
      "Ġhat": 8378,
      "Ġbirds": 8379,
      "ĠRd": 8380,
      "Ġdrain": 8381,
      "Ġfabulous": 8382,
      "Ġarch": 8383,
      "Ġ64": 8384,
      ")||": 8385,
      "Ġ1000": 8386,
      "Ġexposure": 8387,
      "Ġfilling": 8388,
      "Ġsensor": 8389,
      "ĠDouble": 8390,
      "Ġprints": 8391,
      "Ġcreativity": 8392,
      "Ġsculpt": 8393,
      "mar": 8394,
      "Ġnarrow": 8395,
      "Ġelection": 8396,
      "ĠHa": 8397,
      "ĠTransport": 8398,
      "ican": 8399,
      "iform": 8400,
      "ORT": 8401,
      "Ġproductivity": 8402,
      "El": 8403,
      "Brand": 8404,
      "ĠChampionship": 8405,
      "Ġshirt": 8406,
      "avor": 8407,
      "Ġimplementation": 8408,
      "Ġaluminum": 8409,
      "97": 8410,
      "Ġoperated": 8411,
      "Ġorange": 8412,
      "Ġfinishing": 8413,
      "Ġspiritual": 8414,
      "Ġmountains": 8415,
      "iary": 8416,
      "ĠTreat": 8417,
      "Ġshed": 8418,
      "Ġbroker": 8419,
      "Ġboards": 8420,
      "iants": 8421,
      "rowave": 8422,
      "Meet": 8423,
      "Ġbelt": 8424,
      "style": 8425,
      "inois": 8426,
      "ĠBag": 8427,
      "ĠCL": 8428,
      "Ġhandy": 8429,
      "Ġpermission": 8430,
      "ĠPrim": 8431,
      "stairs": 8432,
      "awa": 8433,
      "Ġcater": 8434,
      "ĠHappy": 8435,
      "Requ": 8436,
      "Ġunex": 8437,
      "ĠHarr": 8438,
      "winning": 8439,
      "Ġracing": 8440,
      "Christ": 8441,
      "Tax": 8442,
      "ĠSave": 8443,
      "Ġfaces": 8444,
      "ĠRound": 8445,
      "ĠMoney": 8446,
      "Ġgrateful": 8447,
      "Ġox": 8448,
      "wall": 8449,
      "ĠAsk": 8450,
      "Under": 8451,
      "Ġbreaking": 8452,
      "Ġlegend": 8453,
      "ĠDar": 8454,
      "Ġhook": 8455,
      "Ġregul": 8456,
      "cony": 8457,
      "ĠAlp": 8458,
      "Ġcombine": 8459,
      "ĠFootball": 8460,
      "Ġbat": 8461,
      "ĠMemorial": 8462,
      "ĠFar": 8463,
      "atching": 8464,
      "ĠThose": 8465,
      "ï¼": 8466,
      "Ġbranch": 8467,
      "2017": 8468,
      "Ġrandom": 8469,
      "Ġstability": 8470,
      "Ġrecip": 8471,
      "Ġcenters": 8472,
      "SW": 8473,
      "Ġdishes": 8474,
      "Ġproducing": 8475,
      "ĠTaylor": 8476,
      "ĠRichard": 8477,
      "Ġadvoc": 8478,
      "Ġcooling": 8479,
      "ĠStone": 8480,
      "ĠBrad": 8481,
      "Ġvert": 8482,
      "Ġplanet": 8483,
      "ĠEdition": 8484,
      "Mr": 8485,
      "Ġorganisation": 8486,
      "WH": 8487,
      "ĠAI": 8488,
      "Ġtracks": 8489,
      "robe": 8490,
      "lementary": 8491,
      "regon": 8492,
      "ĠMah": 8493,
      "Ã¶": 8494,
      "ĠOcean": 8495,
      "ĠStay": 8496,
      "Ġnetworking": 8497,
      "Ġclock": 8498,
      "Ġparticipating": 8499,
      "Ġvisits": 8500,
      "Ġneut": 8501,
      "ĠMcC": 8502,
      "ĠPL": 8503,
      "Select": 8504,
      "Ġfolks": 8505,
      "Ġretailers": 8506,
      "raction": 8507,
      "Ġencouraged": 8508,
      "Ġrecover": 8509,
      "Ġfrust": 8510,
      "uis": 8511,
      "Ġ($": 8512,
      "Ġproceed": 8513,
      "Ġpromotion": 8514,
      "ĠChild": 8515,
      "Friday": 8516,
      "Ġrely": 8517,
      "Ġperformances": 8518,
      "ĠAdvent": 8519,
      "ĠPict": 8520,
      "Ġpad": 8521,
      "Ġflavor": 8522,
      "ĠSche": 8523,
      "Ġrefriger": 8524,
      "Ġfilters": 8525,
      "Ġagric": 8526,
      "ĠTal": 8527,
      "enny": 8528,
      "Ġweak": 8529,
      "Ġdisp": 8530,
      "Ġà¤": 8531,
      "commerce": 8532,
      "inals": 8533,
      "ĠGB": 8534,
      "Ġrecruit": 8535,
      "ĠReserved": 8536,
      "Ġhosts": 8537,
      "ersion": 8538,
      "words": 8539,
      "ĠSound": 8540,
      "Did": 8541,
      "onder": 8542,
      "kg": 8543,
      "Pal": 8544,
      "Ġvill": 8545,
      "Ġcock": 8546,
      "ĠCase": 8547,
      "ĠRoll": 8548,
      "Ġpreparing": 8549,
      "Ġvirt": 8550,
      "Ġfinest": 8551,
      "Ġembr": 8552,
      "ĠSingle": 8553,
      "Ġformed": 8554,
      "othe": 8555,
      "ĠRoman": 8556,
      "inson": 8557,
      "Ġconcert": 8558,
      "oween": 8559,
      "Ste": 8560,
      "anwhile": 8561,
      "City": 8562,
      "Ġdisplays": 8563,
      "ipl": 8564,
      "Ġtutorial": 8565,
      "leep": 8566,
      "Ġsubscribe": 8567,
      "ĠOx": 8568,
      "Ġtransactions": 8569,
      "ockey": 8570,
      "81": 8571,
      "Ġdriven": 8572,
      "aska": 8573,
      "Ġlists": 8574,
      "mo": 8575,
      "Ġestimate": 8576,
      "Ġseal": 8577,
      "Ġdirected": 8578,
      "ĠStorage": 8579,
      "Hot": 8580,
      "Address": 8581,
      "jo": 8582,
      "Ġsignal": 8583,
      "Ġspecifications": 8584,
      "Ġbills": 8585,
      "Ġsuc": 8586,
      "Ġtherapy": 8587,
      "Ġyards": 8588,
      "Ġraw": 8589,
      "VC": 8590,
      "PE": 8591,
      "Ġ800": 8592,
      "perties": 8593,
      "Ġsquad": 8594,
      "Ġhanging": 8595,
      "Ġast": 8596,
      "ĠGrow": 8597,
      "Ġprayer": 8598,
      "Pat": 8599,
      "Monday": 8600,
      "Ġjacket": 8601,
      "Ġgraduate": 8602,
      "âĢĻ,": 8603,
      "ĠRub": 8604,
      "ĠPak": 8605,
      "ĠStudents": 8606,
      "ĠSprings": 8607,
      "Ġexplains": 8608,
      "iverpool": 8609,
      "ĠTheatre": 8610,
      "Ġforces": 8611,
      "Ġgiant": 8612,
      "ĠCollect": 8613,
      "Ġeverywhere": 8614,
      "Ġapplying": 8615,
      "ĠAnother": 8616,
      "Ġdiameter": 8617,
      "ĠDallas": 8618,
      "Ġbatteries": 8619,
      "Ġpra": 8620,
      "eters": 8621,
      "Ġje": 8622,
      "ista": 8623,
      "Ġheav": 8624,
      "Ġrural": 8625,
      "Ġstreaming": 8626,
      "ĠMember": 8627,
      "VP": 8628,
      "QU": 8629,
      "Ġwalks": 8630,
      "ĠTX": 8631,
      "Ġvulner": 8632,
      "ĠSimply": 8633,
      "iti": 8634,
      "ira": 8635,
      "Then": 8636,
      "ĠTree": 8637,
      "ĠCand": 8638,
      "Ġbackyard": 8639,
      "Ġrum": 8640,
      "Ġcrown": 8641,
      "Ġfranchise": 8642,
      "iminal": 8643,
      "Ġshoe": 8644,
      "Ġbaseball": 8645,
      "Ġstronger": 8646,
      "ĠCongress": 8647,
      "Ġremodel": 8648,
      "Ġsharp": 8649,
      "ĠAdvis": 8650,
      "ĠAtlanta": 8651,
      "ervations": 8652,
      "umer": 8653,
      "Ġinstrument": 8654,
      "lace": 8655,
      "Ġcompletion": 8656,
      "Ġphotographer": 8657,
      "Ġmob": 8658,
      "Ġteen": 8659,
      "Ġrh": 8660,
      "ran": 8661,
      "Ġfinger": 8662,
      "ĠBrew": 8663,
      "aza": 8664,
      "Ġadvantages": 8665,
      "Ġshell": 8666,
      "ĠIrish": 8667,
      "Ġwrap": 8668,
      "Ġmillions": 8669,
      "Ġengaged": 8670,
      "Ġpersonality": 8671,
      "ĠCreative": 8672,
      "ĠCore": 8673,
      "atured": 8674,
      "Ġcoronavirus": 8675,
      "ANT": 8676,
      "ĠCli": 8677,
      "quet": 8678,
      "HP": 8679,
      "Ġchicken": 8680,
      "Ġguides": 8681,
      "Ġarms": 8682,
      "Ġgall": 8683,
      "Ġconflic": 8684,
      "Source": 8685,
      "Ġfault": 8686,
      "ĠPo": 8687,
      "closure": 8688,
      "Ġ2004": 8689,
      "Ġ39": 8690,
      "Ġenterprise": 8691,
      "Intern": 8692,
      "ĠRon": 8693,
      "Ã¤": 8694,
      "Ġpadd": 8695,
      "Ġtemplate": 8696,
      "Create": 8697,
      "Ġreserve": 8698,
      "Ġcabinets": 8699,
      "Ġaircraft": 8700,
      "lisher": 8701,
      "onda": 8702,
      "bell": 8703,
      "Ġinspect": 8704,
      "Ġbatt": 8705,
      "Ġparam": 8706,
      "Ġcomponent": 8707,
      "Buy": 8708,
      "Ġtone": 8709,
      "oen": 8710,
      "Ġscoring": 8711,
      "ĠChel": 8712,
      "Stay": 8713,
      "grade": 8714,
      "ĠIndustry": 8715,
      "Air": 8716,
      "arest": 8717,
      "greg": 8718,
      "Ġcarrying": 8719,
      "aws": 8720,
      "âĺ": 8721,
      "ĠToy": 8722,
      "ĠKat": 8723,
      "Ġnone": 8724,
      "haust": 8725,
      "ĠBrook": 8726,
      "uum": 8727,
      "âĢ¦]": 8728,
      "Ġpriced": 8729,
      "lder": 8730,
      "Ġmand": 8731,
      "Ġchapter": 8732,
      "Ġloyal": 8733,
      "Ġsynt": 8734,
      "Ġcloth": 8735,
      "fo": 8736,
      "Ġholes": 8737,
      "Ġresulting": 8738,
      "ĠParking": 8739,
      "Ġattractions": 8740,
      "Ġclinical": 8741,
      "Ġnaturally": 8742,
      "etch": 8743,
      "ĠResort": 8744,
      "coin": 8745,
      "Ġdesktop": 8746,
      "MI": 8747,
      "ĠPast": 8748,
      "Ġ49": 8749,
      "shire": 8750,
      "Ġcontainer": 8751,
      "osoph": 8752,
      "Ġspoke": 8753,
      "ousing": 8754,
      "ĠUnit": 8755,
      "ĠCraft": 8756,
      "Ġpersonally": 8757,
      "ĠMinnesota": 8758,
      "ĠSource": 8759,
      "Ġseating": 8760,
      "ĠAp": 8761,
      "Ġlounge": 8762,
      "Ġrising": 8763,
      "Ġnavigate": 8764,
      "ĠBaby": 8765,
      "Ġtennis": 8766,
      "ĠBol": 8767,
      "ĠSq": 8768,
      "EP": 8769,
      "MW": 8770,
      "ĠImpro": 8771,
      "ĠCommercial": 8772,
      "ĠShort": 8773,
      "Ġintroduction": 8774,
      "Ġaccomplish": 8775,
      "ias": 8776,
      "cknow": 8777,
      "HA": 8778,
      "Ġtaught": 8779,
      "Ġutility": 8780,
      "Red": 8781,
      "Ġrisks": 8782,
      "vo": 8783,
      "Bar": 8784,
      "Ġcompliance": 8785,
      "ĠMother": 8786,
      "FF": 8787,
      "ĠEastern": 8788,
      "Ġcourtesy": 8789,
      "Ġclip": 8790,
      "RP": 8791,
      "ĠCharles": 8792,
      "Ġsupplier": 8793,
      "ĠPlant": 8794,
      "Ġmood": 8795,
      "Ġtransmission": 8796,
      "Ġstages": 8797,
      "Saturday": 8798,
      "ĠFurn": 8799,
      "lined": 8800,
      "Ġsad": 8801,
      "quiries": 8802,
      "ribute": 8803,
      "Ġhiking": 8804,
      "ĠLane": 8805,
      "ĠInnov": 8806,
      "ĠPool": 8807,
      "bel": 8808,
      "bound": 8809,
      "Ġdurability": 8810,
      "ridge": 8811,
      "VER": 8812,
      "olid": 8813,
      "aduate": 8814,
      "Ġaf": 8815,
      "ĠCou": 8816,
      "Ġgrey": 8817,
      "ylvan": 8818,
      "Ġ600": 8819,
      "ĠMaint": 8820,
      "ixel": 8821,
      "boards": 8822,
      "Ġmut": 8823,
      "ACK": 8824,
      "ĠWedding": 8825,
      "Ġhandmade": 8826,
      "UK": 8827,
      "Ġgenerous": 8828,
      "arian": 8829,
      "Ġrecognition": 8830,
      "ĠFast": 8831,
      "ĠCourse": 8832,
      "ima": 8833,
      "Ġstored": 8834,
      "Play": 8835,
      "ĠMom": 8836,
      "ĠCoffee": 8837,
      "ĠAgency": 8838,
      "ĠBell": 8839,
      "gi": 8840,
      "hou": 8841,
      "Max": 8842,
      "Ġbaths": 8843,
      "ĠMagazine": 8844,
      "isure": 8845,
      "Ġyounger": 8846,
      "ÃĹ": 8847,
      "adelph": 8848,
      "Ġzero": 8849,
      "Ġpun": 8850,
      "January": 8851,
      "ĠVictoria": 8852,
      "ĠDJ": 8853,
      "OG": 8854,
      "Happy": 8855,
      "owa": 8856,
      "rition": 8857,
      ".|": 8858,
      "ĠDIY": 8859,
      "Ġcomplement": 8860,
      "intend": 8861,
      "Ġdollar": 8862,
      "Ġpeak": 8863,
      "Ġcausing": 8864,
      "ĠModern": 8865,
      "Ġfairly": 8866,
      "Exper": 8867,
      "Ġvess": 8868,
      "Prof": 8869,
      "aver": 8870,
      "Cor": 8871,
      "ipt": 8872,
      "Ġcorrectly": 8873,
      "Ġshock": 8874,
      "ĠStudent": 8875,
      "angle": 8876,
      "Ġrolling": 8877,
      "ĠJordan": 8878,
      "Ġresidence": 8879,
      "forcement": 8880,
      "Ġsour": 8881,
      "ĠFox": 8882,
      "Hand": 8883,
      "ĠSD": 8884,
      "netic": 8885,
      "Ġaffiliate": 8886,
      "ĠRV": 8887,
      "Ġweigh": 8888,
      "books": 8889,
      "ffective": 8890,
      "ĠHR": 8891,
      "Ġedit": 8892,
      "ĠDur": 8893,
      "ĠDam": 8894,
      "Ġtablet": 8895,
      "General": 8896,
      "Ġmedicine": 8897,
      "Courtesy": 8898,
      "Shop": 8899,
      "Ġfalling": 8900,
      "Set": 8901,
      "dden": 8902,
      "Ġentrepreneurs": 8903,
      "ĠForce": 8904,
      "ĠMeeting": 8905,
      "Ġboss": 8906,
      "Ġcontrols": 8907,
      "Ġdocument": 8908,
      "Ġrequirement": 8909,
      "Ġsuggested": 8910,
      "ĠGuard": 8911,
      "Ġultra": 8912,
      "Ġpounds": 8913,
      "redients": 8914,
      "Ġcrazy": 8915,
      "Ġbab": 8916,
      "Ġspokes": 8917,
      "Ġfailure": 8918,
      "Ġstring": 8919,
      "estone": 8920,
      "Ġads": 8921,
      "Ġrelaxed": 8922,
      "Ġfoods": 8923,
      "ĠProtection": 8924,
      "bits": 8925,
      "Ġmodule": 8926,
      "ĠALL": 8927,
      "Ġpublication": 8928,
      "ĠAddress": 8929,
      "ĠContent": 8930,
      "adelphia": 8931,
      "Support": 8932,
      "ko": 8933,
      "Online": 8934,
      "Ġgenerated": 8935,
      "ĠPhoto": 8936,
      "Ġsophist": 8937,
      "Ġsuperv": 8938,
      "using": 8939,
      "uma": 8940,
      "HL": 8941,
      "Only": 8942,
      "Ġneighb": 8943,
      "Ġstuck": 8944,
      "pret": 8945,
      "ucle": 8946,
      "Ġsuspect": 8947,
      "ĠSelf": 8948,
      "Ġlasting": 8949,
      "Ġsized": 8950,
      "criptions": 8951,
      "tail": 8952,
      "Ġsne": 8953,
      "ĠIllinois": 8954,
      "Ġbelieved": 8955,
      "ĠPhotos": 8956,
      "ifer": 8957,
      "ĠNic": 8958,
      "acked": 8959,
      "ĠMelbourne": 8960,
      "itut": 8961,
      "Ġcalm": 8962,
      "enna": 8963,
      "Ġtelling": 8964,
      "raine": 8965,
      "Ġexclusively": 8966,
      "Ġcopyright": 8967,
      "PO": 8968,
      "owned": 8969,
      "Ġoz": 8970,
      "ifies": 8971,
      "ĠLux": 8972,
      "Ġcatalog": 8973,
      "Star": 8974,
      "Ġmanufactured": 8975,
      "Ġlayers": 8976,
      "Ġtemporary": 8977,
      "Ġordering": 8978,
      "ventional": 8979,
      "Design": 8980,
      "ĠMaybe": 8981,
      "ĠNav": 8982,
      "Ġpercentage": 8983,
      "Ġcorrespond": 8984,
      "Ġclosure": 8985,
      "Ġanytime": 8986,
      "ĠPerformance": 8987,
      "Ġfacts": 8988,
      "Ġphotographs": 8989,
      "Ġfocusing": 8990,
      "Ġworkout": 8991,
      "aya": 8992,
      "nda": 8993,
      "Ġvendors": 8994,
      "Community": 8995,
      "Ġexperiencing": 8996,
      "Ġexch": 8997,
      "Loading": 8998,
      "Ġ44": 8999,
      "Ġrecognize": 9000,
      "Ã¢": 9001,
      "ĠBowl": 9002,
      "ĠExplore": 9003,
      "Ġresident": 9004,
      "closed": 9005,
      "Ġresume": 9006,
      "Ġcamping": 9007,
      "uing": 9008,
      "game": 9009,
      "ðĿ": 9010,
      "week": 9011,
      "Ġfib": 9012,
      "ĠCreate": 9013,
      "Ġinvesting": 9014,
      "Mem": 9015,
      "anted": 9016,
      "Ġflying": 9017,
      "%,": 9018,
      "ennes": 9019,
      "ĠFurther": 9020,
      "Ġsudden": 9021,
      "Ġfocuses": 9022,
      "stery": 9023,
      "ĠCorporation": 9024,
      "ĠHaving": 9025,
      "Ġcollections": 9026,
      "ĠKevin": 9027,
      "Ġbrace": 9028,
      "Ġ2003": 9029,
      "ĠChange": 9030,
      "KE": 9031,
      "Ġcul": 9032,
      "ificial": 9033,
      "ho": 9034,
      "ĠHours": 9035,
      "Ġhoriz": 9036,
      "Ġunexpected": 9037,
      "Author": 9038,
      "Ġworse": 9039,
      "ĠPaper": 9040,
      "Ġpulled": 9041,
      "Ġbehalf": 9042,
      "aux": 9043,
      "iscons": 9044,
      "stra": 9045,
      "Ġengaging": 9046,
      "Ġcelebrating": 9047,
      "CR": 9048,
      "ĠYouth": 9049,
      "MM": 9050,
      "Connect": 9051,
      "Very": 9052,
      "Ġcontribution": 9053,
      "Ġmarg": 9054,
      "Ġrecipes": 9055,
      "Ġouts": 9056,
      "ĠPlanning": 9057,
      "Ġhabit": 9058,
      "Ġdispos": 9059,
      "Ġsurrounded": 9060,
      "SI": 9061,
      "Ġlease": 9062,
      "People": 9063,
      "Ġgreatly": 9064,
      "Ġconsumption": 9065,
      "Ġpossibilities": 9066,
      "ĠRa": 9067,
      "Ġtelephone": 9068,
      "isconsin": 9069,
      "Ġcontractor": 9070,
      "ĠLew": 9071,
      "Ġlimits": 9072,
      "Ġseriously": 9073,
      "apes": 9074,
      "ĠTrade": 9075,
      "Ġtire": 9076,
      "Ġsensitive": 9077,
      "Ġdirt": 9078,
      "ceeds": 9079,
      "Ġobtained": 9080,
      "ĠSwed": 9081,
      "ylon": 9082,
      "Ġconnecting": 9083,
      "Quest": 9084,
      "Ġstrike": 9085,
      "Ġstructures": 9086,
      "alty": 9087,
      "Ġregions": 9088,
      "Ġreaching": 9089,
      "ellite": 9090,
      "Ġvit": 9091,
      "ĠSaint": 9092,
      "quiry": 9093,
      "Ġslowly": 9094,
      "ĠDiamond": 9095,
      "ĠFederal": 9096,
      "Ġenhanced": 9097,
      "Ġacid": 9098,
      "Ġsucceed": 9099,
      "ĠSeattle": 9100,
      "Ġcitizens": 9101,
      "ĠOrange": 9102,
      "Stand": 9103,
      "Ġ360": 9104,
      "ĠOregon": 9105,
      "Customer": 9106,
      "Ġsections": 9107,
      "Ġlegisl": 9108,
      "Ġdeploy": 9109,
      "Ġfloral": 9110,
      "Ġconsideration": 9111,
      "ĠRoof": 9112,
      "Ġguitar": 9113,
      "Ġwildlife": 9114,
      "ĠCarl": 9115,
      "Ġswing": 9116,
      "odd": 9117,
      "Ġshowcase": 9118,
      "Ġinspire": 9119,
      "Ġadm": 9120,
      "abeth": 9121,
      "ivities": 9122,
      "ĠPremium": 9123,
      "Sw": 9124,
      "Ġsupposed": 9125,
      "Ġsomewhere": 9126,
      "gor": 9127,
      "Ġstrict": 9128,
      "osit": 9129,
      "aning": 9130,
      "sembly": 9131,
      "Ġranging": 9132,
      "Ġcolleagues": 9133,
      "Ġsupplied": 9134,
      "DI": 9135,
      "ĠBooks": 9136,
      "Feb": 9137,
      ".âĢĻ": 9138,
      "NS": 9139,
      "Ġwalked": 9140,
      "ĠDue": 9141,
      "Ġstruggling": 9142,
      "Ġcanvas": 9143,
      "Ġauction": 9144,
      "Ġplumbing": 9145,
      "ĠOnt": 9146,
      "Ġlaser": 9147,
      "Ġportable": 9148,
      "Ġboots": 9149,
      "Ġcrafted": 9150,
      "Ġyield": 9151,
      "Ġtransformation": 9152,
      "Ġlowest": 9153,
      "Ġdifferences": 9154,
      "Ġapparent": 9155,
      "Ġtons": 9156,
      "ĠAL": 9157,
      "pson": 9158,
      "Ġlanguages": 9159,
      "ĠEss": 9160,
      "Ġprimarily": 9161,
      "Ġboot": 9162,
      "Ġregardless": 9163,
      "found": 9164,
      "Ġzip": 9165,
      "ĠAction": 9166,
      "Ġ~": 9167,
      "NT": 9168,
      "Ġvib": 9169,
      "acon": 9170,
      "uct": 9171,
      "ĠReading": 9172,
      "Ġcareful": 9173,
      "Ġexpanded": 9174,
      "Ġcurrency": 9175,
      "Ġerrors": 9176,
      "atoes": 9177,
      "ĠWire": 9178,
      "Ġchest": 9179,
      "Ġargu": 9180,
      "Ġprove": 9181,
      "ĠHighway": 9182,
      "ĠHas": 9183,
      "ĠSem": 9184,
      "Ġwaters": 9185,
      "interest": 9186,
      "ushing": 9187,
      "ĠBad": 9188,
      "Ġquotes": 9189,
      "Ġlogged": 9190,
      "ĠPhys": 9191,
      "Ġskilled": 9192,
      "ĠMedicine": 9193,
      "Ġefficiently": 9194,
      "Ġextract": 9195,
      "Ġdesigning": 9196,
      "ocation": 9197,
      "ylvania": 9198,
      "aug": 9199,
      "Ġtires": 9200,
      "Dav": 9201,
      "rence": 9202,
      "Ġrecon": 9203,
      "Ġfinishes": 9204,
      "ICK": 9205,
      "Ġgraphic": 9206,
      "Ġwave": 9207,
      "Ġok": 9208,
      "ev": 9209,
      "Ġtitle": 9210,
      "cludes": 9211,
      "Mod": 9212,
      "rylic": 9213,
      "ifier": 9214,
      "Ġpotentially": 9215,
      "Ġdirections": 9216,
      "wa": 9217,
      "ouver": 9218,
      "acter": 9219,
      "Ġenroll": 9220,
      "Ġherself": 9221,
      "urchase": 9222,
      "Ġrated": 9223,
      "Ġcats": 9224,
      "Ġministry": 9225,
      "mont": 9226,
      "ĠAdditionally": 9227,
      "Ġremark": 9228,
      "ASE": 9229,
      "Ġloose": 9230,
      "VAC": 9231,
      "Ġglobe": 9232,
      "Ġ)": 9233,
      "Ġimpossible": 9234,
      "ĠFinance": 9235,
      "Ġreleases": 9236,
      "Ġmeasurements": 9237,
      "ĠDoor": 9238,
      "Ġultimately": 9239,
      "taking": 9240,
      "Ġverified": 9241,
      "Ġsmoke": 9242,
      "Save": 9243,
      "Ġranking": 9244,
      "ĠCorn": 9245,
      "Ġlbs": 9246,
      "Ġsurprising": 9247,
      "zing": 9248,
      "ĠLy": 9249,
      "ĠArchitect": 9250,
      "ĠBE": 9251,
      "BR": 9252,
      "ĠBoy": 9253,
      "Ġcalculated": 9254,
      "ĠCotton": 9255,
      "struct": 9256,
      "Ġtor": 9257,
      "Vol": 9258,
      "Ġinnings": 9259,
      "ĠWales": 9260,
      "ĠThings": 9261,
      "Ġgrip": 9262,
      "Ġlocks": 9263,
      "ĠRail": 9264,
      "Ġcrypt": 9265,
      "Ġangle": 9266,
      "ĠWars": 9267,
      "Ġworkplace": 9268,
      "ĠCash": 9269,
      "Ġchips": 9270,
      "ĠShel": 9271,
      "Ġinvolves": 9272,
      "Ġfinds": 9273,
      "Found": 9274,
      "ĠArch": 9275,
      "Ġliked": 9276,
      "Ġmaps": 9277,
      "Ġcertificate": 9278,
      "ilings": 9279,
      "Ġheaded": 9280,
      "Ġchecked": 9281,
      "ĠIntegr": 9282,
      "oln": 9283,
      "ĠYOUR": 9284,
      "94": 9285,
      "Ġapplicable": 9286,
      "INE": 9287,
      "Ġcommonly": 9288,
      "Ġposting": 9289,
      "Ġvinyl": 9290,
      "ĠBeautiful": 9291,
      "Ġcontributions": 9292,
      "ĠJosh": 9293,
      "ĠMust": 9294,
      "ĠWrit": 9295,
      "Ġfinancing": 9296,
      "unes": 9297,
      "ĠBarn": 9298,
      "Ġworst": 9299,
      "Office": 9300,
      "Ġacknow": 9301,
      "Delivery": 9302,
      "Health": 9303,
      "Ge": 9304,
      "Ġink": 9305,
      "ĠWhich": 9306,
      "Web": 9307,
      "ĠAth": 9308,
      "Ġdonate": 9309,
      "Item": 9310,
      "Ġromantic": 9311,
      "Ġraising": 9312,
      "Ġshowc": 9313,
      "ĠHoly": 9314,
      "Ġaddresses": 9315,
[...]
