{
  "version": "1.0",
  "truncation": null,
  "padding": null,
  "added_tokens": [
    {
      "id": 0,
      "content": "<|bos|>",
      "single_word": false,
      "lstrip": false,
      "rstrip": false,
      "normalized": false,
      "special": true
    },
    {
      "id": 1,
      "content": "<|eos|>",
      "single_word": false,
      "lstrip": false,
      "rstrip": false,
      "normalized": false,
      "special": true
    },
    {
      "id": 2,
      "content": "<|system|>",
      "single_word": false,
      "lstrip": false,
      "rstrip": false,
      "normalized": false,
      "special": true
    },
    {
      "id": 3,
      "content": "<|user|>",
      "single_word": false,
      "lstrip": false,
      "rstrip": false,
      "normalized": false,
      "special": true
    },
    {
      "id": 4,
      "content": "<|assistant|>",
      "single_word": false,
      "lstrip": false,
      "rstrip": false,
      "normalized": false,
      "special": true
    }
  ],
  "normalizer": {
    "type": "Sequence",
    "normalizers": [
      {
        "type": "NFD"
      },
      {
        "type": "StripAccents"
      }
    ]
  },
  "pre_tokenizer": {
    "type": "Sequence",
    "pretokenizers": [
      {
        "type": "Whitespace"
      },
      {
        "type": "Punctuation",
        "behavior": "Isolated"
      },
      {
        "type": "Digits",
        "individual_digits": true
      },
      {
        "type": "ByteLevel",
        "add_prefix_space": true,
        "trim_offsets": true,
        "use_regex": true
      }
    ]
  },
  "post_processor": {
    "type": "ByteLevel",
    "add_prefix_space": true,
    "trim_offsets": true,
    "use_regex": true
  },
  "decoder": {
    "type": "ByteLevel",
    "add_prefix_space": true,
    "trim_offsets": true,
    "use_regex": true
  },
  "model": {
    "type": "BPE",
    "dropout": null,
    "unk_token": null,
    "continuing_subword_prefix": null,
    "end_of_word_suffix": null,
    "fuse_unk": false,
    "byte_fallback": false,
    "vocab": {
      "<|bos|>": 0,
      "<|eos|>": 1,
      "<|system|>": 2,
      "<|user|>": 3,
      "<|assistant|>": 4,
      "!": 5,
      "\"": 6,
      "#": 7,
      "$": 8,
      "%": 9,
      "&": 10,
      "'": 11,
      "(": 12,
      ")": 13,
      "*": 14,
      "+": 15,
      ",": 16,
      "-": 17,
      ".": 18,
      "/": 19,
      "0": 20,
      "1": 21,
      "2": 22,
      "3": 23,
      "4": 24,
      "5": 25,
      "6": 26,
      "7": 27,
      "8": 28,
      "9": 29,
      ":": 30,
      ";": 31,
      "<": 32,
      "=": 33,
      ">": 34,
      "?": 35,
      "@": 36,
      "A": 37,
      "B": 38,
      "C": 39,
      "D": 40,
      "E": 41,
      "F": 42,
      "G": 43,
      "H": 44,
      "I": 45,
      "J": 46,
      "K": 47,
      "L": 48,
      "M": 49,
      "N": 50,
      "O": 51,
      "P": 52,
      "Q": 53,
      "R": 54,
      "S": 55,
      "T": 56,
      "U": 57,
      "V": 58,
      "W": 59,
      "X": 60,
      "Y": 61,
      "Z": 62,
      "[": 63,
      "\\": 64,
      "]": 65,
      "^": 66,
      "_": 67,
      "`": 68,
      "a": 69,
      "b": 70,
      "c": 71,
      "d": 72,
      "e": 73,
      "f": 74,
      "g": 75,
      "h": 76,
      "i": 77,
      "j": 78,
      "k": 79,
      "l": 80,
      "m": 81,
      "n": 82,
      "o": 83,
      "p": 84,
      "q": 85,
      "r": 86,
      "s": 87,
      "t": 88,
      "u": 89,
      "v": 90,
      "w": 91,
      "x": 92,
      "y": 93,
      "z": 94,
      "{": 95,
      "|": 96,
      "}": 97,
      "~": 98,
      "¡": 99,
      "¢": 100,
      "£": 101,
      "¤": 102,
      "¥": 103,
      "¦": 104,
      "§": 105,
      "¨": 106,
      "©": 107,
      "ª": 108,
      "«": 109,
      "¬": 110,
      "®": 111,
      "¯": 112,
      "°": 113,
      "±": 114,
      "²": 115,
      "³": 116,
      "´": 117,
      "µ": 118,
      "¶": 119,
      "·": 120,
      "¸": 121,
      "¹": 122,
      "º": 123,
      "»": 124,
      "¼": 125,
      "½": 126,
      "¾": 127,
      "¿": 128,
      "Â": 129,
      "Ã": 130,
      "Ä": 131,
      "Å": 132,
      "Æ": 133,
      "Ç": 134,
      "È": 135,
      "É": 136,
      "Ê": 137,
      "Ë": 138,
      "Î": 139,
      "Ï": 140,
      "Ð": 141,
      "Ñ": 142,
      "Ò": 143,
      "Ó": 144,
      "Ô": 145,
      "Õ": 146,
      "Ö": 147,
      "×": 148,
      "Ø": 149,
      "Ù": 150,
      "Ú": 151,
      "Û": 152,
      "Ü": 153,
      "à": 154,
      "á": 155,
      "â": 156,
      "ã": 157,
      "ä": 158,
      "å": 159,
      "æ": 160,
      "ç": 161,
      "è": 162,
      "é": 163,
      "ê": 164,
      "ï": 165,
      "ð": 166,
      "Ġ": 167,
      "Ģ": 168,
      "ģ": 169,
      "Ĥ": 170,
      "ĥ": 171,
      "Ħ": 172,
      "ħ": 173,
      "Ĩ": 174,
      "ĩ": 175,
      "Ī": 176,
      "ī": 177,
      "Ĭ": 178,
      "ĭ": 179,
      "Į": 180,
      "į": 181,
      "İ": 182,
      "ı": 183,
      "Ĳ": 184,
      "ĳ": 185,
      "Ĵ": 186,
      "ĵ": 187,
      "Ķ": 188,
      "ķ": 189,
      "ĸ": 190,
      "Ĺ": 191,
      "ĺ": 192,
      "Ļ": 193,
      "ļ": 194,
      "Ľ": 195,
      "ľ": 196,
      "Ŀ": 197,
      "ŀ": 198,
      "Ł": 199,
      "ł": 200,
      "Ń": 201,
      "Ġt": 202,
      "he": 203,
      "Ġa": 204,
      "in": 205,
      "Ġthe": 206,
      "er": 207,
      "on": 208,
      "Ġ,": 209,
      "Ġs": 210,
      "re": 211,
      "ed": 212,
      "Ġ.": 213,
      "Ġw": 214,
      "Ġo": 215,
      "nd": 216,
      "at": 217,
      "or": 218,
      "en": 219,
      "Ġc": 220,
      "it": 221,
      "Ġf": 222,
      "is": 223,
      "es": 224,
      "ar": 225,
      "Ġb": 226,
      "Ġof": 227,
      "an": 228,
      "Ġin": 229,
      "al": 230,
      "ing": 231,
      "Ġp": 232,
      "as": 233,
      "Ġand": 234,
      "Ġ@": 235,
      "Ġto": 236,
      "ic": 237,
      "ro": 238,
      "Ġm": 239,
      "Ġd": 240,
      "Ġh": 241,
      "ion": 242,
      "le": 243,
      "Ġ1": 244,
      "ou": 245,
      "ĠT": 246,
      "Ġ0": 247,
      "Ġre": 248,
      "ĠS": 249,
      "il": 250,
      "Ġth": 251,
      "ĠA": 252,
      "ent": 253,
      "Ġ\"": 254,
      "st": 255,
      "el": 256,
      "Ġl": 257,
      "ĠC": 258,
      "Ġe": 259,
      "om": 260,
      "am": 261,
      "Ġn": 262,
      "ad": 263,
      "Ġwas": 264,
      "ac": 265,
      "Ġ2": 266,
      "ĠM": 267,
      "Ġon": 268,
      "ĠB": 269,
      "ec": 270,
      "ĠThe": 271,
      "ly": 272,
      "Ġ'": 273,
      "ur": 274,
      "Ġ9": 275,
      "et": 276,
      "id": 277,
      "Ġg": 278,
      "ol": 279,
      "im": 280,
      "Ġ-": 281,
      "ĠI": 282,
      "Ġfor": 283,
      "ir": 284,
      "iv": 285,
      "ig": 286,
      "ot": 287,
      "ter": 288,
      "ut": 289,
      "ĠH": 290,
      "Ġas": 291,
      "us": 292,
      "ow": 293,
      "ith": 294,
      "ay": 295,
      "Ġst": 296,
      "Ġhe": 297,
      "ĠP": 298,
      "ver": 299,
      "Ġwith": 300,
      "Ġbe": 301,
      "ation": 302,
      "Ġthat": 303,
      "ĠR": 304,
      "ĠD": 305,
      "ce": 306,
      "un": 307,
      "em": 308,
      "Ġwh": 309,
      "ĠW": 310,
      "Ġby": 311,
      "ch": 312,
      "ĠF": 313,
      "Ġal": 314,
      "ul": 315,
      "Ġis": 316,
      "Ġ)": 317,
      "Ġ(": 318,
      "Ġat": 319,
      "Ġcon": 320,
      "ĠL": 321,
      "ĠG": 322,
      "ers": 323,
      "ĠN": 324,
      "ct": 325,
      "Ġ3": 326,
      "and": 327,
      "Ġ5": 328,
      "ain": 329,
      "Ġan": 330,
      "os": 331,
      "Ġ8": 332,
      "Ġit": 333,
      "her": 334,
      "rom": 335,
      "av": 336,
      "ag": 337,
      "um": 338,
      "ĠJ": 339,
      "Ġ4": 340,
      "est": 341,
      "th": 342,
      "Ġr": 343,
      "Ġhis": 344,
      "ĠE": 345,
      "Ġ6": 346,
      "Ġ7": 347,
      "od": 348,
      "ri": 349,
      "Ġfrom": 350,
      "ĠO": 351,
      "Ġcom": 352,
      "ist": 353,
      "Ġv": 354,
      "ap": 355,
      "Ġpro": 356,
      "ill": 357,
      "op": 358,
      "ore": 359,
      "ld": 360,
      "if": 361,
      "up": 362,
      "ere": 363,
      "ew": 364,
      "igh": 365,
      "res": 366,
      "ĠIn": 367,
      "ies": 368,
      "Ġde": 369,
      "ber": 370,
      "ard": 371,
      "art": 372,
      "ort": 373,
      "Ġse": 374,
      "Ġwere": 375,
      "ak": 376,
      "ich": 377,
      "ate": 378,
      "all": 379,
      "ab": 380,
      "ant": 381,
      "ud": 382,
      "oc": 383,
      "Ġex": 384,
      "ong": 385,
      "qu": 386,
      "Ġor": 387,
      "Ġch": 388,
      "ĠK": 389,
      "gh": 390,
      "ated": 391,
      "ear": 392,
      "Ġsh": 393,
      "Ġpl": 394,
      "ess": 395,
      "ip": 396,
      "ity": 397,
      "ive": 398,
      "ame": 399,
      "ĠU": 400,
      "Ġhad": 401,
      "ect": 402,
      "Ġâ": 403,
      "our": 404,
      "Ġsu": 405,
      "ack": 406,
      "Ġk": 407,
      "red": 408,
      "ĠSt": 409,
      "ast": 410,
      "se": 411,
      "Ġwhich": 412,
      "ĠâĢ": 413,
      "ge": 414,
      "Ġle": 415,
      "Ġare": 416,
      "ment": 417,
      "und": 418,
      "ov": 419,
      "ian": 420,
      "ial": 421,
      "Ġnot": 422,
      "ell": 423,
      "Ġsp": 424,
      "ost": 425,
      "Ġy": 426,
      "ight": 427,
      "Ġtr": 428,
      "ia": 429,
      "ust": 430,
      "ord": 431,
      "ary": 432,
      "ine": 433,
      "ther": 434,
      "rit": 435,
      "oun": 436,
      "ave": 437,
      "pt": 438,
      "ical": 439,
      "Ġun": 440,
      "pp": 441,
      "ĠCh": 442,
      "Ġinc": 443,
      "cc": 444,
      "ould": 445,
      "Ġbut": 446,
      "fter": 447,
      "ĠV": 448,
      "irst": 449,
      "ish": 450,
      "ous": 451,
      "Ġint": 452,
      "so": 453,
      "ff": 454,
      "Ġcomp": 455,
      "Ġcont": 456,
      "Ġwhe": 457,
      "ions": 458,
      "Ġro": 459,
      "ide": 460,
      "ra": 461,
      "Ġar": 462,
      "ure": 463,
      "ub": 464,
      "ie": 465,
      "Ġ;": 466,
      "Ġfirst": 467,
      "out": 468,
      "Ġcl": 469,
      "wo": 470,
      "Ġher": 471,
      "end": 472,
      "Ġits": 473,
      "Ġtheir": 474,
      "ue": 475,
      "ign": 476,
      "ass": 477,
      "ok": 478,
      "og": 479,
      "ork": 480,
      "Ġres": 481,
      "Ġalso": 482,
      "Ġab": 483,
      "ater": 484,
      "Ġad": 485,
      "orm": 486,
      "ĠHe": 487,
      "ome": 488,
      "ond": 489,
      "ĠâĢĵ": 490,
      "Ġ:": 491,
      "age": 492,
      "ry": 493,
      "hed": 494,
      "ire": 495,
      "mer": 496,
      "Ġus": 497,
      "low": 498,
      "ime": 499,
      "ans": 500,
      "per": 501,
      "ru": 502,
      "Ġper": 503,
      "Ġwho": 504,
      "du": 505,
      "Ġone": 506,
      "Ġhave": 507,
      "Ġsc": 508,
      "ĠTh": 509,
      "ally": 510,
      "pl": 511,
      "own": 512,
      "ile": 513,
      "ted": 514,
      "Ġrec": 515,
      "Ġtwo": 516,
      "ance": 517,
      "ugh": 518,
      "ree": 519,
      "iz": 520,
      "uring": 521,
      "ition": 522,
      "Ġbeen": 523,
      "Ġpart": 524,
      "Ġbec": 525,
      "Ġhas": 526,
      "port": 527,
      "ence": 528,
      "ts": 529,
      "Ġag": 530,
      "ĠAl": 531,
      "Ġapp": 532,
      "ough": 533,
      "ice": 534,
      "Ġj": 535,
      "Ġen": 536,
      "Ġdis": 537,
      "lud": 538,
      "Ġover": 539,
      "Ġthis": 540,
      "ely": 541,
      "Ġser": 542,
      "Ġyear": 543,
      "ember": 544,
      "ren": 545,
      "ound": 546,
      "ach": 547,
      "Ġafter": 548,
      "Ġoff": 549,
      "Ġup": 550,
      "ark": 551,
      "ĠIt": 552,
      "Ġplay": 553,
      "land": 554,
      "ace": 555,
      "ations": 556,
      "Ġdes": 557,
      "ke": 558,
      "over": 559,
      "Ġthey": 560,
      "Ġout": 561,
      "ade": 562,
      "ction": 563,
      "ric": 564,
      "Ġatt": 565,
      "ib": 566,
      "Ġother": 567,
      "ory": 568,
      "Ġman": 569,
      "act": 570,
      "Ġim": 571,
      "Ġinclud": 572,
      "ĠY": 573,
      "ced": 574,
      "ress": 575,
      "ult": 576,
      "ens": 577,
      "ail": 578,
      "urn": 579,
      "Ġwould": 580,
      "wn": 581,
      "Ġte": 582,
      "ind": 583,
      "ang": 584,
      "man": 585,
      "Ġtime": 586,
      "Ġinto": 587,
      "one": 588,
      "Ġpre": 589,
      "te": 590,
      "ĠOn": 591,
      "ep": 592,
      "Ġhim": 593,
      "Ġwe": 594,
      "ite": 595,
      "we": 596,
      "ĠUn": 597,
      "oin": 598,
      "ward": 599,
      "Ġshe": 600,
      "ates": 601,
      "able": 602,
      "Ġev": 603,
      "ased": 604,
      "les": 605,
      "Ġne": 606,
      "ited": 607,
      "ied": 608,
      "ilm": 609,
      "are": 610,
      "Ġcomm": 611,
      "amp": 612,
      "rough": 613,
      "ors": 614,
      "Ġinter": 615,
      "oy": 616,
      "ase": 617,
      "ount": 618,
      "ons": 619,
      "Ġall": 620,
      "Ġmore": 621,
      "ood": 622,
      "Ġwork": 623,
      "aw": 624,
      "old": 625,
      "ered": 626,
      "ces": 627,
      "ĠAr": 628,
      "Ġnew": 629,
      "ose": 630,
      "ĠAn": 631,
      "ild": 632,
      "form": 633,
      "ings": 634,
      "Ġsec": 635,
      "ick": 636,
      "Ġbet": 637,
      "Ġwhen": 638,
      "vel": 639,
      "Ġfe": 640,
      "Ġfilm": 641,
      "ey": 642,
      "inal": 643,
      "ious": 644,
      "ake": 645,
      "aus": 646,
      "way": 647,
      "ft": 648,
      "ents": 649,
      "Ġcons": 650,
      "iss": 651,
      "fer": 652,
      "reat": 653,
      "ĠMar": 654,
      "att": 655,
      "Ġrem": 656,
      "ved": 657,
      "gan": 658,
      "ĠSe": 659,
      "Ġgro": 660,
      "Ġdec": 661,
      "Ġduring": 662,
      "rib": 663,
      "rop": 664,
      "Ġund": 665,
      "orth": 666,
      "Ġagain": 667,
      "ason": 668,
      "Ġmost": 669,
      "ĠAs": 670,
      "Ġpr": 671,
      "Ġgame": 672,
      "oth": 673,
      "ubl": 674,
      "Ġonly": 675,
      "Ġthem": 676,
      "ween": 677,
      "ix": 678,
      "hip": 679,
      "ollow": 680,
      "Ġthan": 681,
      "Ġear": 682,
      "ob": 683,
      "Ġsup": 684,
      "fore": 685,
      "Ġabout": 686,
      "Ġkn": 687,
      "ug": 688,
      "Ġret": 689,
      "Ġprodu": 690,
      "ĠNew": 691,
      "Ġcan": 692,
      "Ġcent": 693,
      "ath": 694,
      "Ġchar": 695,
      "ational": 696,
      "Ġsong": 697,
      "Ġbetween": 698,
      "Ġlater": 699,
      "outh": 700,
      "tern": 701,
      "orn": 702,
      "Ġunder": 703,
      "Ġthree": 704,
      "Ġrele": 705,
      "ict": 706,
      "Ġcol": 707,
      "ton": 708,
      "ron": 709,
      "hn": 710,
      "Ġact": 711,
      "aid": 712,
      "ve": 713,
      "Ġthrough": 714,
      "Ġqu": 715,
      "iew": 716,
      "als": 717,
      "Ġnum": 718,
      "Ġso": 719,
      "Ġme": 720,
      "Ġwhile": 721,
      "ook": 722,
      "ĠEn": 723,
      "Ġacc": 724,
      "Ġend": 725,
      "Ġrel": 726,
      "ank": 727,
      "orld": 728,
      "meric": 729,
      "Ġfl": 730,
      "ĠAmeric": 731,
      "lect": 732,
      "Ġpos": 733,
      "ock": 734,
      "ever": 735,
      "ters": 736,
      "ral": 737,
      "Ġsub": 738,
      "Ġass": 739,
      "Ġwhere": 740,
      "ating": 741,
      "ĠLe": 742,
      "ular": 743,
      "Ġday": 744,
      "Ġreg": 745,
      "Ġver": 746,
      "Ġsecond": 747,
      "Ġform": 748,
      "Ġbu": 749,
      "ck": 750,
      "Ġmade": 751,
      "ener": 752,
      "ived": 753,
      "ision": 754,
      "Ġpe": 755,
      "ames": 756,
      "hes": 757,
      "Ġdef": 758,
      "son": 759,
      "Ġfour": 760,
      "Ġfollow": 761,
      "Ġrecord": 762,
      "bum": 763,
      "Ġam": 764,
      "Ġep": 765,
      "Ġsome": 766,
      "Ġsuch": 767,
      "ished": 768,
      "ĠCom": 769,
      "Ġseason": 770,
      "Ġmov": 771,
      "Ġbefore": 772,
      "ool": 773,
      "ained": 774,
      "ph": 775,
      "Ġthere": 776,
      "Ġmus": 777,
      "Ġwrit": 778,
      "ĠRe": 779,
      "hen": 780,
      "io": 781,
      "ĠJo": 782,
      "ĠSp": 783,
      "ike": 784,
      "Ġspec": 785,
      "round": 786,
      "iel": 787,
      "ode": 788,
      "Ġteam": 789,
      "ĠThis": 790,
      "Ġlar": 791,
      "Ġsy": 792,
      "ĠAt": 793,
      "Ġ/": 794,
      "ident": 795,
      "Ġind": 796,
      "ual": 797,
      "Ġalbum": 798,
      "owever": 799,
      "Ġyears": 800,
      "ĠSh": 801,
      "ros": 802,
      "Ġgr": 803,
      "Ġent": 804,
      "Ġused": 805,
      "Ġcall": 806,
      "Ġsur": 807,
      "ning": 808,
      "ics": 809,
      "ily": 810,
      "Ġac": 811,
      "Ġhigh": 812,
      "Ġbeing": 813,
      "Ġpubl": 814,
      "Ġepis": 815,
      "Ġthen": 816,
      "ury": 817,
      "ek": 818,
      "led": 819,
      "anc": 820,
      "ten": 821,
      "Ġdo": 822,
      "Ġloc": 823,
      "ific": 824,
      "Ġexp": 825,
      "aj": 826,
      "Ġagainst": 827,
      "Ġinv": 828,
      "other": 829,
      "Ġbl": 830,
      "ris": 831,
      "Ġnumber": 832,
      "Ġshow": 833,
      "Ġsever": 834,
      "Ġadd": 835,
      "Ġpres": 836,
      "Ġco": 837,
      "Ġcharac": 838,
      "Ġset": 839,
      "ince": 840,
      "Ġbecame": 841,
      "velop": 842,
      "ause": 843,
      "ĠBrit": 844,
      "ars": 845,
      "ane": 846,
      "Ġbr": 847,
      "ject": 848,
      "Ġincluding": 849,
      "Ġno": 850,
      "ĠAfter": 851,
      "ĠâĢĶ": 852,
      "Ġlead": 853,
      "Ġsing": 854,
      "ather": 855,
      "erm": 856,
      "ale": 857,
      "Ġfound": 858,
      "ines": 859,
      "Ġwell": 860,
      "ik": 861,
      "Ġmon": 862,
      "ier": 863,
      "Ġrep": 864,
      "air": 865,
      "Ġback": 866,
      "Ġboth": 867,
      "ĠUnited": 868,
      "Ġcap": 869,
      "Ġpol": 870,
      "ĠSc": 871,
      "Ġseries": 872,
      "Ġperform": 873,
      "Ġrece": 874,
      "ober": 875,
      "Ġship": 876,
      "ired": 877,
      "ower": 878,
      "ife": 879,
      "ĠShe": 880,
      "Ġmain": 881,
      "ement": 882,
      "ley": 883,
      "ures": 884,
      "pen": 885,
      "ĠWh": 886,
      "Ġmin": 887,
      "Ġdid": 888,
      "ivers": 889,
      "az": 890,
      "its": 891,
      "ert": 892,
      "ann": 893,
      "iet": 894,
      "Ġgo": 895,
      "elf": 896,
      "der": 897,
      "Ġcre": 898,
      "ram": 899,
      "overn": 900,
      "Ġmet": 901,
      "Ġlong": 902,
      "ised": 903,
      "any": 904,
      "Ġimp": 905,
      "iver": 906,
      "ven": 907,
      "uch": 908,
      "ĠEng": 909,
      "Ġdevelop": 910,
      "Ġem": 911,
      "ared": 912,
      "ĠCon": 913,
      "Ġmill": 914,
      "ful": 915,
      "ities": 916,
      "ting": 917,
      "Ġair": 918,
      "Ġepisode": 919,
      "ird": 920,
      "ĠJohn": 921,
      "Ġmat": 922,
      "Ġsaid": 923,
      "irect": 924,
      "Ġmany": 925,
      "Ġstud": 926,
      "Ġbro": 927,
      "Ġcar": 928,
      "Ġext": 929,
      "ute": 930,
      "Ġdep": 931,
      "Ġcould": 932,
      "Ġcontin": 933,
      "Ġseveral": 934,
      "Ġorig": 935,
      "ash": 936,
      "ative": 937,
      "though": 938,
      "ĠAmerican": 939,
      "Ġdif": 940,
      "Ġinst": 941,
      "ah": 942,
      "Ġwar": 943,
      "ield": 944,
      "olog": 945,
      "Ġknown": 946,
      "Ġpop": 947,
      "ouse": 948,
      "ĠInd": 949,
      "ise": 950,
      "emb": 951,
      "ually": 952,
      "ĠAust": 953,
      "til": 954,
      "Ġconc": 955,
      "ĠBr": 956,
      "ins": 957,
      "ĠCl": 958,
      "ĠZ": 959,
      "ty": 960,
      "ll": 961,
      "ued": 962,
      "Ġsm": 963,
      "Ġob": 964,
      "Ġbegan": 965,
      "iam": 966,
      "Ġreturn": 967,
      "Ġany": 968,
      "Ġcomple": 969,
      "Ġdesign": 970,
      "view": 971,
      "Ġsign": 972,
      "ross": 973,
      "ern": 974,
      "ople": 975,
      "Ġest": 976,
      "aking": 977,
      "my": 978,
      "chool": 979,
      "ange": 980,
      "Ġprov": 981,
      "Ġtrans": 982,
      "Ġfeat": 983,
      "ĠFr": 984,
      "ccess": 985,
      "oot": 986,
      "Ġrun": 987,
      "ized": 988,
      "Ġnear": 989,
      "Ġinf": 990,
      "Ġdesc": 991,
      "Ġown": 992,
      "ided": 993,
      "Ġreleased": 994,
      "Ġart": 995,
      "Ġearly": 996,
      "ĠBl": 997,
      "Ġuntil": 998,
      "ĠWar": 999,
      "Ġmusic": 1000,
      "Ġcalled": 1001,
      "Ġdist": 1002,
      "eb": 1003,
      "imes": 1004,
      "ĠUS": 1005,
      "ism": 1006,
      "une": 1007,
      "Ġbel": 1008,
      "Ġeff": 1009,
      "ists": 1010,
      "Ġpass": 1011,
      "ured": 1012,
      "Ġfin": 1013,
      "ially": 1014,
      "enn": 1015,
      "Ġdown": 1016,
      "ĠMay": 1017,
      "ĠCol": 1018,
      "erson": 1019,
      "stem": 1020,
      "hy": 1021,
      "Ġresp": 1022,
      "Ġdisc": 1023,
      "Ġcrit": 1024,
      "Ġdirect": 1025,
      "osed": 1026,
      "Ġgener": 1027,
      "Ġalong": 1028,
      "ull": 1029,
      "xt": 1030,
      "Ġmillion": 1031,
      "Ġins": 1032,
      "ĠGer": 1033,
      "Ġprev": 1034,
      "ments": 1035,
      "rap": 1036,
      "ium": 1037,
      "Ġgroup": 1038,
      "ĠBritish": 1039,
      "Ġoffic": 1040,
      "Ġthese": 1041,
      "Ġmay": 1042,
      "Ġfam": 1043,
      "Ġ$": 1044,
      "Ġopen": 1045,
      "ution": 1046,
      "Ġmod": 1047,
      "Ġmil": 1048,
      "uc": 1049,
      "Ġpoin": 1050,
      "els": 1051,
      "ax": 1052,
      "ains": 1053,
      "cept": 1054,
      "Ġland": 1055,
      "gest": 1056,
      "ajor": 1057,
      "Ġsim": 1058,
      "ger": 1059,
      "ĠAug": 1060,
      "ĠBe": 1061,
      "ĠAd": 1062,
      "Ġgovern": 1063,
      "ĠSept": 1064,
      "Ġstr": 1065,
      "ĠSeptember": 1066,
      "ĠDe": 1067,
      "Ġsuccess": 1068,
      "ĠAugust": 1069,
      "Ġgu": 1070,
      "ible": 1071,
      "ets": 1072,
      "Ġattack": 1073,
      "ĠAp": 1074,
      "Ġcount": 1075,
      "Ġsame": 1076,
      "Ġoper": 1077,
      "Ġdescrib": 1078,
      "ink": 1079,
      "aced": 1080,
      "Ġuse": 1081,
      "ĠStates": 1082,
      "amed": 1083,
      "Ġpeople": 1084,
      "Ġbecause": 1085,
      "ĠFor": 1086,
      "yp": 1087,
      "Ġlike": 1088,
      "ĠAll": 1089,
      "Ġcharacter": 1090,
      "aining": 1091,
      "ĠIs": 1092,
      "ĠJu": 1093,
      "ended": 1094,
      "Ġaround": 1095,
      "erv": 1096,
      "Ġstart": 1097,
      "Ġkm": 1098,
      "Ġthough": 1099,
      "aving": 1100,
      "Ġwin": 1101,
      "Ġtook": 1102,
      "Ġserv": 1103,
      "Ġocc": 1104,
      "ner": 1105,
      "ĠQ": 1106,
      "ĠWorld": 1107,
      "ĠAustral": 1108,
      "wards": 1109,
      "Ġconst": 1110,
      "ĠOct": 1111,
      "Ġed": 1112,
      "Ġann": 1113,
      "ped": 1114,
      "Ġsupport": 1115,
      "Ġbatt": 1116,
      "ues": 1117,
      "ĠGerman": 1118,
      "Ġdr": 1119,
      "Ġnorth": 1120,
      "Ġfollowing": 1121,
      "Ġsix": 1122,
      "ene": 1123,
      "ĠNov": 1124,
      "ĠHowever": 1125,
      "ruct": 1126,
      "ove": 1127,
      "Ġweek": 1128,
      "Ġele": 1129,
      "uss": 1130,
      "Ġhist": 1131,
      "Ġreceived": 1132,
      "Ġappear": 1133,
      "ĠCar": 1134,
      "Ġhead": 1135,
      "Ġsystem": 1136,
      "Ġfinal": 1137,
      "ĠOctober": 1138,
      "Ġconsid": 1139,
      "Ġclass": 1140,
      "Ġprom": 1141,
      "ives": 1142,
      "ically": 1143,
      "Ġever": 1144,
      "ants": 1145,
      "Ġstate": 1146,
      "Ġeach": 1147,
      "ility": 1148,
      "Ġbuild": 1149,
      "ĠDec": 1150,
      "Ġfive": 1151,
      "anu": 1152,
      "Ġadv": 1153,
      "ling": 1154,
      "ret": 1155,
      "Ġaut": 1156,
      "ĠThey": 1157,
      "rol": 1158,
      "Ġarea": 1159,
      "Ġbo": 1160,
      "ately": 1161,
      "Ġsmall": 1162,
      "Ġwill": 1163,
      "Ġvar": 1164,
      "Ġpartic": 1165,
      "ina": 1166,
      "get": 1167,
      "iving": 1168,
      "oss": 1169,
      "Ġ]": 1170,
      "Ġreport": 1171,
      "ĠYork": 1172,
      "Ġ[": 1173,
      "ril": 1174,
      "ored": 1175,
      "Ġcentury": 1176,
      "ĠNorth": 1177,
      "ĠBy": 1178,
      "Ġcity": 1179,
      "ĠJune": 1180,
      "ians": 1181,
      "ĠMe": 1182,
      "tle": 1183,
      "ĠTr": 1184,
      "Ġmajor": 1185,
      "gin": 1186,
      "ording": 1187,
      "Ġmar": 1188,
      "Ġ%": 1189,
      "ĠJuly": 1190,
      "Ġband": 1191,
      "Ġref": 1192,
      "Ġpublic": 1193,
      "ĠHar": 1194,
      "Ġconf": 1195,
      "med": 1196,
      "ĠKing": 1197,
      "ĠNovember": 1198,
      "ection": 1199,
      "ission": 1200,
      "ĠPl": 1201,
      "Ġrest": 1202,
      "urch": 1203,
      "Ġsince": 1204,
      "Ġworld": 1205,
      "Ġsingle": 1206,
      "inc": 1207,
      "ĠWill": 1208,
      "esp": 1209,
      "ĠApril": 1210,
      "ried": 1211,
      "raft": 1212,
      "Ġjust": 1213,
      "omet": 1214,
      "por": 1215,
      "Ġdet": 1216,
      "ĠMarch": 1217,
      "ĠMc": 1218,
      "ĠComm": 1219,
      "ected": 1220,
      "Ġlast": 1221,
      "lish": 1222,
      "Ġturn": 1223,
      "ively": 1224,
      "aim": 1225,
      "ilt": 1226,
      "Ġhel": 1227,
      "hest": 1228,
      "Ġallow": 1229,
      "Ġpo": 1230,
      "ĠEd": 1231,
      "ĠPr": 1232,
      "Ġmed": 1233,
      "ient": 1234,
      "ĠGr": 1235,
      "ĠCan": 1236,
      "Ġarr": 1237,
      "Ġleft": 1238,
      "Ġlarge": 1239,
      "ional": 1240,
      "idge": 1241,
      "Ġline": 1242,
      "Ġdiffer": 1243,
      "Ġsouth": 1244,
      "ague": 1245,
      "cl": 1246,
      "ĠDuring": 1247,
      "ified": 1248,
      "ats": 1249,
      "ural": 1250,
      "ĠSouth": 1251,
      "ales": 1252,
      "Ġsl": 1253,
      "Ġbook": 1254,
      "avy": 1255,
      "empt": 1256,
      "rote": 1257,
      "ĠDecember": 1258,
      "rist": 1259,
      "Ġthird": 1260,
      "Ġincre": 1261,
      "Ġschool": 1262,
      "ble": 1263,
      "ĠGe": 1264,
      "Ġmonth": 1265,
      "ined": 1266,
      "Ġdue": 1267,
      "Ġappro": 1268,
      "Ġplayed": 1269,
      "Ġmuch": 1270,
      "eng": 1271,
      "Ġanother": 1272,
      "Ġif": 1273,
      "Ġevent": 1274,
      "Ġincluded": 1275,
      "Ġvers": 1276,
      "Ġwhat": 1277,
      "ĠJanu": 1278,
      "row": 1279,
      "ĠJanuary": 1280,
      "Ġbased": 1281,
      "Ġplace": 1282,
      "by": 1283,
      "aged": 1284,
      "Ġshort": 1285,
      "ĠPro": 1286,
      "ĠOr": 1287,
      "ĠPh": 1288,
      "Ġexpl": 1289,
      "Ġwrote": 1290,
      "ĠWhen": 1291,
      "Ġgovernment": 1292,
      "ony": 1293,
      "Ġph": 1294,
      "ently": 1295,
      "apan": 1296,
      "Ġold": 1297,
      "Ġport": 1298,
      "Ġtrack": 1299,
      "Ġname": 1300,
      "alf": 1301,
      "Ġtit": 1302,
      "Ġbre": 1303,
      "Ġlife": 1304,
      "Ġelect": 1305,
      "Ġwon": 1306,
      "ple": 1307,
      "ĠJapan": 1308,
      "ages": 1309,
      "ball": 1310,
      "ĠII": 1311,
      "Ġcamp": 1312,
      "Ġkill": 1313,
      "ĠEu": 1314,
      "Ġchild": 1315,
      "ience": 1316,
      "Ġeng": 1317,
      "Ġlit": 1318,
      "Ġperson": 1319,
      "Ġdeath": 1320,
      "Ġstory": 1321,
      "rent": 1322,
      "Ġpower": 1323,
      "Ġprot": 1324,
      "Ġprog": 1325,
      "oad": 1326,
      "ody": 1327,
      "Ġvis": 1328,
      "Ġreview": 1329,
      "Ġled": 1330,
      "ital": 1331,
      "Ġhome": 1332,
      "ne": 1333,
      "ott": 1334,
      "Ġdescribed": 1335,
      "Ġprevious": 1336,
      "Ġrequ": 1337,
      "Ġgun": 1338,
      "Ġcour": 1339,
      "Ġway": 1340,
      "oman": 1341,
      "Ġnamed": 1342,
      "ĠBro": 1343,
      "Ġnow": 1344,
      "ĠTe": 1345,
      "Ġfamily": 1346,
      "Ġdem": 1347,
      "Ġright": 1348,
      "iven": 1349,
      "Ġmen": 1350,
      "Ġeven": 1351,
      "ideo": 1352,
      "urther": 1353,
      "Ġmake": 1354,
      "ged": 1355,
      "ont": 1356,
      "ilar": 1357,
      "ĠGu": 1358,
      "Ġattempt": 1359,
      "embers": 1360,
      "Ġbest": 1361,
      "reen": 1362,
      "ister": 1363,
      "iod": 1364,
      "Ġrepl": 1365,
      "ivision": 1366,
      "aff": 1367,
      "ĠÂ": 1368,
      "Ġopp": 1369,
      "iversity": 1370,
      "ached": 1371,
      "ention": 1372,
      "ograp": 1373,
      "Ġhand": 1374,
      "Ġcommand": 1375,
      "Ġtop": 1376,
      "cy": 1377,
      "rench": 1378,
      "Ġposs": 1379,
      "omin": 1380,
      "ĠAnd": 1381,
      "Ġgames": 1382,
      "Ġdam": 1383,
      "Ġvery": 1384,
      "Ġcare": 1385,
      "Ġbelie": 1386,
      "Ġterm": 1387,
      "Ġthose": 1388,
      "ĠHis": 1389,
      "ebru": 1390,
      "Ġstill": 1391,
      "bo": 1392,
      "itions": 1393,
      "ival": 1394,
      "ĠFebru": 1395,
      "ĠFebruary": 1396,
      "Ġleg": 1397,
      "Ġpar": 1398,
      "ior": 1399,
      "Ġnext": 1400,
      "Ġorgan": 1401,
      "sh": 1402,
      "self": 1403,
      "Ġiss": 1404,
      "ĠThere": 1405,
      "aken": 1406,
      "ĠEurop": 1407,
      "Ġcapt": 1408,
      "ps": 1409,
      "Ġview": 1410,
      "ĠFl": 1411,
      "Ġoriginal": 1412,
      "ĠChrist": 1413,
      "Ġspecies": 1414,
      "Ġspe": 1415,
      "ched": 1416,
      "Ġeffect": 1417,
      "Ġwater": 1418,
      "Ġjoin": 1419,
      "Ġaddition": 1420,
      "riend": 1421,
      "oci": 1422,
      "ĠNational": 1423,
      "au": 1424,
      "ness": 1425,
      "Ġwithin": 1426,
      "Ġbuilt": 1427,
      "ery": 1428,
      "Ġdeb": 1429,
      "Ġheld": 1430,
      "af": 1431,
      "hor": 1432,
      "ĠAm": 1433,
      "ature": 1434,
      "ĠBar": 1435,
      "Ġmark": 1436,
      "alk": 1437,
      "Ġmembers": 1438,
      "ĠWe": 1439,
      "Ġalthough": 1440,
      "Ġformer": 1441,
      "Ġlate": 1442,
      "Ġexper": 1443,
      "ĠEurope": 1444,
      "ĠFrench": 1445,
      "Ġgreat": 1446,
      "Ġperiod": 1447,
      "augh": 1448,
      "Ġsold": 1449,
      "Ġmatch": 1450,
      "uted": 1451,
      "Ġdest": 1452,
      "lu": 1453,
      "ĠMus": 1454,
      "yl": 1455,
      "Ġcur": 1456,
      "mp": 1457,
      "rew": 1458,
      "ney": 1459,
      "Ġcaus": 1460,
      "ances": 1461,
      "ĠX": 1462,
      "ented": 1463,
      "ards": 1464,
      "Ġstorm": 1465,
      "lev": 1466,
      "ences": 1467,
      "Ġav": 1468,
      "ĠPar": 1469,
      "Ġinit": 1470,
      "Ġcame": 1471,
      "Ġrole": 1472,
      "Ġcover": 1473,
      "Ġestab": 1474,
      "isted": 1475,
      "ĠWest": 1476,
      "ides": 1477,
      "Ġtri": 1478,
      "Ġdays": 1479,
      "Ġresult": 1480,
      "Ġmid": 1481,
      "ĠWilliam": 1482,
      "hel": 1483,
      "ech": 1484,
      "Ġrelease": 1485,
      "line": 1486,
      "Ġcontrol": 1487,
      "Ġreal": 1488,
      "ring": 1489,
      "Ġhowever": 1490,
      "ĠHer": 1491,
      "Ġstand": 1492,
      "oon": 1493,
      "ulation": 1494,
      "Ġmy": 1495,
      "Ġcr": 1496,
      "Ġvideo": 1497,
      "aster": 1498,
      "Ġwind": 1499,
      "Ġfew": 1500,
      "ham": 1501,
      "Ġpolit": 1502,
      "Ġprop": 1503,
      "Ġtown": 1504,
      "let": 1505,
      "Ġside": 1506,
      "Ġyou": 1507,
      "ense": 1508,
      "Ġtw": 1509,
      "atic": 1510,
      "ropical": 1511,
      "Ġcontinued": 1512,
      "na": 1513,
      "Ġsk": 1514,
      "Ġoften": 1515,
      "ĠMin": 1516,
      "akes": 1517,
      "ĠGeor": 1518,
      "itary": 1519,
      "ĠMan": 1520,
      "Ġlocal": 1521,
      "Ġpost": 1522,
      "Ġequ": 1523,
      "Ġsay": 1524,
      "elt": 1525,
      "Ġamong": 1526,
      "Ġsimilar": 1527,
      "ead": 1528,
      "Ġconv": 1529,
      "ator": 1530,
      "Ġclaim": 1531,
      "omb": 1532,
      "Ġhum": 1533,
      "br": 1534,
      "ĠNo": 1535,
      "ung": 1536,
      "ĠCo": 1537,
      "side": 1538,
      "gy": 1539,
      "estern": 1540,
      "reet": 1541,
      "ĠMich": 1542,
      "read": 1543,
      "Ġsug": 1544,
      "Ġdifferent": 1545,
      "ese": 1546,
      "ĠAir": 1547,
      "Ġdel": 1548,
      "ract": 1549,
      "Ġfurther": 1550,
      "omen": 1551,
      "ĠEngland": 1552,
      "Ġsent": 1553,
      "Ġtyp": 1554,
      "ler": 1555,
      "ves": 1556,
      "Ġbeh": 1557,
      "Ġ&": 1558,
      "uck": 1559,
      "Ġconsidered": 1560,
      "Ġlevel": 1561,
      "eter": 1562,
      "Ġfre": 1563,
      "Ġtake": 1564,
      "Ġtot": 1565,
      "ots": 1566,
      "ĠDav": 1567,
      "arm": 1568,
      "urs": 1569,
      "app": 1570,
      "Ġlaw": 1571,
      "ĠEl": 1572,
      "ops": 1573,
      "ĠOne": 1574,
      "ront": 1575,
      "Ġhalf": 1576,
      "Ġhaving": 1577,
      "ying": 1578,
      "Ġant": 1579,
      "ruction": 1580,
      "Ġeast": 1581,
      "ĠAng": 1582,
      "Ġmoved": 1583,
      "Ġroad": 1584,
      "Ġmag": 1585,
      "ĠPark": 1586,
      "Ġwest": 1587,
      "ĠEnglish": 1588,
      "Ġevery": 1589,
      "Ġwithout": 1590,
      "ĠAlthough": 1591,
      "ĠCity": 1592,
      "ices": 1593,
      "ĠChar": 1594,
      "Ġproduction": 1595,
      "ering": 1596,
      "me": 1597,
      "ampions": 1598,
      "Ġappe": 1599,
      "Ġposition": 1600,
      "Ġbecome": 1601,
      "Ġplayer": 1602,
      "ai": 1603,
      "par": 1604,
      "Ġcor": 1605,
      "Ġplan": 1606,
      "Ġel": 1607,
      "ones": 1608,
      "ĠCent": 1609,
      "ĠCal": 1610,
      "rodu": 1611,
      "ĠAcc": 1612,
      "ize": 1613,
      "ondon": 1614,
      "Ġversion": 1615,
      "Ġarm": 1616,
      "ford": 1617,
      "Ġhouse": 1618,
      "Ġcast": 1619,
      "Ġsound": 1620,
      "aul": 1621,
      "Ġstrong": 1622,
      "Ġfore": 1623,
      "ĠLondon": 1624,
      "Ġsuggest": 1625,
      "Ġcommun": 1626,
      "ches": 1627,
      "atter": 1628,
      "ĠCount": 1629,
      "Ġinvol": 1630,
      "Ġclub": 1631,
      "irc": 1632,
      "Ġwritten": 1633,
      "Ġinflu": 1634,
      "Ġbas": 1635,
      "esc": 1636,
      "Ġless": 1637,
      "ĠWith": 1638,
      "Ġannoun": 1639,
      "vers": 1640,
      "Ġorder": 1641,
      "ĠRiver": 1642,
      "que": 1643,
      "ape": 1644,
      "ox": 1645,
      "ald": 1646,
      "Ġtem": 1647,
      "utes": 1648,
      "Ġfoot": 1649,
      "Ġpoint": 1650,
      "Ġgiven": 1651,
      "iety": 1652,
      "ae": 1653,
      "Ġlow": 1654,
      "Ġprof": 1655,
      "craft": 1656,
      "Ġaff": 1657,
      "Ġwant": 1658,
      "Ġhig": 1659,
      "Ġgave": 1660,
      "ĠCanad": 1661,
      "Ġrad": 1662,
      "Ġke": 1663,
      "yle": 1664,
      "Ġtrad": 1665,
      "ille": 1666,
      "sequ": 1667,
      "Ġnever": 1668,
      "Ġdefe": 1669,
      "ology": 1670,
      "Ġimport": 1671,
      "ĠWhile": 1672,
      "Ġpat": 1673,
      "Ġreturned": 1674,
      "ĠUniversity": 1675,
      "Ġtro": 1676,
      "rest": 1677,
      "ailed": 1678,
      "Ġtotal": 1679,
      "Ġrepres": 1680,
      "Ġrefer": 1681,
      "Ġstat": 1682,
      "Ġchang": 1683,
      "Ġvict": 1684,
      "Ġgood": 1685,
      "Ġsoc": 1686,
      "Ġfact": 1687,
      "Ġwent": 1688,
      "Ġfire": 1689,
      "ĠGener": 1690,
      "Ġcomb": 1691,
      "Ġcountry": 1692,
      "Ġcompany": 1693,
      "roy": 1694,
      "ories": 1695,
      "Ġfriend": 1696,
      "ĠBatt": 1697,
      "ript": 1698,
      "Ġhour": 1699,
      "sp": 1700,
      "Ġpublished": 1701,
      "ison": 1702,
      "Ġproduced": 1703,
      "int": 1704,
      "ably": 1705,
      "Ġreported": 1706,
      "cess": 1707,
      "ges": 1708,
      "aly": 1709,
      "Ġfind": 1710,
      "aun": 1711,
      "Ġyoun": 1712,
      "Ġorigin": 1713,
      "Ġlost": 1714,
      "ĠHigh": 1715,
      "ĠNe": 1716,
      "Ġstated": 1717,
      "oll": 1718,
      "Ġcommon": 1719,
      "Ġlight": 1720,
      "Ġparticular": 1721,
      "Ġord": 1722,
      "ĠSm": 1723,
      "Ġprogram": 1724,
      "Ġinclude": 1725,
      "ĠAccording": 1726,
      "gr": 1727,
      "isc": 1728,
      "Ġadm": 1729,
      "used": 1730,
      "ington": 1731,
      "levision": 1732,
      "ĠAb": 1733,
      "Ġrecorded": 1734,
      "hing": 1735,
      "err": 1736,
      "Ġcompet": 1737,
      "Ġpress": 1738,
      "Ġneed": 1739,
      "Ġbuilding": 1740,
      "Ġnort": 1741,
      "Ġships": 1742,
      "Ġforces": 1743,
      "echn": 1744,
      "ief": 1745,
      "Ġbus": 1746,
      "Ġshould": 1747,
      "Ġusing": 1748,
      "Ġeight": 1749,
      "Ġproject": 1750,
      "con": 1751,
      "aign": 1752,
      "ĠThese": 1753,
      "Ġinterest": 1754,
      "osp": 1755,
      "iment": 1756,
      "Ġide": 1757,
      "raw": 1758,
      "Ġmaking": 1759,
      "Ġtimes": 1760,
      "ploy": 1761,
      "ned": 1762,
      "ĠSw": 1763,
      "Ġhimself": 1764,
      "Ġten": 1765,
      "Ġaircraft": 1766,
      "iness": 1767,
      "Ġfather": 1768,
      "Ġauthor": 1769,
      "ĠSy": 1770,
      "Ġfun": 1771,
      "Ġmilitary": 1772,
      "Ġlim": 1773,
      "Ġfr": 1774,
      "tain": 1775,
      "Ġanim": 1776,
      "ĠAustralia": 1777,
      "lear": 1778,
      "Ġpopular": 1779,
      "oyal": 1780,
      "Ġsomet": 1781,
      "Ġcareer": 1782,
      "ĠJack": 1783,
      "Ġread": 1784,
      "Ġsongs": 1785,
      "Ġbattle": 1786,
      "Ġsit": 1787,
      "ĠSte": 1788,
      "atch": 1789,
      "ither": 1790,
      "Ġservice": 1791,
      "Ġsurv": 1792,
      "ĠEx": 1793,
      "outher": 1794,
      "Ġhow": 1795,
      "Ġsw": 1796,
      "Ġcritic": 1797,
      "ensive": 1798,
      "ĠAf": 1799,
      "Ġgl": 1800,
      "urric": 1801,
      "ĠEar": 1802,
      "ampionship": 1803,
      "Ġhistory": 1804,
      "quad": 1805,
      "eder": 1806,
      "itive": 1807,
      "Ġcross": 1808,
      "ĠAss": 1809,
      "Ġsol": 1810,
      "ords": 1811,
      "ĠDr": 1812,
      "Ġft": 1813,
      "Ġground": 1814,
      "outhern": 1815,
      "ĠPol": 1816,
      "ĠPres": 1817,
      "ĠJames": 1818,
      "cer": 1819,
      "Ġremained": 1820,
      "alth": 1821,
      "Ġste": 1822,
      "Ġstar": 1823,
      "ĠGeneral": 1824,
      "ĠCor": 1825,
      "Ġget": 1826,
      "Ġsuff": 1827,
      "astern": 1828,
      "ases": 1829,
      "Ġmonths": 1830,
      "ays": 1831,
      "Ġdied": 1832,
      "Ġperformance": 1833,
      "ĠArmy": 1834,
      "Ġve": 1835,
      "Ġnational": 1836,
      "ks": 1837,
      "Ġdeveloped": 1838,
      "alt": 1839,
      "Ġdevelopment": 1840,
      "rie": 1841,
      "ael": 1842,
      "Ġgen": 1843,
      "eth": 1844,
      "ĠSec": 1845,
      "Ġtitle": 1846,
      "ĠState": 1847,
      "Ġforce": 1848,
      "Ġcharacters": 1849,
      "work": 1850,
      "fic": 1851,
      "ries": 1852,
      "ĠBo": 1853,
      "ument": 1854,
      "Ġintrodu": 1855,
      "ream": 1856,
      "Ġchildren": 1857,
      "dom": 1858,
      "itted": 1859,
      "Ġchart": 1860,
      "ĠGl": 1861,
      "Ġacross": 1862,
      "Ġson": 1863,
      "Ġfac": 1864,
      "lands": 1865,
      "Ġaway": 1866,
      "aur": 1867,
      "yn": 1868,
      "Ġred": 1869,
      "Ġsignific": 1870,
      "Ġtour": 1871,
      "bs": 1872,
      "ĠLeague": 1873,
      "hern": 1874,
      "Ġobs": 1875,
      "Ġpra": 1876,
      "ency": 1877,
      "Ġcampaign": 1878,
      "Ġsum": 1879,
      "Ġpromot": 1880,
      "Ġofficial": 1881,
      "ĠDivision": 1882,
      "Ġhistor": 1883,
      "Ġfelt": 1884,
      "Ġfav": 1885,
      "Ġpresent": 1886,
      "Ġfield": 1887,
      "Ġnight": 1888,
      "Ġnoted": 1889,
      "Ġreached": 1890,
      "Ġrelations": 1891,
      "Ġannounced": 1892,
      "ression": 1893,
      "ration": 1894,
      "ĠAmerica": 1895,
      "rick": 1896,
      "most": 1897,
      "Ġcolle": 1898,
      "Ġintern": 1899,
      "Ġcreated": 1900,
      "Ġdestroy": 1901,
      "ole": 1902,
      "ublic": 1903,
      "Ġareas": 1904,
      "ĠRuss": 1905,
      "ĠJapanese": 1906,
      "Ġsuccessful": 1907,
      "Ġcoun": 1908,
      "ressed": 1909,
      "ope": 1910,
      "ĠRec": 1911,
      "imately": 1912,
      "reg": 1913,
      "ĠReg": 1914,
      "Ġtelevision": 1915,
      "Ġrock": 1916,
      "ĠSim": 1917,
      "ana": 1918,
      "ĠMon": 1919,
      "ĠCounty": 1920,
      "Ġbar": 1921,
      "ĠMad": 1922,
      "Ġvarious": 1923,
      "Ġstation": 1924,
      "ĠRoad": 1925,
      "ĠSup": 1926,
      "iber": 1927,
      "Ġseen": 1928,
      "Ġfollowed": 1929,
      "ĠâĢĻ": 1930,
      "Ġval": 1931,
      "ĠStreet": 1932,
      "Ġlist": 1933,
      "Ġtoo": 1934,
      "Ġaver": 1935,
      "urricane": 1936,
      "ising": 1937,
      "Ġtrav": 1938,
      "Ġserved": 1939,
      "Ġperformed": 1940,
      "vent": 1941,
      "Ġrank": 1942,
      "Ġfront": 1943,
      "Ġpolitical": 1944,
      "iting": 1945,
      "field": 1946,
      "Ġfull": 1947,
      "hem": 1948,
      "ĠRober": 1949,
      "Ġdecl": 1950,
      "ĠRep": 1951,
      "Ġplayers": 1952,
      "Ġprim": 1953,
      "omp": 1954,
      "ĠTo": 1955,
      "Ġcond": 1956,
      "ĠComp": 1957,
      "Ġput": 1958,
      "Ġblack": 1959,
      "Ġfle": 1960,
      "Ġbegin": 1961,
      "elling": 1962,
      "Ġearl": 1963,
      "ett": 1964,
      "Ġmm": 1965,
      "ĠEast": 1966,
      "ĠGeorge": 1967,
      "duct": 1968,
      "Ġrev": 1969,
      "Ġsee": 1970,
      "Ġcirc": 1971,
      "Ġlook": 1972,
      "Ġcost": 1973,
      "Ġenc": 1974,
      "Ġkilled": 1975,
      "Ġvol": 1976,
      "ination": 1977,
      "Ġdiv": 1978,
      "Ġseven": 1979,
      "Ġnon": 1980,
      "idence": 1981,
      "ality": 1982,
      "ĠHen": 1983,
      "Ġaud": 1984,
      "abor": 1985,
      "ĠSer": 1986,
      "Ġhelp": 1987,
      "Ġprocess": 1988,
      "Ġtropical": 1989,
      "ĠEm": 1990,
      "Ġtest": 1991,
      "Ġthroughout": 1992,
      "lished": 1993,
      "Ġtaken": 1994,
      "Ġlet": 1995,
      "rict": 1996,
      "Ġable": 1997,
      "Ġfight": 1998,
      "ization": 1999,
      "Ġcy": 2000,
      "cast": 2001,
      "ĠBill": 2002,
      "Ġagre": 2003,
      "ĠPhil": 2004,
      "Ġlittle": 2005,
      "Ġwid": 2006,
      "Ġsignificant": 2007,
      "play": 2008,
      "Ġbecom": 2009,
      "Ġdiscover": 2010,
      "urg": 2011,
      "Ġhit": 2012,
      "Ġage": 2013,
      "ertain": 2014,
      "Ġfem": 2015,
      "ecut": 2016,
      "Ġmeet": 2017,
      "ĠPer": 2018,
      "Ġspecial": 2019,
      "Ġident": 2020,
      "ius": 2021,
      "Ġcop": 2022,
      "Ġestablished": 2023,
      "ways": 2024,
      "Ġstyle": 2025,
      "enced": 2026,
      "Ġthought": 2027,
      "ĠSch": 2028,
      "Ġcult": 2029,
      "Ġappeared": 2030,
      "ĠAustralian": 2031,
      "Ġentire": 2032,
      "Ġdoes": 2033,
      "Ġbroad": 2034,
      "Ġbody": 2035,
      "Ġmiles": 2036,
      "irl": 2037,
      "Ġtechn": 2038,
      "aval": 2039,
      "oice": 2040,
      "ĠDavid": 2041,
      "Ġcoast": 2042,
      "Ġwriting": 2043,
      "Ġcoll": 2044,
      "Ġpoints": 2045,
      "Ġer": 2046,
      "olution": 2047,
      "ĠMor": 2048,
      "Ġaward": 2049,
      "cil": 2050,
      "ought": 2051,
      "Ġmember": 2052,
      "less": 2053,
      "Ġimpro": 2054,
      "ĠRich": 2055,
      "Ġroute": 2056,
      "Ġ!": 2057,
      "Ġstruct": 2058,
      "epend": 2059,
      "Ġrange": 2060,
      "Ġcaused": 2061,
      "Ġstarted": 2062,
      "Ġdecided": 2063,
      "ask": 2064,
      "Ġwomen": 2065,
      "iec": 2066,
      "iers": 2067,
      "Ġpain": 2068,
      "aves": 2069,
      "acy": 2070,
      "Ġeventually": 2071,
      "odes": 2072,
      "Ġgeneral": 2073,
      "ster": 2074,
      "ĠPart": 2075,
      "uk": 2076,
      "ĠYou": 2077,
      "blem": 2078,
      "day": 2079,
      "iron": 2080,
      "Ġfeatures": 2081,
      "ĠAfric": 2082,
      "ĠAct": 2083,
      "lected": 2084,
      "Ġvot": 2085,
      "Ġfeet": 2086,
      "itar": 2087,
      "ivil": 2088,
      "Ġarch": 2089,
      "ĠMy": 2090,
      "umb": 2091,
      "men": 2092,
      "Ġadded": 2093,
      "Ġtoget": 2094,
      "Ġtogether": 2095,
      "Ġactiv": 2096,
      "ators": 2097,
      "Ġhold": 2098,
      "Ġlocated": 2099,
      "Ġformed": 2100,
      "Ġonce": 2101,
      "Ġcut": 2102,
      "Ġgrow": 2103,
      "idd": 2104,
      "ogn": 2105,
      "here": 2106,
      "Ġtre": 2107,
      "ĠRoyal": 2108,
      "Ġwhite": 2109,
      "hys": 2110,
      "Ġmanag": 2111,
      "Ġstri": 2112,
      "ample": 2113,
      "Ġarg": 2114,
      "bert": 2115,
      "Ġrace": 2116,
      "omm": 2117,
      "lin": 2118,
      "ĠQu": 2119,
      "ivid": 2120,
      "ĠPe": 2121,
      "Ġinstead": 2122,
      "rison": 2123,
      "urb": 2124,
      "rought": 2125,
      "Ġpri": 2126,
      "Ġconn": 2127,
      "ush": 2128,
      "reek": 2129,
      "emy": 2130,
      "Ġmodern": 2131,
      "head": 2132,
      "Ġnov": 2133,
      "Ġesc": 2134,
      "Ġround": 2135,
      "Ġimportant": 2136,
      "Ġmix": 2137,
      "Ġball": 2138,
      "Ġsaw": 2139,
      "ĠMed": 2140,
      "hic": 2141,
      "Ġcrew": 2142,
      "aces": 2143,
      "ĠHouse": 2144,
      "Ġcompleted": 2145,
      "cing": 2146,
      "orts": 2147,
      "ĠBlack": 2148,
      "off": 2149,
      "Ġredu": 2150,
      "Ġaction": 2151,
      "oney": 2152,
      "Ġplaying": 2153,
      "ee": 2154,
      "conom": 2155,
      "ray": 2156,
      "cent": 2157,
      "Ġpopulation": 2158,
      "ells": 2159,
      "ata": 2160,
      "ara": 2161,
      "ĠIndian": 2162,
      "Ġmater": 2163,
      "Ġrather": 2164,
      "Ġask": 2165,
      "Ġvoc": 2166,
      "Ġmot": 2167,
      "Ġinsp": 2168,
      "Ġbehind": 2169,
      "Ġopened": 2170,
      "Ġguns": 2171,
      "Ġoccur": 2172,
      "Ġbase": 2173,
      "Ġothers": 2174,
      "Ġinvest": 2175,
      "ects": 2176,
      "ĠMichael": 2177,
      "Ġstage": 2178,
      "Ġfall": 2179,
      "asing": 2180,
      "Ġren": 2181,
      "ceed": 2182,
      "Ġbrother": 2183,
      "Ġlik": 2184,
      "igned": 2185,
      "aps": 2186,
      "Ġborn": 2187,
      "Ġcomment": 2188,
      "Ġfif": 2189,
      "ades": 2190,
      "Ġheavy": 2191,
      "Ġsite": 2192,
      "wood": 2193,
      "Ġworked": 2194,
      "Ġloss": 2195,
      "Ġlive": 2196,
      "Ġra": 2197,
      "Ġbomb": 2198,
      "ficult": 2199,
      "Ġlack": 2200,
      "Ġmiss": 2201,
      "Ġsubsequ": 2202,
      "stit": 2203,
      "ament": 2204,
      "medi": 2205,
      "Ġclose": 2206,
      "Ġpred": 2207,
      "ĠFrance": 2208,
      "gg": 2209,
      "Ġdifficult": 2210,
      "Ġknow": 2211,
      "Ġparty": 2212,
      "ĠHam": 2213,
      "ĠSome": 2214,
      "Ġweeks": 2215,
      "Ġhost": 2216,
      "Ġoriginally": 2217,
      "Ġproblem": 2218,
      "ements": 2219,
      "istic": 2220,
      "ending": 2221,
      "Ġsepar": 2222,
      "oring": 2223,
      "Ġupon": 2224,
      "Ġrelationship": 2225,
      "Ġassoci": 2226,
      "Ġalmost": 2227,
      "ĠSchool": 2228,
      "Ġvill": 2229,
      "ĠNor": 2230,
      "Ġpeak": 2231,
      "Ġleading": 2232,
      "arch": 2233,
      "Ġyoung": 2234,
      "Ġworks": 2235,
      "ĠSan": 2236,
      "Ġdamage": 2237,
      "ĠWash": 2238,
      "Ġappoin": 2239,
      "Ġpract": 2240,
      "Ġinj": 2241,
      "ino": 2242,
      "Ġfourth": 2243,
      "ĠRobert": 2244,
      "ĠHenry": 2245,
      "ĠIntern": 2246,
      "ica": 2247,
      "Ġscored": 2248,
      "Ġmer": 2249,
      "Ġreve": 2250,
      "anch": 2251,
      "Ġmi": 2252,
      "Ġprovided": 2253,
      "ĠAle": 2254,
      "ĠBest": 2255,
      "Ġconstruction": 2256,
      "unk": 2257,
      "Ġinform": 2258,
      "board": 2259,
      "Ġaccept": 2260,
      "Ġreb": 2261,
      "Ġclos": 2262,
      "Ġscene": 2263,
      "Ġcase": 2264,
      "Ġcreat": 2265,
      "Ġengine": 2266,
      "ĠPort": 2267,
      "Ġdev": 2268,
      "ĠDesp": 2269,
      "ĠBel": 2270,
      "Ġbrought": 2271,
      "Ġhuman": 2272,
      "Ġfell": 2273,
      "Ġfree": 2274,
      "Ġfeatured": 2275,
      "Ġindivid": 2276,
      "Ġleast": 2277,
      "Ġallowed": 2278,
      "Ġmother": 2279,
      "Ġworking": 2280,
      "ened": 2281,
      "Ġlaun": 2282,
      "ĠPaul": 2283,
      "Ġking": 2284,
      "Ġtowards": 2285,
      "Ġaverage": 2286,
      "ĠQue": 2287,
      "Ġwanted": 2288,
      "lic": 2289,
      "Ġtroops": 2290,
      "Ġregion": 2291,
      "ming": 2292,
      "aut": 2293,
      "ĠVir": 2294,
      "Ġmult": 2295,
      "Ġtradition": 2296,
      "Ġplaced": 2297,
      "ula": 2298,
      "iff": 2299,
      "ĠRed": 2300,
      "angu": 2301,
      "Ġquick": 2302,
      "ĠPresident": 2303,
      "azine": 2304,
      "Ġeither": 2305,
      "ĠStar": 2306,
      "Ġbusiness": 2307,
      "Ġindust": 2308,
      "ule": 2309,
      "ĠAngel": 2310,
      "Ġcritics": 2311,
      "Ġrespect": 2312,
      "Ġresul": 2313,
      "ama": 2314,
      "oid": 2315,
      "Ġavail": 2316,
      "Ġreach": 2317,
      "Ġfar": 2318,
      "ky": 2319,
      "ĠHol": 2320,
      "Ġruns": 2321,
      "iol": 2322,
      "ĠCap": 2323,
      "Ġexample": 2324,
      "ĠAg": 2325,
      "ĠWashington": 2326,
      "Ġwife": 2327,
      "Ġprofess": 2328,
      "ĠCour": 2329,
      "Ġmaterial": 2330,
      "be": 2331,
      "Ġestim": 2332,
      "Ġz": 2333,
      "Ġeconom": 2334,
      "Ġfoc": 2335,
      "ĠDespite": 2336,
      "Ġarmy": 2337,
      "Ġneg": 2338,
      "rey": 2339,
      "Ġce": 2340,
      "Ġrecogn": 2341,
      "ĠFollow": 2342,
      "antic": 2343,
      "ĠMal": 2344,
      "Ġjoined": 2345,
      "ential": 2346,
      "Ġsex": 2347,
      "quadron": 2348,
      "Ġgenerally": 2349,
      "chie": 2350,
      "ength": 2351,
      "of": 2352,
      "Ġdou": 2353,
      "Ġhon": 2354,
      "sc": 2355,
      "enes": 2356,
      "Ġoffice": 2357,
      "Ġmass": 2358,
      "ĠMil": 2359,
      "ĠThom": 2360,
      "Ġcurrent": 2361,
      "Ġrail": 2362,
      "uff": 2363,
      "ills": 2364,
      "to": 2365,
      "ĠOther": 2366,
      "Ġter": 2367,
      "ving": 2368,
      "Ġbelieved": 2369,
      "go": 2370,
      "ĠFollowing": 2371,
      "Ġrepresent": 2372,
      "Ġsour": 2373,
      "Ġparticip": 2374,
      "nder": 2375,
      "Ġgoal": 2376,
      "Ġproper": 2377,
      "Ġfig": 2378,
      "earch": 2379,
      "Ġmph": 2380,
      "ĠDon": 2381,
      "Ġreplaced": 2382,
      "itch": 2383,
      "ĠKe": 2384,
      "Ġdesigned": 2385,
      "ĠHall": 2386,
      "Ġevents": 2387,
      "ze": 2388,
      "Ġvictory": 2389,
      "artment": 2390,
      "ville": 2391,
      "ourn": 2392,
      "Ġsoon": 2393,
      "Ġisland": 2394,
      "Ġrul": 2395,
      "ological": 2396,
      "Ġhours": 2397,
      "erous": 2398,
      "ĠMary": 2399,
      "Ġfund": 2400,
      "Ġemploy": 2401,
      "Ġinvolved": 2402,
      "ĠPlay": 2403,
      "ĠLou": 2404,
      "oor": 2405,
      "itte": 2406,
      "ĠLa": 2407,
      "ĠJe": 2408,
      "ĠCup": 2409,
      "aled": 2410,
      "xic": 2411,
      "Ġfinished": 2412,
      "ĠGro": 2413,
      "ĠGreat": 2414,
      "Ġsurf": 2415,
      "ĠColle": 2416,
      "Ġstru": 2417,
      "ĠTwo": 2418,
      "aper": 2419,
      "oms": 2420,
      "co": 2421,
      "west": 2422,
      "uel": 2423,
      "Ġpresident": 2424,
      "fall": 2425,
      "Ġshot": 2426,
      "Ġsaying": 2427,
      "aren": 2428,
      "ĠMart": 2429,
      "ĠBattle": 2430,
      "iction": 2431,
      "Ġhor": 2432,
      "ĠEuropean": 2433,
      "ows": 2434,
      "arn": 2435,
      "Ġopening": 2436,
      "ĠRoman": 2437,
      "Ġcourt": 2438,
      "asion": 2439,
      "ĠDan": 2440,
      "Ġregular": 2441,
      "Ġthreat": 2442,
      "Ġdesp": 2443,
      "ago": 2444,
      "Ġscore": 2445,
      "Ġbreak": 2446,
      "Ġnomin": 2447,
      "inn": 2448,
      "Ġdirector": 2449,
      "Ġlargest": 2450,
      "Ġlength": 2451,
      "Ġhom": 2452,
      "Ġindic": 2453,
      "Ġconduct": 2454,
      "Ġunc": 2455,
      "Ġpossible": 2456,
      "Ġdro": 2457,
      "BC": 2458,
      "Ġminutes": 2459,
      "Ġsouthern": 2460,
      "ander": 2461,
      "Ġcontrib": 2462,
      "Ġexc": 2463,
      "ude": 2464,
      "ĠMac": 2465,
      "Ġremov": 2466,
      "ĠScott": 2467,
      "Ġill": 2468,
      "ecutive": 2469,
      "antry": 2470,
      "Ġhighest": 2471,
      "Ġearlier": 2472,
      "ipp": 2473,
      "Ġinitially": 2474,
      "inist": 2475,
      "Ġhy": 2476,
      "ĠChampionship": 2477,
      "Ġavailable": 2478,
      "Ġparticularly": 2479,
      "Ġpercent": 2480,
      "Ġhard": 2481,
      "ishing": 2482,
      "oul": 2483,
      "anned": 2484,
      "Ġcommer": 2485,
      "osition": 2486,
      "Ġhighway": 2487,
      "ĠCro": 2488,
      "Ġforced": 2489,
      "ĠVal": 2490,
      "emor": 2491,
      "ĠFrom": 2492,
      "key": 2493,
      "amb": 2494,
      "Ġexist": 2495,
      "Ġmust": 2496,
      "ĠWil": 2497,
      "Ġcontr": 2498,
      "ply": 2499,
      "Ġtraining": 2500,
      "Ġgrad": 2501,
      "Ġsequ": 2502,
      "ĠBer": 2503,
      "ĠRepublic": 2504,
      "iding": 2505,
      "ĠÂ°": 2506,
      "cher": 2507,
      "Ġly": 2508,
      "Ġended": 2509,
      "ĠBut": 2510,
      "Ġturned": 2511,
      "ĠCharles": 2512,
      "Ġrespons": 2513,
      "ĠNavy": 2514,
      "ights": 2515,
      "Ġpark": 2516,
      "ĠMcC": 2517,
      "ification": 2518,
      "hib": 2519,
      "Ġwall": 2520,
      "ios": 2521,
      "ateg": 2522,
      "ems": 2523,
      "ĠMag": 2524,
      "Ġstudio": 2525,
      "asy": 2526,
      "now": 2527,
      "ĠThomas": 2528,
      "ĠKingdom": 2529,
      "Ġpraised": 2530,
      "Ġsocial": 2531,
      "Ġpassed": 2532,
      "Ġpiec": 2533,
      "Ġsuper": 2534,
      "Ġincreased": 2535,
      "Ġnorthern": 2536,
      "heast": 2537,
      "ĠGame": 2538,
      "ĠFirst": 2539,
      "rian": 2540,
      "Ġbill": 2541,
      "Ġquar": 2542,
      "Ġregard": 2543,
      "ĠMet": 2544,
      "Ġchange": 2545,
      "Ġpriv": 2546,
      "ĠAtl": 2547,
      "ĠPal": 2548,
      "Ġlangu": 2549,
      "Ġcentral": 2550,
      "iforn": 2551,
      "Ġkeep": 2552,
      "Ġobject": 2553,
      "Ġunits": 2554,
      "ĠBrown": 2555,
      "ĠSing": 2556,
      "ĠWhite": 2557,
      "Ġphys": 2558,
      "itor": 2559,
      "Ġspeed": 2560,
      "rem": 2561,
      "ĠMusic": 2562,
      "atural": 2563,
      "Ġhurricane": 2564,
      "ĠChurch": 2565,
      "Ġappearance": 2566,
      "Ġpast": 2567,
      "ki": 2568,
      "Ġrelig": 2569,
      "uture": 2570,
      "Ġstop": 2571,
      "ĠVirgin": 2572,
      "Ġimmedi": 2573,
      "Ġnovel": 2574,
      "anks": 2575,
      "ĠOff": 2576,
      "sel": 2577,
      "ids": 2578,
      "Ġordered": 2579,
      "ĠCanada": 2580,
      "ocr": 2581,
      "iation": 2582,
      "ĠSen": 2583,
      "aker": 2584,
      "ĠCaliforn": 2585,
      "Ġchurch": 2586,
      "ĠSl": 2587,
      "aughter": 2588,
      "cial": 2589,
      "oph": 2590,
      "Ġtaking": 2591,
      "Ġmeas": 2592,
      "ĠSmith": 2593,
      "ique": 2594,
      "uter": 2595,
      "bor": 2596,
      "ĠRock": 2597,
      "ĠBay": 2598,
      "Ġsigned": 2599,
      "ston": 2600,
      "ĠMo": 2601,
      "ĠSam": 2602,
      "Ġlove": 2603,
      "Ġdisp": 2604,
      "Ġtreat": 2605,
      "ĠDep": 2606,
      "Ġmove": 2607,
      "Ġbetter": 2608,
      "Ġquest": 2609,
      "ĠRichard": 2610,
      "agon": 2611,
      "ference": 2612,
      "ittee": 2613,
      "Ġindepend": 2614,
      "Ġsym": 2615,
      "ĠAlex": 2616,
      "pped": 2617,
      "Ġachie": 2618,
      "Ġpers": 2619,
      "Ġwinds": 2620,
      "ĠIr": 2621,
      "etwork": 2622,
      "arily": 2623,
      "ership": 2624,
      "Ġeduc": 2625,
      "Ġap": 2626,
      "anding": 2627,
      "den": 2628,
      "ĠCalifornia": 2629,
      "val": 2630,
      "Ġenough": 2631,
      "ecess": 2632,
      "Ġinn": 2633,
      "ump": 2634,
      "Ġwat": 2635,
      "rup": 2636,
      "Ġpositive": 2637,
      "itz": 2638,
      "leg": 2639,
      "ĠGod": 2640,
      "ĠUnion": 2641,
      "rated": 2642,
      "Ġaccording": 2643,
      "Ġspent": 2644,
      "Ġhous": 2645,
      "Ġabove": 2646,
      "Ġgoing": 2647,
      "Ġslow": 2648,
      "ume": 2649,
      "Ġpot": 2650,
      "Ġoutside": 2651,
      "ĠRes": 2652,
      "Ġtold": 2653,
      "ĠIsland": 2654,
      "ĠMer": 2655,
      "Ġfeel": 2656,
      "ears": 2657,
      "Ġpreviously": 2658,
      "Ġclear": 2659,
      "ilities": 2660,
      "Ġnine": 2661,
      "Ġmean": 2662,
      "elled": 2663,
      "ĠAward": 2664,
      "ĠVict": 2665,
      "apt": 2666,
      "Ġstates": 2667,
      "Ġfilms": 2668,
      "Ġsubject": 2669,
      "quare": 2670,
      "Ġfailed": 2671,
      "Ġey": 2672,
      "Ġcome": 2673,
      "ĠCourt": 2674,
      "alion": 2675,
      "Ġrequired": 2676,
      "ĠCong": 2677,
      "Ġassist": 2678,
      "ĠUp": 2679,
      "Ġprob": 2680,
      "reng": 2681,
      "atin": 2682,
      "Ġpur": 2683,
      "ĠInternational": 2684,
      "het": 2685,
      "berg": 2686,
      "ĠAssoci": 2687,
      "ĠCompany": 2688,
      "uation": 2689,
      "ida": 2690,
      "usion": 2691,
      "ĠRout": 2692,
      "Ġelements": 2693,
      "Ġlower": 2694,
      "for": 2695,
      "edy": 2696,
      "ands": 2697,
      "Ġinterview": 2698,
      "Ġparts": 2699,
      "osing": 2700,
      "Ġitself": 2701,
      "ĠGermany": 2702,
      "Ġthink": 2703,
      "Ġnar": 2704,
      "Ġdirected": 2705,
      "Ġdebut": 2706,
      "Ġfootball": 2707,
      "Ġpay": 2708,
      "Ġsil": 2709,
      "ĠNY": 2710,
      "Ġdespite": 2711,
      "Ġesp": 2712,
      "Ġphot": 2713,
      "ĠPeter": 2714,
      "oke": 2715,
      "Ġabs": 2716,
      "Ġrain": 2717,
      "Ġcru": 2718,
      "Ġflow": 2719,
      "Ġreviews": 2720,
      "Ġcontract": 2721,
      "amer": 2722,
      "ĠIndia": 2723,
      "ĠÂ£": 2724,
      "ĠCr": 2725,
      "ĠThat": 2726,
      "Ġrecording": 2727,
      "ĠAc": 2728,
      "ready": 2729,
      "ĠChristian": 2730,
      "ĠGold": 2731,
      "nes": 2732,
      "erved": 2733,
      "ĠTimes": 2734,
      "Ġcred": 2735,
      "ĠGovern": 2736,
      "ĠTom": 2737,
      "Ġbeginning": 2738,
      "Ġaccess": 2739,
      "tr": 2740,
      "ĠPat": 2741,
      "ma": 2742,
      "isl": 2743,
      "Ġsection": 2744,
      "Ġ?": 2745,
      "ibility": 2746,
      "Ġwhose": 2747,
      "Ġviol": 2748,
      "Ġbeg": 2749,
      "Ġgroups": 2750,
      "onna": 2751,
      "van": 2752,
      "ĠStud": 2753,
      "Ġclaimed": 2754,
      "Ġrap": 2755,
      "ĠUK": 2756,
      "ĠHill": 2757,
      "Ġasked": 2758,
      "Ġtransfer": 2759,
      "ĠMark": 2760,
      "ĠArt": 2761,
      "ĠRoute": 2762,
      "ĠFranc": 2763,
      "Ġlines": 2764,
      "Ġstreng": 2765,
      "Ġgive": 2766,
      "Ġche": 2767,
      "asons": 2768,
      "Ġinternational": 2769,
      "rief": 2770,
      "Ġcou": 2771,
      "Ġkey": 2772,
      "Ġscreen": 2773,
      "Ġadditional": 2774,
      "ĠSov": 2775,
      "ability": 2776,
      "Ġwhom": 2777,
      "hester": 2778,
      "ĠMexic": 2779,
      "Ġbi": 2780,
      "aint": 2781,
      "ĠFrank": 2782,
      "Ġfuture": 2783,
      "Ġpoor": 2784,
      "acted": 2785,
      "Ġfort": 2786,
      "airs": 2787,
      "ĠBen": 2788,
      "ex": 2789,
      "Ġgold": 2790,
      "Ġdon": 2791,
      "ĠWestern": 2792,
      "Ġintroduced": 2793,
      "ully": 2794,
      "Ġprem": 2795,
      "Ġtravel": 2796,
      "Ġquickly": 2797,
      "Ġleague": 2798,
      "ĠSpan": 2799,
      "ĠSoviet": 2800,
      "Ġidea": 2801,
      "ground": 2802,
      "Ġsea": 2803,
      "Ġcenter": 2804,
      "ĠDo": 2805,
      "Ġalready": 2806,
      "Ġevidence": 2807,
      "mar": 2808,
      "Ġanti": 2809,
      "Ġop": 2810,
      "ĠCollege": 2811,
      "Ġcal": 2812,
      "Ġfrequ": 2813,
      "han": 2814,
      "Ġbridge": 2815,
      "eck": 2816,
      "Ġexcept": 2817,
      "onst": 2818,
      "ĠMost": 2819,
      "usp": 2820,
      "Ġarrived": 2821,
      "ecially": 2822,
      "Ġpen": 2823,
      "Ġpil": 2824,
      "igan": 2825,
      "Ġdeal": 2826,
      "anded": 2827,
      "Ġblock": 2828,
      "Ġwestern": 2829,
      "Ġusually": 2830,
      "unt": 2831,
      "Ġoccup": 2832,
      "ĠForce": 2833,
      "aring": 2834,
      "ena": 2835,
      "Ġproduct": 2836,
      "eal": 2837,
      "ĠGrand": 2838,
      "back": 2839,
      "Ġcycl": 2840,
      "Ġcivil": 2841,
      "ites": 2842,
      "Ġradio": 2843,
      "ĠRob": 2844,
      "Ġmusical": 2845,
      "atory": 2846,
      "Ġsometimes": 2847,
      "lying": 2848,
      "Ġfemale": 2849,
      "ĠCoun": 2850,
      "ĠBritain": 2851,
      "ĠDay": 2852,
      "irth": 2853,
      "eum": 2854,
      "Ġespecially": 2855,
      "Ġdecision": 2856,
      "Ġmoney": 2857,
      "ĠHot": 2858,
      "Ġstudy": 2859,
      "Ġmagazine": 2860,
      "Ġfood": 2861,
      "asc": 2862,
      "ĠDem": 2863,
      "Ġissue": 2864,
      "Ġenv": 2865,
      "ĠSoc": 2866,
      "ergy": 2867,
      "Ġflood": 2868,
      "Ġelection": 2869,
      "Ġcarried": 2870,
      "Ġmight": 2871,
      "Ġestimated": 2872,
      "Ġlab": 2873,
      "ĠVictor": 2874,
      "liam": 2875,
      "Ġguitar": 2876,
      "Ġsurface": 2877,
      "ĠPac": 2878,
      "Ġconstruct": 2879,
      "Ġdefeated": 2880,
      "ĠBur": 2881,
      "Ġremain": 2882,
      "Ġeastern": 2883,
      "Ġremaining": 2884,
      "Ġshows": 2885,
      "Ġcommunity": 2886,
      "Ġdeterm": 2887,
      "Ġwood": 2888,
      "Ġlarger": 2889,
      "Ġapprox": 2890,
      "Ġminor": 2891,
      "Ġbecoming": 2892,
      "Ġcomplete": 2893,
      "inent": 2894,
      "liament": 2895,
      "ption": 2896,
      "Ġpolice": 2897,
      "Ġliter": 2898,
      "ĠChic": 2899,
      "ession": 2900,
      "ĠMill": 2901,
      "Ġentered": 2902,
      "Ġsuggested": 2903,
      "ĠIm": 2904,
      "ulf": 2905,
      "Ġlatter": 2906,
      "Ġshoot": 2907,
      "Ġpressure": 2908,
      "ĠOver": 2909,
      "ĠMount": 2910,
      "Ġsurround": 2911,
      "Ġteams": 2912,
      "ss": 2913,
      "ises": 2914,
      "Ġbrief": 2915,
      "ha": 2916,
      "Ġdoc": 2917,
      "Ġconsider": 2918,
      "bour": 2919,
      "Ġstudents": 2920,
      "aries": 2921,
      "erve": 2922,
      "ift": 2923,
      "Ġcommercial": 2924,
      "ĠLos": 2925,
      "Ġconcern": 2926,
      "ĠVirginia": 2927,
      "Ġcertain": 2928,
      "Ġdiscuss": 2929,
      "Ġlo": 2930,
      "gen": 2931,
      "Ġappointed": 2932,
      "Ġcomplet": 2933,
      "inct": 2934,
      "Ġprison": 2935,
      "porary": 2936,
      "alled": 2937,
      "ĠIf": 2938,
      "Ġmarket": 2939,
      "NA": 2940,
      "Ġacqu": 2941,
      "Ġbur": 2942,
      "Ġsummer": 2943,
      "Ġfriends": 2944,
      "ĠJust": 2945,
      "Ġprior": 2946,
      "yr": 2947,
      "Ġhop": 2948,
      "Ġinvestig": 2949,
      "Ġsat": 2950,
      "Ġpersonal": 2951,
      "ography": 2952,
      "ĠJos": 2953,
      "Ġtar": 2954,
      "Ġepisodes": 2955,
      "change": 2956,
      "ĠFle": 2957,
      "Ġriver": 2958,
      "Ġdestroyed": 2959,
      "ĠJackson": 2960,
      "ederal": 2961,
      "Ġder": 2962,
      "Ġemer": 2963,
      "Ġsize": 2964,
      "Ġwinning": 2965,
      "Ġlimited": 2966,
      "ulated": 2967,
      "Ġcommission": 2968,
      "enth": 2969,
      "ires": 2970,
      "Ġleaving": 2971,
      "Ġscenes": 2972,
      "incip": 2973,
      "Ġfleet": 2974,
      "sy": 2975,
      "ores": 2976,
      "acing": 2977,
      "Ġden": 2978,
      "ĠTex": 2979,
      "Ġdraw": 2980,
      "onse": 2981,
      "Ġstaff": 2982,
      "unn": 2983,
      "Ġprovide": 2984,
      "Ġlyric": 2985,
      "Ġself": 2986,
      "Ġtype": 2987,
      "ĠLouis": 2988,
      "su": 2989,
      "Ġdate": 2990,
      "ĠSpanish": 2991,
      "Ġkil": 2992,
      "Ġwriter": 2993,
      "igade": 2994,
      "Ġchanges": 2995,
      "Ġoverall": 2996,
      "Ġproposed": 2997,
      "Ġfail": 2998,
      "Ġgirl": 2999,
      "Ġtrib": 3000,
      "iser": 3001,
      "Ġterrit": 3002,
      "Ġdivision": 3003,
      "ournal": 3004,
      "Ġscript": 3005,
      "Ġarrang": 3006,
      "Ġrights": 3007,
      "omer": 3008,
      "Ġagreed": 3009,
      "inese": 3010,
      "Ġtransport": 3011,
      "Ġequip": 3012,
      "Ġintended": 3013,
      "Ġclim": 3014,
      "lymp": 3015,
      "ĠFlor": 3016,
      "iral": 3017,
      "Ġwide": 3018,
      "Ġrunning": 3019,
      "Ġroom": 3020,
      "Ġtax": 3021,
      "ension": 3022,
      "lo": 3023,
      "ests": 3024,
      "ga": 3025,
      "ĠGreen": 3026,
      "Ġdeep": 3027,
      "Ġsupported": 3028,
      "Ġdaughter": 3029,
      "Ġeffects": 3030,
      "ĠOlymp": 3031,
      "Ġjud": 3032,
      "Ġnearly": 3033,
      "Ġpurch": 3034,
      "ĠRo": 3035,
      "Ġbig": 3036,
      "ĠAssociation": 3037,
      "ĠMany": 3038,
      "Ġbow": 3039,
      "ĠDu": 3040,
      "ĠParty": 3041,
      "aded": 3042,
      "Ġpolic": 3043,
      "imum": 3044,
      "ĠCast": 3045,
      "Ġnd": 3046,
      "Ġhelped": 3047,
      "Ġestablish": 3048,
      "ĠEdward": 3049,
      "Ġmarried": 3050,
      "ĠChinese": 3051,
      "ĠInf": 3052,
      "Ġawarded": 3053,
      "tt": 3054,
      "Ġbroadcast": 3055,
      "Ġresponse": 3056,
      "atives": 3057,
      "Ġinfluence": 3058,
      "Ġintens": 3059,
      "Ġdi": 3060,
      "AA": 3061,
      "idents": 3062,
      "atively": 3063,
      "II": 3064,
      "ĠHist": 3065,
      "Ġmultip": 3066,
      "ĠPri": 3067,
      "Ġstructure": 3068,
      "Ġmovement": 3069,
      "Ġcreate": 3070,
      "Ġfavor": 3071,
      "ĠItal": 3072,
      "sen": 3073,
      "Ġdark": 3074,
      "Ġlay": 3075,
      "ĠChicago": 3076,
      "ties": 3077,
      "uz": 3078,
      "Ġresearch": 3079,
      "irm": 3080,
      "Ġsusp": 3081,
      "Ġdiss": 3082,
      "Ġcontro": 3083,
      "ĠClub": 3084,
      "ams": 3085,
      "Ġbird": 3086,
      "ĠCouncil": 3087,
      "dle": 3088,
      "Ġlonger": 3089,
      "pris": 3090,
      "ari": 3091,
      "ĠFilm": 3092,
      "teen": 3093,
      "ĠAdm": 3094,
      "ĠAwards": 3095,
      "Ġcaptured": 3096,
      "burg": 3097,
      "Ġstars": 3098,
      "Ġplanned": 3099,
      "Ġhigher": 3100,
      "Ġincreasing": 3101,
      "Ġcompared": 3102,
      "Ġfans": 3103,
      "iles": 3104,
      "Ġstay": 3105,
      "Ġcat": 3106,
      "Ġconclud": 3107,
      "selves": 3108,
      "Ġchanged": 3109,
      "Ġlanguage": 3110,
      "Ġcourse": 3111,
      "Ġapproximately": 3112,
      "Ġfeature": 3113,
      "Ġdone": 3114,
      "tained": 3115,
      "Ġliving": 3116,
      "Ġthemselves": 3117,
      "ĠEnter": 3118,
      "Ġfifth": 3119,
      "ĠSong": 3120,
      "ĠKore": 3121,
      "Ġmostly": 3122,
      "Ġproducer": 3123,
      "ĠSal": 3124,
      "ĠJohnson": 3125,
      "enty": 3126,
      "Ġtemper": 3127,
      "Ġrelated": 3128,
      "arent": 3129,
      "ĠKn": 3130,
      "ronic": 3131,
      "Ġexperience": 3132,
      "Ġwithd": 3133,
      "Ġtracks": 3134,
      "ij": 3135,
      "Ġdead": 3136,
      "ĠEmp": 3137,
      "ĠBillboard": 3138,
      "Ġspace": 3139,
      "Ġthus": 3140,
      "iqu": 3141,
      "bers": 3142,
      "itt": 3143,
      "Ġwoman": 3144,
      "ĠSecond": 3145,
      "ĠSuper": 3146,
      "Ġremains": 3147,
      "olic": 3148,
      "Ġbring": 3149,
      "Ġimm": 3150,
      "Ġult": 3151,
      "thing": 3152,
      "Ġour": 3153,
      "Ġsoldiers": 3154,
      "can": 3155,
      "Ġwhether": 3156,
      "ien": 3157,
      "ĠPacific": 3158,
      "Ġmedia": 3159,
      "Ġprobably": 3160,
      "ounds": 3161,
      "Ġnatural": 3162,
      "isions": 3163,
      "Ġface": 3164,
      "ĠOl": 3165,
      "andon": 3166,
      "umn": 3167,
      "raz": 3168,
      "Ġweap": 3169,
      "Ġdram": 3170,
      "ĠMont": 3171,
      "Ġcopies": 3172,
      "Ġforward": 3173,
      "vin": 3174,
      "Ġextended": 3175,
      "Ġvoice": 3176,
      "Ġboy": 3177,
      "ĠEv": 3178,
      "ĠSince": 3179,
      "ĠBet": 3180,
      "Ġissued": 3181,
      "Ġsyn": 3182,
      "Ġsuffered": 3183,
      "Ġheav": 3184,
      "ĠLater": 3185,
      "Ġoperations": 3186,
      "iring": 3187,
      "Ġreally": 3188,
      "Ġboard": 3189,
      "ys": 3190,
      "Ġcomplex": 3191,
      "imin": 3192,
      "Ġdepart": 3193,
      "Ġemb": 3194,
      "Ġquarter": 3195,
      "Ġleader": 3196,
      "Ġchall": 3197,
      "ospital": 3198,
      "oint": 3199,
      "Ġbuildings": 3200,
      "Ġconcept": 3201,
      "Ġcm": 3202,
      "Ġimmediately": 3203,
      "Ġincludes": 3204,
      "ĠScot": 3205,
      "uth": 3206,
      "ĠBoth": 3207,
      "Ġcountries": 3208,
      "Ġdeg": 3209,
      "Ġi": 3210,
      "iant": 3211,
      "Ġmixed": 3212,
      "ĠLake": 3213,
      "Ġcann": 3214,
      "ĠOper": 3215,
      "Ġcapital": 3216,
      "Ġlikely": 3217,
      "urt": 3218,
      "Ġmanager": 3219,
      "Ġprivate": 3220,
      "ĠJim": 3221,
      "Ġremoved": 3222,
      "Ġgoals": 3223,
      "ĠCongress": 3224,
      "Ġbreed": 3225,
      "ĠJew": 3226,
      "che": 3227,
      "Ġofficers": 3228,
      "Ġbattles": 3229,
      "ĠSever": 3230,
      "Ġsubsequently": 3231,
      "Ġincrease": 3232,
      "Ġcele": 3233,
      "ĠBig": 3234,
      "ĠMartin": 3235,
      "ĠAtlantic": 3236,
      "Ġmount": 3237,
      "Ġplant": 3238,
      "ĠPet": 3239,
      "Ġmach": 3240,
      "ĠFort": 3241,
      "hold": 3242,
      "Ġalways": 3243,
      "venue": 3244,
      "Ġinitial": 3245,
      "Ġleave": 3246,
      "ĠLove": 3247,
      "bury": 3248,
      "ĠFlorida": 3249,
      "Ġfocus": 3250,
      "Ġvia": 3251,
      "Ġlyrics": 3252,
      "Ġcompan": 3253,
      "Ġreact": 3254,
      "ĠAnother": 3255,
      "ĠMr": 3256,
      "hood": 3257,
      "ibr": 3258,
      "Ġnetwork": 3259,
      "Ġvisit": 3260,
      "Ġoffered": 3261,
      "Ġcoin": 3262,
      "ĠQueen": 3263,
      "Ġhealth": 3264,
      "order": 3265,
      "ĠOld": 3266,
      "Ġplans": 3267,
      "ĠSea": 3268,
      "ging": 3269,
      "Ġmur": 3270,
      "ĠTexas": 3271,
      "ously": 3272,
      "Ġlocation": 3273,
      "Ġtons": 3274,
      "ĠTor": 3275,
      "ĠChina": 3276,
      "Ġterms": 3277,
      "Ġnorm": 3278,
      "Ġinstr": 3279,
      "Ġvillage": 3280,
      "Ġapproach": 3281,
      "Ġcarry": 3282,
      "ĠTown": 3283,
      "Ġsomething": 3284,
      "aily": 3285,
      "ili": 3286,
      "Ġcolon": 3287,
      "ĠLit": 3288,
      "ounted": 3289,
      "stant": 3290,
      "Ġflag": 3291,
      "well": 3292,
      "Ġproblems": 3293,
      "ĠLord": 3294,
      "ĠStep": 3295,
      "Ġtor": 3296,
      "ĠHow": 3297,
      "Ġmajority": 3298,
      "ĠTur": 3299,
      "ria": 3300,
      "orning": 3301,
      "Ġtow": 3302,
      "Ġsch": 3303,
      "ĠIts": 3304,
      "Ġservices": 3305,
      "Ġgot": 3306,
      "etic": 3307,
      "ĠEarth": 3308,
      "Ġconsist": 3309,
      "Ġmodel": 3310,
      "Ġdamaged": 3311,
      "Ġcounter": 3312,
      "Ġprofessional": 3313,
      "ĠBoy": 3314,
      "ĠMel": 3315,
      "Ġran": 3316,
      "ĠWood": 3317,
      "hips": 3318,
      "Ġappears": 3319,
      "Ġjob": 3320,
      "Ġminute": 3321,
      "Ġcause": 3322,
      "Ġstatus": 3323,
      "ĠLaw": 3324,
      "Ġadop": 3325,
      "Ġmeeting": 3326,
      "ĠCanadian": 3327,
      "Ġranked": 3328,
      "ĠInter": 3329,
      "Ġadminist": 3330,
      "ĠNot": 3331,
      "riage": 3332,
      "Ġcomposed": 3333,
      "de": 3334,
      "ify": 3335,
      "Ġindividual": 3336,
      "aches": 3337,
      "Ġdistrib": 3338,
      "Ġrevealed": 3339,
      "ĠSquadron": 3340,
      "ĠApp": 3341,
      "ctor": 3342,
      "uf": 3343,
      "hod": 3344,
      "adium": 3345,
      "Ġdiscovered": 3346,
      "ĠCenter": 3347,
      "oes": 3348,
      "Ġraised": 3349,
      "umed": 3350,
      "cean": 3351,
      "Ġplot": 3352,
      "ĠAfrica": 3353,
      "oe": 3354,
      "ĠMur": 3355,
      "abit": 3356,
      "rial": 3357,
      "ste": 3358,
      "olk": 3359,
      "Ġrespectively": 3360,
      "Ġmakes": 3361,
      "Ġattacks": 3362,
      "Ġflight": 3363,
      "reater": 3364,
      "ĠCont": 3365,
      "Ġfinanc": 3366,
      "ironment": 3367,
      "Ġnumerous": 3368,
      "Ġassociated": 3369,
      "ĠRussian": 3370,
      "Ġtakes": 3371,
      "Ġinspired": 3372,
      "Ġneeded": 3373,
      "ĠAngeles": 3374,
      "lor": 3375,
      "ĠSir": 3376,
      "Ġlived": 3377,
      "Ġanc": 3378,
      "ĠAnt": 3379,
      "Ġdomin": 3380,
      "Ġlaunched": 3381,
      "ĠIII": 3382,
      "Ġaltern": 3383,
      "Ġyet": 3384,
      "Ġattacked": 3385,
      "Ġoccurred": 3386,
      "ĠFinal": 3387,
      "iest": 3388,
      "ĠHighway": 3389,
      "Ġcontains": 3390,
      "Ġamb": 3391,
      "ĠRad": 3392,
      "Ġattempted": 3393,
      "ĠServ": 3394,
      "Ġshown": 3395,
      "Ġnature": 3396,
      "Ġmoving": 3397,
      "ĠKent": 3398,
      "Ġdig": 3399,
      "Ġupper": 3400,
      "ĠCarol": 3401,
      "Ġpow": 3402,
      "ĠRail": 3403,
      "Ġcand": 3404,
      "Ġbene": 3405,
      "ĠCamp": 3406,
      "Ġvehic": 3407,
      "ĠCentral": 3408,
      "uries": 3409,
      "ograph": 3410,
      "Ġcoach": 3411,
      "ĠSun": 3412,
      "ault": 3413,
      "Ġaccomp": 3414,
      "uals": 3415,
      "Ġconditions": 3416,
      "estival": 3417,
      "ĠStr": 3418,
      "joy": 3419,
      "down": 3420,
      "aught": 3421,
      "reak": 3422,
      "ĠBow": 3423,
      "aging": 3424,
      "ĠTV": 3425,
      "arian": 3426,
      "Ġyards": 3427,
      "gely": 3428,
      "Ġslight": 3429,
      "Ġwhole": 3430,
      "Ġbirth": 3431,
      "Ġexam": 3432,
      "Ġsal": 3433,
      "Ġreferred": 3434,
      "ective": 3435,
      "izing": 3436,
      "Ġincor": 3437,
      "uing": 3438,
      "ĠDV": 3439,
      "uments": 3440,
      "Ġcollect": 3441,
      "Ġmom": 3442,
      "ĠMiss": 3443,
      "Ġfarm": 3444,
      "Ġresulted": 3445,
      "Ġfinally": 3446,
      "eph": 3447,
      "Ġbox": 3448,
      "Ġsmaller": 3449,
      "Ġdefeat": 3450,
      "Ġpit": 3451,
      "ĠYear": 3452,
      "Ġselected": 3453,
      "Ġsales": 3454,
      "Ġelected": 3455,
      "ĠGroup": 3456,
      "Ġsen": 3457,
      "Ġbad": 3458,
      "Ġang": 3459,
      "Ġgrant": 3460,
      "Ġinformation": 3461,
      "ken": 3462,
      "ĠRh": 3463,
      "urity": 3464,
      "win": 3465,
      "Ġarchit": 3466,
      "vert": 3467,
      "Ġactive": 3468,
      "Ġscient": 3469,
      "Ġaw": 3470,
      "Ġsinger": 3471,
      "Ġgrand": 3472,
      "ĠEmpire": 3473,
      "ails": 3474,
      "Ġsecret": 3475,
      "Ġcritical": 3476,
      "Ġportray": 3477,
      "ĠCam": 3478,
      "uated": 3479,
      "oly": 3480,
      "reme": 3481,
      "Ġlargely": 3482,
      "Ġprincip": 3483,
      "Ġens": 3484,
      "ĠDel": 3485,
      "onic": 3486,
      "Ġstandard": 3487,
      "ĠGar": 3488,
      "Ġassigned": 3489,
      "Ġcelebr": 3490,
      "Ġcer": 3491,
      "Ġnumbers": 3492,
      "ellow": 3493,
      "Ġprec": 3494,
      "enant": 3495,
      "ĠEr": 3496,
      "Ġsem": 3497,
      "Ġearned": 3498,
      "ortun": 3499,
      "Ġqual": 3500,
      "ĠPenn": 3501,
      "Ġcommented": 3502,
      "Ġmission": 3503,
      "Ġthr": 3504,
      "kin": 3505,
      "Ġoperation": 3506,
      "Ġexpected": 3507,
      "ĠTer": 3508,
      "Ġlink": 3509,
      "Ġmale": 3510,
      "Ġsaf": 3511,
      "Ġlisted": 3512,
      "Ġaudience": 3513,
      "Ġindustry": 3514,
      "ĠUnder": 3515,
      "Ġissues": 3516,
      "Ġcovered": 3517,
      "ĠTour": 3518,
      "Ġlegisl": 3519,
      "ĠItalian": 3520,
      "Ġroy": 3521,
      "Ġunable": 3522,
      "itude": 3523,
      "use": 3524,
      "oud": 3525,
      "Ġpurp": 3526,
      "ĠTrans": 3527,
      "aine": 3528,
      "Ġsched": 3529,
      "Ġheart": 3530,
      "itation": 3531,
      "Ġrefused": 3532,
      "Ġtraditional": 3533,
      "ĠCorps": 3534,
      "ĠViet": 3535,
      "Ġclosed": 3536,
      "Ġrequest": 3537,
      "Ġartic": 3538,
      "irection": 3539,
      "ĠDist": 3540,
      "Ġnewsp": 3541,
      "Ġunderst": 3542,
      "Ġartist": 3543,
      "Ġdouble": 3544,
      "Ġprevent": 3545,
      "ections": 3546,
      "Ġattention": 3547,
      "Ġtalk": 3548,
      "tered": 3549,
      "Ġbelow": 3550,
      "Ġkind": 3551,
      "Ġprimary": 3552,
      "Ġrecover": 3553,
      "ounts": 3554,
      "anced": 3555,
      "Ġsister": 3556,
      "Ġtrade": 3557,
      "Ġplat": 3558,
      "ĠRev": 3559,
      "Ġreason": 3560,
      "ider": 3561,
      "ĠDVD": 3562,
      "ĠOut": 3563,
      "ighter": 3564,
      "Ġcontem": 3565,
      "Ġdepression": 3566,
      "Ġmethod": 3567,
      "ka": 3568,
      "ogue": 3569,
      "Ġenjoy": 3570,
      "ãĥ": 3571,
      "Ġability": 3572,
      "Ġmeant": 3573,
      "Ġofficer": 3574,
      "Ġwalk": 3575,
      "Ġdeclared": 3576,
      "Ġinters": 3577,
      "Ġanaly": 3578,
      "ĠWales": 3579,
      "Ġblood": 3580,
      "ĠMa": 3581,
      "Ġgiving": 3582,
      "Ġfighting": 3583,
      "bed": 3584,
      "Ġhot": 3585,
      "undred": 3586,
      "Ġword": 3587,
      "Ġcommander": 3588,
      "Ġmiddle": 3589,
      "Ġletter": 3590,
      "iled": 3591,
      "Ġcompl": 3592,
      "Ġmax": 3593,
      "Ġdisplay": 3594,
      "ĠMore": 3595,
      "ples": 3596,
      "Ġreligious": 3597,
      "isher": 3598,
      "Ġsett": 3599,
      "ĠCle": 3600,
      "com": 3601,
      "ĠCath": 3602,
      "Ġrate": 3603,
      "Ġtheat": 3604,
      "aped": 3605,
      "ona": 3606,
      "Ġproduce": 3607,
      "ĠDemocr": 3608,
      "ĠBec": 3609,
      "Ġunit": 3610,
      "Ġconstit": 3611,
      "Ġserious": 3612,
      "ounded": 3613,
      "ĠDis": 3614,
      "ĠNort": 3615,
      "Ġquestion": 3616,
      "bridge": 3617,
      "Ġcentre": 3618,
      "Ġtouch": 3619,
      "Ġbooks": 3620,
      "ĠMass": 3621,
      "ĠMichigan": 3622,
      "ĠOx": 3623,
      "oo": 3624,
      "Ġvocals": 3625,
      "Ġdisapp": 3626,
      "Ġmention": 3627,
      "ĠSeveral": 3628,
      "Ġrapid": 3629,
      "ady": 3630,
      "Ġabandon": 3631,
      "utch": 3632,
      "ector": 3633,
      "Ġkilomet": 3634,
      "ĠZeal": 3635,
      "quar": 3636,
      "iences": 3637,
      "Ġnecess": 3638,
      "icted": 3639,
      "irt": 3640,
      "ims": 3641,
      "ette": 3642,
      "Ġaccount": 3643,
      "ĠLong": 3644,
      "ares": 3645,
      "odies": 3646,
      "Ġcompetition": 3647,
      "ĠMinister": 3648,
      "ĠWal": 3649,
      "ĠLu": 3650,
      "icient": 3651,
      "Ġconstructed": 3652,
      "Ġmor": 3653,
      "Ġdra": 3654,
      "Ġnames": 3655,
      "Ġtraff": 3656,
      "ening": 3657,
      "shire": 3658,
      "Ġmatches": 3659,
      "Ġrd": 3660,
      "ny": 3661,
      "Ġenergy": 3662,
      "road": 3663,
      "edic": 3664,
      "rug": 3665,
      "ĠKenn": 3666,
      "Ġdut": 3667,
      "antasy": 3668,
      "oses": 3669,
      "Ġris": 3670,
      "Ġtheme": 3671,
      "ĠBu": 3672,
      "Ġhighly": 3673,
      "Ġnearby": 3674,
      "Ġseparate": 3675,
      "Ġcas": 3676,
      "Ġpick": 3677,
      "Ġrecords": 3678,
      "anes": 3679,
      "Ġcontinue": 3680,
      "ĠSar": 3681,
      "ĠFox": 3682,
      "ĠTeam": 3683,
      "Ġprep": 3684,
      "Ġdrum": 3685,
      "Ġroyal": 3686,
      "Ġtrain": 3687,
      "ĠSo": 3688,
      "Ġtur": 3689,
      "ĠZealand": 3690,
      "Ġeffort": 3691,
      "rier": 3692,
      "ĠAcad": 3693,
      "Ġchief": 3694,
      "Ġeducation": 3695,
      "Ġpresented": 3696,
      "Ġcombat": 3697,
      "Ġannual": 3698,
      "Ġreduced": 3699,
      "ĠMexico": 3700,
      "ado": 3701,
      "ibly": 3702,
      "Ġdirectly": 3703,
      "echan": 3704,
      "ĠMatt": 3705,
      "ieut": 3706,
      "ĠTest": 3707,
      "Ġfast": 3708,
      "Ġattended": 3709,
      "Ġmeans": 3710,
      "Ġtried": 3711,
      "ĠAfrican": 3712,
      "ishop": 3713,
      "Ġlevels": 3714,
      "Ġneigh": 3715,
      "Ġhar": 3716,
      "Ġcle": 3717,
      "ĠChris": 3718,
      "Ġsevent": 3719,
      "ether": 3720,
      "ani": 3721,
      "ĠTime": 3722,
      "ĠHaw": 3723,
      "ender": 3724,
      "Ġforest": 3725,
      "oper": 3726,
      "ining": 3727,
      "ĠMidd": 3728,
      "Ġtwenty": 3729,
      "Ġstating": 3730,
      "Ġaccepted": 3731,
      "osen": 3732,
      "Ġwatch": 3733,
      "Ġpractice": 3734,
      "arents": 3735,
      "acher": 3736,
      "Ġmovie": 3737,
      "cel": 3738,
      "Ġcompos": 3739,
      "Ġrepe": 3740,
      "Ġconcert": 3741,
      "ĠArm": 3742,
      "ĠMadonna": 3743,
      "Ġrein": 3744,
      "Ġnuc": 3745,
      "ita": 3746,
      "ĠDar": 3747,
      "Ġpair": 3748,
      "Ġmetal": 3749,
      "Ġpositions": 3750,
      "Ġedition": 3751,
      "ĠFore": 3752,
      "ĠBob": 3753,
      "Ġtext": 3754,
      "ĠHel": 3755,
      "ĠWall": 3756,
      "Ġadvance": 3757,
      "Ġseem": 3758,
      "ping": 3759,
      "Ġthick": 3760,
      "Ġcandid": 3761,
      "irmed": 3762,
      "Ġdirection": 3763,
      "ĠTheir": 3764,
      "Ġdism": 3765,
      "Ġarchitect": 3766,
      "vement": 3767,
      "illery": 3768,
      "Ġrare": 3769,
      "Ġreject": 3770,
      "Ġnotes": 3771,
      "ĠJones": 3772,
      "ĠFour": 3773,
      "stitute": 3774,
      "ĠTre": 3775,
      "Ġrecomm": 3776,
      "ĠDepartment": 3777,
      "Ġmanaged": 3778,
      "Ġlegal": 3779,
      "Ġoil": 3780,
      "eway": 3781,
      "house": 3782,
      "inem": 3783,
      "Ġschools": 3784,
      "Ġresulting": 3785,
      "Ġending": 3786,
      "Ġresponsible": 3787,
      "Ġasp": 3788,
      "ĠInfantry": 3789,
      "Ġpurs": 3790,
      "ĠAnn": 3791,
      "light": 3792,
      "irit": 3793,
      "Ġshowed": 3794,
      "Ġavoid": 3795,
      "ĠScotland": 3796,
      "wide": 3797,
      "Ġhorse": 3798,
      "Ġcollege": 3799,
      "Ġinside": 3800,
      "Ġdropped": 3801,
      "like": 3802,
      "Ġwing": 3803,
      "ieutenant": 3804,
      "awn": 3805,
      "emorial": 3806,
      "rical": 3807,
      "Ġnation": 3808,
      "illed": 3809,
      "Ġkept": 3810,
      "Ġefforts": 3811,
      "ĠSum": 3812,
      "ĠManc": 3813,
      "Ġmorning": 3814,
      "lict": 3815,
      "ĠGreek": 3816,
      "ansion": 3817,
      "iance": 3818,
      "Ġcontrovers": 3819,
      "icip": 3820,
      "Ġmeaning": 3821,
      "ya": 3822,
      "Ġvariety": 3823,
      "Ġge": 3824,
      "ceeded": 3825,
      "band": 3826,
      "Ġincorpor": 3827,
      "olf": 3828,
      "Ġcust": 3829,
      "ĠCons": 3830,
      "ersey": 3831,
      "peror": 3832,
      "ĠÃ": 3833,
      "ĠArab": 3834,
      "aph": 3835,
      "Ġenvironment": 3836,
      "ĠDou": 3837,
      "Ġhouses": 3838,
      "Ġbegins": 3839,
      "Ġdom": 3840,
      "ĠArch": 3841,
      "Ġcyclone": 3842,
      "ĠGo": 3843,
      "Ġinches": 3844,
      "Ġcases": 3845,
      "ĠCross": 3846,
      "Ġforms": 3847,
      "Ġmarked": 3848,
      "ĠStone": 3849,
      "Ġschol": 3850,
      "Ġyard": 3851,
      "ĠBost": 3852,
      "Ġcontinues": 3853,
      "ĠCreek": 3854,
      "Ġperm": 3855,
      "uit": 3856,
      "utions": 3857,
      "Ġwords": 3858,
      "Ġattend": 3859,
      "ĠWilliams": 3860,
      "Ġperformances": 3861,
      "Ġcerem": 3862,
      "Ġrat": 3863,
      "mon": 3864,
      "ĠThree": 3865,
      "Ġmarriage": 3866,
      "Ġchampionship": 3867,
      "cend": 3868,
      "Ġarrest": 3869,
      "iated": 3870,
      "ĠMic": 3871,
      "Ġspl": 3872,
      "ecting": 3873,
      "isation": 3874,
      "Ġbank": 3875,
      "ervation": 3876,
      "Ġple": 3877,
      "Ġ+": 3878,
      "ĠTim": 3879,
      "ĠNews": 3880,
      "Ġmetres": 3881,
      "ini": 3882,
      "ĠHung": 3883,
      "Ġhundred": 3884,
      "Ġscience": 3885,
      "Ġeconomic": 3886,
      "track": 3887,
      "Ġsource": 3888,
      "Ġlear": 3889,
      "thel": 3890,
      "ols": 3891,
      "Ġsymb": 3892,
      "Ġconducted": 3893,
      "ĠSecret": 3894,
      "writ": 3895,
      "ada": 3896,
      "gypt": 3897,
      "Ġstarting": 3898,
      "Ġallowing": 3899,
      "Ġyour": 3900,
      "Ġquality": 3901,
      "ĠFoot": 3902,
      "wh": 3903,
      "ĠStan": 3904,
      "gl": 3905,
      "ĠJer": 3906,
      "Ġbeat": 3907,
      "ĠBC": 3908,
      "Ġpresence": 3909,
      "Ġsides": 3910,
      "Ġdu": 3911,
      "Ġamount": 3912,
      "ĠTri": 3913,
      "ulations": 3914,
      "Ġviewers": 3915,
      "Ġspecific": 3916,
      "Ġsuppl": 3917,
      "ship": 3918,
      "Ġstrugg": 3919,
      "thur": 3920,
      "ĠEgypt": 3921,
      "Ġtransferred": 3922,
      "Ġdance": 3923,
      "Ġsettle": 3924,
      "een": 3925,
      "ĠOh": 3926,
      "Ġchap": 3927,
      "Ġdistinct": 3928,
      "Ġunivers": 3929,
      "Ġexhib": 3930,
      "ĠParliament": 3931,
      "Ġuses": 3932,
      "Ġmultiple": 3933,
      "ĠRecords": 3934,
      "Ġcontrast": 3935,
      "ingu": 3936,
      "Ġenemy": 3937,
      "ĠHal": 3938,
      "Ġpeaked": 3939,
      "sis": 3940,
      "Ġpotential": 3941,
      "ĠLatin": 3942,
      "ĠDes": 3943,
      "ĠVer": 3944,
      "Ġforeign": 3945,
      "ĠStephen": 3946,
      "itan": 3947,
      "ĠFin": 3948,
      "Ġtraffic": 3949,
      "aver": 3950,
      "ĠSol": 3951,
      "ĠPrince": 3952,
      "Ġbecomes": 3953,
      "ĠGames": 3954,
      "rel": 3955,
      "Ġowned": 3956,
      "sych": 3957,
      "Ġthings": 3958,
      "ĠClark": 3959,
      "Ġmess": 3960,
      "Ġfounded": 3961,
      "Ġportion": 3962,
      "ĠSur": 3963,
      "ĠOxford": 3964,
      "Ġgreater": 3965,
      "itiz": 3966,
      "ĠWin": 3967,
      "ĠSat": 3968,
      "Ġconcluded": 3969,
      "Ġencoun": 3970,
      "ĠKh": 3971,
      "MS": 3972,
      "Ġrespond": 3973,
      "ĠCommittee": 3974,
      "Ġvocal": 3975,
      "ĠGeorg": 3976,
      "Ġrelatively": 3977,
      "Ġcaptain": 3978,
      "ĠAdmiral": 3979,
      "ĠJoseph": 3980,
      "cle": 3981,
      "Ġraid": 3982,
      "ĠSociety": 3983,
      "Ġprimarily": 3984,
      "ĠLike": 3985,
      "Ġopt": 3986,
      "kn": 3987,
      "ĠSouthern": 3988,
      "Ġrule": 3989,
      "Ġdemonst": 3990,
      "Ġscoring": 3991,
      "Ġfederal": 3992,
      "Ġactually": 3993,
      "Ġcastle": 3994,
      "Ġproperty": 3995,
      "ĠBrad": 3996,
      "ĠBecause": 3997,
      "ĠSil": 3998,
      "Ġstories": 3999,
      "ĠFred": 4000,
      "ait": 4001,
      "ĠHarrison": 4002,
      "Ġfinancial": 4003,
      "inet": 4004,
      "fect": 4005,
      "ih": 4006,
      "Ġattempts": 4007,
      "ressive": 4008,
      "Ġobserved": 4009,
      "Ġlif": 4010,
      "ellig": 4011,
      "Ġtitled": 4012,
      "Ġopportun": 4013,
      "ĠJeff": 4014,
      "Ġweaken": 4015,
      "ĠBoston": 4016,
      "Ġfeaturing": 4017,
      "Ġinch": 4018,
      "Ġcollection": 4019,
      "ĠCaptain": 4020,
      "ĠChief": 4021,
      "Ġanimals": 4022,
      "Ġwriters": 4023,
      "Ġwrite": 4024,
      "ĠBattalion": 4025,
      "Ġstrength": 4026,
      "Ġwor": 4027,
      "ĠManchester": 4028,
      "Ġpaid": 4029,
      "ĠDen": 4030,
      "Ġmel": 4031,
      "ĠBat": 4032,
      "udd": 4033,
      "ĠSwed": 4034,
      "ĠMajor": 4035,
      "Ġspot": 4036,
      "Ġtourn": 4037,
      "right": 4038,
      "ĠBefore": 4039,
      "ĠVan": 4040,
      "Ġparents": 4041,
      "Ġjournal": 4042,
      "lection": 4043,
      "Ġdistance": 4044,
      "Ġfigure": 4045,
      "Ġonto": 4046,
      "ux": 4047,
      "ĠEver": 4048,
      "Ġcompanies": 4049,
      "Ġdivided": 4050,
      "eds": 4051,
      "Ġslightly": 4052,
      "Ġactor": 4053,
      "sw": 4054,
      "Ġshare": 4055,
      "ils": 4056,
      "Ġpiece": 4057,
      "Ġpremi": 4058,
      "Ġmind": 4059,
      "Ġindependent": 4060,
      "Ġsituation": 4061,
      "ĠVietn": 4062,
      "ĠCommission": 4063,
      "aud": 4064,
      "perial": 4065,
      "Ġmechan": 4066,
      "lam": 4067,
      "Ġpowerful": 4068,
      "stein": 4069,
      "Ġtorped": 4070,
      "Ġtarget": 4071,
      "Ġacting": 4072,
      "ĠLuc": 4073,
      "ĠPan": 4074,
      "Ġselling": 4075,
      "Ġconcent": 4076,
      "ĠTw": 4077,
      "cript": 4078,
      "anna": 4079,
      "Ġinnings": 4080,
      "Ġbroke": 4081,
      "Ġrough": 4082,
      "umber": 4083,
      "Ġrating": 4084,
      "astic": 4085,
      "Ġultimately": 4086,
      "Ġcollabor": 4087,
      "ĠLittle": 4088,
      "Ġlot": 4089,
      "ĠOtt": 4090,
      "Ġcho": 4091,
      "ĠColumb": 4092,
      "ĠParis": 4093,
      "ĠCarl": 4094,
      "uge": 4095,
      "Ġwaters": 4096,
      "ĠBBC": 4097,
      "Ġplays": 4098,
      "Ġmaximum": 4099,
      "mond": 4100,
      "ĠBridge": 4101,
      "rown": 4102,
      "Ġsquare": 4103,
      "aga": 4104,
      "ĠYoun": 4105,
      "Ġfunction": 4106,
      "annel": 4107,
      "osaur": 4108,
      "ĠMax": 4109,
      "chest": 4110,
      "Ġcompletely": 4111,
      "Ġsought": 4112,
      "ĠCare": 4113,
      "Ġtoday": 4114,
      "ĠCroat": 4115,
      "Ġbound": 4116,
      "Ġgar": 4117,
      "Ġess": 4118,
      "mas": 4119,
      "Ġactions": 4120,
      "Ġblue": 4121,
      "Ġdesignated": 4122,
      "Ġmainly": 4123,
      "Ġstruck": 4124,
      "Ġpilot": 4125,
      "illa": 4126,
      "ĠBook": 4127,
      "Ġhus": 4128,
      "ĠEntertain": 4129,
      "Ġscale": 4130,
      "ota": 4131,
      "Ġconver": 4132,
      "Ġnortheast": 4133,
      "Ġcombined": 4134,
      "ees": 4135,
      "Ġculture": 4136,
      "imate": 4137,
      "za": 4138,
      "load": 4139,
      "Ġinfluenced": 4140,
      "alle": 4141,
      "Ġvess": 4142,
      "ĠAcademy": 4143,
      "ero": 4144,
      "force": 4145,
      "Ġlog": 4146,
      "ala": 4147,
      "Ġdise": 4148,
      "Ġreform": 4149,
      "under": 4150,
      "Ġalongside": 4151,
      "Ġwear": 4152,
      "Ġsout": 4153,
      "Ġtrial": 4154,
      "Ġsociety": 4155,
      "Ġofficials": 4156,
      "olved": 4157,
      "Ġcorn": 4158,
      "acts": 4159,
      "Ġcalling": 4160,
      "Ġthous": 4161,
      "Ġseconds": 4162,
      "cers": 4163,
      "while": 4164,
      "Ġsearch": 4165,
      "ĠHor": 4166,
      "ricket": 4167,
      "Ġtransl": 4168,
      "ĠSeries": 4169,
      "ĠGre": 4170,
      "Ġbatter": 4171,
      "rupt": 4172,
      "iano": 4173,
      "ĠSaint": 4174,
      "Ġwinter": 4175,
      "ĠWay": 4176,
      "aven": 4177,
      "Ġseg": 4178,
      "nel": 4179,
      "istry": 4180,
      "Ġimpact": 4181,
      "Ġcrow": 4182,
      "orses": 4183,
      "ĠBrigade": 4184,
      "ĠSk": 4185,
      "Ġthir": 4186,
      "Ġnaval": 4187,
      "Ġsuc": 4188,
      "ĠRegiment": 4189,
      "ĠAmericans": 4190,
      "Ġplatform": 4191,
      "Ġnominated": 4192,
      "ĠItaly": 4193,
      "rate": 4194,
      "Ġgained": 4195,
      "Ġinterp": 4196,
      "ĠMuseum": 4197,
      "AS": 4198,
      "ylvan": 4199,
      "ĠLee": 4200,
      "Ġwebs": 4201,
      "ĠDef": 4202,
      "Ġmem": 4203,
      "Ġrecent": 4204,
      "Ġpromoted": 4205,
      "quarters": 4206,
      "Ġwidely": 4207,
      "Ġencour": 4208,
      "ĠLine": 4209,
      "Ġnews": 4210,
      "ĠSpec": 4211,
      "ao": 4212,
      "Ġconfirmed": 4213,
      "ĠEntertainment": 4214,
      "Ġpolicy": 4215,
      "Ġice": 4216,
      "ube": 4217,
      "Ġactivity": 4218,
      "Ġreaching": 4219,
      "Ġelectric": 4220,
      "Ġpassing": 4221,
      "Ġproved": 4222,
      "mark": 4223,
      "ĠAvenue": 4224,
      "Ġartists": 4225,
      "ends": 4226,
      "ĠLo": 4227,
      "Ġsn": 4228,
      "ĠTod": 4229,
      "ĠIre": 4230,
      "TV": 4231,
      "ĠWind": 4232,
      "Ġgreatest": 4233,
      "Ġbehav": 4234,
      "Ġexplained": 4235,
      "Ġfavour": 4236,
      "rative": 4237,
      "ĠPop": 4238,
      "Ġir": 4239,
      "ĠClass": 4240,
      "Ġcoming": 4241,
      "Ġnorthwest": 4242,
      "Ġcharge": 4243,
      "oured": 4244,
      "Ġsixth": 4245,
      "Ġwick": 4246,
      "ĠEll": 4247,
      "HL": 4248,
      "Ġsubsequent": 4249,
      "Ġpeace": 4250,
      "Ġshortly": 4251,
      "ĠIreland": 4252,
      "Ġhero": 4253,
      "Ġconflict": 4254,
      "Ġsays": 4255,
      "hew": 4256,
      "ĠService": 4257,
      "Ġresist": 4258,
      "town": 4259,
      "oration": 4260,
      "adel": 4261,
      "Ġadj": 4262,
      "Ġserve": 4263,
      "Ġcausing": 4264,
      "Ġsust": 4265,
      "Ġcounty": 4266,
      "Ġinvasion": 4267,
      "ĠRay": 4268,
      "ibrary": 4269,
      "Ġweather": 4270,
      "Ġsystems": 4271,
      "Ġexpressed": 4272,
      "ĠFleet": 4273,
      "ĠGood": 4274,
      "Ġburn": 4275,
      "Ġseek": 4276,
      "iced": 4277,
      "AF": 4278,
      "ĠKr": 4279,
      "Ġiron": 4280,
      "Ġsources": 4281,
      "itness": 4282,
      "ĠAdd": 4283,
      "Ġpath": 4284,
      "Ġalbums": 4285,
      "Ġborder": 4286,
      "aling": 4287,
      "Ġemot": 4288,
      "arden": 4289,
      "ĠSant": 4290,
      "ĠConf": 4291,
      "Ġtheory": 4292,
      "Ġbackground": 4293,
      "ĠAlb": 4294,
      "Ġresidents": 4295,
      "ĠRy": 4296,
      "ips": 4297,
      "Ġsense": 4298,
      "ĠAut": 4299,
      "ĠCatholic": 4300,
      "ĠVictoria": 4301,
      "Ġcontent": 4302,
      "ĠCharl": 4303,
      "Ġsoundtrack": 4304,
      "Ġhospital": 4305,
      "ategory": 4306,
      "Ġgreen": 4307,
      "pe": 4308,
      "Ġartillery": 4309,
      "Ġidentified": 4310,
      "ĠDev": 4311,
      "Ġhands": 4312,
      "ĠAv": 4313,
      "Ġolder": 4314,
      "Ġseasons": 4315,
      "eld": 4316,
      "Ġpun": 4317,
      "ĠThough": 4318,
      "Ġtells": 4319,
      "Ġchem": 4320,
      "Ġkg": 4321,
      "Ġtrue": 4322,
      "Ġresults": 4323,
      "Ġdedic": 4324,
      "Ġsexual": 4325,
      "Ġphysical": 4326,
      "Ġoffer": 4327,
      "Ġrequire": 4328,
      "ighth": 4329,
      "Ġdocument": 4330,
      "Ġrepresented": 4331,
      "ĠNorm": 4332,
      "Ġahead": 4333,
      "ĠThrough": 4334,
      "ias": 4335,
      "Ġcities": 4336,
      "Ġpal": 4337,
      "ancy": 4338,
      "ĠHistor": 4339,
      "Ġweapons": 4340,
      "ĠKar": 4341,
      "Ġeas": 4342,
      "Ġheavily": 4343,
      "Ġera": 4344,
      "tation": 4345,
      "ĠJul": 4346,
      "ĠRam": 4347,
      "ĠValley": 4348,
      "bit": 4349,
      "bon": 4350,
      "ĠTay": 4351,
      "Ġjun": 4352,
      "Ġgas": 4353,
      "Ġsupp": 4354,
      "Ġnegot": 4355,
      "anger": 4356,
      "ĠUpon": 4357,
      "Ġapparent": 4358,
      "bur": 4359,
      "Ġalone": 4360,
      "ĠBus": 4361,
      "ĠLiber": 4362,
      "Ġofficially": 4363,
      "Ġbit": 4364,
      "ĠLight": 4365,
      "itable": 4366,
      "ĠMat": 4367,
      "known": 4368,
      "Ġstudent": 4369,
      "Ġspread": 4370,
      "Ġdistrict": 4371,
      "Ġdebuted": 4372,
      "Ġprominent": 4373,
      "ĠDutch": 4374,
      "ĠShow": 4375,
      "ĠFer": 4376,
      "Ġhusband": 4377,
      "Ġconsisted": 4378,
      "ĠÎ": 4379,
      "abeth": 4380,
      "Ġsend": 4381,
      "ĠVol": 4382,
      "Ġexecutive": 4383,
      "Ġstone": 4384,
      "Ġfired": 4385,
      "Ġdefense": 4386,
      "Ġdefend": 4387,
      "ote": 4388,
      "ĠYoung": 4389,
      "ĠBey": 4390,
      "ĠWeek": 4391,
      "lers": 4392,
      "ylvania": 4393,
      "Ġinstit": 4394,
      "ĠEliz": 4395,
      "Ġimage": 4396,
      "rog": 4397,
      "Ġcapture": 4398,
      "Ġwild": 4399,
      "Ġsurpris": 4400,
      "hi": 4401,
      "Ġpattern": 4402,
      "Ġargued": 4403,
      "ĠBond": 4404,
      "essions": 4405,
      "ĠForm": 4406,
      "Ġaired": 4407,
      "ushed": 4408,
      "Ġinjury": 4409,
      "Ġorganization": 4410,
      "ĠFar": 4411,
      "Ġpack": 4412,
      "Ġcouple": 4413,
      "Ġdoing": 4414,
      "Ġinstrument": 4415,
      "Ġpict": 4416,
      "Ġreturning": 4417,
      "Ġpoet": 4418,
      "ĠDirect": 4419,
      "ĠAlbert": 4420,
      "Ġstudies": 4421,
      "ĠRog": 4422,
      "ĠMen": 4423,
      "Ġfigures": 4424,
      "Ġring": 4425,
      "Ġcontemporary": 4426,
      "urban": 4427,
      "Ġequipment": 4428,
      "Ġresc": 4429,
      "Ġappearances": 4430,
      "Ġox": 4431,
      "acity": 4432,
      "Ġlaid": 4433,
      "Ġfloor": 4434,
      "Ġweight": 4435,
      "Ġhun": 4436,
      "ĠColon": 4437,
      "Ġmagn": 4438,
      "ĠLife": 4439,
      "ĠTop": 4440,
      "ĠFootball": 4441,
      "ĠDi": 4442,
      "Ġeth": 4443,
      "Ġpieces": 4444,
      "ĠCommun": 4445,
      "eg": 4446,
      "ĠHomer": 4447,
      "Ġaffected": 4448,
      "Ġstep": 4449,
      "ĠMiddle": 4450,
      "Ġdoub": 4451,
      "Ġversions": 4452,
      "appen": 4453,
      "ours": 4454,
      "Ġshell": 4455,
      "Ġmaintained": 4456,
      "Ġmatter": 4457,
      "Ġcrowd": 4458,
      "Ġdrug": 4459,
      "Ġhere": 4460,
      "ĠJon": 4461,
      "Ġoccasion": 4462,
      "ĠDam": 4463,
      "Ġvisited": 4464,
      "Ġgrowth": 4465,
      "ano": 4466,
      "Ġstra": 4467,
      "pool": 4468,
      "ĠFre": 4469,
      "Ġcomes": 4470,
      "Ġearth": 4471,
      "Ġcriticized": 4472,
      "Ġleaders": 4473,
      "Ġtermin": 4474,
      "resp": 4475,
      "Ġexped": 4476,
      "Ġhyd": 4477,
      "ĠIll": 4478,
      "ĠDaniel": 4479,
      "inson": 4480,
      "ĠGal": 4481,
      "ockey": 4482,
      "Ġprepar": 4483,
      "Ġcommunic": 4484,
      "Ġtoward": 4485,
      "Ġemph": 4486,
      "Ġspeech": 4487,
      "Ġexec": 4488,
      "Ġpan": 4489,
      "ental": 4490,
      "ocked": 4491,
      "ĠWork": 4492,
      "Ġcitiz": 4493,
      "Ġtrees": 4494,
      "Ġsenior": 4495,
      "ĠOs": 4496,
      "Ġhall": 4497,
      "stone": 4498,
      "ĠNorthern": 4499,
      "Ġreference": 4500,
      "Ġworldwide": 4501,
      "Ġtrying": 4502,
      "Ġpropos": 4503,
      "Ġmedical": 4504,
      "ĠHard": 4505,
      "Ġattract": 4506,
      "elve": 4507,
      "Ġsurre": 4508,
      "ĠHurricane": 4509,
      "Ġsingles": 4510,
      "ĠSub": 4511,
      "Ġappl": 4512,
      "intend": 4513,
      "Ġterritory": 4514,
      "Ġmurder": 4515,
      "Ġguest": 4516,
      "ruit": 4517,
      "Ġbud": 4518,
      "acement": 4519,
      "Ġmachine": 4520,
      "Ġdelay": 4521,
      "Ġtournament": 4522,
      "orne": 4523,
      "Ġrainfall": 4524,
      "Ġrang": 4525,
      "ĠCarolina": 4526,
      "Ġload": 4527,
      "ĠRos": 4528,
      "Ġgod": 4529,
      "Ġdog": 4530,
      "ĠRod": 4531,
      "Ġhistorian": 4532,
      "Ġfully": 4533,
      "ĠMarsh": 4534,
      "ĠScottish": 4535,
      "Ġbirds": 4536,
      "Ġformation": 4537,
      "uct": 4538,
      "ĠBre": 4539,
      "ĠPost": 4540,
      "Ġclaims": 4541,
      "Ġstations": 4542,
      "ĠHolly": 4543,
      "uled": 4544,
      "eller": 4545,
      "Ġreign": 4546,
      "ĠDistrict": 4547,
      "Ġtherefore": 4548,
      "Ġrisk": 4549,
      "Ġsetting": 4550,
      "Ġchosen": 4551,
      "ĠOcean": 4552,
      "Ġut": 4553,
      "Ġterr": 4554,
      "Ġuniversity": 4555,
      "Ġdoll": 4556,
      "Ġaccident": 4557,
      "embly": 4558,
      "Ġcell": 4559,
      "emic": 4560,
      "Ġfrequently": 4561,
      "Ġtwice": 4562,
      "ĠTem": 4563,
      "ĠField": 4564,
      "ĠSystem": 4565,
      "Ġcontest": 4566,
      "Ġsplit": 4567,
      "Ġleaves": 4568,
      "amber": 4569,
      "gian": 4570,
      "Ġvalue": 4571,
      "Ġremark": 4572,
      "ror": 4573,
      "aved": 4574,
      "omers": 4575,
      "Ġsupply": 4576,
      "Ġfaced": 4577,
      "resh": 4578,
      "Ġagg": 4579,
      "ãĤ": 4580,
      "ĠGuard": 4581,
      "ordin": 4582,
      "Ġtreatment": 4583,
      "Ġpaper": 4584,
      "Ġgovernor": 4585,
      "ĠDuke": 4586,
      "Ġsens": 4587,
      "ĠMod": 4588,
      "ĠBart": 4589,
      "ports": 4590,
      "Ġoperated": 4591,
      "ĠStudios": 4592,
      "izes": 4593,
      "Ġreports": 4594,
      "ĠChe": 4595,
      "ĠLew": 4596,
      "Ġbillion": 4597,
      "Ġwounded": 4598,
      "Ġfollows": 4599,
      "Ġgrew": 4600,
      "ifying": 4601,
      "Ġsurrounding": 4602,
      "ĠMD": 4603,
      "rael": 4604,
      "ĠBeat": 4605,
      "ledge": 4606,
      "ivity": 4607,
      "Ġwalls": 4608,
      "Ġlabel": 4609,
      "ĠShort": 4610,
      "edd": 4611,
      "ĠPenns": 4612,
      "ĠHy": 4613,
      "ĠPolish": 4614,
      "Ġcontained": 4615,
      "ĠMean": 4616,
      "Ġswe": 4617,
      "ĠRom": 4618,
      "rect": 4619,
      "illy": 4620,
      "Ġherself": 4621,
      "iot": 4622,
      "uls": 4623,
      "Ġactivities": 4624,
      "ĠGovernor": 4625,
      "estic": 4626,
      "ĠCivil": 4627,
      "Ġadapt": 4628,
      "Ġplanet": 4629,
      "Ġdegree": 4630,
      "Ġbal": 4631,
      "antly": 4632,
      "Ġcondition": 4633,
      "Ġaccompan": 4634,
      "Ġpasses": 4635,
      "ufact": 4636,
      "lines": 4637,
      "Ġsle": 4638,
      "Ġtypically": 4639,
      "ading": 4640,
      "ĠCorn": 4641,
      "Ġhorses": 4642,
      "Ġdyn": 4643,
      "ĠPre": 4644,
      "Ġcolor": 4645,
      "orter": 4646,
      "Ġmanufact": 4647,
      "ĠAndrew": 4648,
      "ampion": 4649,
      "igg": 4650,
      "ayer": 4651,
      "Ġmaster": 4652,
      "Ġsimply": 4653,
      "Ġescape": 4654,
      "ager": 4655,
      "Ġcert": 4656,
      "ĠFantasy": 4657,
      "azz": 4658,
      "Ġbrown": 4659,
      "fully": 4660,
      "ĠGirl": 4661,
      "Ġfuel": 4662,
      "stitution": 4663,
      "ĠSenate": 4664,
      "Ġopin": 4665,
      "anda": 4666,
      "eed": 4667,
      "onents": 4668,
      "Ġlives": 4669,
      "ĠAllied": 4670,
      "ĠChristmas": 4671,
      "rid": 4672,
      "isters": 4673,
      "Ġserving": 4674,
      "Ġeditor": 4675,
      "ĠWilson": 4676,
      "Ġelement": 4677,
      "Ġchose": 4678,
      "Ġconsecutive": 4679,
      "Ġnothing": 4680,
      "mit": 4681,
      "Ġorders": 4682,
      "ĠEastern": 4683,
      "Ġcasual": 4684,
      "Ġcamer": 4685,
      "ĠEach": 4686,
      "Ġcannot": 4687,
      "Ġnewly": 4688,
      "ĠPen": 4689,
      "Ġopposed": 4690,
      "Ġmoment": 4691,
      "Ġparticipated": 4692,
      "pass": 4693,
      "Ġbul": 4694,
      "Ġunknown": 4695,
      "Ġfan": 4696,
      "Ġnative": 4697,
      "Ġworkers": 4698,
      "ĠTaylor": 4699,
      "uous": 4700,
      "Ġvote": 4701,
      "ographer": 4702,
      "Ġemphas": 4703,
      "Ġauthority": 4704,
      "Ġdraft": 4705,
      "agn": 4706,
      "ĠDun": 4707,
      "isco": 4708,
      "ĠOf": 4709,
      "Ġbass": 4710,
      "add": 4711,
      "isf": 4712,
      "ĠMike": 4713,
      "Ġath": 4714,
      "Ġrailway": 4715,
      "ĠElizabeth": 4716,
      "Ġwebsite": 4717,
      "ĠLes": 4718,
      "Ġgrowing": 4719,
      "ancing": 4720,
      "Ġlosing": 4721,
      "ĠAlexander": 4722,
      "Ġextra": 4723,
      "Ġnewspaper": 4724,
      "ĠGovernment": 4725,
      "more": 4726,
      "Ġadopted": 4727,
      "Ġadvanced": 4728,
      "Ġattrib": 4729,
      "andy": 4730,
      "Ġpsych": 4731,
      "ĠJoe": 4732,
      "Ġentr": 4733,
      "Ġfair": 4734,
      "Ġproducers": 4735,
      "Ġheard": 4736,
      "ety": 4737,
      "Ġsevere": 4738,
      "ĠNight": 4739,
      "ĠJac": 4740,
      "Ġguard": 4741,
      "Ġbenef": 4742,
      "Ġsquadron": 4743,
      "ĠJud": 4744,
      "gend": 4745,
      "Ġfirm": 4746,
      "Ġphil": 4747,
      "tar": 4748,
      "Ġspirit": 4749,
      "ricult": 4750,
      "Ġactors": 4751,
      "Ġextr": 4752,
      "Ġarms": 4753,
      "ilies": 4754,
      "enge": 4755,
      "Ġrear": 4756,
      "Ġrom": 4757,
      "ucky": 4758,
      "ĠFestival": 4759,
      "Ġabandoned": 4760,
      "rong": 4761,
      "ĠWW": 4762,
      "Ġcapacity": 4763,
      "Ġbasis": 4764,
      "Ġcouncil": 4765,
      "Ġweak": 4766,
      "iro": 4767,
      "utation": 4768,
      "Ġoffensive": 4769,
      "min": 4770,
      "Ġends": 4771,
      "Ġadvant": 4772,
      "then": 4773,
      "Ġopposition": 4774,
      "TC": 4775,
      "Ġfeed": 4776,
      "Ġfilming": 4777,
      "ĠPers": 4778,
      "Ġsilver": 4779,
      "Ġprin": 4780,
      "imens": 4781,
      "Ġprompt": 4782,
      "isers": 4783,
      "ĠWhat": 4784,
      "Ġsequence": 4785,
      "ĠOperation": 4786,
      "ef": 4787,
      "enger": 4788,
      "ĠBab": 4789,
      "Ġhonor": 4790,
      "Ġcompar": 4791,
      "pton": 4792,
      "Ġevac": 4793,
      "ype": 4794,
      "Ġelev": 4795,
      "gar": 4796,
      "Ġenter": 4797,
      "ĠIrish": 4798,
      "Ġflying": 4799,
      "Ġkick": 4800,
      "Ġast": 4801,
      "ĠTra": 4802,
      "ĠPennsylvania": 4803,
      "ĠIslands": 4804,
      "Ġcreating": 4805,
      "Ġfilmed": 4806,
      "imet": 4807,
      "uses": 4808,
      "Ġrival": 4809,
      "ocated": 4810,
      "ables": 4811,
      "Ġcoal": 4812,
      "Ġhappen": 4813,
      "ĠWat": 4814,
      "Ġhomes": 4815,
      "Ġregarded": 4816,
      "Ġnormal": 4817,
      "lement": 4818,
      "Ġeye": 4819,
      "Ġfiction": 4820,
      "Ġunf": 4821,
      "ĠUl": 4822,
      "Ġlaunch": 4823,
      "Ġindividuals": 4824,
      "Ġsail": 4825,
      "ĠInst": 4826,
      "ĠHarry": 4827,
      "ĠCastle": 4828,
      "ĠSpain": 4829,
      "ĠConn": 4830,
      "Ġpoll": 4831,
      "ĠBlue": 4832,
      "ĠCard": 4833,
      "Ġbey": 4834,
      "Ġagreement": 4835,
      "iner": 4836,
      "Ġspring": 4837,
      "Ġdeploy": 4838,
      "Ġspect": 4839,
      "gu": 4840,
      "Ġfamous": 4841,
      "Ġchair": 4842,
      "Ġhabit": 4843,
      "ĠSS": 4844,
      "ĠBul": 4845,
      "Ġliber": 4846,
      "Ġdismiss": 4847,
      "Ġfailure": 4848,
      "Ġpossibly": 4849,
      "ura": 4850,
      "Ġbeyond": 4851,
      "ĠAre": 4852,
      "Ġboat": 4853,
      "arts": 4854,
      "ĠLive": 4855,
      "ĠTech": 4856,
      "Ġchalleng": 4857,
      "Ġmob": 4858,
      "Ġachieved": 4859,
      "Ġprogress": 4860,
      "Ġbodies": 4861,
      "Ġbelieve": 4862,
      "Ġstrike": 4863,
      "Ġsports": 4864,
      "Ġmeasure": 4865,
      "ĠCat": 4866,
      "ĠLind": 4867,
      "ĠSquare": 4868,
      "Ġnarrow": 4869,
      "Ġincident": 4870,
      "Ġnegative": 4871,
      "aming": 4872,
      "ev": 4873,
      "Ġcontact": 4874,
      "Ġkilling": 4875,
      "hol": 4876,
      "Ġretired": 4877,
      "ĠFurther": 4878,
      "Ġhistorical": 4879,
      "Ġur": 4880,
      "apers": 4881,
      "ĠOrig": 4882,
      "ĠMul": 4883,
      "Ġfellow": 4884,
      "ienced": 4885,
      "ĠDet": 4886,
      "Ġcriticism": 4887,
      "Ġvo": 4888,
      "orship": 4889,
      "Ġideas": 4890,
      "ĠCoast": 4891,
      "ĠLy": 4892,
      "Ġtorpedo": 4893,
      "Ġrid": 4894,
      "Ġdrive": 4895,
      "Ġtask": 4896,
      "ĠCD": 4897,
      "ĠExp": 4898,
      "Ġbriefly": 4899,
      "onent": 4900,
      "Ġimag": 4901,
      "Ġpet": 4902,
      "iny": 4903,
      "FA": 4904,
      "ima": 4905,
      "ĠHum": 4906,
      "Ġarmed": 4907,
      "BA": 4908,
      "Ġexpansion": 4909,
      "Ġdiam": 4910,
      "Ġeffective": 4911,
      "omy": 4912,
      "ĠJersey": 4913,
      "ĠDue": 4914,
      "ĠMeanwhile": 4915,
      "Ġnecessary": 4916,
      "Ġkilometres": 4917,
      "ĠCrit": 4918,
      "Ġrepeated": 4919,
      "Ġgranted": 4920,
      "ĠBru": 4921,
      "ĠIsrael": 4922,
      "Ġtower": 4923,
      "oln": 4924,
      "Ġreceive": 4925,
      "mosp": 4926,
      "Ġinfantry": 4927,
      "aith": 4928,
      "Ġperman": 4929,
      "Ġrejected": 4930,
      "Ġinterchange": 4931,
      "ĠInstitute": 4932,
      "Ġcolumn": 4933,
      "Ġtwelve": 4934,
      "Ġgross": 4935,
      "Ġdisease": 4936,
      "Ġbudget": 4937,
      "ĠArthur": 4938,
      "ĠSund": 4939,
      "Ġroles": 4940,
      "ĠDoctor": 4941,
      "iana": 4942,
      "ĠFe": 4943,
      "Ġimproved": 4944,
      "ners": 4945,
      "Ġinh": 4946,
      "Ġturns": 4947,
      "Ġroads": 4948,
      "ĠGall": 4949,
      "Ġextensive": 4950,
      "ocks": 4951,
      "Ġstraight": 4952,
      "ĠGerm": 4953,
      "ĠBon": 4954,
      "och": 4955,
      "ĠWild": 4956,
      "ĠRepublican": 4957,
      "avalry": 4958,
      "Ġseat": 4959,
      "kins": 4960,
      "Ġtree": 4961,
      "Ġmile": 4962,
      "Ġlands": 4963,
      "ĠHome": 4964,
      "Ġlanding": 4965,
      "Ġbroken": 4966,
      "Ġdescribes": 4967,
      "Ġparalle": 4968,
      "Ġexpanded": 4969,
      "edom": 4970,
      "Ġsuccessfully": 4971,
      "Ġcrossing": 4972,
      "ĠMir": 4973,
      "iments": 4974,
      "Ġpurpose": 4975,
      "Ġchoice": 4976,
      "ĠAsh": 4977,
      "Ġexpress": 4978,
      "Ġyellow": 4979,
      "Ġfought": 4980,
      "lusion": 4981,
      "Ġtable": 4982,
      "imal": 4983,
      "Ġapplic": 4984,
      "ĠLand": 4985,
      "Ġlearn": 4986,
      "Ġplants": 4987,
      "Ġdata": 4988,
      "ĠCub": 4989,
      "istics": 4990,
      "Ġintellig": 4991,
      "Ġdidn": 4992,
      "Ġcaught": 4993,
      "Ġorganized": 4994,
      "Ġdeliver": 4995,
      "set": 4996,
      "Ġfranch": 4997,
      "ĠBell": 4998,
      "Ġexcl": 4999,
      "Ġroof": 5000,
      "Ġanimal": 5001,
      "Ġsolo": 5002,
      "Ġexplos": 5003,
      "Ġsuggests": 5004,
      "Ġadministration": 5005,
      "ico": 5006,
      "Ġchor": 5007,
      "Ġcommissioned": 5008,
      "Ġdefin": 5009,
      "ĠBoard": 5010,
      "ĠHead": 5011,
      "haps": 5012,
      "Ġancient": 5013,
      "uate": 5014,
      "erc": 5015,
      "ĠSound": 5016,
      "rif": 5017,
      "Ġacquired": 5018,
      "ĠHit": 5019,
      "ourney": 5020,
      "ĠEven": 5021,
      "ola": 5022,
      "ĠIS": 5023,
      "Ġplaces": 5024,
      "Ġdispl": 5025,
      "iday": 5026,
      "ĠSecretary": 5027,
      "Ġvehicles": 5028,
      "iate": 5029,
      "Ġunsu": 5030,
      "rich": 5031,
      "ĠMid": 5032,
      "Ġcommittee": 5033,
      "ĠOhio": 5034,
      "inth": 5035,
      "Ġrow": 5036,
      "Ġleadership": 5037,
      "oma": 5038,
      "Ġcomedy": 5039,
      "ĠBraz": 5040,
      "Ġmanagement": 5041,
      "Ġdrama": 5042,
      "ĠSher": 5043,
      "Ġarticle": 5044,
      "iable": 5045,
      "Ġgives": 5046,
      "Ġfat": 5047,
      "Ġseventh": 5048,
      "appy": 5049,
      "Ġglob": 5050,
      "Ġprefer": 5051,
      "ĠCambridge": 5052,
      "ĠBurn": 5053,
      "ĠCy": 5054,
      "Ġheadquarters": 5055,
      "ĠUs": 5056,
      "Ġroll": 5057,
      "ĠRevolution": 5058,
      "ĠTropical": 5059,
      "akers": 5060,
      "Ġsoft": 5061,
      "ĠSR": 5062,
      "ĠNever": 5063,
      "stream": 5064,
      "adelph": 5065,
      "ĠRon": 5066,
      "ĠWrit": 5067,
      "Ġcontain": 5068,
      "Ġauthorities": 5069,
      "Ġwave": 5070,
      "ĠHarv": 5071,
      "Ġgenus": 5072,
      "etball": 5073,
      "ĠLiver": 5074,
      "Ġdetermined": 5075,
      "Ġbott": 5076,
      "Ġtypes": 5077,
      "Ġcommonly": 5078,
      "ĠPhiladelph": 5079,
      "Ġmentioned": 5080,
      "Ġbeaut": 5081,
      "Ġnuclear": 5082,
      "Ġrecently": 5083,
      "Ġlooking": 5084,
      "ĠLar": 5085,
      "ĠAlso": 5086,
      "Ġcontrolled": 5087,
      "ĠGeorgia": 5088,
      "Ġstreet": 5089,
      "ĠElect": 5090,
      "war": 5091,
      "Ġaim": 5092,
      "etts": 5093,
      "Ġbattalion": 5094,
      "ĠAmong": 5095,
      "Ġislands": 5096,
      "ĠAlbum": 5097,
      "Ġsecurity": 5098,
      "ĠUr": 5099,
      "ms": 5100,
      "attle": 5101,
      "Ġupgr": 5102,
      "Ġdecre": 5103,
      "Ġhousehold": 5104,
      "Ġfinds": 5105,
      "ava": 5106,
      "Ġfamilies": 5107,
      "Ġdrop": 5108,
      "Ġstanding": 5109,
      "Ġsets": 5110,
      "ĠMov": 5111,
      "umes": 5112,
      "Ġsuppor": 5113,
      "ĠPhiladelphia": 5114,
      "Ġunp": 5115,
      "Ġcreation": 5116,
      "ishes": 5117,
      "iations": 5118,
      "Ġadvert": 5119,
      "ĠEarly": 5120,
      "Ġillust": 5121,
      "Ġexperiment": 5122,
      "ĠNintend": 5123,
      "Ġreflect": 5124,
      "Ġsinging": 5125,
      "ĠGil": 5126,
      "oted": 5127,
      "outs": 5128,
      "ĠNintendo": 5129,
      "Ġacad": 5130,
      "Ġfish": 5131,
      "Ġentirely": 5132,
      "uan": 5133,
      "Ġprotect": 5134,
      "ĠRussia": 5135,
      "amin": 5136,
      "ĠJenn": 5137,
      "Ġunique": 5138,
      "Ġdeck": 5139,
      "itled": 5140,
      "uting": 5141,
      "agan": 5142,
      "Ġtouchdown": 5143,
      "Ġsac": 5144,
      "Ġheight": 5145,
      "igr": 5146,
      "Ġdial": 5147,
      "ua": 5148,
      "Ġla": 5149,
      "ĠHay": 5150,
      "ĠEnd": 5151,
      "Ġcontaining": 5152,
      "Ġfinish": 5153,
      "ĠLeg": 5154,
      "Ġcontributed": 5155,
      "ĠProt": 5156,
      "Ġwithdraw": 5157,
      "ĠMah": 5158,
      "Ġhol": 5159,
      "ĠLinc": 5160,
      "ĠColumbia": 5161,
      "Ġorchest": 5162,
      "ĠAddition": 5163,
      "Ġprovides": 5164,
      "ĠLiverpool": 5165,
      "ĠArg": 5166,
      "ii": 5167,
      "once": 5168,
      "Ġmist": 5169,
      "Ġyounger": 5170,
      "Ġdefence": 5171,
      "ĠPrime": 5172,
      "ĠCommon": 5173,
      "Ġflooding": 5174,
      "Ġpurchased": 5175,
      "ĠTro": 5176,
      "acks": 5177,
      "ĠLieutenant": 5178,
      "Ġmis": 5179,
      "Ġscheduled": 5180,
      "Ġstrik": 5181,
      "Ġdefensive": 5182,
      "Ġresemb": 5183,
      "ĠJewish": 5184,
      "Ġthing": 5185,
      "illing": 5186,
      "Ġaccompanied": 5187,
      "ĠKorean": 5188,
      "Ġatmosp": 5189,
      "Ġunus": 5190,
      "rig": 5191,
      "Ġtim": 5192,
      "room": 5193,
      "ulate": 5194,
      "water": 5195,
      "ĠLincoln": 5196,
      "Ġworth": 5197,
      "Ġtry": 5198,
      "ĠEarl": 5199,
      "ipl": 5200,
      "Ġquite": 5201,
      "Ġarrival": 5202,
      "Ġexisting": 5203,
      "Ġperfect": 5204,
      "Ġintensity": 5205,
      "Ġprote": 5206,
      "ĠAsia": 5207,
      "Ġdedicated": 5208,
      "Ġadvantage": 5209,
      "ĠCarey": 5210,
      "Ġbat": 5211,
      "Ġpowers": 5212,
      "zer": 5213,
      "Ġperforming": 5214,
      "Ġextrem": 5215,
      "Ġcultural": 5216,
      "ĠPot": 5217,
      "ĠSingap": 5218,
      "Ġformula": 5219,
      "respond": 5220,
      "Ġconvers": 5221,
      "ĠChap": 5222,
      "ĠWars": 5223,
      "inity": 5224,
      "Ġcomputer": 5225,
      "ĠRol": 5226,
      "ĠBrazil": 5227,
      "Ġceremony": 5228,
      "Ġoccupied": 5229,
      "Ġfresh": 5230,
      "la": 5231,
      "Ġwhy": 5232,
      "uzz": 5233,
      "Ġmounted": 5234,
      "ĠBad": 5235,
      "Ġtitles": 5236,
      "ĠTam": 5237,
      "ym": 5238,
      "Ġmouth": 5239,
      "Ġlocations": 5240,
      "ĠVen": 5241,
      "Ġboats": 5242,
      "ĠFrancisco": 5243,
      "rons": 5244,
      "ĠBor": 5245,
      "fort": 5246,
      "ĠSingapore": 5247,
      "ĠSa": 5248,
      "Ġcurrently": 5249,
      "ĠDark": 5250,
      "ĠDisney": 5251,
      "Ġstore": 5252,
      "Ġclosely": 5253,
      "Ġexpedition": 5254,
      "ĠHun": 5255,
      "ĠPeople": 5256,
      "wall": 5257,
      "Ġconsists": 5258,
      "Ġnob": 5259,
      "laim": 5260,
      "ĠLis": 5261,
      "ĠEp": 5262,
      "agement": 5263,
      "Ġtail": 5264,
      "Ġfix": 5265,
      "ĠBroad": 5266,
      "ĠKel": 5267,
      "mann": 5268,
      "ĠTurn": 5269,
      "Ġphilos": 5270,
      "Station": 5271,
      "racted": 5272,
      "Ġsquad": 5273,
      "Ġcenturies": 5274,
      "Ġsimple": 5275,
      "ĠAnderson": 5276,
      "Ġmic": 5277,
      "Ġcold": 5278,
      "ĠOffice": 5279,
      "Ġlic": 5280,
      "Ġsupporting": 5281,
      "ĠFam": 5282,
      "ashion": 5283,
      "ĠPlayStation": 5284,
      "ĠMiller": 5285,
      "ĠLewis": 5286,
      "Ġpiano": 5287,
      "Ġelimin": 5288,
      "ĠSteve": 5289,
      "Ġdrawn": 5290,
      "Ġegg": 5291,
      "Ġrated": 5292,
      "Ġcry": 5293,
      "ĠStorm": 5294,
      "Ġsession": 5295,
      "ĠOnce": 5296,
      "Ġindustrial": 5297,
      "ĠSix": 5298,
      "Ġbelong": 5299,
      "Ġsurvey": 5300,
      "ĠMot": 5301,
      "atures": 5302,
      "Ġdefined": 5303,
      "Ġtrains": 5304,
      "ĠBrian": 5305,
      "inger": 5306,
      "ilton": 5307,
      "ĠDie": 5308,
      "ĠKey": 5309,
      "ĠGrant": 5310,
      "ĠPu": 5311,
      "Ġgraph": 5312,
      "Ġprotected": 5313,
      "hens": 5314,
      "ĠBrook": 5315,
      "Ġfocused": 5316,
      "Ġprotection": 5317,
      "Ġthemes": 5318,
      "Ġaid": 5319,
      "Ġharm": 5320,
      "Ġinteract": 5321,
      "Ġreceiving": 5322,
      "ĠJun": 5323,
      "Ġhair": 5324,
      "Ġengaged": 5325,
      "ingly": 5326,
      "ĠConference": 5327,
      "Ġthrow": 5328,
      "Ġcalls": 5329,
      "Ġregions": 5330,
      "ĠBalt": 5331,
      "Ġlap": 5332,
      "Ġpros": 5333,
      "Ġadap": 5334,
      "Ġrise": 5335,
      "ĠEmperor": 5336,
      "Ġopportunity": 5337,
      "Ġcomic": 5338,
      "Ġstrengthen": 5339,
      "Ġsubmar": 5340,
      "Ġmotion": 5341,
      "mouth": 5342,
      "ĠSu": 5343,
      "ĠBas": 5344,
      "Ġtrail": 5345,
      "ĠShak": 5346,
      "icial": 5347,
      "zant": 5348,
      "Ġexperienced": 5349,
      "Ġlabor": 5350,
      "Ġshooting": 5351,
      "Ġmotor": 5352,
      "Ġdry": 5353,
      "ĠAtt": 5354,
      "Ġmountain": 5355,
      "Ġcitizens": 5356,
      "awa": 5357,
      "ĠOrder": 5358,
      "Ġcorrespond": 5359,
      "Ġholding": 5360,
      "Ġsoutheast": 5361,
      "Ġ#": 5362,
      "gn": 5363,
      "Ġproviding": 5364,
      "ĠGi": 5365,
      "Ġeyes": 5366,
      "Ġresident": 5367,
      "ĠGermans": 5368,
      "Ġstructures": 5369,
      "ĠJr": 5370,
      "ba": 5371,
      "Ġcricket": 5372,
      "Ġnotable": 5373,
      "Ġrapidly": 5374,
      "Ġsport": 5375,
      "iter": 5376,
      "ĠGib": 5377,
      "Ġconference": 5378,
      "ĠByzant": 5379,
      "Ġviewed": 5380,
      "Ġhired": 5381,
      "ĠOlympic": 5382,
      "ĠPo": 5383,
      "ĠPress": 5384,
      "Ġshark": 5385,
      "ĠNHL": 5386,
      "ifically": 5387,
      "ĠOnly": 5388,
      "ĠBarb": 5389,
      "osa": 5390,
      "ware": 5391,
      "Ġobserv": 5392,
      "ĠWalter": 5393,
      "ĠSerb": 5394,
      "Ġcasualties": 5395,
      "Ġrecognized": 5396,
      "Ġfacilities": 5397,
      "sey": 5398,
      "Ġvisual": 5399,
      "Ġbranch": 5400,
      "Ã¸": 5401,
      "Ġmut": 5402,
      "restling": 5403,
      "ĠHollywood": 5404,
      "ĠMas": 5405,
      "box": 5406,
      "Ġvac": 5407,
      "yles": 5408,
      "ĠGulf": 5409,
      "ĠRadio": 5410,
      "essed": 5411,
      "opher": 5412,
      "Ġawards": 5413,
      "ĠLab": 5414,
      "ĠDavis": 5415,
      "Ġscholars": 5416,
      "Ġgain": 5417,
      "Ġselection": 5418,
      "Ġtransform": 5419,
      "Ġvolume": 5420,
      "Ġshared": 5421,
      "Ġedge": 5422,
      "ĠChart": 5423,
      "Ġrob": 5424,
      "Ġsteel": 5425,
      "Ġmerch": 5426,
      "ĠâĪ": 5427,
      "Ġparallel": 5428,
      "Ġwa": 5429,
      "Ġcart": 5430,
      "ĠHMS": 5431,
      "Ġmoder": 5432,
      "ĠRome": 5433,
      "Ġdeveloping": 5434,
      "ĠDemocratic": 5435,
      "amm": 5436,
      "Ġdigital": 5437,
      "Ġconcer": 5438,
      "ĠUN": 5439,
      "Ġintersection": 5440,
      "ĠKa": 5441,
      "Ġheads": 5442,
      "ĠKir": 5443,
      "Ġtemperature": 5444,
      "Ġteach": 5445,
      "heim": 5446,
      "ĠVar": 5447,
      "Ġcool": 5448,
      "ĠChild": 5449,
      "standing": 5450,
      "ĠJean": 5451,
      "ĠRailway": 5452,
      "Ġapproved": 5453,
      "burgh": 5454,
      "ĠGreg": 5455,
      "Ġchance": 5456,
      "Ġeconomy": 5457,
      "iration": 5458,
      "olt": 5459,
      "ĠBeyonce": 5460,
      "Ġwitness": 5461,
      "Ġhyp": 5462,
      "Ġsubstant": 5463,
      "ologist": 5464,
      "Ġprepared": 5465,
      "omew": 5466,
      "Ġenl": 5467,
      "yer": 5468,
      "worth": 5469,
      "Ġsecondary": 5470,
      "Ġrac": 5471,
      "Ġven": 5472,
      "Ġsignificantly": 5473,
      "Ġvon": 5474,
      "Ġlosses": 5475,
      "Ġsites": 5476,
      "ĠRet": 5477,
      "FL": 5478,
      "ĠNaz": 5479,
      "ĠBetween": 5480,
      "ĠSummer": 5481,
      "Ġsymbol": 5482,
      "Ġsave": 5483,
      "ĠGord": 5484,
      "Ġton": 5485,
      "Ġunsuccess": 5486,
      "Ġsort": 5487,
      "Ġknew": 5488,
      "Ġbands": 5489,
      "ĠDaily": 5490,
      "iful": 5491,
      "Ġinstruct": 5492,
      "ĠNap": 5493,
      "Ġsouthwest": 5494,
      "Ġletters": 5495,
      "ĠWater": 5496,
      "ali": 5497,
      "Ġgoes": 5498,
      "Ġroughly": 5499,
      "Ġpublication": 5500,
      "ĠBank": 5501,
      "Ġdomestic": 5502,
      "Ġdescend": 5503,
      "ĠPrinc": 5504,
      "ĠSyd": 5505,
      "Ġbelief": 5506,
      "ĠLady": 5507,
      "ĠMusl": 5508,
      "Ġtank": 5509,
      "Ġcard": 5510,
      "ĠSand": 5511,
      "ador": 5512,
      "onder": 5513,
      "Ġfranchise": 5514,
      "ĠMu": 5515,
      "roll": 5516,
      "ĠMos": 5517,
      "ĠProv": 5518,
      "Ġanything": 5519,
      "Ġactress": 5520,
      "theless": 5521,
      "ĠColonel": 5522,
      "ato": 5523,
      "Ġlb": 5524,
      "Ġpitch": 5525,
      "Ġadvent": 5526,
      "Ġcharts": 5527,
      "ĠMun": 5528,
      "ĠFall": 5529,
      "Ġurban": 5530,
      "unte": 5531,
      "ĠInc": 5532,
      "Ġshape": 5533,
      "Ġbrothers": 5534,
      "Ġcore": 5535,
      "Ġmyth": 5536,
      "Ġsteam": 5537,
      "Ġpainting": 5538,
      "Ġexact": 5539,
      "Ġadult": 5540,
      "Ġanalysis": 5541,
      "Ġemployed": 5542,
      "Ġsemi": 5543,
      "Ġsand": 5544,
      "ĠDown": 5545,
      "enc": 5546,
      "Ġcars": 5547,
      "Ġinjured": 5548,
      "yph": 5549,
      "Ġassault": 5550,
      "Ġgameplay": 5551,
      "achus": 5552,
      "Ġstoryline": 5553,
      "ropri": 5554,
      "Ġdaily": 5555,
      "Ġreasons": 5556,
      "Ġign": 5557,
      "Ġshall": 5558,
      "Ġcab": 5559,
      "Ġshaped": 5560,
      "aka": 5561,
      "Ġagent": 5562,
      "ĠPublic": 5563,
      "vention": 5564,
      "Ġwatched": 5565,
      "ĠBern": 5566,
      "Ġet": 5567,
      "ĠSpecial": 5568,
      "Ġresistance": 5569,
      "asty": 5570,
      "ographic": 5571,
      "ĠPhilipp": 5572,
      "avel": 5573,
      "Ġfit": 5574,
      "ĠOb": 5575,
      "ĠNick": 5576,
      "ella": 5577,
      "Ġperhaps": 5578,
      "ients": 5579,
      "Ġdeclined": 5580,
      "Ġtechnology": 5581,
      "ĠSel": 5582,
      "Ġrenamed": 5583,
      "ĠTen": 5584,
      "Ġisol": 5585,
      "Ġadding": 5586,
      "Ġgetting": 5587,
      "Ġenjoyed": 5588,
      "atre": 5589,
      "ĠPoint": 5590,
      "Ġcompris": 5591,
      "Ġrules": 5592,
      "eral": 5593,
      "ĠRoss": 5594,
      "ĠWhit": 5595,
      "zen": 5596,
      "ĠHan": 5597,
      "Ġpersonnel": 5598,
      "onym": 5599,
      "Ġconnected": 5600,
      "Ġlov": 5601,
      "ĠIV": 5602,
      "ulpt": 5603,
      "Ġundert": 5604,
      "Ġpoem": 5605,
      "Ġconverted": 5606,
      "break": 5607,
      "ĠCommand": 5608,
      "va": 5609,
      "Ġdrew": 5610,
      "Ġnor": 5611,
      "Ġtend": 5612,
      "rence": 5613,
      "Ġcalc": 5614,
      "Ġreaction": 5615,
      "ĠSupreme": 5616,
      "bound": 5617,
      "Ġrend": 5618,
      "ĠFair": 5619,
      "otic": 5620,
      "ĠSpring": 5621,
      "iminal": 5622,
      "Ġdistingu": 5623,
      "Ġallows": 5624,
      "Ġpopularity": 5625,
      "ira": 5626,
      "Ġheaded": 5627,
      "Ġregarding": 5628,
      "ĠKentucky": 5629,
      "ĠNorway": 5630,
      "Ġestate": 5631,
      "ceived": 5632,
      "Ġagricult": 5633,
      "istan": 5634,
      "Ġmuseum": 5635,
      "rin": 5636,
      "Ġincreasingly": 5637,
      "Ġnick": 5638,
      "Ġturning": 5639,
      "Ġopinion": 5640,
      "rets": 5641,
      "Ġdepth": 5642,
      "Ġalternative": 5643,
      "itors": 5644,
      "Ġmissing": 5645,
      "Ġhydro": 5646,
      "ĠBall": 5647,
      "ĠGra": 5648,
      "Ġapproached": 5649,
      "ults": 5650,
      "Ġreputation": 5651,
      "Ġresponded": 5652,
      "ĠSus": 5653,
      "istol": 5654,
      "Ġliterature": 5655,
      "Ġstages": 5656,
      "Ġcited": 5657,
      "rett": 5658,
      "ora": 5659,
      "ĠIndust": 5660,
      "Ġprojects": 5661,
      "athan": 5662,
      "ĠMassachus": 5663,
      "eper": 5664,
      "Ġjourney": 5665,
      "Ġoverl": 5666,
      "Ġstadium": 5667,
      "Ġeasily": 5668,
      "inking": 5669,
      "Ġexerc": 5670,
      "ĠStation": 5671,
      "ĠWalk": 5672,
      "Ġtall": 5673,
      "Ġknowledge": 5674,
      "ĠWomen": 5675,
      "Ġwealth": 5676,
      "ĠMassachusetts": 5677,
      "ĠCa": 5678,
      "gal": 5679,
      "Ġcollected": 5680,
      "Ġsucceeded": 5681,
      "ĠDream": 5682,
      "ĠHart": 5683,
      "Ġescort": 5684,
      "Ġplanning": 5685,
      "Ġsustained": 5686,
      "iform": 5687,
      "Ġfashion": 5688,
      "Ġintroduction": 5689,
      "ĠGolden": 5690,
      "osl": 5691,
      "ĠIndepend": 5692,
      "Ġequal": 5693,
      "verse": 5694,
      "ules": 5695,
      "eman": 5696,
      "omic": 5697,
      "Ġoccas": 5698,
      "Ġexistence": 5699,
      "Ġrebu": 5700,
      "Ġlearned": 5701,
      "Ġpul": 5702,
      "Ġtowns": 5703,
      "ĠAbb": 5704,
      "wise": 5705,
      "ĠBase": 5706,
      "Ġtrip": 5707,
      "Ġoperating": 5708,
      "Ġcells": 5709,
      "ĠLet": 5710,
      "apes": 5711,
      "Ġconstitution": 5712,
      "iat": 5713,
      "ĠAbout": 5714,
      "Ġcarrying": 5715,
      "oir": 5716,
      "ĠAirport": 5717,
      "Ġrhy": 5718,
      "ĠKen": 5719,
      "Ġauth": 5720,
      "ads": 5721,
      "Ġretire": 5722,
      "lan": 5723,
      "Ġflu": 5724,
      "ĠPrem": 5725,
      "Ġshowing": 5726,
      "onia": 5727,
      "Ġburied": 5728,
      "ĠBal": 5729,
      "ĠImperial": 5730,
      "Ġyouth": 5731,
      "ignment": 5732,
      "Ġsafety": 5733,
      "Ġweakened": 5734,
      "Ġexchange": 5735,
      "era": 5736,
      "Ġviews": 5737,
      "Ġbed": 5738,
      "mitted": 5739,
      "ĠAD": 5740,
      "psons": 5741,
      "Ġseems": 5742,
      "Ġcredited": 5743,
      "ĠâĪĴ": 5744,
      "ĠMcG": 5745,
      "Ġlimit": 5746,
      "Ġimprove": 5747,
      "Ġpaint": 5748,
      "ĠHa": 5749,
      "Ġarranged": 5750,
      "ati": 5751,
      "ĠShortly": 5752,
      "ĠSimpsons": 5753,
      "Ġearliest": 5754,
      "iege": 5755,
      "Ġshel": 5756,
      "Ġlasted": 5757,
      "uration": 5758,
      "Ġretained": 5759,
      "Ġimpl": 5760,
      "Ġproducing": 5761,
      "Ġfreeway": 5762,
      "ĠOlympics": 5763,
      "Ġvan": 5764,
      "Ġjoint": 5765,
      "ĠLeon": 5766,
      "lee": 5767,
      "ĠJay": 5768,
      "Ġacres": 5769,
      "Ġflat": 5770,
      "come": 5771,
      "Ġlandfall": 5772,
      "Ġathlet": 5773,
      "ĠRoy": 5774,
      "Ġproceed": 5775,
      "ns": 5776,
      "eler": 5777,
      "Ġmodels": 5778,
      "ĠHon": 5779,
      "iling": 5780,
      "ivered": 5781,
      "ĠSydney": 5782,
      "Ġnote": 5783,
      "ĠMaria": 5784,
      "leton": 5785,
      "ĠCape": 5786,
      "ader": 5787,
      "Ġreserve": 5788,
      "Ġdesigns": 5789,
      "ko": 5790,
      "ĠMoore": 5791,
      "ĠBra": 5792,
      "Ġreplace": 5793,
      "Ġsculpt": 5794,
      "Ġassistant": 5795,
      "iger": 5796,
      "Ġbaseball": 5797,
      "ĠMTV": 5798,
      "ivalent": 5799,
      "Ġinstall": 5800,
      "reets": 5801,
      "inary": 5802,
      "Ġcatch": 5803,
      "put": 5804,
      "hr": 5805,
      "ĠVietnam": 5806,
      "Ġentrance": 5807,
      "Ġvirt": 5808,
      "Ġapplied": 5809,
      "icks": 5810,
      "Ġhits": 5811,
      "ĠPict": 5812,
      "ĠReview": 5813,
      "Ġlaws": 5814,
      "Ġstatement": 5815,
      "Ġcoastal": 5816,
      "insula": 5817,
      "ĠStew": 5818,
      "ilding": 5819,
      "Ġmaintain": 5820,
      "Ġexclus": 5821,
      "AR": 5822,
      "Ġdelivered": 5823,
      "Ġtrust": 5824,
      "Ġerr": 5825,
      "Ġgenre": 5826,
      "Ġalle": 5827,
      "Ġconsequ": 5828,
      "ĠPoland": 5829,
      "ĠJes": 5830,
      "friend": 5831,
      "Ġneut": 5832,
      "apped": 5833,
      "Ġstopped": 5834,
      "Ġsettlement": 5835,
      "Ġgradually": 5836,
      "rell": 5837,
      "gers": 5838,
      "ĠNaval": 5839,
      "Ġinte": 5840,
      "ĠSongs": 5841,
      "Ġscientific": 5842,
      "Ġsections": 5843,
      "Ġviolence": 5844,
      "ources": 5845,
      "oard": 5846,
      "Ġfilled": 5847,
      "Ġitems": 5848,
      "Ġbattery": 5849,
      "Ġcinem": 5850,
      "ĠIG": 5851,
      "ĠBos": 5852,
      "Ġcandidate": 5853,
      "Ġsynt": 5854,
      "ĠOttoman": 5855,
      "Ġuns": 5856,
      "Ġappoint": 5857,
      "issance": 5858,
      "Ġsupplies": 5859,
      "Ġprograms": 5860,
      "ĠJan": 5861,
      "tical": 5862,
      "Ġban": 5863,
      "oz": 5864,
      "eless": 5865,
      "ĠConst": 5866,
      "Ġindicated": 5867,
      "state": 5868,
      "engers": 5869,
      "Ġcombination": 5870,
      "time": 5871,
      "Ġstream": 5872,
      "Ġemp": 5873,
      "Ġways": 5874,
      "ĠMulder": 5875,
      "ĠWho": 5876,
      "Ġselect": 5877,
      "avig": 5878,
      "Ġpatrol": 5879,
      "othes": 5880,
      "ĠMaryland": 5881,
      "Ġcamera": 5882,
      "Ġtact": 5883,
      "Ġengines": 5884,
      "ĠKim": 5885,
      "ĠRhodes": 5886,
      "ela": 5887,
      "ifications": 5888,
      "Ġregister": 5889,
      "ushing": 5890,
      "Ġglass": 5891,
      "bell": 5892,
      "Ġprisoners": 5893,
      "Ġsecure": 5894,
      "rec": 5895,
      "ĠAC": 5896,
      "Ġentitled": 5897,
      "Ġextremely": 5898,
      "ĠAk": 5899,
      "Ġparties": 5900,
      "Ġappeal": 5901,
      "arp": 5902,
      "ĠAri": 5903,
      "Ġhumans": 5904,
      "osis": 5905,
      "ĠArts": 5906,
      "emies": 5907,
      "Ġbask": 5908,
      "ĠConfeder": 5909,
      "Ġtal": 5910,
      "Ġfinding": 5911,
      "AT": 5912,
      "Ġindependence": 5913,
      "ĠGordon": 5914,
      "Ġevening": 5915,
      "ĠCur": 5916,
      "ĠMain": 5917,
      "Ġplayoff": 5918,
      "Ġacts": 5919,
      "Ġregiment": 5920,
      "Ġadapted": 5921,
      "Ġonline": 5922,
      "ÅĤ": 5923,
      "ĠWell": 5924,
      "ĠTheatre": 5925,
      "Ġbought": 5926,
      "ĠPlan": 5927,
      "Ġdecade": 5928,
      "Ġknots": 5929,
      "Ġsurvived": 5930,
      "Ġcampus": 5931,
      "Ġwinner": 5932,
      "ropol": 5933,
      "ĠBowl": 5934,
      "Ġsomew": 5935,
      "Ġsun": 5936,
      "idden": 5937,
      "Ġthreatened": 5938,
      "Ġtick": 5939,
      "Ġruled": 5940,
      "Ġwrites": 5941,
      "Ġmessage": 5942,
      "ashed": 5943,
      "Ġstudied": 5944,
      "iversary": 5945,
      "Ġdeaths": 5946,
      "izations": 5947,
      "ĠInstead": 5948,
      "Ġfear": 5949,
      "Ġdescript": 5950,
      "Ġaddress": 5951,
      "ĠPass": 5952,
      "Ġarc": 5953,
      "poration": 5954,
      "Ġdownload": 5955,
      "Ġvoted": 5956,
      "Ġconsum": 5957,
      "Ġreduce": 5958,
      "Ġspecifically": 5959,
      "Ġtanks": 5960,
      "ĠInit": 5961,
      "Ġpromotion": 5962,
      "ĠConstant": 5963,
      "ĠUnivers": 5964,
      "Ġrelief": 5965,
      "hat": 5966,
      "Ġmales": 5967,
      "inois": 5968,
      "Ġcrown": 5969,
      "ighters": 5970,
      "Ġportrayed": 5971,
      "bro": 5972,
      "ĠHere": 5973,
      "Ġrecalled": 5974,
      "ja": 5975,
      "ĠFire": 5976,
      "Ġfict": 5977,
      "ĠStadium": 5978,
      "vest": 5979,
      "Ġcomposition": 5980,
      "BN": 5981,
      "Ġimplement": 5982,
      "Ġproposal": 5983,
      "ĠStaff": 5984,
      "ĠSimon": 5985,
      "Ġble": 5986,
      "Ġeverything": 5987,
      "ĠVill": 5988,
      "ĠAnth": 5989,
      "Ġwars": 5990,
      "Ġcapable": 5991,
      "Ġbottom": 5992,
      "Ġsoul": 5993,
      "ĠCop": 5994,
      "aked": 5995,
      "Ġstret": 5996,
      "Ġconvin": 5997,
      "ĠOk": 5998,
      "Ġdetails": 5999,
      "chers": 6000,
      "Ġspons": 6001,
      "Ġsell": 6002,
      "Ġinvestigation": 6003,
      "Ġduty": 6004,
      "Ġkingdom": 6005,
      "Ġrevolution": 6006,
      "cious": 6007,
      "Ġopera": 6008,
      "Ġago": 6009,
      "Ġreligion": 6010,
      "ta": 6011,
      "Ġoffers": 6012,
      "ervative": 6013,
      "Ġcrossed": 6014,
      "bourne": 6015,
      "Ġteacher": 6016,
      "ĠJustice": 6017,
      "Ġemerg": 6018,
      "BS": 6019,
      "Ġarrested": 6020,
      "adow": 6021,
      "ĠNic": 6022,
      "Ġsufficient": 6023,
      "entially": 6024,
      "ĠBir": 6025,
      "aki": 6026,
      "ĠTony": 6027,
      "Ġcauses": 6028,
      "Ġimportance": 6029,
      "ĠBack": 6030,
      "ĠOd": 6031,
      "Ġadmitted": 6032,
      "ĠAst": 6033,
      "Ġcorner": 6034,
      "uro": 6035,
      "Ġequipped": 6036,
      "Ġinstalled": 6037,
      "bar": 6038,
      "Ġowner": 6039,
      "iques": 6040,
      "met": 6041,
      "Ġbreeding": 6042,
      "ĠIGN": 6043,
      "ĠPit": 6044,
      "ĠMcK": 6045,
      "Ġentry": 6046,
      "Ġmeters": 6047,
      "Ġinternal": 6048,
      "ĠKong": 6049,
      "aug": 6050,
      "Ġoverse": 6051,
      "Ġstarts": 6052,
      "ĠRem": 6053,
      "ras": 6054,
      "ĠNel": 6055,
      "Ġinvited": 6056,
      "Ġmort": 6057,
      "Ġtell": 6058,
      "ĠAdams": 6059,
      "aints": 6060,
      "ician": 6061,
      "Ġones": 6062,
      "ĠUTC": 6063,
      "ĠAlan": 6064,
      "Ġrecommended": 6065,
      "Ġunl": 6066,
      "Ġautom": 6067,
      "Ġinterested": 6068,
      "ĠJane": 6069,
      "ansas": 6070,
      "Ġbor": 6071,
      "Ġconvoy": 6072,
      "ĠDirector": 6073,
      "Ġpreced": 6074,
      "Ġprincipal": 6075,
      "Ġpolitics": 6076,
      "ĠBand": 6077,
      "Ġactual": 6078,
      "Ġshut": 6079,
      "Ġremainder": 6080,
      "ĠHamilton": 6081,
      "ĠDougl": 6082,
      "ĠAlf": 6083,
      "ĠBeach": 6084,
      "espread": 6085,
      "Ġnomination": 6086,
      "Ġmun": 6087,
      "Ġalt": 6088,
      "Ġphase": 6089,
      "Ġroutes": 6090,
      "ĠJord": 6091,
      "Ġproducts": 6092,
      "Ġconcerns": 6093,
      "senal": 6094,
      "Ġdoor": 6095,
      "Ġconsisting": 6096,
      "ĠMoon": 6097,
      "Ġcharged": 6098,
      "Ġcrime": 6099,
      "Ġsolid": 6100,
      "Ġfly": 6101,
      "ĠCirc": 6102,
      "ĠAdam": 6103,
      "Ġpromote": 6104,
      "Ġapart": 6105,
      "Ġacid": 6106,
      "Ġretreat": 6107,
      "Ġmedal": 6108,
      "Ġconsiderable": 6109,
      "anean": 6110,
      "iy": 6111,
      "Ġtunn": 6112,
      "ĠHo": 6113,
      "ĠRun": 6114,
      "Ġfunds": 6115,
      "ctions": 6116,
      "Ġfemales": 6117,
      "ieval": 6118,
      "Ġprice": 6119,
      "ĠId": 6120,
      "ĠEric": 6121,
      "rete": 6122,
      "Ġmilit": 6123,
      "ĠKennedy": 6124,
      "ĠVII": 6125,
      "Ġsnow": 6126,
      "erted": 6127,
      "Ġpage": 6128,
      "wich": 6129,
      "ĠAge": 6130,
      "Ġconqu": 6131,
      "Ġstock": 6132,
      "Ġnest": 6133,
      "Ġblow": 6134,
      "Ġcomposer": 6135,
      "ĠBol": 6136,
      "Ġtypical": 6137,
      "ĠIndones": 6138,
      "ĠGram": 6139,
      "Ġgrounds": 6140,
      "Ġhotel": 6141,
      "osaurus": 6142,
      "Ġsomeone": 6143,
      "ĠCart": 6144,
      "Ġeighth": 6145,
      "ĠPower": 6146,
      "Ġrural": 6147,
      "Ġcorrect": 6148,
      "ĠEngine": 6149,
      "Ġgall": 6150,
      "Ġobjects": 6151,
      "entions": 6152,
      "Ġsole": 6153,
      "Ġpoly": 6154,
      "Ġdecades": 6155,
      "wick": 6156,
      "ilation": 6157,
      "Ġpenal": 6158,
      "ĠHitler": 6159,
      "ĠYour": 6160,
      "Ġvent": 6161,
      "ĠForest": 6162,
      "yphoon": 6163,
      "Ġdriving": 6164,
      "Ġintegr": 6165,
      "BI": 6166,
      "Ġdates": 6167,
      "Ġduties": 6168,
      "Ġlane": 6169,
      "ĠRel": 6170,
      "osite": 6171,
      "ĠNether": 6172,
      "ĠMarc": 6173,
      "Ġimages": 6174,
      "after": 6175,
      "Ġzone": 6176,
      "Ġham": 6177,
      "Ġmanner": 6178,
      "Ġoccurs": 6179,
      "hus": 6180,
      "ĠSunday": 6181,
      "Ġpermanent": 6182,
      "ĠHoward": 6183,
      "Ġdated": 6184,
      "ĠScully": 6185,
      "Ġextension": 6186,
      "Ġbrigade": 6187,
      "Ġchallenge": 6188,
      "Ġskin": 6189,
      "Ġsubs": 6190,
      "ĠTurk": 6191,
      "Ġ>": 6192,
      "Ġaer": 6193,
      "Ġfrag": 6194,
      "ĠMemorial": 6195,
      "ĠFreder": 6196,
      "ĠBry": 6197,
      "ĠWWE": 6198,
      "Ġreading": 6199,
      "ĠToday": 6200,
      "oh": 6201,
      "Ġnoting": 6202,
      "Ġspin": 6203,
      "hetic": 6204,
      "iller": 6205,
      "Ġslowly": 6206,
      "Ġvolcan": 6207,
      "Ġposted": 6208,
      "ĠNorwe": 6209,
      "ĠDal": 6210,
      "Ġremix": 6211,
      "Ġcolour": 6212,
      "Ġvessels": 6213,
      "ĠHou": 6214,
      "Ġspeak": 6215,
      "Ġdistribution": 6216,
      "Ġrestaur": 6217,
      "ĠColl": 6218,
      "Ġdescribing": 6219,
      "Ġinvolving": 6220,
      "cknow": 6221,
      "Ġentering": 6222,
      "Ġsupporters": 6223,
      "Ġvir": 6224,
      "Ġaspects": 6225,
      "ĠIndiana": 6226,
      "Ġclean": 6227,
      "Ġenemies": 6228,
      "ĠTar": 6229,
      "ĠGill": 6230,
      "fl": 6231,
      "Ġdepartment": 6232,
      "ĠFA": 6233,
      "Ġobtained": 6234,
      "ĠLoc": 6235,
      "ubb": 6236,
      "Ġsettled": 6237,
      "Ġoldest": 6238,
      "Ġequivalent": 6239,
      "Ġdress": 6240,
      "osh": 6241,
      "ĠRyan": 6242,
      "Ġwidespread": 6243,
      "ĠNBA": 6244,
      "Ġtele": 6245,
      "Ġpurchase": 6246,
      "iley": 6247,
      "Ġclasses": 6248,
      "Ġdin": 6249,
      "ĠPortug": 6250,
      "ĠKat": 6251,
      "Ġattached": 6252,
      "Ġbasic": 6253,
      "ĠHug": 6254,
      "ĠMagazine": 6255,
      "regon": 6256,
      "Ġconcerned": 6257,
      "ĠPear": 6258,
      "ensus": 6259,
      "Ġsongwrit": 6260,
      "Ġidentity": 6261,
      "ĠRose": 6262,
      "ĠEs": 6263,
      "ĠThroughout": 6264,
      "ione": 6265,
      "Ġaccused": 6266,
      "Ġformal": 6267,
      "Ġcertified": 6268,
      "Ġfaith": 6269,
      "hered": 6270,
      "Ġha": 6271,
      "Ġincome": 6272,
      "ĠFeder": 6273,
      "Ġpup": 6274,
      "AAF": 6275,
      "Ġaccur": 6276,
      "Ġarmor": 6277,
      "ĠAssembly": 6278,
      "Ġpret": 6279,
      "Ġparliament": 6280,
      "Ġconnection": 6281,
      "heastern": 6282,
      "Ġderived": 6283,
      "ĠArgent": 6284,
      "Ġec": 6285,
      "Ġdeleg": 6286,
      "Ġdisturb": 6287,
      "Ġouter": 6288,
      "Ġcommitted": 6289,
      "Ġdebate": 6290,
      "ĠMountain": 6291,
      "Ġll": 6292,
      "ĠAz": 6293,
      "orney": 6294,
      "ĠMedit": 6295,
      "Ġacknow": 6296,
      "Ġassumed": 6297,
      "Ġhosted": 6298,
      "ez": 6299,
      "ĠLenn": 6300,
      "Ġwearing": 6301,
      "Ġcontroversy": 6302,
      "Ġ<": 6303,
      "ĠPier": 6304,
      "ĠRolling": 6305,
      "ĠSpace": 6306,
      "ĠFive": 6307,
      "ĠDouglas": 6308,
      "icit": 6309,
      "Ġhip": 6310,
      "Ġwarm": 6311,
      "ĠProg": 6312,
      "ĠAndy": 6313,
      "ĠâĢĿ": 6314,
      "aware": 6315,
      "ooth": 6316,
      "Ġmode": 6317,
      "ĠNow": 6318,
      "erto": 6319,
      "Ġdenied": 6320,
      "ommod": 6321,
      "ca": 6322,
      "ovic": 6323,
      "western": 6324,
      "ĠGen": 6325,
      "Ġterminus": 6326,
      "Ġflo": 6327,
      "ĠIllinois": 6328,
      "Ġfine": 6329,
      "Ġfolk": 6330,
      "veland": 6331,
      "Ġsegment": 6332,
      "iva": 6333,
      "aret": 6334,
      "Ġreturns": 6335,
      "Ġfoss": 6336,
      "Ġtemple": 6337,
      "agonist": 6338,
      "Ġcong": 6339,
      "Ġdecor": 6340,
      "Ġvalley": 6341,
      "alog": 6342,
      "Ġregional": 6343,
      "ĠScience": 6344,
      "Ġchampion": 6345,
      "Ġthousands": 6346,
      "ĠRoger": 6347,
      "ĠOregon": 6348,
      "Ġsupposed": 6349,
      "Ġpopulations": 6350,
      "Ġcircum": 6351,
      "Ġimprov": 6352,
      "ĠMediterr": 6353,
      "Ġcharges": 6354,
      "Ġsequel": 6355,
      "ĠSav": 6356,
      "Ġacclaim": 6357,
      "Ġmemorial": 6358,
      "ĠConstitution": 6359,
      "ĠISBN": 6360,
      "Ġevolution": 6361,
      "ĠKevin": 6362,
      "ĠJordan": 6363,
      "ivals": 6364,
      "Ġdemand": 6365,
      "Ġswim": 6366,
      "wan": 6367,
      "Ġdowntown": 6368,
      "Ġshots": 6369,
      "ĠProject": 6370,
      "ĠLow": 6371,
      "Ġliterary": 6372,
      "Ġdeparture": 6373,
      "Ġhang": 6374,
      "Ġtransition": 6375,
      "Ġstrongly": 6376,
      "ĠâĢľ": 6377,
      "Ġwickets": 6378,
      "ĠPhilip": 6379,
      "Ġdecline": 6380,
      "ĠBruce": 6381,
      "Ġsailed": 6382,
      "idges": 6383,
      "Ġsessions": 6384,
      "imb": 6385,
      "ĠAnton": 6386,
      "ĠCleveland": 6387,
      "ĠStanley": 6388,
      "ophy": 6389,
      "udden": 6390,
      "Ġtorn": 6391,
      "emed": 6392,
      "nic": 6393,
      "Ġintelligence": 6394,
      "Ġpossibility": 6395,
      "ĠVideo": 6396,
      "Ġcanc": 6397,
      "Ġcirculation": 6398,
      "ĠArsenal": 6399,
      "velopment": 6400,
      "ĠBeatles": 6401,
      "heme": 6402,
      "Ġpassengers": 6403,
      "ĠScient": 6404,
      "ĠNorwegian": 6405,
      "Ġthirty": 6406,
      "ĠInt": 6407,
      "Ġhill": 6408,
      "RA": 6409,
      "ĠBristol": 6410,
      "Ġanimated": 6411,
      "ĠWeekly": 6412,
      "Ġfictional": 6413,
      "ĠMediterranean": 6414,
      "Ġhope": 6415,
      "Ġansw": 6416,
      "risis": 6417,
      "ĠTenn": 6418,
      "achel": 6419,
      "pet": 6420,
      "Ġcommanded": 6421,
      "ĠIra": 6422,
      "Ġfreedom": 6423,
      "agues": 6424,
      "Ġrich": 6425,
      "Ġbegun": 6426,
      "Ġcommit": 6427,
      "reck": 6428,
      "abb": 6429,
      "Ġcloud": 6430,
      "Ġfruit": 6431,
      "ĠBush": 6432,
      "Ġx": 6433,
      "Ġmissed": 6434,
      "Ġassistance": 6435,
      "ĠRain": 6436,
      "Ġtied": 6437,
      "ĠTreat": 6438,
      "ĠChannel": 6439,
      "Ġbrain": 6440,
      "Ġexception": 6441,
      "atinum": 6442,
      "eing": 6443,
      "ĠMexican": 6444,
      "Ġminister": 6445,
      "Ġreplacement": 6446,
      "ĠFound": 6447,
      "Ġbringing": 6448,
      "Ġgeneration": 6449,
      "Ġfeeling": 6450,
      "Ġhighlight": 6451,
      "Ġvolunte": 6452,
      "IA": 6453,
      "Ġintention": 6454,
      "ĠAdditionally": 6455,
      "Ġdestruction": 6456,
      "ĠRaj": 6457,
      "Ġfinishing": 6458,
      "hedral": 6459,
      "Ġrecovered": 6460,
      "Ġunusual": 6461,
      "Ġcriminal": 6462,
      "ĠWithin": 6463,
      "Ġalleged": 6464,
      "Ġcosts": 6465,
      "Ġspeaking": 6466,
      "Ġprotest": 6467,
      "ĠSingles": 6468,
      "Ġstayed": 6469,
      "Ġincorporated": 6470,
      "Ġserves": 6471,
      "ĠSky": 6472,
      "ĠDig": 6473,
      "Ġshop": 6474,
      "Ġattributed": 6475,
      "rophy": 6476,
      "Ġemerged": 6477,
      "Ġsons": 6478,
      "lig": 6479,
      "Ġopposite": 6480,
      "mb": 6481,
      "ran": 6482,
      "ĠMaster": 6483,
      "Ġmissions": 6484,
      "ĠFederal": 6485,
      "Ġintercept": 6486,
      "Ġdemol": 6487,
      "borne": 6488,
      "ipe": 6489,
      "Ġdriven": 6490,
      "ĠStand": 6491,
      "Ġstrateg": 6492,
      "Ġcrash": 6493,
      "rations": 6494,
      "oli": 6495,
      "Ġbreaking": 6496,
      "ĠRow": 6497,
      "ĠKorea": 6498,
      "lets": 6499,
      "Ġchorus": 6500,
      "Ġmoves": 6501,
      "elsh": 6502,
      "unes": 6503,
      "Ġoccasionally": 6504,
      "ĠÃĹ": 6505,
      "Ġready": 6506,
      "Ġrecognition": 6507,
      "aza": 6508,
      "Ġpremiere": 6509,
      "Ġatmosphere": 6510,
      "Ġdang": 6511,
      "upt": 6512,
      "Ġclassic": 6513,
      "Ġregularly": 6514,
      "ĠBah": 6515,
      "Ġeffectively": 6516,
      "Ġcavalry": 6517,
      "Ġspok": 6518,
      "Ġvary": 6519,
      "riers": 6520,
      "Ġdipl": 6521,
      "ĠMorris": 6522,
      "Ġsurviving": 6523,
      "ĠRobinson": 6524,
      "Ġdissip": 6525,
      "Ġdream": 6526,
      "ĠNar": 6527,
      "Ġsounds": 6528,
      "ĠLisa": 6529,
      "ĠUnlike": 6530,
      "organ": 6531,
      "Ġprey": 6532,
      "ĠResearch": 6533,
      "Ġtheatre": 6534,
      "ache": 6535,
      "Ġshore": 6536,
      "Ġresponsibility": 6537,
      "ami": 6538,
      "Ġsuperv": 6539,
      "ĠPhill": 6540,
      "onto": 6541,
      "ds": 6542,
      "Ġclassified": 6543,
      "Ġattracted": 6544,
      "Ġdivers": 6545,
      "othing": 6546,
      "Ġprovince": 6547,
      "umin": 6548,
      "ategy": 6549,
      "ĠPur": 6550,
      "Ġestablishment": 6551,
      "Ġcourts": 6552,
      "olec": 6553,
      "ĠMorgan": 6554,
      "Ġcompletion": 6555,
      "thm": 6556,
      "Ġaccommod": 6557,
      "ĠColor": 6558,
      "ĠAround": 6559,
      "Ġwarning": 6560,
      "Ġpersu": 6561,
      "Ġic": 6562,
      "Ġmo": 6563,
      "ĠPrior": 6564,
      "ĠFame": 6565,
      "Ġheat": 6566,
      "sole": 6567,
      "enses": 6568,
      "Ġbehavior": 6569,
      "ĠCE": 6570,
      "Ġfields": 6571,
      "ĠNorman": 6572,
      "ĠHawai": 6573,
      "ructure": 6574,
      "Ġnone": 6575,
      "abled": 6576,
      "Ġpassage": 6577,
      "char": 6578,
      "Ġneither": 6579,
      "Ġmaterials": 6580,
      "har": 6581,
      "Ġaboard": 6582,
      "Ġtechnical": 6583,
      "Ġstood": 6584,
      "Ġquant": 6585,
      "Ġdifferences": 6586,
      "ĠOw": 6587,
      "ĠIron": 6588,
      "Ġbattleships": 6589,
      "ĠNich": 6590,
      "ĠDE": 6591,
      "Ġcheck": 6592,
      "Ġsam": 6593,
      "isms": 6594,
      "Ġglobal": 6595,
      "ĠNelson": 6596,
      "ĠFinn": 6597,
      "weight": 6598,
      "ĠPatrick": 6599,
      "Ġrose": 6600,
      "Ġassociation": 6601,
      "ĠFrancis": 6602,
      "ĠWeb": 6603,
      "Ġeleven": 6604,
      "Ġentertain": 6605,
      "ĠHistory": 6606,
      "Ġreinforce": 6607,
      "nold": 6608,
      "Ġdivisions": 6609,
      "Ġmethods": 6610,
      "uty": 6611,
      "ĠFord": 6612,
      "Ġrooms": 6613,
      "Ġreception": 6614,
      "Ġdesire": 6615,
      "Ġshif": 6616,
      "inton": 6617,
      "ĠProf": 6618,
      "Ġseparated": 6619,
      "pective": 6620,
      "Ġseemed": 6621,
      "ĠEdu": 6622,
      "ece": 6623,
      "ĠConc": 6624,
      "Ġrequested": 6625,
      "Ġancest": 6626,
      "ĠLanc": 6627,
      "oral": 6628,
      "Ġvotes": 6629,
      "Ġpredecess": 6630,
      "ĠSweden": 6631,
      "ĠTemple": 6632,
      "ĠCas": 6633,
      "Ġmusicians": 6634,
      "Ġclubs": 6635,
      "real": 6636,
      "ĠMit": 6637,
      "Ġpicture": 6638,
      "ĠBudd": 6639,
      "Ġvehicle": 6640,
      "Ġhistorians": 6641,
      "Ġhoped": 6642,
      "oslav": 6643,
      "pper": 6644,
      "ĠDer": 6645,
      "ĠWelsh": 6646,
      "ĠThird": 6647,
      "Ġreality": 6648,
      "burn": 6649,
      "ĠMatthew": 6650,
      "ĠSn": 6651,
      "Ġraise": 6652,
      "teenth": 6653,
      "Ġdifficulty": 6654,
      "ester": 6655,
      "nce": 6656,
      "Ġille": 6657,
      "Ġpure": 6658,
      "Ġoutbreak": 6659,
      "ĠAllen": 6660,
      "don": 6661,
      "ici": 6662,
      "ĠPremier": 6663,
      "Ġrestored": 6664,
      "ige": 6665,
      "ĠAnne": 6666,
      "ĠNations": 6667,
      "Ġmemory": 6668,
      "ban": 6669,
      "AC": 6670,
      "pping": 6671,
      "Ġchemical": 6672,
      "Ġremember": 6673,
      "Ġteen": 6674,
      "Ġratings": 6675,
      "Ġbasketball": 6676,
      "agle": 6677,
      "Ġmovements": 6678,
      "Ġexpect": 6679,
      "vious": 6680,
      "oyd": 6681,
      "ĠBa": 6682,
      "Ġprogramme": 6683,
      "Ġdelayed": 6684,
      "ĠCab": 6685,
      "Ġrelative": 6686,
      "Ġcommunities": 6687,
      "ito": 6688,
      "Ġflank": 6689,
      "ĠEvery": 6690,
      "ĠImp": 6691,
      "ĠToronto": 6692,
      "Ġfal": 6693,
      "Ġkid": 6694,
      "Ġgreatly": 6695,
      "Ġproperties": 6696,
      "Ġmedic": 6697,
      "ĠNetherlands": 6698,
      "ĠHell": 6699,
      "anth": 6700,
      "aire": 6701,
      "Ġotherwise": 6702,
      "inder": 6703,
      "ĠJews": 6704,
      "ĠMarine": 6705,
      "Ġsatisf": 6706,
      "Ġneighbor": 6707,
      "abil": 6708,
      "ĠDog": 6709,
      "Ġgal": 6710,
      "ĠJournal": 6711,
      "Ġinjuries": 6712,
      "ji": 6713,
      "Ġsurrounded": 6714,
      "Ġspoke": 6715,
      "Ġpartner": 6716,
      "Ġpraise": 6717,
      "Ġmassive": 6718,
      "ĠDean": 6719,
      "Ġpenalty": 6720,
      "Ġneeds": 6721,
      "Ġclaiming": 6722,
      "Ġcrop": 6723,
      "Ġdens": 6724,
      "ĠTransport": 6725,
      "ĠByzantine": 6726,
      "Ġbatting": 6727,
      "Ġfunding": 6728,
      "Ġcrosses": 6729,
      "ĠPow": 6730,
      "ĠWhe": 6731,
      "omot": 6732,
      "Ġanniversary": 6733,
      "yard": 6734,
      "Ġdie": 6735,
      "Ġlat": 6736,
      "Ġsuit": 6737,
      "Ġtries": 6738,
      "ĠMilitary": 6739,
      "ĠJacob": 6740,
      "ĠMarg": 6741,
      "ania": 6742,
      "Ġassemb": 6743,
      "Ġforming": 6744,
      "anny": 6745,
      "Ġweapon": 6746,
      "Ġaccounts": 6747,
      "ompl": 6748,
      "Ġfled": 6749,
      "ĠSax": 6750,
      "ĠIraq": 6751,
      "Ġstands": 6752,
      "Ġworst": 6753,
      "Ġwrong": 6754,
      "ĠAgain": 6755,
      "ĠThomp": 6756,
      "Ġdiscovery": 6757,
      "uther": 6758,
      "Ġash": 6759,
      "Ġconsp": 6760,
      "Ġclimate": 6761,
      "aired": 6762,
      "ewhere": 6763,
      "Ġcruiser": 6764,
      "vens": 6765,
      "Ġdocumentary": 6766,
      "ker": 6767,
      "ĠNC": 6768,
      "uble": 6769,
      "Ġremn": 6770,
      "Ġpremiered": 6771,
      "gets": 6772,
      "Ġdetermine": 6773,
      "ĠRick": 6774,
      "ĠDomin": 6775,
      "Ġdismissed": 6776,
      "ĠBishop": 6777,
      "ĠJam": 6778,
      "Ġtemporary": 6779,
      "Ġgirls": 6780,
      "Ġdepict": 6781,
      "Ġtra": 6782,
      "Ġinspiration": 6783,
      "Ġbombard": 6784,
      "Ġconvinced": 6785,
      "ĠHop": 6786,
      "Ġrot": 6787,
      "ĠCroatian": 6788,
      "Ġinterpret": 6789,
      "Ġrecru": 6790,
      "going": 6791,
      "Ġensure": 6792,
      "ĠDick": 6793,
      "Ġplane": 6794,
      "Ġcategory": 6795,
      "Ġhal": 6796,
      "ĠThompson": 6797,
      "Ġstrategy": 6798,
      "ĠDor": 6799,
      "Ġhear": 6800,
      "Ġshr": 6801,
      "Ġsomewhat": 6802,
      "Ġinner": 6803,
      "Ġvide": 6804,
      "Ġastron": 6805,
      "aya": 6806,
      "Ġcul": 6807,
      "ais": 6808,
      "Ġclassification": 6809,
      "Ġimmediate": 6810,
      "Ġlegend": 6811,
      "ĠHend": 6812,
      "Ġstarred": 6813,
      "Ġsale": 6814,
      "Ġpin": 6815,
      "Ġreserv": 6816,
      "ĠArmen": 6817,
      "ĠRussell": 6818,
      "Ġstreets": 6819,
      "Ġsight": 6820,
      "Ġfalling": 6821,
      "lyn": 6822,
      "ĠOak": 6823,
      "body": 6824,
      "agre": 6825,
      "ĠCarter": 6826,
      "Ġabsor": 6827,
      "ĠKelly": 6828,
      "Ġow": 6829,
      "una": 6830,
      "ĠTok": 6831,
      "Ġscrap": 6832,
      "ĠEle": 6833,
      "onds": 6834,
      "Ġappropri": 6835,
      "Ġeggs": 6836,
      "Ġfitted": 6837,
      "Ġcolonial": 6838,
      "Ġlibrary": 6839,
      "oster": 6840,
      "Ġmeets": 6841,
      "Ġscheme": 6842,
      "ĠAlong": 6843,
      "Ġcarbon": 6844,
      "Ġninth": 6845,
      "Ġloyal": 6846,
      "ĠMars": 6847,
      "Ġsurviv": 6848,
      "Ġsed": 6849,
      "Ġinvolvement": 6850,
      "ĠCentre": 6851,
      "Ġresources": 6852,
      "Ġbright": 6853,
      "ĠGlob": 6854,
      "ĠWy": 6855,
      "ĠGh": 6856,
      "Ġadults": 6857,
      "Ġclassical": 6858,
      "acter": 6859,
      "Ġthrone": 6860,
      "Ġfighter": 6861,
      "Ġcommemor": 6862,
      "nings": 6863,
      "Ġori": 6864,
      "Ġreviewer": 6865,
      "Ġsuperior": 6866,
      "Ġarchitecture": 6867,
      "ĠNiel": 6868,
      "Ġmedieval": 6869,
      "itzer": 6870,
      "Ġacademic": 6871,
      "ĠHoly": 6872,
      "Ġphotograph": 6873,
      "bec": 6874,
      "Ġattacking": 6875,
      "ĠCooper": 6876,
      "Ġray": 6877,
      "Ġseeing": 6878,
      "ses": 6879,
      "night": 6880,
      "icide": 6881,
      "Ġinterior": 6882,
      "Ġfavorite": 6883,
      "ĠPuerto": 6884,
      "Ġelse": 6885,
      "Ġabsence": 6886,
      "Ġpassenger": 6887,
      "ĠThus": 6888,
      "Ġconvection": 6889,
      "Ġlake": 6890,
      "ĠHeart": 6891,
      "ĠIslam": 6892,
      "Ġtechniques": 6893,
      "Ġairport": 6894,
      "ĠSpe": 6895,
      "ĠBou": 6896,
      "ĠBang": 6897,
      "Ġdeemed": 6898,
      "ĠProdu": 6899,
      "Ġinterests": 6900,
      "ĠWright": 6901,
      "Ġalien": 6902,
      "Ġengineer": 6903,
      "arsh": 6904,
      "Ġvisible": 6905,
      "ĠHungarian": 6906,
      "Ġdub": 6907,
      "ĠNetwork": 6908,
      "Ġlanded": 6909,
      "Ġraces": 6910,
      "wealth": 6911,
      "Ġappearing": 6912,
      "acent": 6913,
      "Ġconclusion": 6914,
      "ĠParker": 6915,
      "po": 6916,
      "ĠUSS": 6917,
      "ĠTechn": 6918,
      "ogen": 6919,
      "Ġdating": 6920,
      "Ġoperate": 6921,
      "Ġrum": 6922,
      "ĠBrother": 6923,
      "ĠGri": 6924,
      "Ġafterwards": 6925,
      "Ġromantic": 6926,
      "Ġleads": 6927,
      "edding": 6928,
      "ĠPA": 6929,
      "ĠPak": 6930,
      "ĠGard": 6931,
      "Ġrenew": 6932,
      "Ġlies": 6933,
      "using": 6934,
      "Ġencouraged": 6935,
      "Ġfer": 6936,
      "ivan": 6937,
      "Ġpartn": 6938,
      "Ġsuffering": 6939,
      "aser": 6940,
      "ĠHarris": 6941,
      "Ġtemperatures": 6942,
      "ĠTrib": 6943,
      "Ġaccompl": 6944,
      "Ġdepend": 6945,
      "Ġfacility": 6946,
      "Ġadaptation": 6947,
      "Ġcolony": 6948,
      "Ġeveryone": 6949,
      "ĠAI": 6950,
      "Ġsubmarine": 6951,
      "Ġmodified": 6952,
      "Ġsynthes": 6953,
      "ĠAth": 6954,
      "ĠNFL": 6955,
      "ronze": 6956,
      "Ġcredit": 6957,
      "ĠSimilar": 6958,
      "Ġmunicip": 6959,
      "ĠFree": 6960,
      "Ġcontroversial": 6961,
      "ĠTelevision": 6962,
      "Ġattempting": 6963,
      "Ġpainted": 6964,
      "ĠâĤ": 6965,
      "Ġbelieves": 6966,
      "ĠFront": 6967,
      "ĠNob": 6968,
      "Ġreferences": 6969,
      "ĠGun": 6970,
      "Ġholds": 6971,
      "Ġgone": 6972,
      "ĠWinter": 6973,
      "Ġod": 6974,
      "ĠEst": 6975,
      "Ġdistributed": 6976,
      "Ġwings": 6977,
      "Ġpound": 6978,
      "Ġcontinuing": 6979,
      "ĠBatman": 6980,
      "Ġsan": 6981,
      "Ġsecured": 6982,
      "Ġdepicted": 6983,
      "Ġdominated": 6984,
      "ĠOpen": 6985,
      "ĠMurray": 6986,
      "Ġlooked": 6987,
      "chang": 6988,
      "Ġdoct": 6989,
      "Ġanyone": 6990,
      "jo": 6991,
      "asure": 6992,
      "Ġlegislation": 6993,
      "Ġauthors": 6994,
      "book": 6995,
      "uster": 6996,
      "ĠLabor": 6997,
      "Ġlongest": 6998,
      "Ġjudge": 6999,
      "Ġunsuccessful": 7000,
      "ila": 7001,
      "Ġtrained": 7002,
      "emet": 7003,
      "Ġbuy": 7004,
      "ixon": 7005,
      "Ġarchae": 7006,
      "ĠKnight": 7007,
      "Ġgraphics": 7008,
      "Ġgrass": 7009,
      "ĠMedia": 7010,
      "Ġchairman": 7011,
      "Ġbiggest": 7012,
      "Ġneck": 7013,
      "Ġrescue": 7014,
      "Ġsudden": 7015,
      "ĠCommander": 7016,
      "oen": 7017,
      "ĠCry": 7018,
      "Ġelections": 7019,
      "atically": 7020,
      "ĠHospital": 7021,
      "ĠDNA": 7022,
      "Ġrailroad": 7023,
      "ĠBerlin": 7024,
      "Ġwins": 7025,
      "ĠHouston": 7026,
      "Ġarrangement": 7027,
      "ultane": 7028,
      "Ġcancer": 7029,
      "ĠCommonwealth": 7030,
      "ĠRa": 7031,
      "aws": 7032,
      "Ġpresidential": 7033,
      "ĠSanta": 7034,
      "Ġcode": 7035,
      "Ġacknowled": 7036,
      "urches": 7037,
      "ĠLibrary": 7038,
      "Ġdeployed": 7039,
      "Ġmonarch": 7040,
      "Ġstandards": 7041,
      "encies": 7042,
      "ĠPolice": 7043,
      "ĠSimp": 7044,
      "Ġmap": 7045,
      "coming": 7046,
      "ĠRoberts": 7047,
      "tic": 7048,
      "Ġjump": 7049,
      "aska": 7050,
      "ĠPalace": 7051,
      "Ġnickn": 7052,
      "osure": 7053,
      "Ġinformed": 7054,
      "Ġbelt": 7055,
      "apping": 7056,
      "Ġrepresenting": 7057,
      "ĠSports": 7058,
      "Ġachieve": 7059,
      "emetery": 7060,
      "Ġunion": 7061,
      "rait": 7062,
      "Ġmeasures": 7063,
      "ĠSwedish": 7064,
      "Ġsees": 7065,
      "Ġster": 7066,
      "ĠUt": 7067,
      "Ġcloser": 7068,
      "Ġbon": 7069,
      "ĠIndians": 7070,
      "uv": 7071,
      "ĠFI": 7072,
      "Ġgenerated": 7073,
      "roit": 7074,
      "Ġformerly": 7075,
      "ĠWarner": 7076,
      "Ġgarrison": 7077,
      "Ġcarrier": 7078,
      "ĠJesus": 7079,
      "ĠCook": 7080,
      "ĠNBC": 7081,
      "ĠMort": 7082,
      "oming": 7083,
      "ĠLyn": 7084,
      "ĠEy": 7085,
      "ĠSimpson": 7086,
      "elle": 7087,
      "ĠJason": 7088,
      "ĠYug": 7089,
      "ossible": 7090,
      "Ġmoderate": 7091,
      "Ġgets": 7092,
      "Ġgrade": 7093,
      "Ġhistoric": 7094,
      "Ġveter": 7095,
      "Ġinfluential": 7096,
      "ĠCorporation": 7097,
      "apse": 7098,
      "ĠAdvent": 7099,
      "aria": 7100,
      "ois": 7101,
      "Ġsuccessor": 7102,
      "ĠRAAF": 7103,
      "agu": 7104,
      "Ġru": 7105,
      "Ġemergency": 7106,
      "hire": 7107,
      "Ġemotional": 7108,
      "ĠGet": 7109,
      "Ġquestions": 7110,
      "ĠUlt": 7111,
      "yo": 7112,
      "ĠLast": 7113,
      "Ġbats": 7114,
      "ĠSilver": 7115,
      "Ġconvention": 7116,
      "Ġretirement": 7117,
      "Ġfestival": 7118,
      "ĠCru": 7119,
      "ĠYan": 7120,
      "ĠRecording": 7121,
      "Ġsqu": 7122,
      "Ġowners": 7123,
      "owa": 7124,
      "Ġridge": 7125,
      "ĠLev": 7126,
      "Ġdefended": 7127,
      "Ġwooden": 7128,
      "ĠAnthony": 7129,
      "Ġstead": 7130,
      "Ġmolec": 7131,
      "Ġthin": 7132,
      "tenance": 7133,
      "inals": 7134,
      "Ġapparently": 7135,
      "ĠPC": 7136,
      "Ġexcess": 7137,
      "Ġnarrative": 7138,
      "aste": 7139,
      "Ġdiscussed": 7140,
      "Ġassass": 7141,
      "Ġclimb": 7142,
      "Ġexperiences": 7143,
      "Ġveget": 7144,
      "eenth": 7145,
      "ĠRAF": 7146,
      "Ġexecuted": 7147,
      "aft": 7148,
      "Ġeat": 7149,
      "Ġalleg": 7150,
      "Ġconstant": 7151,
      "Ġlegs": 7152,
      "Ġjournalist": 7153,
      "rum": 7154,
      "ĠDur": 7155,
      "mun": 7156,
      "olph": 7157,
      "otype": 7158,
      "Ġdetail": 7159,
      "ĠMerc": 7160,
      "cation": 7161,
      "ĠBure": 7162,
      "ĠHin": 7163,
      "Ġtreated": 7164,
      "ĠCroatia": 7165,
      "Ġalco": 7166,
      "arked": 7167,
      "Ġtrials": 7168,
      "iens": 7169,
      "ĠLate": 7170,
      "usted": 7171,
      "noon": 7172,
      "utt": 7173,
      "ĠBelg": 7174,
      "zy": 7175,
      "ĠGaga": 7176,
      "Ġsiege": 7177,
      "Ġpregn": 7178,
      "Ġmine": 7179,
      "ĠTal": 7180,
      "ĠSull": 7181,
      "Ġgiant": 7182,
      "ture": 7183,
      "ternal": 7184,
      "Ġenters": 7185,
      "Ġvictims": 7186,
      "Ġdepos": 7187,
      "Ġmaint": 7188,
      "uts": 7189,
      "scape": 7190,
      "Ġinstruments": 7191,
      "Ġconcur": 7192,
      "ĠTs": 7193,
      "ĠFamily": 7194,
      "ĠGilbert": 7195,
      "ĠYugoslav": 7196,
      "Ġbab": 7197,
      "ĠHans": 7198,
      "Ġoffices": 7199,
      "fire": 7200,
      "raf": 7201,
      "Ġenvironmental": 7202,
      "fare": 7203,
      "Ġbear": 7204,
      "Ġcoins": 7205,
      "Ġmathem": 7206,
      "Ġfur": 7207,
      "ĠSpears": 7208,
      "Ġhundreds": 7209,
      "ĠObs": 7210,
      "ĠKhan": 7211,
      "ĠChamber": 7212,
      "Ġdiplom": 7213,
      "opes": 7214,
      "Ġchannel": 7215,
      "Ġresigned": 7216,
      "iliar": 7217,
      "ĠDeb": 7218,
      "Ġride": 7219,
      "Ġnovels": 7220,
      "Ġreveals": 7221,
      "ĠMelbourne": 7222,
      "Ġocean": 7223,
      "oto": 7224,
      "ĠAsian": 7225,
      "ĠNielsen": 7226,
      "Ġgay": 7227,
      "Ġchildhood": 7228,
      "Ġhunting": 7229,
      "rees": 7230,
      "Ġprevented": 7231,
      "ĠEvans": 7232,
      "Ġpointed": 7233,
      "ĠNevertheless": 7234,
      "ĠPrincess": 7235,
      "igration": 7236,
      "ĠDetroit": 7237,
      "ĠXbox": 7238,
      "Ġskills": 7239,
      "Ġpushed": 7240,
      "ching": 7241,
      "Ġuniform": 7242,
      "ĠClinton": 7243,
      "ĠUSA": 7244,
      "Ġwatching": 7245,
      "Ġdrums": 7246,
      "ĠAuthor": 7247,
      "ĠCategory": 7248,
      "ĠPope": 7249,
      "achment": 7250,
      "Ġfacing": 7251,
      "Ġnavig": 7252,
      "orous": 7253,
      "stances": 7254,
      "Ġhappened": 7255,
      "Ġpreferred": 7256,
      "Ġflew": 7257,
      "Ġchapter": 7258,
      "Ġfactors": 7259,
      "Ġreportedly": 7260,
      "ĠHeavy": 7261,
      "Ġformally": 7262,
      "hess": 7263,
      "Ġpull": 7264,
      "ĠVice": 7265,
      "Ġintense": 7266,
      "ĠGuy": 7267,
      "Ġfootage": 7268,
      "ĠSomers": 7269,
      "imore": 7270,
      "Ġthereafter": 7271,
      "ĠAtlant": 7272,
      "Ġopponents": 7273,
      "ĠStewart": 7274,
      "Ġthousand": 7275,
      "icians": 7276,
      "Ġhanded": 7277,
      "Ġfiring": 7278,
      "Ġnotably": 7279,
      "ES": 7280,
      "Ġdifference": 7281,
      "ĠOt": 7282,
      "mes": 7283,
      "ĠBed": 7284,
      "Ġexisted": 7285,
      "Ġexposed": 7286,
      "Ġdevice": 7287,
      "Ġbes": 7288,
      "usic": 7289,
      "Ġinhabit": 7290,
      "ĠBenn": 7291,
      "ĠJose": 7292,
      "Ġvision": 7293,
      "ogether": 7294,
      "Ġvisitors": 7295,
      "Ġgather": 7296,
      "Ġdeparted": 7297,
      "Ġaccompany": 7298,
      "raph": 7299,
      "ologists": 7300,
      "Ġbattleship": 7301,
      "Ġchain": 7302,
      "ĠSamuel": 7303,
      "ĠMuslim": 7304,
      "Ġboil": 7305,
      "Ġparticipate": 7306,
      "Ġformat": 7307,
      "ĠSarah": 7308,
      "itter": 7309,
      "Ġlanguages": 7310,
      "ĠRey": 7311,
      "Ġlinked": 7312,
      "Ġemployees": 7313,
      "ĠTurkish": 7314,
      "Ġstyles": 7315,
      "Ġanimation": 7316,
      "Ġpoetry": 7317,
      "Ġsurrender": 7318,
      "Ġhearing": 7319,
      "ĠWing": 7320,
      "Ġresign": 7321,
      "ĠExpress": 7322,
      "Ġcycle": 7323,
      "Ġdialogue": 7324,
      "ĠRaw": 7325,
      "Ġlocomot": 7326,
      "Ġfil": 7327,
      "ogan": 7328,
      "Ġresidential": 7329,
      "ĠQueens": 7330,
      "Ġcruisers": 7331,
      "Ġafternoon": 7332,
      "Ġsubstantial": 7333,
      "Ġextent": 7334,
      "ĠLennon": 7335,
      "phy": 7336,
      "Ġdetailed": 7337,
      "Ġinstance": 7338,
      "Ġimpressed": 7339,
      "Ġvul": 7340,
      "Ġutil": 7341,
      "rant": 7342,
      "Ġbeach": 7343,
      "Ġstem": 7344,
      "Ġlearning": 7345,
      "mad": 7346,
      "ĠInitially": 7347,
      "igen": 7348,
      "ĠAustria": 7349,
      "Ġeasy": 7350,
      "Ġplate": 7351,
      "eline": 7352,
      "ĠMalays": 7353,
      "onies": 7354,
      "ĠSab": 7355,
      "Ġhuge": 7356,
      "Ġuniverse": 7357,
      "stic": 7358,
      "Ġtempor": 7359,
      "ĠSullivan": 7360,
      "Ġannounce": 7361,
      "Ġaudio": 7362,
      "dy": 7363,
      "ĠTower": 7364,
      "Ġhat": 7365,
      "olas": 7366,
      "Ġenthus": 7367,
      "Ġrelationships": 7368,
      "roc": 7369,
      "Ġtaught": 7370,
      "Ġske": 7371,
      "ĠLim": 7372,
      "ican": 7373,
      "Ġreviewers": 7374,
      "MA": 7375,
      "ĠHorn": 7376,
      "obi": 7377,
      "ĠColorado": 7378,
      "ribed": 7379,
      "Ġrebell": 7380,
      "ĠCz": 7381,
      "ĠDave": 7382,
      "ĠStock": 7383,
      "Ġpublisher": 7384,
      "ĠCarib": 7385,
      "ropolitan": 7386,
      "Ġdriver": 7387,
      "Ġhappy": 7388,
      "ĠArk": 7389,
      "Ġdiameter": 7390,
      "iac": 7391,
      "Ġca": 7392,
      "alo": 7393,
      "ĠLane": 7394,
      "Ġvessel": 7395,
      "ĠBaltimore": 7396,
      "Ġisolated": 7397,
      "Ġteeth": 7398,
      "Ġreleases": 7399,
      "ĠReal": 7400,
      "ĠBird": 7401,
      "Ġunderstand": 7402,
      "Ġpicked": 7403,
      "Ġencountered": 7404,
      "ĠAlbums": 7405,
      "Ġupgraded": 7406,
      "orage": 7407,
      "Ġstable": 7408,
      "Ġwithdrew": 7409,
      "lie": 7410,
      "Ġperiods": 7411,
      "ĠHaving": 7412,
      "ĠDS": 7413,
      "opter": 7414,
      "ĠMarshall": 7415,
      "ĠFrederick": 7416,
      "Ġlob": 7417,
      "ĠGreece": 7418,
      "Ġimprison": 7419,
      "prise": 7420,
      "Ġupd": 7421,
      "hatt": 7422,
      "ĠBan": 7423,
      "rik": 7424,
      "Ġinfluences": 7425,
      "Ġterritories": 7426,
      "ĠSon": 7427,
      "Ġgoods": 7428,
      "Ġsleep": 7429,
      "Ġteamm": 7430,
      "ĠAndre": 7431,
      "bean": 7432,
      "Ġdangerous": 7433,
      "Ġaged": 7434,
      "Ġbridges": 7435,
      "Ġsimultane": 7436,
      "Ġinher": 7437,
      "Ġmart": 7438,
      "Ġagents": 7439,
      "Ġnormally": 7440,
      "ĠDisc": 7441,
      "ĠAnna": 7442,
      "Ġfounder": 7443,
      "endment": 7444,
      "Ġfactor": 7445,
      "Ġkeeping": 7446,
      "Ġrelie": 7447,
      "ĠErn": 7448,
      "FC": 7449,
      "idae": 7450,
      "Ġpartly": 7451,
      "Ġsure": 7452,
      "ĠMario": 7453,
      "Ġwindow": 7454,
      "Ġnegotiations": 7455,
      "vis": 7456,
      "ĠBuck": 7457,
      "Ġcollaps": 7458,
      "Ġjunior": 7459,
      "roke": 7460,
      "Ġfeud": 7461,
      "Ġconsol": 7462,
      "Ġfrequent": 7463,
      "oys": 7464,
      "ĠChronic": 7465,
      "Ġtests": 7466,
      "ĠLi": 7467,
      "ĠJess": 7468,
      "iami": 7469,
      "Ġlowest": 7470,
      "Ġpounds": 7471,
      "Ġsatell": 7472,
      "Ġmedium": 7473,
      "Ġmir": 7474,
      "Ġoutf": 7475,
      "spec": 7476,
      "Ġreprodu": 7477,
      "Ġvic": 7478,
      "Ġtraveled": 7479,
      "Ġturrets": 7480,
      "Ġprohib": 7481,
      "resent": 7482,
      "ĠProfess": 7483,
      "Ġapprec": 7484,
      "ĠDeath": 7485,
      "Ġspecimens": 7486,
      "Ġrefers": 7487,
      "ĠBanks": 7488,
      "Ġmonument": 7489,
      "Ġrarely": 7490,
      "ĠHorse": 7491,
      "Ġwhereas": 7492,
      "Ġethnic": 7493,
      "Ġweekend": 7494,
      "Ġtesting": 7495,
      "ĠSomerset": 7496,
      "Ġresear": 7497,
      "Ġdeter": 7498,
      "orial": 7499,
      "ĠSoon": 7500,
      "oked": 7501,
      "Ġunderw": 7502,
      "Ġdesigner": 7503,
      "Ġtone": 7504,
      "Ġtoll": 7505,
      "igs": 7506,
      "ĠAh": 7507,
      "Ġlose": 7508,
      "ĠCall": 7509,
      "Ġdoesn": 7510,
      "Ġpartially": 7511,
      "ĠAnglo": 7512,
      "Ġax": 7513,
      "Ġdiagn": 7514,
      "Ġpermission": 7515,
      "ĠCR": 7516,
      "etime": 7517,
      "atus": 7518,
      "rot": 7519,
      "away": 7520,
      "Ġadvice": 7521,
      "bl": 7522,
      "Ġverse": 7523,
      "Ġcriticised": 7524,
      "iece": 7525,
      "Ġtie": 7526,
      "Ġvice": 7527,
      "Ġplatinum": 7528,
      "Ġreun": 7529,
      "ĠTy": 7530,
      "Ġspending": 7531,
      "helm": 7532,
      "ĠMiami": 7533,
      "Ġagree": 7534,
      "olis": 7535,
      "Ġmaintenance": 7536,
      "Ġfinale": 7537,
      "Ġrestric": 7538,
      "anz": 7539,
      "ĠAlab": 7540,
      "uris": 7541,
      "ĠAustralians": 7542,
      "Ġexcell": 7543,
      "ĠNapole": 7544,
      "Ġengineering": 7545,
      "otes": 7546,
      "Ġbypass": 7547,
      "Ġcomplic": 7548,
      "Ġindicate": 7549,
      "ĠMississ": 7550,
      "sea": 7551,
      "Ġcompete": 7552,
      "Ġdiet": 7553,
      "Ġunn": 7554,
      "amese": 7555,
      "Ġproport": 7556,
      "Ġuncertain": 7557,
      "ilst": 7558,
      "Ġanticip": 7559,
      "ĠSocial": 7560,
      "rad": 7561,
      "Ġpitched": 7562,
      "zz": 7563,
      "usal": 7564,
      "Ġtechnique": 7565,
      "borough": 7566,
      "ĠDevelopment": 7567,
      "Ġrecon": 7568,
      "Ġrefuge": 7569,
      "ĠThen": 7570,
      "attered": 7571,
      "ĠExt": 7572,
      "Ġremove": 7573,
      "Ġcharacteristics": 7574,
      "Ġorganizations": 7575,
      "Ġvideos": 7576,
      "ygen": 7577,
      "ĠFoundation": 7578,
      "Ġproced": 7579,
      "Ġshear": 7580,
      "Ġsymp": 7581,
      "ĠSeattle": 7582,
      "Ġwindows": 7583,
      "ĠHand": 7584,
      "ennis": 7585,
      "Ġstrip": 7586,
      "Ġphen": 7587,
      "Ġmamm": 7588,
      "Ġforcing": 7589,
      "Ġmainstream": 7590,
      "Ġdifficulties": 7591,
      "ĠGiants": 7592,
      "Ġchronic": 7593,
      "Ġextreme": 7594,
      "ĠTreaty": 7595,
      "ĠAlabama": 7596,
      "ĠBri": 7597,
      "Ġhonour": 7598,
      "Ġconcerts": 7599,
      "Ġseats": 7600,
      "Ġranking": 7601,
      "Ġfalls": 7602,
      "Ġmoral": 7603,
      "Ġfighters": 7604,
      "Ġliqu": 7605,
      "Ġrecur": 7606,
      "Ġrepair": 7607,
      "Ġdestroyers": 7608,
      "Ġrepresentative": 7609,
      "Ġprompted": 7610,
      "Ġhull": 7611,
      "gery": 7612,
      "ĠCharlie": 7613,
      "Ġtenth": 7614,
      "Ġovers": 7615,
      "Ġcomments": 7616,
      "chen": 7617,
      "ĠMP": 7618,
      "idi": 7619,
      "ĠLawrence": 7620,
      "ĠML": 7621,
      "Ġdescribe": 7622,
      "Ġtruth": 7623,
      "Ġphr": 7624,
      "Ġbehavi": 7625,
      "power": 7626,
      "mission": 7627,
      "Ġalter": 7628,
      "Ġrates": 7629,
      "enh": 7630,
      "Ġpersonality": 7631,
      "Ġbrand": 7632,
      "Ġsympt": 7633,
      "Ġminimum": 7634,
      "Ġju": 7635,
      "Ġdivor": 7636,
      "ĠIowa": 7637,
      "uda": 7638,
      "Ġrestrict": 7639,
      "rain": 7640,
      "ĠUSD": 7641,
      "Ġtravelled": 7642,
      "Ġcrisis": 7643,
      "ĠMcD": 7644,
      "Ġpolicies": 7645,
      "Ġtub": 7646,
      "uscript": 7647,
      "Ġfriendly": 7648,
      "Ġfinals": 7649,
      "ĠBros": 7650,
      "ĠForces": 7651,
      "Ġexamples": 7652,
      "Ġdiff": 7653,
      "chell": 7654,
      "alions": 7655,
      "ĠCanal": 7656,
      "Ġcovers": 7657,
      "Ġbombers": 7658,
      "ĠNat": 7659,
      "Ġdrawing": 7660,
      "Ġboys": 7661,
      "Ġneighborhood": 7662,
      "rim": 7663,
      "ĠBuff": 7664,
      "ĠMinistry": 7665,
      "Ġbases": 7666,
      "col": 7667,
      "ĠIan": 7668,
      "Ġchurches": 7669,
      "Ġpric": 7670,
      "ante": 7671,
      "ĠOrigin": 7672,
      "urance": 7673,
      "Ġreconst": 7674,
      "Ġdisplayed": 7675,
      "mers": 7676,
      "Ġmand": 7677,
      "Ġadjacent": 7678,
      "icy": 7679,
      "ĠTrek": 7680,
      "ĠAud": 7681,
      "imeter": 7682,
      "anium": 7683,
      "Ġinaug": 7684,
      "Ġdoctor": 7685,
      "Ġtribute": 7686,
      "ĠSenator": 7687,
      "ĠCrown": 7688,
      "Ġaware": 7689,
      "Ġturb": 7690,
      "inction": 7691,
      "ĠLin": 7692,
      "ĠMinnes": 7693,
      "ĠYanke": 7694,
      "Ġhousing": 7695,
      "ĠTownship": 7696,
      "ĠNazi": 7697,
      "Ġapproval": 7698,
      "ĠChristopher": 7699,
      "Ġjoining": 7700,
      "Ġcreator": 7701,
      "Ġgrown": 7702,
      "ĠCaribbean": 7703,
      "dale": 7704,
      "ĠRoc": 7705,
      "ĠPlayer": 7706,
      "ĠGrammy": 7707,
      "no": 7708,
      "Ġped": 7709,
      "Ġprotagonist": 7710,
      "Ġfung": 7711,
      "onnaissance": 7712,
      "ĠBenj": 7713,
      "Ġmoments": 7714,
      "Ġacted": 7715,
      "Ġcopy": 7716,
      "Ġadvis": 7717,
      "ĠBelgium": 7718,
      "Ġhockey": 7719,
      "ĠLam": 7720,
      "Ġasks": 7721,
      "Ġexplo": 7722,
      "ãģ": 7723,
      "ods": 7724,
      "Ġcreative": 7725,
      "ĠÃĨ": 7726,
      "ĠEP": 7727,
      "ĠDC": 7728,
      "Ġpowered": 7729,
      "ĠGarden": 7730,
      "Ġchanging": 7731,
      "Ġpartnership": 7732,
      "Ġinstrumental": 7733,
      "Ġpossession": 7734,
      "ĠMuch": 7735,
      "ĠWrestling": 7736,
      "Ġrefere": 7737,
      "Ġdescription": 7738,
      "Ġorb": 7739,
      "Ġrounds": 7740,
      "Ġdynasty": 7741,
      "xual": 7742,
      "Ġcovering": 7743,
      "Ġradar": 7744,
      "Ġwheel": 7745,
      "ĠMach": 7746,
      "ĠDance": 7747,
      "Ġsurvive": 7748,
      "Ġcollapse": 7749,
      "ounced": 7750,
      "ĠMichel": 7751,
      "Ġdollars": 7752,
      "Ġeliminated": 7753,
      "Ġminimal": 7754,
      "Ġels": 7755,
      "ĠKon": 7756,
      "ĠKal": 7757,
      "Ġtruck": 7758,
      "Ġcanal": 7759,
      "ĠStory": 7760,
      "ĠLaure": 7761,
      "Ġsurprise": 7762,
      "ĠModern": 7763,
      "Ġelsewhere": 7764,
      "ĠRand": 7765,
      "Ġpaintings": 7766,
      "Ġvillages": 7767,
      "Ġscientists": 7768,
      "ĠHamp": 7769,
      "ĠCountry": 7770,
      "Ġtelling": 7771,
      "ĠCamer": 7772,
      "ĠBenjamin": 7773,
      "Ġseeking": 7774,
      "ĠShakesp": 7775,
      "Ġappointment": 7776,
      "icts": 7777,
      "Ġprecip": 7778,
      "ĠDiego": 7779,
      "itud": 7780,
      "ĠHud": 7781,
      "Ġarriving": 7782,
      "rows": 7783,
      "Ġtreaty": 7784,
      "ĠBeck": 7785,
      "Ġhelic": 7786,
      "Ġvictories": 7787,
      "otten": 7788,
      "Ġhelping": 7789,
      "ivated": 7790,
      "Ġ*": 7791,
      "velt": 7792,
      "Ġpool": 7793,
      "ĠLl": 7794,
      "Ġtwin": 7795,
      "ĠGuardian": 7796,
      "Ġrhythm": 7797,
      "ĠKurt": 7798,
      "Ġemperor": 7799,
      "Ġsmooth": 7800,
      "Ġpurposes": 7801,
      "Ġnewspapers": 7802,
      "Ġoccasions": 7803,
      "Ġunlike": 7804,
      "Ġgrav": 7805,
      "Ġbenefit": 7806,
      "Ġsuicide": 7807,
      "uman": 7808,
      "ĠAlfred": 7809,
      "Ġrecordings": 7810,
      "ĠHungary": 7811,
      "sters": 7812,
      "Ġstorms": 7813,
      "rupted": 7814,
      "ĠHotel": 7815,
      "Ġsky": 7816,
      "Ġoption": 7817,
      "ĠHu": 7818,
      "Ġorbit": 7819,
      "Ġinnov": 7820,
      "ĠBlood": 7821,
      "Ġtrend": 7822,
      "Ġgat": 7823,
      "ĠChampionships": 7824,
      "ĠVietnamese": 7825,
      "eu": 7826,
      "Ġwet": 7827,
      "ĠHills": 7828,
      "Ġdegrees": 7829,
      "ugby": 7830,
      "Ġsoil": 7831,
      "Ġmarry": 7832,
      "ĠRoose": 7833,
      "iders": 7834,
      "Ġcateg": 7835,
      "Ġvalues": 7836,
      "forced": 7837,
      "Ġpreserved": 7838,
      "ĠOrgan": 7839,
      "ĠAR": 7840,
      "ecraft": 7841,
      "ĠThor": 7842,
      "Ġgard": 7843,
      "ĠHong": 7844,
      "Ġdesignation": 7845,
      "ĠStevens": 7846,
      "Ġbalance": 7847,
      "Ġresumed": 7848,
      "Ġconcrete": 7849,
      "Ġmurd": 7850,
      "ĠWalker": 7851,
      "Ġfishing": 7852,
      "ĠHind": 7853,
      "sky": 7854,
      "Ġpublicly": 7855,
      "Ġcompeted": 7856,
      "ouri": 7857,
      "orious": 7858,
      "Ġflash": 7859,
      "Ġschedule": 7860,
      "Ġviolent": 7861,
      "ĠMississipp": 7862,
      "Ġmanuscript": 7863,
      "ĠPeninsula": 7864,
      "Ġintensified": 7865,
      "Ġsurvivors": 7866,
      "munition": 7867,
      "nik": 7868,
      "entional": 7869,
      "Ġprocl": 7870,
      "ĠShel": 7871,
      "Ġcredits": 7872,
      "Ġpilots": 7873,
      "ĠGab": 7874,
      "ĠFranklin": 7875,
      "Ġstruggle": 7876,
      "Ġimpossible": 7877,
      "ĠFal": 7878,
      "ĠDead": 7879,
      "roid": 7880,
      "Ġdies": 7881,
      "Ġneighbour": 7882,
      "ĠHockey": 7883,
      "eton": 7884,
      "Ġcooper": 7885,
      "ĠMinnesota": 7886,
      "ĠRoosevelt": 7887,
      "Ġspan": 7888,
      "Ġcandidates": 7889,
      "Ġbeautiful": 7890,
      "ulating": 7891,
      "Ġassisted": 7892,
      "atherine": 7893,
      "Ġdispute": 7894,
      "Ġwedding": 7895,
      "ĠBh": 7896,
      "Ġloan": 7897,
      "Ġneutral": 7898,
      "acle": 7899,
      "active": 7900,
      "Ġmulti": 7901,
      "Ġwrest": 7902,
      "ĠCre": 7903,
      "ĠMedal": 7904,
      "Ġcook": 7905,
      "Ġdefeating": 7906,
      "ĠTrust": 7907,
      "ĠCole": 7908,
      "Ġoccupation": 7909,
      "Ġcryst": 7910,
      "Ġcoordin": 7911,
      "Ġprosp": 7912,
      "agen": 7913,
      "Ġgrey": 7914,
      "ogy": 7915,
      "Ġabilities": 7916,
      "Ġconsult": 7917,
      "ĠWard": 7918,
      "ĠEvent": 7919,
      "ika": 7920,
      "Ġelectronic": 7921,
      "aron": 7922,
      "Ġdiscip": 7923,
      "Ġsimpl": 7924,
      "ĠManhatt": 7925,
      "Ġelabor": 7926,
      "ĠChildren": 7927,
      "ĠMontreal": 7928,
      "Ġpy": 7929,
      "Ġdanc": 7930,
      "Ġrivers": 7931,
      "Ġovert": 7932,
      "ĠRepresent": 7933,
      "ĠSatur": 7934,
      "li": 7935,
      "ĠBorn": 7936,
      "rome": 7937,
      "ĠManhattan": 7938,
      "ĠSi": 7939,
      "Ġalignment": 7940,
      "Ġassists": 7941,
      "ĠBull": 7942,
      "ĠFried": 7943,
      "ishment": 7944,
      "Ġserial": 7945,
      "Ġopponent": 7946,
      "Ġcustom": 7947,
      "ĠDw": 7948,
      "Ġsuitable": 7949,
      "mph": 7950,
      "ĠNash": 7951,
      "oking": 7952,
      "orph": 7953,
      "ilty": 7954,
      "Ġsubmitted": 7955,
      "Ġinteresting": 7956,
      "Ġbusinesses": 7957,
      "Ġencounter": 7958,
      "Ġteaching": 7959,
      "Ġagricultural": 7960,
      "ĠCold": 7961,
      "Ġarts": 7962,
      "ls": 7963,
      "Ġpoison": 7964,
      "Ġargument": 7965,
      "Ġnations": 7966,
      "Ġfifteen": 7967,
      "Ġabsol": 7968,
      "Ġtunnel": 7969,
      "Ġmines": 7970,
      "Ġfoundation": 7971,
      "Ġbacking": 7972,
      "Ġlem": 7973,
      "ĠPortland": 7974,
      "ĠVI": 7975,
      "incial": 7976,
      "Ġoxygen": 7977,
      "itated": 7978,
      "ĠAff": 7979,
      "Ġsigning": 7980,
      "ĠNag": 7981,
      "Ġbehalf": 7982,
      "Ġadvoc": 7983,
      "ographical": 7984,
      "Ġscholar": 7985,
      "Ġsank": 7986,
      "Ġciting": 7987,
      "Ġparent": 7988,
      "ĠKnow": 7989,
      "Ġunderstanding": 7990,
      "ĠPle": 7991,
      "ĠOp": 7992,
      "ĠKansas": 7993,
      "Ġpercentage": 7994,
      "Ġammunition": 7995,
      "ques": 7996,
      "ĠRap": 7997,
      "ĠLith": 7998,
      "ĠIndustry": 7999,
      "Ġforests": 8000,
      "odore": 8001,
      "ĠInterstate": 8002,
      "Ġhabitat": 8003,
      "Ġlists": 8004,
      "Ġforty": 8005,
      "Ġparish": 8006,
      "Ġsituated": 8007,
      "Ġninet": 8008,
      "ĠRang": 8009,
      "CA": 8010,
      "ĠWolf": 8011,
      "Ġwaves": 8012,
      "ĠDiv": 8013,
      "Ġskull": 8014,
      "Ġsubjects": 8015,
      "overs": 8016,
      "Ġspiritual": 8017,
      "Ġsunk": 8018,
      "ĠTag": 8019,
      "Ġusual": 8020,
      "iveness": 8021,
      "Ġjunction": 8022,
      "Ġclosing": 8023,
      "ĠCampbell": 8024,
      "ĠDigital": 8025,
      "Ġnom": 8026,
      "Ġrepairs": 8027,
      "icer": 8028,
      "ifer": 8029,
      "Ġimperial": 8030,
      "obile": 8031,
      "Ġsigns": 8032,
      "rams": 8033,
      "Ġvoiced": 8034,
      "SP": 8035,
      "eare": 8036,
      "ĠVinc": 8037,
      "ĠBrun": 8038,
      "Ġdeliber": 8039,
      "ĠCob": 8040,
      "ĠMes": 8041,
      "ĠMississippi": 8042,
      "ĠAlexand": 8043,
      "ĠWol": 8044,
      "ĠIce": 8045,
      "ĠArea": 8046,
      "ĠHem": 8047,
      "ĠPhilippines": 8048,
      "cop": 8049,
      "ĠBlues": 8050,
      "Ġaudiences": 8051,
      "onymous": 8052,
      "Ġasking": 8053,
      "Ġresolution": 8054,
      "Ġcontroll": 8055,
      "ĠShakespeare": 8056,
      "Ġcorpor": 8057,
      "Ġfeelings": 8058,
      "Ġsuspended": 8059,
      "father": 8060,
      "Ġattendance": 8061,
      "ĠConstruction": 8062,
      "ĠLad": 8063,
      "athy": 8064,
      "alities": 8065,
      "Ġlieutenant": 8066,
      "Ġmountains": 8067,
      "Ġrestaurant": 8068,
      "ĠNative": 8069,
      "Ġevil": 8070,
      "ĠAnim": 8071,
      "Ġtargets": 8072,
      "ĠRecord": 8073,
      "ĠHindu": 8074,
      "ĠDod": 8075,
      "ctic": 8076,
      "Ġunderground": 8077,
      "Ġcargo": 8078,
      "ĠHuman": 8079,
      "ĠEducation": 8080,
      "ĠLucas": 8081,
      "ĠTenness": 8082,
      "Ġflights": 8083,
      "ĠMack": 8084,
      "Ġcollaboration": 8085,
      "Ġwilling": 8086,
      "Ġexit": 8087,
      "ĠSteven": 8088,
      "Ġillness": 8089,
      "amps": 8090,
      "Ġdisaster": 8091,
      "Ġoperational": 8092,
      "ËĪ": 8093,
      "ensions": 8094,
      "Ġaimed": 8095,
      "Ġprol": 8096,
      "Ġpoorly": 8097,
      "Ġanch": 8098,
      "amic": 8099,
      "ipped": 8100,
      "Ġpron": 8101,
      "ĠApple": 8102,
      "uable": 8103,
      "Ġworship": 8104,
      "Ġfiled": 8105,
      "ĠEgyptian": 8106,
      "Ġmeasured": 8107,
      "Ġfavorable": 8108,
      "ĠHalo": 8109,
      "Ġregistered": 8110,
      "Ġcompilation": 8111,
      "ocking": 8112,
      "Ġstring": 8113,
      "Ġliked": 8114,
      "ĠMargaret": 8115,
      "Ġlect": 8116,
      "ĠWarren": 8117,
      "Ġrecognised": 8118,
      "inh": 8119,
      "ĠComb": 8120,
      "Ġelder": 8121,
      "Ġtemporarily": 8122,
      "ĠKings": 8123,
      "Ġabol": 8124,
      "Ġsafe": 8125,
      "Ġrout": 8126,
      "ĠHero": 8127,
      "Ġrepresents": 8128,
      "ĠKu": 8129,
      "Ġstatue": 8130,
      "Ġadopt": 8131,
      "Ġconscious": 8132,
      "ĠMcL": 8133,
      "Ġshells": 8134,
      "Ġreplacing": 8135,
      "Ġfunctions": 8136,
      "Ġdocuments": 8137,
      "Ġprofessor": 8138,
      "asters": 8139,
      "Ġjazz": 8140,
      "ele": 8141,
      "lah": 8142,
      "osm": 8143,
      "ĠBuilding": 8144,
      "Ġearthqu": 8145,
      "ĠTennessee": 8146,
      "Ġwreck": 8147,
      "Ġben": 8148,
      "Ġfuneral": 8149,
      "Ġfifty": 8150,
      "ĠLouisiana": 8151,
      "ĠLabour": 8152,
      "Ġsector": 8153,
      "die": 8154,
      "unction": 8155,
      "sex": 8156,
      "Ġexplosion": 8157,
      "Ġoffering": 8158,
      "ĠAdminist": 8159,
      "Ġbot": 8160,
      "Ġiniti": 8161,
      "ĠMissouri": 8162,
      "rator": 8163,
      "ĠDragon": 8164,
      "Ġsequences": 8165,
      "Ġinterpre": 8166,
      "Ġwel": 8167,
      "ĠJoh": 8168,
      "adi": 8169,
      "face": 8170,
      "Ġoverw": 8171,
      "weet": 8172,
      "ĠCritics": 8173,
      "ext": 8174,
      "ĠCher": 8175,
      "idel": 8176,
      "ĠHealth": 8177,
      "ĠFriend": 8178,
      "Ġmargin": 8179,
      "ĠMitchell": 8180,
      "Ġwore": 8181,
      "rix": 8182,
      "Ġsubt": 8183,
      "ĠKirk": 8184,
      "Ġreflected": 8185,
      "Ġaffair": 8186,
      "rm": 8187,
      "Ġreluct": 8188,
      "Ġexpensive": 8189,
      "Ġrig": 8190,
      "Ġresidence": 8191,
      "Ġbay": 8192,
      "Ġsuggesting": 8193,
      "ĠBilly": 8194,
      "ĠHarvey": 8195,
      "aro": 8196,
      "Ġcompleting": 8197,
      "Ġdece": 8198,
      "ĠPalest": 8199,
      "Ġthinking": 8200,
      "Ġassess": 8201,
      "Ġaffairs": 8202,
      "Ġamongst": 8203,
      "ĠGraham": 8204,
      "Ġbanks": 8205,
      "Ġrebuilt": 8206,
      "ĠCzech": 8207,
      "Ġdirectors": 8208,
      "ĠFlight": 8209,
      "Ġentertainment": 8210,
      "Ġsymptoms": 8211,
      "Ġcyl": 8212,
      "Ġterror": 8213,
      "ova": 8214,
      "Ġhorror": 8215,
      "inea": 8216,
      "unch": 8217,
      "artney": 8218,
      "Ġfrig": 8219,
      "Ġalcohol": 8220,
      "overe": 8221,
      "Ġpulled": 8222,
      "ĠYe": 8223,
      "Ġescaped": 8224,
      "Ġlacked": 8225,
      "Ġnucle": 8226,
      "cho": 8227,
      "ĠMess": 8228,
      "pan": 8229,
      "erk": 8230,
      "ĠCow": 8231,
      "rov": 8232,
      "Ġwasn": 8233,
      "emon": 8234,
      "Ġamounts": 8235,
      "Ġclearly": 8236,
      "Ġpreparation": 8237,
      "Ġcancelled": 8238,
      "Ġalliance": 8239,
      "Ġarmored": 8240,
      "ĠLov": 8241,
      "Ġprime": 8242,
      "ylan": 8243,
      "Ġpredomin": 8244,
      "Ġdecides": 8245,
      "Ġargues": 8246,
      "Ġcod": 8247,
      "Ġgang": 8248,
      "Ġrecommend": 8249,
      "Ġreven": 8250,
      "Ġnet": 8251,
      "ĠNear": 8252,
      "ĠChand": 8253,
      "ĠGuide": 8254,
      "Ġdramatic": 8255,
      "ori": 8256,
      "Ġfamiliar": 8257,
      "bre": 8258,
      "Ġtouring": 8259,
      "ĠMaur": 8260,
      "orer": 8261,
      "ĠRing": 8262,
      "Ġcous": 8263,
      "orders": 8264,
      "ĠFel": 8265,
      "Ġtribes": 8266,
      "ĠHistoric": 8267,
      "rep": 8268,
      "Ġdrove": 8269,
      "Ġrecre": 8270,
      "ĠEdge": 8271,
      "Ġcolonies": 8272,
      "ĠSurv": 8273,
      "ellect": 8274,
      "Ġmarks": 8275,
      "ĠPerform": 8276,
      "gate": 8277,
      "Ġdimens": 8278,
      "Ġgarden": 8279,
      "CC": 8280,
      "urally": 8281,
      "ĠGrey": 8282,
      "Ġrestoration": 8283,
      "ĠSmall": 8284,
      "Ġcircuit": 8285,
      "rage": 8286,
      "ridge": 8287,
      "rus": 8288,
      "Ġtru": 8289,
      "okes": 8290,
      "ĠJosh": 8291,
      "DS": 8292,
      "Ġsaved": 8293,
      "Ġengagement": 8294,
      "Ġmerchant": 8295,
      "Ġremnants": 8296,
      "hu": 8297,
      "uary": 8298,
      "ĠFem": 8299,
      "Ġrit": 8300,
      "Ġseed": 8301,
      "TA": 8302,
      "isp": 8303,
      "urst": 8304,
      "unc": 8305,
      "Ġbadly": 8306,
      "Ġfastest": 8307,
      "ĠDom": 8308,
      "inental": 8309,
      "ateur": 8310,
      "Ġartwork": 8311,
      "Ġperspective": 8312,
      "ĠTamil": 8313,
      "Ġtag": 8314,
      "acon": 8315,
      "ĠDest": 8316,
      "Ġpoems": 8317,
      "Ġcommunication": 8318,
      "ĠMarie": 8319,
      "ĠSony": 8320,
      "Ġracing": 8321,
      "Ġwicket": 8322,
      "Ġpatterns": 8323,
      "overeign": 8324,
      "Ġfalse": 8325,
      "bishop": 8326,
      "ĠMagn": 8327,
      "ĠFederation": 8328,
      "action": 8329,
      "Ġcrews": 8330,
      "Ġbulk": 8331,
      "storm": 8332,
      "Ġexecut": 8333,
      "ĠUE": 8334,
      "issions": 8335,
      "Ġcharacterized": 8336,
      "ĠIndependent": 8337,
      "Ġprint": 8338,
      "Ġadministrative": 8339,
      "ĠCuba": 8340,
      "Ġearning": 8341,
      "Ġseverely": 8342,
      "ĠSaturday": 8343,
      "Ġartistic": 8344,
      "Ġarmament": 8345,
      "andal": 8346,
      "ĠSnow": 8347,
      "ĠSeven": 8348,
      "Ġdisappoin": 8349,
      "ĠAriz": 8350,
      "ĠDylan": 8351,
      "Ġrising": 8352,
      "ĠPhoen": 8353,
      "Ġmilitia": 8354,
      "Ġdepending": 8355,
      "exp": 8356,
      "Ġsolution": 8357,
      "Ġboundary": 8358,
      "uma": 8359,
      "rating": 8360,
      "quir": 8361,
      "Ġnotice": 8362,
      "Ġexplains": 8363,
      "Ġexcav": 8364,
      "ĠPersian": 8365,
      "Ġerupt": 8366,
      "Ġdemonstrated": 8367,
      "Ġthrew": 8368,
      "mented": 8369,
      "Ġfrust": 8370,
      "Ġdistinctive": 8371,
      "Ġretail": 8372,
      "ĠIndies": 8373,
      "Ġideal": 8374,
      "ancell": 8375,
      "Ġrestricted": 8376,
      "Ġbronze": 8377,
      "fe": 8378,
      "Ġcondem": 8379,
      "Ġranging": 8380,
      "ĠBureau": 8381,
      "Ġearn": 8382,
      "Ġfallen": 8383,
      "Ġbowling": 8384,
      "Ġsisters": 8385,
      "Ġinland": 8386,
      "omber": 8387,
      "Ġspend": 8388,
      "Ġvel": 8389,
      "Ġflagship": 8390,
      "Ġkings": 8391,
      "Ġquiet": 8392,
      "Ġcontrols": 8393,
      "ĠkW": 8394,
      "Ġarrive": 8395,
      "Ġdraf": 8396,
      "atics": 8397,
      "species": 8398,
      "Ġcontributions": 8399,
      "Ġobvious": 8400,
      "Ġexplain": 8401,
      "Ġranks": 8402,
      "Ġinhabitants": 8403,
      "itting": 8404,
      "Ġplus": 8405,
      "elli": 8406,
      "Ġcomparison": 8407,
      "equ": 8408,
      "Ġwants": 8409,
      "ĠSuch": 8410,
      "Ġwider": 8411,
      "Ġvulner": 8412,
      "Ġinstitutions": 8413,
      "Ġgenetic": 8414,
      "Ġfaster": 8415,
      "ĠPerson": 8416,
      "asts": 8417,
      "ĠNon": 8418,
      "Ġrecip": 8419,
      "Ġconservative": 8420,
      "Ġriders": 8421,
      "ĠArizona": 8422,
      "ĠLiz": 8423,
      "Ġshield": 8424,
      "Ġcoverage": 8425,
      "lings": 8426,
      "estone": 8427,
      "ĠAmy": 8428,
      "Ġstores": 8429,
      "Ġmaneu": 8430,
      "Ġnorthward": 8431,
      "Ġevolved": 8432,
      "Ġdistinguished": 8433,
      "ĠABC": 8434,
      "ivia": 8435,
      "anches": 8436,
      "uki": 8437,
      "Ġblocks": 8438,
      "Ġspotted": 8439,
      "Ġpace": 8440,
      "Ġmillimet": 8441,
      "Ġmental": 8442,
      "Ġgap": 8443,
      "agg": 8444,
      "Ġframe": 8445,
      "ĠAthlet": 8446,
      "ski": 8447,
      "Ġsurge": 8448,
      "Ġownership": 8449,
      "Ġexclud": 8450,
      "uations": 8451,
      "ĠNik": 8452,
      "Ġacceler": 8453,
      "Ġloop": 8454,
      "Ġreaches": 8455,
      "Ġkit": 8456,
      "Ġrevol": 8457,
      "ĠWilhelm": 8458,
      "ĠMrs": 8459,
      "Ġexhibition": 8460,
      "fish": 8461,
      "Ġmeat": 8462,
      "ĠSwitzer": 8463,
      "ĠAustrian": 8464,
      "Ġelectron": 8465,
      "Ġtriple": 8466,
      "Ġprepare": 8467,
      "ĠConfederate": 8468,
      "ĠScout": 8469,
      "cru": 8470,
      "ieties": 8471,
      "ĠMurphy": 8472,
      "Ġsatellite": 8473,
      "Ġgate": 8474,
      "Ġapplication": 8475,
      "ĠSwitzerland": 8476,
      "Ġquarterback": 8477,
      "ectic": 8478,
      "oven": 8479,
      "Ġdominant": 8480,
      "otton": 8481,
      "Ġpalace": 8482,
      "oga": 8483,
      "Ar": 8484,
      "Ġobtain": 8485,
      "acked": 8486,
      "Ġagency": 8487,
      "sequently": 8488,
      "Ġpredicted": 8489,
      "arth": 8490,
      "ĠPed": 8491,
      "Ġhouseholds": 8492,
      "roph": 8493,
      "ĠBarry": 8494,
      "ĠVis": 8495,
      "Ġcarriers": 8496,
      "Ġarmour": 8497,
      "Ġpractices": 8498,
      "ĠOklah": 8499,
      "Ġattained": 8500,
      "Ġsubspecies": 8501,
      "Ġbattalions": 8502,
      "Ġrepeatedly": 8503,
      "Ġprotein": 8504,
      "kes": 8505,
      "Ġboss": 8506,
      "Ġautobi": 8507,
      "urer": 8508,
      "Ġvast": 8509,
      "Ġspr": 8510,
      "Ġpredecessor": 8511,
      "ĠTokyo": 8512,
      "Ġfixed": 8513,
      "Ġthor": 8514,
      "rates": 8515,
      "Ġtyphoon": 8516,
      "inian": 8517,
      "Ġstrict": 8518,
      "Ġintellect": 8519,
      "Ġpeaking": 8520,
      "Ġsynd": 8521,
      "Ġslaves": 8522,
      "Ġprinted": 8523,
      "ĠOriginally": 8524,
      "Ġstorage": 8525,
      "Ġvertical": 8526,
      "ĠBroadway": 8527,
      "oned": 8528,
      "Ġabund": 8529,
      "Ġallies": 8530,
      "anche": 8531,
      "Ġexcellent": 8532,
      "EC": 8533,
      "Ġtex": 8534,
      "Ġsignal": 8535,
      "Ġwestward": 8536,
      "acc": 8537,
      "ĠMik": 8538,
      "eor": 8539,
      "agh": 8540,
      "Ġbiographer": 8541,
      "Ġdisagre": 8542,
      "Ġyield": 8543,
      "anton": 8544,
      "ĠPerry": 8545,
      "Ġbombs": 8546,
      "imen": 8547,
      "Ġsurgery": 8548,
      "Ġillegal": 8549,
      "abs": 8550,
      "Ġremarked": 8551,
      "Ġpretty": 8552,
      "rine": 8553,
      "Ġperceived": 8554,
      "ĠTel": 8555,
      "Ġwaiting": 8556,
      "Ġcircumstances": 8557,
      "rose": 8558,
      "ĠAy": 8559,
      "Ġadventure": 8560,
      "Ġcomfort": 8561,
      "Ġseriously": 8562,
      "Ġtight": 8563,
      "ĠLang": 8564,
      "Ġuseful": 8565,
      "Ġchoose": 8566,
      "lus": 8567,
      "emen": 8568,
      "ĠLeslie": 8569,
      "azing": 8570,
      "Ġapartment": 8571,
      "Ġsurrend": 8572,
      "eland": 8573,
      "ĠOklahoma": 8574,
      "icate": 8575,
      "Ġcoinc": 8576,
      "TW": 8577,
      "Ġgust": 8578,
      "ascar": 8579,
      "Ġreconnaissance": 8580,
      "Ġphenomen": 8581,
      "Ġsick": 8582,
      "ĠLithuan": 8583,
      "pha": 8584,
      "ĠAld": 8585,
      "Ġcontext": 8586,
      "Ġmeetings": 8587,
      "Ġplayoffs": 8588,
      "Ġwhilst": 8589,
      "Ġsket": 8590,
      "Ġcivilian": 8591,
      "ĠJonathan": 8592,
      "formation": 8593,
      "Ġlayer": 8594,
      "Ġretain": 8595,
      "IS": 8596,
      "bra": 8597,
      "ĠRih": 8598,
      "Ġreaders": 8599,
      "life": 8600,
      "ĠChen": 8601,
      "ĠJohnny": 8602,
      "Ġsimilarly": 8603,
      "ruption": 8604,
      "iph": 8605,
      "ĠBrig": 8606,
      "Ġphone": 8607,
      "aughters": 8608,
      "Ġinstitution": 8609,
      "ĠBaby": 8610,
      "Ġstrengthened": 8611,
      "Ġbreat": 8612,
      "ĠHann": 8613,
      "ĠRidge": 8614,
      "Ġcurren": 8615,
      "ĠTon": 8616,
      "Ġvisiting": 8617,
      "ĠDenmark": 8618,
      "Ġrub": 8619,
      "ĠBusiness": 8620,
      "ĠBernard": 8621,
      "jan": 8622,
      "Ġchamber": 8623,
      "Ġdemanded": 8624,
      "Ġarticles": 8625,
      "Ġdrugs": 8626,
      "Ġsimultaneously": 8627,
      "nie": 8628,
      "Ġalive": 8629,
      "Ġhorn": 8630,
      "ĠFiles": 8631,
      "ĠJuan": 8632,
      "Ġenlisted": 8633,
      "ĠNixon": 8634,
      "ĠRihanna": 8635,
      "ĠSin": 8636,
      "ĠDelaware": 8637,
      "ĠRoll": 8638,
      "LC": 8639,
      "Ġtiss": 8640,
      "Ġjuris": 8641,
      "Ġinsisted": 8642,
      "yler": 8643,
      "idency": 8644,
      "ĠJar": 8645,
      "esses": 8646,
      "Ġempt": 8647,
      "Ġtack": 8648,
      "Ġmatters": 8649,
      "ĠEdwards": 8650,
      "arant": 8651,
      "ĠCra": 8652,
      "ĠLess": 8653,
      "sk": 8654,
      "ĠRico": 8655,
      "ĠWor": 8656,
      "apolis": 8657,
      "Ġpanel": 8658,
      "ĠAbbey": 8659,
      "ĠProgram": 8660,
      "Ġlanes": 8661,
      "ĠMaj": 8662,
      "Ġhook": 8663,
      "ĠChel": 8664,
      "Ġalternate": 8665,
      "ĠAtlanta": 8666,
      "Ġbacked": 8667,
      "ĠMcM": 8668,
      "din": 8669,
      "inations": 8670,
      "Ġshipping": 8671,
      "Ġpromised": 8672,
      "ĠCult": 8673,
      "Ġdemands": 8674,
      "Ġclock": 8675,
      "Ġathletes": 8676,
      "Ġmainland": 8677,
      "Ġextend": 8678,
      "Ġportions": 8679,
      "Ġphilosophy": 8680,
      "ĠDa": 8681,
      "Ġpersonally": 8682,
      "Ġstruggled": 8683,
      "Ġdollar": 8684,
      "Ġconsole": 8685,
      "ĠArnold": 8686,
      "Ġguilty": 8687,
      "Ġlooks": 8688,
      "Ġguitarist": 8689,
      "py": 8690,
      "Ġrevers": 8691,
      "entle": 8692,
      "ĠWriting": 8693,
      "Ġrevenue": 8694,
      "ĠJimmy": 8695,
      "Ġdemocr": 8696,
      "Ġaudition": 8697,
      "Ġorchestra": 8698,
      "bal": 8699,
      "ĠRub": 8700,
      "ĠKeith": 8701,
      "ĠMadag": 8702,
      "Ġbombing": 8703,
      "ĠBath": 8704,
      "Ġcontinu": 8705,
      "Ġdrivers": 8706,
      "Ġsung": 8707,
      "ĠBomb": 8708,
      "Ġsubst": 8709,
      "Ġjustice": 8710,
      "Ġplanets": 8711,
      "Ġdiver": 8712,
      "PA": 8713,
      "Ġroots": 8714,
      "ĠLex": 8715,
      "ĠFurthermore": 8716,
      "Ġdemolished": 8717,
      "Ġjobs": 8718,
      "gro": 8719,
      "ĠMother": 8720,
      "ĠRal": 8721,
      "estyle": 8722,
      "ĠInn": 8723,
      "Ġartific": 8724,
      "ĠTracy": 8725,
      "lain": 8726,
      "Ġpione": 8727,
      "ĠTerrit": 8728,
      "ĠPitts": 8729,
      "itage": 8730,
      "Ġoblig": 8731,
      "Ġbelieving": 8732,
      "Ġarmies": 8733,
      "mingham": 8734,
      "Ġessential": 8735,
      "tha": 8736,
      "Ġfeels": 8737,
      "Ġsurpass": 8738,
      "Ġpursue": 8739,
      "ĠBaseball": 8740,
      "ĠRachel": 8741,
      "ĠEventually": 8742,
      "Ġpropag": 8743,
      "Ġdancing": 8744,
      "Ġheading": 8745,
      "regation": 8746,
      "ĠBach": 8747,
      "ĠFif": 8748,
      "rac": 8749,
      "ĠPars": 8750,
      "Ġcompens": 8751,
      "aks": 8752,
      "Ġindu": 8753,
      "asa": 8754,
      "ĠShaw": 8755,
      "Ġfactory": 8756,
      "ĠPrize": 8757,
      "arr": 8758,
      "Ġsharp": 8759,
      "ĠDepression": 8760,
      "odox": 8761,
      "Ġdiscovers": 8762,
      "Ġobst": 8763,
      "ĠMcCartney": 8764,
      "Ġdefinition": 8765,
      "Ġsq": 8766,
      "Ġerected": 8767,
      "Ġruling": 8768,
      "Ġpages": 8769,
      "ĠFu": 8770,
      "Ġrif": 8771,
      "ĠGray": 8772,
      "Ġincreases": 8773,
      "Ġstarring": 8774,
      "Ġcup": 8775,
      "ĠRailroad": 8776,
      "Ġconspir": 8777,
      "Ġpunk": 8778,
      "avery": 8779,
      "ĠSoul": 8780,
      "Ġelevation": 8781,
      "bird": 8782,
      "Ġclothing": 8783,
      "Ġdiscont": 8784,
      "ĠMicro": 8785,
      "da": 8786,
      "je": 8787,
      "ĠPil": 8788,
      "Ġaffect": 8789,
      "Ġsucceed": 8790,
      "folk": 8791,
      "Ġtheater": 8792,
      "Ġsalt": 8793,
      "ĠObama": 8794,
      "ultan": 8795,
      "inding": 8796,
      "Ġexpression": 8797,
      "Ġmobile": 8798,
      "Ġdelivery": 8799,
      "umps": 8800,
      "Ġstick": 8801,
      "Ġmultipl": 8802,
      "ĠNapoleon": 8803,
      "ghan": 8804,
      "grad": 8805,
      "ĠFat": 8806,
      "Ġengage": 8807,
      "Ġsecretary": 8808,
      "ĠMans": 8809,
      "ĠHugh": 8810,
      "Ġmining": 8811,
      "azines": 8812,
      "Ġdoubt": 8813,
      "ĠUniversal": 8814,
      "otyp": 8815,
      "ĠVik": 8816,
      "Ġacou": 8817,
      "Ġpatron": 8818,
      "Ġhoriz": 8819,
      "Ġorganisation": 8820,
      "Ġorn": 8821,
      "Ġmayor": 8822,
      "ĠSem": 8823,
      "Ġcounties": 8824,
      "Ġports": 8825,
      "Ġcasting": 8826,
      "ĠKarl": 8827,
      "Ġbonus": 8828,
      "ĠTol": 8829,
      "ĠCanter": 8830,
      "aration": 8831,
      "ĠJup": 8832,
      "ĠInternet": 8833,
      "Ġdeterior": 8834,
      "cles": 8835,
      "Ġkiss": 8836,
      "Ġaccum": 8837,
      "wa": 8838,
      "Ġaltered": 8839,
      "atern": 8840,
      "Ġoverseas": 8841,
      "Ġbaby": 8842,
      "ĠYankees": 8843,
      "ĠHudson": 8844,
      "Ġdrink": 8845,
      "ĠWayne": 8846,
      "Ġchest": 8847,
      "ĠBobby": 8848,
      "ĠSak": 8849,
      "owed": 8850,
      "Ġsettlers": 8851,
      "ĠTodd": 8852,
      "ĠBirmingham": 8853,
      "Ġexpand": 8854,
      "Ġmarketing": 8855,
      "inces": 8856,
      "Ġbid": 8857,
      "Ġlisten": 8858,
      "ĠBaker": 8859,
      "Ġcancel": 8860,
      "ensively": 8861,
      "ĠLeonard": 8862,
      "ĠMadagascar": 8863,
      "ĠHold": 8864,
      "ĠEnterprise": 8865,
      "Ġlegislature": 8866,
      "ĠGoth": 8867,
      "shore": 8868,
      "aux": 8869,
      "Ġobjective": 8870,
      "ĠBosn": 8871,
      "ĠBuddh": 8872,
      "ĠPatt": 8873,
      "ĠAS": 8874,
      "Ġdisl": 8875,
      "Ġorganised": 8876,
      "Ġindicating": 8877,
      "ĠPhoenix": 8878,
      "irts": 8879,
      "OS": 8880,
      "Ġwait": 8881,
      "Ġstress": 8882,
      "ĠWag": 8883,
      "Ġsoldier": 8884,
      "Ġpale": 8885,
      "Ġrenov": 8886,
      "Ġraising": 8887,
      "Ġaerial": 8888,
      "Ġsitting": 8889,
      "ĠMorrison": 8890,
      "oons": 8891,
      "ĠPotter": 8892,
      "Ġdissipated": 8893,
      "rous": 8894,
      "Ġhapp": 8895,
      "Ġscen": 8896,
      "Ġturret": 8897,
      "ĠPearl": 8898,
      "asant": 8899,
      "Ġhidden": 8900,
      "ello": 8901,
      "rawn": 8902,
      "Ġconcentration": 8903,
      "ĠLost": 8904,
      "ĠPlayers": 8905,
      "ĠConnectic": 8906,
      "Ġwealthy": 8907,
      "Ġacknowledged": 8908,
      "Ġcrest": 8909,
      "Ġmusician": 8910,
      "Ġtrouble": 8911,
      "Ġstriking": 8912,
      "annon": 8913,
      "Ġrealized": 8914,
      "ĠIran": 8915,
      "Ġdressed": 8916,
      "ĠNine": 8917,
      "Ġprove": 8918,
      "Ġbehaviour": 8919,
      "Ġdanger": 8920,
      "mund": 8921,
      "Ġsolar": 8922,
      "Ġappropriate": 8923,
      "ĠConnecticut": 8924,
      "ifies": 8925,
      "Ġconfron": 8926,
      "Ġpermitted": 8927,
      "atropical": 8928,
      "ĠNAS": 8929,
      "ĠFriday": 8930,
      "Ġradical": 8931,
      "cription": 8932,
      "Ġexactly": 8933,
      "acre": 8934,
      "Ġdecisions": 8935,
      "ĠAllies": 8936,
      "ĠSig": 8937,
      "irty": 8938,
      "Ġhighways": 8939,
      "pent": 8940,
      "ĠCyr": 8941,
      "Ġprofile": 8942,
      "Ġaggressive": 8943,
      "Ġevacuated": 8944,
      "Ġdefences": 8945,
      "ĠDefence": 8946,
      "Ġgraduated": 8947,
      "ulous": 8948,
      "Ġfewer": 8949,
      "ĠCanterbury": 8950,
      "ouver": 8951,
      "ĠKl": 8952,
      "Ġcelebrated": 8953,
      "Ġchapel": 8954,
      "Ġbrick": 8955,
      "ĠPin": 8956,
      "ĠGirls": 8957,
      "oa": 8958,
      "ĠSpart": 8959,
      "inister": 8960,
      "Ġinitiated": 8961,
      "rast": 8962,
      "ĠLas": 8963,
      "Ġanth": 8964,
      "Ġforecast": 8965,
      "Ġprofit": 8966,
      "Ġstationed": 8967,
      "ĠReturn": 8968,
      "Ġbones": 8969,
      "Ġencl": 8970,
      "ĠOutstanding": 8971,
      "warf": 8972,
      "Ġvenue": 8973,
      "Ġliquid": 8974,
      "ĠLaur": 8975,
      "Ġmeter": 8976,
      "oker": 8977,
      "Ġdefending": 8978,
      "ĠTNA": 8979,
      "ĠGriff": 8980,
      "Ġrequires": 8981,
      "Ġoriginated": 8982,
      "ĠMountains": 8983,
      "OT": 8984,
      "ĠBoys": 8985,
      "ĠCost": 8986,
      "Ġconsidering": 8987,
      "Ġremoval": 8988,
      "ĠRights": 8989,
      "Ġcannon": 8990,
      "ĠGary": 8991,
      "Ġbrill": 8992,
      "Ġmush": 8993,
      "ĠPruss": 8994,
      "Ġextratropical": 8995,
      "Ġtort": 8996,
      "Ġestablishing": 8997,
      "Ġraids": 8998,
      "Ġdebt": 8999,
      "Ġtravels": 9000,
      "Ġtheatrical": 9001,
      "Ġconversion": 9002,
      "itis": 9003,
      "itals": 9004,
      "Ġfounding": 9005,
      "ception": 9006,
      "Ġyoungest": 9007,
      "Ġapproaching": 9008,
      "Ġpm": 9009,
      "aments": 9010,
      "otte": 9011,
      "Ġpublishing": 9012,
      "aja": 9013,
      "tario": 9014,
      "Ġstrategic": 9015,
      "Ġplacing": 9016,
      "ipper": 9017,
      "Ġsupple": 9018,
      "Ġconnect": 9019,
      "Ġlin": 9020,
      "ĠDiam": 9021,
      "Ġshorter": 9022,
      "Ġexplan": 9023,
      "Ġdonated": 9024,
      "Ġexecution": 9025,
      "itively": 9026,
      "Ġlying": 9027,
      "adier": 9028,
      "ĠKit": 9029,
      "Ġjurisd": 9030,
      "Ġguarant": 9031,
      "Ġcutting": 9032,
      "Ġfantasy": 9033,
      "Ġvoy": 9034,
      "Ġwalking": 9035,
      "Ġongoing": 9036,
      "Ġski": 9037,
      "boy": 9038,
      "Ġmac": 9039,
      "autical": 9040,
      "ĠWindows": 9041,
      "Ġimprovements": 9042,
      "ĠManu": 9043,
      "imp": 9044,
      "Ġconnecting": 9045,
      "ĠGene": 9046,
      "ĠOntario": 9047,
      "ĠOm": 9048,
      "uese": 9049,
      "Ġhosts": 9050,
      "itudes": 9051,
      "ĠLat": 9052,
      "Ġaspect": 9053,
      "ĠComple": 9054,
      "Ġdrag": 9055,
      "ĠJupiter": 9056,
      "Ġedited": 9057,
      "Ġfunny": 9058,
      "Ġmemor": 9059,
      "ĠNa": 9060,
      "Ġmagazines": 9061,
      "Ġstrongest": 9062,
      "Ġclosest": 9063,
      "ĠTriple": 9064,
      "vy": 9065,
      "ĠDall": 9066,
      "Ġdiscussion": 9067,
      "Ġsteps": 9068,
      "Ġtalent": 9069,
      "Ġmal": 9070,
      "ĠRio": 9071,
      "ĠLion": 9072,
      "ĠMint": 9073,
      "Ġmagic": 9074,
      "Ġcolleagues": 9075,
      "Ġannouncement": 9076,
      "ĠOpp": 9077,
      "Ġinsects": 9078,
      "ĠSymph": 9079,
      "ĠDrive": 9080,
      "Ġputting": 9081,
      "ĠPeace": 9082,
      "hous": 9083,
      "Ġcub": 9084,
      "raction": 9085,
      "Ġobservations": 9086,
      "Ġrebellion": 9087,
      "asm": 9088,
      "Ġles": 9089,
      "ĠHur": 9090,
      "ĠEdin": 9091,
      "Ġqualified": 9092,
      "Ġgathered": 9093,
      "Ġdecide": 9094,
      "Ġgray": 9095,
      "ienn": 9096,
      "Ġforth": 9097,
      "ĠPy": 9098,
      "Ġvolumes": 9099,
      "ĠFarm": 9100,
      "Ġidentify": 9101,
      "Ġsupplied": 9102,
      "ĠBradman": 9103,
      "Ġcollapsed": 9104,
      "Ġtubes": 9105,
      "ĠZe": 9106,
      "Ġmerely": 9107,
      "Ã¦": 9108,
      "ĠTan": 9109,
      "adal": 9110,
      "Ġindicates": 9111,
      "Ġarrangements": 9112,
      "Ġchallenged": 9113,
      "ĠDwight": 9114,
      "Ġforg": 9115,
      "Ġdesert": 9116,
      "idal": 9117,
      "Ġglac": 9118,
      "Ġpredict": 9119,
      "hears": 9120,
      "ugg": 9121,
      "ĠLen": 9122,
      "imented": 9123,
      "Ġwatershed": 9124,
      "Ġbeam": 9125,
      "ĠStu": 9126,
      "ĠVe": 9127,
      "Ġcaps": 9128,
      "Ġlandscape": 9129,
      "ĠUEFA": 9130,
      "ĠTak": 9131,
      "Ġpartial": 9132,
      "anner": 9133,
      "ĠPakistan": 9134,
      "Ġangle": 9135,
      "Ġoutl": 9136,
      "ĠMeg": 9137,
      "Ġswitch": 9138,
      "Ġcircle": 9139,
      "ĠMong": 9140,
      "ĠPortuguese": 9141,
      "ested": 9142,
      "ĠAlice": 9143,
      "angel": 9144,
      "Ġconventional": 9145,
      "ĠAbd": 9146,
      "ĠFleming": 9147,
      "ĠÃĨthel": 9148,
      "Ġbare": 9149,
      "ĠCov": 9150,
      "ĠPap": 9151,
      "ĠPubl": 9152,
      "ĠGor": 9153,
[...]
