{
  "version": "1.0",
  "truncation": null,
  "padding": null,
  "added_tokens": [
    {
      "id": 0,
      "content": "<|bos|>",
      "single_word": false,
      "lstrip": false,
      "rstrip": false,
      "normalized": false,
      "special": true
    },
    {
      "id": 1,
      "content": "<|eos|>",
      "single_word": false,
      "lstrip": false,
      "rstrip": false,
      "normalized": false,
      "special": true
    },
    {
      "id": 2,
      "content": "<|system|>",
      "single_word": false,
      "lstrip": false,
      "rstrip": false,
      "normalized": false,
      "special": true
    },
    {
      "id": 3,
      "content": "<|user|>",
      "single_word": false,
      "lstrip": false,
      "rstrip": false,
      "normalized": false,
      "special": true
    },
    {
      "id": 4,
      "content": "<|assistant|>",
      "single_word": false,
      "lstrip": false,
      "rstrip": false,
      "normalized": false,
      "special": true
    }
  ],
  "normalizer": {
    "type": "Sequence",
    "normalizers": [
      {
        "type": "NFD"
      },
      {
        "type": "StripAccents"
      }
    ]
  },
  "pre_tokenizer": {
    "type": "Sequence",
    "pretokenizers": [
      {
        "type": "Whitespace"
      },
      {
        "type": "Punctuation",
        "behavior": "Isolated"
      },
      {
        "type": "Digits",
        "individual_digits": true
      },
      {
        "type": "ByteLevel",
        "add_prefix_space": true,
        "trim_offsets": true,
        "use_regex": true
      }
    ]
  },
  "post_processor": {
    "type": "ByteLevel",
    "add_prefix_space": true,
    "trim_offsets": true,
    "use_regex": true
  },
  "decoder": {
    "type": "ByteLevel",
    "add_prefix_space": true,
    "trim_offsets": true,
    "use_regex": true
  },
  "model": {
    "type": "BPE",
    "dropout": null,
    "unk_token": null,
    "continuing_subword_prefix": null,
    "end_of_word_suffix": null,
    "fuse_unk": false,
    "byte_fallback": false,
    "ignore_merges": false,
    "vocab": {
      "<|bos|>": 0,
      "<|eos|>": 1,
      "<|system|>": 2,
      "<|user|>": 3,
      "<|assistant|>": 4,
      "!": 5,
      "\"": 6,
      "#": 7,
      "$": 8,
      "%": 9,
      "&": 10,
      "'": 11,
      "(": 12,
      ")": 13,
      "*": 14,
      "+": 15,
      ",": 16,
      "-": 17,
      ".": 18,
      "/": 19,
      "0": 20,
      "1": 21,
      "2": 22,
      "3": 23,
      "4": 24,
      "5": 25,
      "6": 26,
      "7": 27,
      "8": 28,
      "9": 29,
      ":": 30,
      ";": 31,
      "<": 32,
      "=": 33,
      ">": 34,
      "?": 35,
      "@": 36,
      "A": 37,
      "B": 38,
      "C": 39,
      "D": 40,
      "E": 41,
      "F": 42,
      "G": 43,
      "H": 44,
      "I": 45,
      "J": 46,
      "K": 47,
      "L": 48,
      "M": 49,
      "N": 50,
      "O": 51,
      "P": 52,
      "Q": 53,
      "R": 54,
      "S": 55,
      "T": 56,
      "U": 57,
      "V": 58,
      "W": 59,
      "X": 60,
      "Y": 61,
      "Z": 62,
      "[": 63,
      "\\": 64,
      "]": 65,
      "^": 66,
      "_": 67,
      "`": 68,
      "a": 69,
      "b": 70,
      "c": 71,
      "d": 72,
      "e": 73,
      "f": 74,
      "g": 75,
      "h": 76,
      "i": 77,
      "j": 78,
      "k": 79,
      "l": 80,
      "m": 81,
      "n": 82,
      "o": 83,
      "p": 84,
      "q": 85,
      "r": 86,
      "s": 87,
      "t": 88,
      "u": 89,
      "v": 90,
      "w": 91,
      "x": 92,
      "y": 93,
      "z": 94,
      "{": 95,
      "|": 96,
      "}": 97,
      "~": 98,
      "¡": 99,
      "¢": 100,
      "£": 101,
      "¤": 102,
      "¥": 103,
      "¦": 104,
      "§": 105,
      "¨": 106,
      "©": 107,
      "ª": 108,
      "«": 109,
      "¬": 110,
      "®": 111,
      "¯": 112,
      "°": 113,
      "±": 114,
      "²": 115,
      "³": 116,
      "´": 117,
      "µ": 118,
      "¶": 119,
      "·": 120,
      "¸": 121,
      "¹": 122,
      "º": 123,
      "»": 124,
      "¼": 125,
      "½": 126,
      "¾": 127,
      "¿": 128,
      "Â": 129,
      "Ã": 130,
      "Ä": 131,
      "Å": 132,
      "Æ": 133,
      "Ç": 134,
      "É": 135,
      "Ê": 136,
      "Ë": 137,
      "Î": 138,
      "Ï": 139,
      "Ð": 140,
      "Ñ": 141,
      "Ô": 142,
      "Õ": 143,
      "Ö": 144,
      "×": 145,
      "Ø": 146,
      "Ù": 147,
      "Û": 148,
      "à": 149,
      "á": 150,
      "â": 151,
      "ã": 152,
      "ä": 153,
      "å": 154,
      "æ": 155,
      "ç": 156,
      "è": 157,
      "é": 158,
      "ï": 159,
      "Ġ": 160,
      "Ģ": 161,
      "ģ": 162,
      "Ĥ": 163,
      "ĥ": 164,
      "Ħ": 165,
      "ħ": 166,
      "Ĩ": 167,
      "ĩ": 168,
      "Ī": 169,
      "ī": 170,
      "Ĭ": 171,
      "ĭ": 172,
      "Į": 173,
      "į": 174,
      "İ": 175,
      "ı": 176,
      "Ĳ": 177,
      "ĳ": 178,
      "Ĵ": 179,
      "ĵ": 180,
      "Ķ": 181,
      "ķ": 182,
      "ĸ": 183,
      "Ĺ": 184,
      "ĺ": 185,
      "Ļ": 186,
      "ļ": 187,
      "Ľ": 188,
      "ľ": 189,
      "Ŀ": 190,
      "ŀ": 191,
      "Ł": 192,
      "ł": 193,
      "Ń": 194,
      "Ġt": 195,
      "he": 196,
      "Ġa": 197,
      "in": 198,
      "Ġthe": 199,
      "er": 200,
      "on": 201,
      "Ġ,": 202,
      "Ġs": 203,
      "re": 204,
      "ed": 205,
      "Ġw": 206,
      "Ġ.": 207,
      "Ġo": 208,
      "nd": 209,
      "at": 210,
      "or": 211,
      "en": 212,
      "Ġc": 213,
      "it": 214,
      "Ġf": 215,
      "is": 216,
      "es": 217,
      "ar": 218,
      "Ġb": 219,
      "Ġof": 220,
      "an": 221,
      "Ġin": 222,
      "al": 223,
      "Ġ\"": 224,
      "ing": 225,
      "Ġp": 226,
      "as": 227,
      "Ġand": 228,
      "Ġ@": 229,
      "Ġto": 230,
      "ic": 231,
      "ro": 232,
      "Ġm": 233,
      "Ġd": 234,
      "Ġh": 235,
      "ion": 236,
      "le": 237,
      "Ġ1": 238,
      "ou": 239,
      "ĠT": 240,
      "Ġ0": 241,
      "Ġre": 242,
      "Ġ=": 243,
      "ĠS": 244,
      "il": 245,
      "Ġth": 246,
      "ĠA": 247,
      "ent": 248,
      "st": 249,
      "Ġl": 250,
      "el": 251,
      "ĠC": 252,
      "Ġe": 253,
      "om": 254,
      "am": 255,
      "Ġn": 256,
      "Ġu": 257,
      "ad": 258,
      "ac": 259,
      "Ġwas": 260,
      "Ġ2": 261,
      "ĠM": 262,
      "Ġon": 263,
      "ec": 264,
      "ĠB": 265,
      "ĠThe": 266,
      "ly": 267,
      "Ġ'": 268,
      "Ġ9": 269,
      "ur": 270,
      "et": 271,
      "Ġg": 272,
      "id": 273,
      "ol": 274,
      "ĠI": 275,
      "Ġ-": 276,
      "im": 277,
      "Ġfor": 278,
      "ir": 279,
      "ig": 280,
      "iv": 281,
      "ot": 282,
      "ter": 283,
      "ĠH": 284,
      "ut": 285,
      "Ġas": 286,
      "ow": 287,
      "ith": 288,
      "ay": 289,
      "Ġst": 290,
      "ĠP": 291,
      "Ġhe": 292,
      "ver": 293,
      "ation": 294,
      "Ġwith": 295,
      "Ġbe": 296,
      "Ġthat": 297,
      "ĠR": 298,
      "ce": 299,
      "Ġun": 300,
      "ĠD": 301,
      "em": 302,
      "Ġwh": 303,
      "ĠW": 304,
      "Ġby": 305,
      "us": 306,
      "ĠF": 307,
      "ch": 308,
      "Ġal": 309,
      "Ġ)": 310,
      "Ġ(": 311,
      "Ġis": 312,
      "ĠL": 313,
      "Ġat": 314,
      "Ġcon": 315,
      "ĠG": 316,
      "ers": 317,
      "ul": 318,
      "ct": 319,
      "ĠN": 320,
      "ain": 321,
      "and": 322,
      "Ġan": 323,
      "Ġ3": 324,
      "Ġ5": 325,
      "os": 326,
      "Ġ8": 327,
      "Ġit": 328,
      "her": 329,
      "rom": 330,
      "ag": 331,
      "av": 332,
      "um": 333,
      "ĠJ": 334,
      "est": 335,
      "Ġ4": 336,
      "th": 337,
      "Ġr": 338,
      "Ġhis": 339,
      "ĠE": 340,
      "Ġunk": 341,
      "Ġ>": 342,
      "Ġ<": 343,
      "Ġ6": 344,
      "ri": 345,
      "Ġ7": 346,
      "od": 347,
      "Ġfrom": 348,
      "ĠO": 349,
      "ist": 350,
      "Ġcom": 351,
      "un": 352,
      "Ġv": 353,
      "ap": 354,
      "Ġpro": 355,
      "op": 356,
      "if": 357,
      "ore": 358,
      "ill": 359,
      "ld": 360,
      "ere": 361,
      "ew": 362,
      "Ġsu": 363,
      "res": 364,
      "igh": 365,
      "ĠIn": 366,
      "ies": 367,
      "Ġde": 368,
      "art": 369,
      "ber": 370,
      "ard": 371,
      "ort": 372,
      "Ġse": 373,
      "Ġwere": 374,
      "ich": 375,
      "ate": 376,
      "ak": 377,
      "all": 378,
      "se": 379,
      "ab": 380,
      "pp": 381,
      "ant": 382,
      "oc": 383,
      "Ġex": 384,
      "ong": 385,
      "ud": 386,
      "qu": 387,
      "Ġor": 388,
      "Ġch": 389,
      "gh": 390,
      "ated": 391,
      "Ġpl": 392,
      "Ġsh": 393,
      "ity": 394,
      "ĠK": 395,
      "ess": 396,
      "ive": 397,
      "ame": 398,
      "ear": 399,
      "rou": 400,
      "ĠU": 401,
      "Ġâ": 402,
      "Ġhad": 403,
      "ect": 404,
      "ack": 405,
      "our": 406,
      "ĠâĢ": 407,
      "ĠSt": 408,
      "ip": 409,
      "red": 410,
      "ast": 411,
      "Ġwhich": 412,
      "Ġk": 413,
      "ge": 414,
      "ment": 415,
      "Ġle": 416,
      "Ġare": 417,
      "ian": 418,
      "ov": 419,
      "ial": 420,
      "Ġnot": 421,
      "ell": 422,
      "Ġsp": 423,
      "pt": 424,
      "ost": 425,
      "Ġy": 426,
      "ight": 427,
      "Ġtr": 428,
      "ord": 429,
      "ust": 430,
      "ary": 431,
      "ia": 432,
      "ther": 433,
      "rit": 434,
      "ine": 435,
      "oun": 436,
      "ical": 437,
      "ave": 438,
      "ĠCh": 439,
      "cc": 440,
      "Ġinc": 441,
      "fter": 442,
      "ould": 443,
      "Ġbut": 444,
      "irst": 445,
      "ish": 446,
      "ĠV": 447,
      "ous": 448,
      "ions": 449,
      "te": 450,
      "Ġcomp": 451,
      "so": 452,
      "ff": 453,
      "ide": 454,
      "Ġwhe": 455,
      "ure": 456,
      "Ġar": 457,
      "Ġcont": 458,
      "ra": 459,
      "Ġ;": 460,
      "Ġfirst": 461,
      "ign": 462,
      "Ġcl": 463,
      "ie": 464,
      "wo": 465,
      "Ġher": 466,
      "ub": 467,
      "ue": 468,
      "per": 469,
      "Ġits": 470,
      "Ġtheir": 471,
      "og": 472,
      "ĠâĢĵ": 473,
      "ass": 474,
      "ork": 475,
      "Ġint": 476,
      "ru": 477,
      "orm": 478,
      "ok": 479,
      "Ġ:": 480,
      "ĠHe": 481,
      "ater": 482,
      "Ġalso": 483,
      "Ġab": 484,
      "ome": 485,
      "Ġad": 486,
      "ond": 487,
      "out": 488,
      "age": 489,
      "mer": 490,
      "ire": 491,
      "ry": 492,
      "hed": 493,
      "Ġro": 494,
      "du": 495,
      "Ġres": 496,
      "ime": 497,
      "Ġper": 498,
      "low": 499,
      "ans": 500,
      "Ġwho": 501,
      "Ġone": 502,
      "Ġhave": 503,
      "Ġsc": 504,
      "ĠTh": 505,
      "ally": 506,
      "own": 507,
      "ile": 508,
      "ance": 509,
      "Ġrec": 510,
      "Ġtwo": 511,
      "pl": 512,
      "ition": 513,
      "ted": 514,
      "ree": 515,
      "uring": 516,
      "ence": 517,
      "Ġbeen": 518,
      "Ġpart": 519,
      "Ġbec": 520,
      "Ġhas": 521,
      "ts": 522,
      "iz": 523,
      "ice": 524,
      "Ġag": 525,
      "ĠAl": 526,
      "Ġapp": 527,
      "ough": 528,
      "Ġen": 529,
      "Ġj": 530,
      "Ġdis": 531,
      "lud": 532,
      "Ġover": 533,
      "Ġthis": 534,
      "Ġser": 535,
      "ory": 536,
      "Ġyear": 537,
      "ely": 538,
      "are": 539,
      "ations": 540,
      "ember": 541,
      "ction": 542,
      "ound": 543,
      "ke": 544,
      "Ġoff": 545,
      "Ġafter": 546,
      "ach": 547,
      "Ġplay": 548,
      "ĠIt": 549,
      "Ġdes": 550,
      "ace": 551,
      "land": 552,
      "over": 553,
      "ark": 554,
      "ric": 555,
      "Ġthey": 556,
      "Ġout": 557,
      "Ġte": 558,
      "ade": 559,
      "Ġother": 560,
      "act": 561,
      "Ġman": 562,
      "ib": 563,
      "Ġim": 564,
      "Ġinclud": 565,
      "ress": 566,
      "ced": 567,
      "ail": 568,
      "Ġup": 569,
      "ĠY": 570,
      "urn": 571,
      "wn": 572,
      "Ġwould": 573,
      "ens": 574,
      "Ġus": 575,
      "ep": 576,
      "ind": 577,
      "Ġtime": 578,
      "nder": 579,
      "Ġinto": 580,
      "man": 581,
      "Ġpre": 582,
      "ang": 583,
      "one": 584,
      "ĠOn": 585,
      "ĠUn": 586,
      "ward": 587,
      "Ġhim": 588,
      "Ġwe": 589,
      "ult": 590,
      "oin": 591,
      "we": 592,
      "ite": 593,
      "rough": 594,
      "ates": 595,
      "Ġshe": 596,
      "les": 597,
      "Ġev": 598,
      "ren": 599,
      "Ġatt": 600,
      "able": 601,
      "ased": 602,
      "ilm": 603,
      "ited": 604,
      "round": 605,
      "Ġne": 606,
      "ase": 607,
      "amp": 608,
      "ied": 609,
      "Ġcomm": 610,
      "ors": 611,
      "Ġinter": 612,
      "ount": 613,
      "oy": 614,
      "ons": 615,
      "Ġall": 616,
      "Ġmore": 617,
      "Ġwork": 618,
      "ces": 619,
      "ood": 620,
      "end": 621,
      "old": 622,
      "form": 623,
      "aw": 624,
      "ings": 625,
      "vel": 626,
      "ĠAr": 627,
      "port": 628,
      "ild": 629,
      "Ġnew": 630,
      "ĠAn": 631,
      "ose": 632,
      "Ġsec": 633,
      "Ġbet": 634,
      "ered": 635,
      "ick": 636,
      "Ġwhen": 637,
      "Ġfe": 638,
      "Ġfilm": 639,
      "inal": 640,
      "ents": 641,
      "ious": 642,
      "ake": 643,
      "way": 644,
      "ey": 645,
      "att": 646,
      "aus": 647,
      "fer": 648,
      "reat": 649,
      "Ġcons": 650,
      "ft": 651,
      "iss": 652,
      "ĠMar": 653,
      "ĠSe": 654,
      "Ġrem": 655,
      "gan": 656,
      "ved": 657,
      "rib": 658,
      "rop": 659,
      "Ġdec": 660,
      "ason": 661,
      "Ġduring": 662,
      "orth": 663,
      "Ġagain": 664,
      "Ġmost": 665,
      "ubl": 666,
      "ĠAs": 667,
      "Ġgame": 668,
      "Ġpr": 669,
      "Ġthem": 670,
      "Ġonly": 671,
      "oth": 672,
      "ween": 673,
      "hip": 674,
      "Ġear": 675,
      "ix": 676,
      "ollow": 677,
      "Ġthan": 678,
      "ath": 679,
      "ational": 680,
      "ob": 681,
      "fore": 682,
      "ĠNew": 683,
      "Ġabout": 684,
      "Ġprodu": 685,
      "Ġcent": 686,
      "Ġkn": 687,
      "tern": 688,
      "Ġret": 689,
      "Ġchar": 690,
      "Ġsong": 691,
      "Ġcan": 692,
      "outh": 693,
      "Ġbetween": 694,
      "Ġlater": 695,
      "Ġrele": 696,
      "ug": 697,
      "Ġunder": 698,
      "Ġthree": 699,
      "orn": 700,
      "ict": 701,
      "Ġcol": 702,
      "Ġact": 703,
      "hn": 704,
      "ton": 705,
      "iew": 706,
      "ron": 707,
      "aid": 708,
      "Ġthrough": 709,
      "als": 710,
      "ve": 711,
      "Ġqu": 712,
      "orld": 713,
      "Ġnum": 714,
      "ĠEn": 715,
      "ook": 716,
      "Ġso": 717,
      "Ġacc": 718,
      "Ġme": 719,
      "Ġrel": 720,
      "Ġwhile": 721,
      "Ġend": 722,
      "meric": 723,
      "ĠAmeric": 724,
      "ank": 725,
      "ĠLe": 726,
      "lect": 727,
      "Ġfl": 728,
      "ters": 729,
      "Ġpos": 730,
      "ral": 731,
      "ock": 732,
      "ever": 733,
      "Ġsub": 734,
      "Ġass": 735,
      "Ġwhere": 736,
      "ular": 737,
      "ating": 738,
      "Ġbu": 739,
      "Ġver": 740,
      "Ġday": 741,
      "Ġreg": 742,
      "Ġform": 743,
      "Ġsecond": 744,
      "ener": 745,
      "Ġmade": 746,
      "ĠCom": 747,
      "ision": 748,
      "ames": 749,
      "ived": 750,
      "ck": 751,
      "Ġpe": 752,
      "Ġrecord": 753,
      "hes": 754,
      "Ġdef": 755,
      "bum": 756,
      "Ġfour": 757,
      "son": 758,
      "Ġfollow": 759,
      "Ġseason": 760,
      "ĠRe": 761,
      "Ġsome": 762,
      "Ġep": 763,
      "Ġsuch": 764,
      "Ġam": 765,
      "ros": 766,
      "ished": 767,
      "Ġmov": 768,
      "ool": 769,
      "Ġbefore": 770,
      "ained": 771,
      "Ġmus": 772,
      "Ġthere": 773,
      "Ġwrit": 774,
      "ph": 775,
      "ĠJo": 776,
      "ĠSp": 777,
      "Ġspec": 778,
      "ics": 779,
      "io": 780,
      "ike": 781,
      "Ġyears": 782,
      "Ġteam": 783,
      "iel": 784,
      "ode": 785,
      "hen": 786,
      "Ġsy": 787,
      "ĠThis": 788,
      "ĠAt": 789,
      "Ġ/": 790,
      "ident": 791,
      "ual": 792,
      "Ġlar": 793,
      "Ġalbum": 794,
      "Ġind": 795,
      "owever": 796,
      "ily": 797,
      "Ġused": 798,
      "Ġent": 799,
      "Ġgr": 800,
      "Ġsupp": 801,
      "Ġcall": 802,
      "ning": 803,
      "Ġsur": 804,
      "ific": 805,
      "ĠSh": 806,
      "Ġhigh": 807,
      "Ġac": 808,
      "Ġpubl": 809,
      "ury": 810,
      "Ġbeing": 811,
      "Ġepis": 812,
      "Ġthen": 813,
      "led": 814,
      "anc": 815,
      "velop": 816,
      "Ġdo": 817,
      "Ġloc": 818,
      "Ġexp": 819,
      "ten": 820,
      "ife": 821,
      "Ġagainst": 822,
      "Ġinv": 823,
      "aj": 824,
      "other": 825,
      "ris": 826,
      "Ġpres": 827,
      "Ġbl": 828,
      "Ġnumber": 829,
      "Ġshow": 830,
      "ĠAfter": 831,
      "Ġcharac": 832,
      "Ġsever": 833,
      "Ġadd": 834,
      "Ġset": 835,
      "Ġco": 836,
      "ane": 837,
      "ince": 838,
      "Ġbecame": 839,
      "au": 840,
      "Ġrece": 841,
      "ĠBrit": 842,
      "ject": 843,
      "ause": 844,
      "Ġperform": 845,
      "Ġlead": 846,
      "Ġincluding": 847,
      "Ġbr": 848,
      "Ġno": 849,
      "Ġsing": 850,
      "ĠâĢĶ": 851,
      "ars": 852,
      "ather": 853,
      "ek": 854,
      "ĠUnited": 855,
      "Ġfound": 856,
      "ines": 857,
      "Ġwell": 858,
      "Ġrep": 859,
      "Ġmon": 860,
      "ale": 861,
      "Ġpol": 862,
      "Ġback": 863,
      "air": 864,
      "erm": 865,
      "Ġboth": 866,
      "ĠSc": 867,
      "Ġseries": 868,
      "Ġcap": 869,
      "ober": 870,
      "ier": 871,
      "ĠCon": 872,
      "ement": 873,
      "ower": 874,
      "ired": 875,
      "ures": 876,
      "ĠWh": 877,
      "its": 878,
      "Ġmain": 879,
      "ivers": 880,
      "ĠShe": 881,
      "Ġmin": 882,
      "iet": 883,
      "overn": 884,
      "ley": 885,
      "Ġdid": 886,
      "pen": 887,
      "til": 888,
      "Ġgo": 889,
      "Ġcre": 890,
      "der": 891,
      "elf": 892,
      "Ġdevelop": 893,
      "ik": 894,
      "iver": 895,
      "Ġimp": 896,
      "roup": 897,
      "ram": 898,
      "Ġlong": 899,
      "ĠEng": 900,
      "ities": 901,
      "Ġmet": 902,
      "ann": 903,
      "ting": 904,
      "olog": 905,
      "ised": 906,
      "any": 907,
      "ven": 908,
      "ared": 909,
      "ross": 910,
      "Ġem": 911,
      "Ġmill": 912,
      "ĠJohn": 913,
      "Ġair": 914,
      "az": 915,
      "ird": 916,
      "Ġmat": 917,
      "Ġepisode": 918,
      "ful": 919,
      "Ġship": 920,
      "irect": 921,
      "Ġsaid": 922,
      "Ġstud": 923,
      "Ġmany": 924,
      "ute": 925,
      "Ġbro": 926,
      "Ġdep": 927,
      "ative": 928,
      "uch": 929,
      "Ġcould": 930,
      "Ġorig": 931,
      "Ġcar": 932,
      "Ġcontin": 933,
      "Ġwar": 934,
      "Ġseveral": 935,
      "ĠAmerican": 936,
      "though": 937,
      "tend": 938,
      "Ġdif": 939,
      "ĠInd": 940,
      "ert": 941,
      "Ġinst": 942,
      "Ġpop": 943,
      "ĠCl": 944,
      "ash": 945,
      "ouse": 946,
      "ield": 947,
      "Ġknown": 948,
      "emb": 949,
      "ise": 950,
      "ĠAust": 951,
      "ually": 952,
      "Ġconc": 953,
      "ty": 954,
      "ins": 955,
      "iam": 956,
      "view": 957,
      "ĠWar": 958,
      "erson": 959,
      "ued": 960,
      "Ġreturn": 961,
      "Ġob": 962,
      "ĠBr": 963,
      "Ġbegan": 964,
      "Ġany": 965,
      "Ġsm": 966,
      "Ġcomple": 967,
      "Ġdesign": 968,
      "up": 969,
      "Ġdesc": 970,
      "ll": 971,
      "Ġsign": 972,
      "row": 973,
      "ople": 974,
      "chool": 975,
      "ange": 976,
      "Ġest": 977,
      "my": 978,
      "aking": 979,
      "ĠDe": 980,
      "ccess": 981,
      "Ġtrans": 982,
      "Ġprov": 983,
      "Ġfeat": 984,
      "oot": 985,
      "ĠFr": 986,
      "hy": 987,
      "Ġrun": 988,
      "Ġinf": 989,
      "Ġearly": 990,
      "ah": 991,
      "Ġart": 992,
      "Ġmusic": 993,
      "Ġnear": 994,
      "Ġown": 995,
      "Ġdist": 996,
      "Ġreleased": 997,
      "ided": 998,
      "Ġuntil": 999,
      "ĠBl": 1000,
      "rap": 1001,
      "Ġcalled": 1002,
      "ized": 1003,
      "ism": 1004,
      "Ġeff": 1005,
      "ĠZ": 1006,
      "imes": 1007,
      "ĠCol": 1008,
      "ĠUS": 1009,
      "une": 1010,
      "Ġresp": 1011,
      "Ġbel": 1012,
      "ern": 1013,
      "Ġpass": 1014,
      "ured": 1015,
      "stem": 1016,
      "Ġfin": 1017,
      "ĠMay": 1018,
      "ially": 1019,
      "ists": 1020,
      "Ġdown": 1021,
      "ution": 1022,
      "enn": 1023,
      "Ġdisc": 1024,
      "Ġcrit": 1025,
      "ments": 1026,
      "Ġdirect": 1027,
      "osed": 1028,
      "Ġgener": 1029,
      "Ġalong": 1030,
      "xt": 1031,
      "ĠGer": 1032,
      "Ġins": 1033,
      "Ġmillion": 1034,
      "ĠBritish": 1035,
      "Ġprev": 1036,
      "Ġoffic": 1037,
      "Ġgroup": 1038,
      "ull": 1039,
      "Ġfam": 1040,
      "Ġthese": 1041,
      "ajor": 1042,
      "ium": 1043,
      "Ġmod": 1044,
      "Ġmay": 1045,
      "ax": 1046,
      "Ġ$": 1047,
      "Ġopen": 1048,
      "cept": 1049,
      "Ġmil": 1050,
      "eb": 1051,
      "Ġpoin": 1052,
      "els": 1053,
      "ains": 1054,
      "ĠAd": 1055,
      "ĠBe": 1056,
      "Ġland": 1057,
      "Ġgovern": 1058,
      "Ġhist": 1059,
      "gest": 1060,
      "Ġsim": 1061,
      "ĠAug": 1062,
      "ĠSept": 1063,
      "Ġsuccess": 1064,
      "Ġstr": 1065,
      "und": 1066,
      "ĠSeptember": 1067,
      "ger": 1068,
      "ĠAugust": 1069,
      "Ġoper": 1070,
      "ĠStates": 1071,
      "ĠWorld": 1072,
      "Ġattack": 1073,
      "Ġcount": 1074,
      "ible": 1075,
      "Ġgu": 1076,
      "Ġuse": 1077,
      "Ġsame": 1078,
      "ĠAp": 1079,
      "wards": 1080,
      "Ġdescrib": 1081,
      "ets": 1082,
      "Ġpeople": 1083,
      "Ġcharacter": 1084,
      "aced": 1085,
      "ĠFor": 1086,
      "Ġbecause": 1087,
      "amed": 1088,
      "ink": 1089,
      "ĠAll": 1090,
      "ĠIs": 1091,
      "aining": 1092,
      "Ġlike": 1093,
      "yp": 1094,
      "Ġserv": 1095,
      "ĠJu": 1096,
      "Ġaround": 1097,
      "Ġstart": 1098,
      "Ġthough": 1099,
      "aving": 1100,
      "Ġed": 1101,
      "Ġkm": 1102,
      "ĠAustral": 1103,
      "Ġwin": 1104,
      "Ġconst": 1105,
      "Ġtook": 1106,
      "ues": 1107,
      "Ġocc": 1108,
      "Ġbatt": 1109,
      "ruct": 1110,
      "ĠGerman": 1111,
      "ĠOct": 1112,
      "ĠPl": 1113,
      "Ġann": 1114,
      "Ġsupport": 1115,
      "ner": 1116,
      "uc": 1117,
      "ĠNov": 1118,
      "Ġfollowing": 1119,
      "Ġnorth": 1120,
      "Ġdr": 1121,
      "Ġsix": 1122,
      "ove": 1123,
      "Ġele": 1124,
      "ĠHowever": 1125,
      "ĠQ": 1126,
      "Ġsystem": 1127,
      "Ġappear": 1128,
      "ĠTr": 1129,
      "ene": 1130,
      "uss": 1131,
      "Ġfinal": 1132,
      "Ġreceived": 1133,
      "Ġclass": 1134,
      "ĠCar": 1135,
      "ĠOctober": 1136,
      "Ġprom": 1137,
      "Ġconsid": 1138,
      "Ġhead": 1139,
      "ives": 1140,
      "erv": 1141,
      "ants": 1142,
      "ĠDec": 1143,
      "Ġstate": 1144,
      "Ġever": 1145,
      "Ġeach": 1146,
      "ically": 1147,
      "ling": 1148,
      "Ġfive": 1149,
      "Ġbuild": 1150,
      "Ġadv": 1151,
      "Ġext": 1152,
      "anu": 1153,
      "Ġcentury": 1154,
      "ĠYork": 1155,
      "rol": 1156,
      "Ġaut": 1157,
      "ret": 1158,
      "Ġarea": 1159,
      "Ġvar": 1160,
      "ĠThey": 1161,
      "Ġwill": 1162,
      "Ġsmall": 1163,
      "Ġbo": 1164,
      "ately": 1165,
      "ĠPro": 1166,
      "Ġpartic": 1167,
      "Ġlife": 1168,
      "ĠNorth": 1169,
      "gin": 1170,
      "iving": 1171,
      "Ġreport": 1172,
      "get": 1173,
      "Ġ]": 1174,
      "ility": 1175,
      "Ġ[": 1176,
      "oss": 1177,
      "ĠJune": 1178,
      "ored": 1179,
      "tle": 1180,
      "ĠBy": 1181,
      "Ġcity": 1182,
      "ording": 1183,
      "ril": 1184,
      "ĠMe": 1185,
      "ians": 1186,
      "Ġmajor": 1187,
      "Ġpublic": 1188,
      "Ġweek": 1189,
      "ĠKing": 1190,
      "Ġmar": 1191,
      "ĠJuly": 1192,
      "Ġ%": 1193,
      "ission": 1194,
      "Ġconf": 1195,
      "Ġband": 1196,
      "ection": 1197,
      "ĠHar": 1198,
      "Ġref": 1199,
      "ĠNovember": 1200,
      "orp": 1201,
      "med": 1202,
      "urch": 1203,
      "ble": 1204,
      "Ġrest": 1205,
      "ĠComm": 1206,
      "ina": 1207,
      "Ġsince": 1208,
      "Ġworld": 1209,
      "ĠWill": 1210,
      "Ġmed": 1211,
      "inc": 1212,
      "Ġsingle": 1213,
      "raft": 1214,
      "esp": 1215,
      "ĠApril": 1216,
      "Ġdet": 1217,
      "Ġjust": 1218,
      "lish": 1219,
      "ĠMarch": 1220,
      "ried": 1221,
      "Ġlast": 1222,
      "ected": 1223,
      "omet": 1224,
      "ĠEd": 1225,
      "hest": 1226,
      "ĠPr": 1227,
      "ural": 1228,
      "ional": 1229,
      "Ġturn": 1230,
      "aim": 1231,
      "ĠMc": 1232,
      "ively": 1233,
      "Ġallow": 1234,
      "ilt": 1235,
      "Ġhel": 1236,
      "ĠCan": 1237,
      "ient": 1238,
      "ĠGe": 1239,
      "Ġarr": 1240,
      "ague": 1241,
      "Ġpo": 1242,
      "Ġleft": 1243,
      "Ġlarge": 1244,
      "idge": 1245,
      "Ġline": 1246,
      "Ġdiffer": 1247,
      "ĠSouth": 1248,
      "Ġcare": 1249,
      "Ġsouth": 1250,
      "ĠDuring": 1251,
      "ales": 1252,
      "ĠOr": 1253,
      "ified": 1254,
      "cl": 1255,
      "Ġvers": 1256,
      "Ġbook": 1257,
      "empt": 1258,
      "Ġschool": 1259,
      "ĠGr": 1260,
      "ĠDecember": 1261,
      "Ġthird": 1262,
      "avy": 1263,
      "rist": 1264,
      "Ġsl": 1265,
      "ats": 1266,
      "Ġincre": 1267,
      "Ġmonth": 1268,
      "Ġdue": 1269,
      "Ġplayed": 1270,
      "Ġappro": 1271,
      "ined": 1272,
      "Ġevent": 1273,
      "Ġmuch": 1274,
      "Ġanother": 1275,
      "Ġif": 1276,
      "Ġincluded": 1277,
      "ĠJanu": 1278,
      "ĠJanuary": 1279,
      "rote": 1280,
      "Ġwhat": 1281,
      "Ġbased": 1282,
      "Ġplace": 1283,
      "eng": 1284,
      "ĠPh": 1285,
      "Ġshort": 1286,
      "ĠII": 1287,
      "aged": 1288,
      "Ġgovernment": 1289,
      "by": 1290,
      "Ġexpl": 1291,
      "Ġperson": 1292,
      "ograp": 1293,
      "Ġwrote": 1294,
      "ĠEu": 1295,
      "ĠWhen": 1296,
      "Ġtrack": 1297,
      "apan": 1298,
      "Ġcamp": 1299,
      "ball": 1300,
      "ony": 1301,
      "Ġold": 1302,
      "Ġtit": 1303,
      "Ġname": 1304,
      "ently": 1305,
      "Ġdeath": 1306,
      "Ġport": 1307,
      "alf": 1308,
      "Ġbre": 1309,
      "Ġph": 1310,
      "ĠJapan": 1311,
      "ages": 1312,
      "Ġelect": 1313,
      "Ġwon": 1314,
      "ience": 1315,
      "Ġchild": 1316,
      "Ġkill": 1317,
      "Ġlit": 1318,
      "Ġeng": 1319,
      "ideo": 1320,
      "Ġprog": 1321,
      "Ġstory": 1322,
      "Ġpower": 1323,
      "oad": 1324,
      "Ġreview": 1325,
      "Ġprot": 1326,
      "ody": 1327,
      "Ġvis": 1328,
      "Ġhome": 1329,
      "ĠTe": 1330,
      "ital": 1331,
      "Ġled": 1332,
      "ĠBro": 1333,
      "Ġdescribed": 1334,
      "Ġcour": 1335,
      "Ġrequ": 1336,
      "Ġprevious": 1337,
      "Ġfamily": 1338,
      "Ġgun": 1339,
      "oman": 1340,
      "ott": 1341,
      "Ġway": 1342,
      "ne": 1343,
      "Ġnamed": 1344,
      "Ġright": 1345,
      "Ġnow": 1346,
      "mp": 1347,
      "urther": 1348,
      "ĠMus": 1349,
      "Ġdem": 1350,
      "ption": 1351,
      "Ġmen": 1352,
      "Ġeven": 1353,
      "iven": 1354,
      "embers": 1355,
      "Ġmake": 1356,
      "iod": 1357,
      "ilar": 1358,
      "Ġleg": 1359,
      "ged": 1360,
      "Ġattempt": 1361,
      "iversity": 1362,
      "ĠGu": 1363,
      "ister": 1364,
      "reen": 1365,
      "ention": 1366,
      "Ġbest": 1367,
      "itions": 1368,
      "omin": 1369,
      "ĠÂ": 1370,
      "ivision": 1371,
      "Ġrepl": 1372,
      "Ġopp": 1373,
      "cy": 1374,
      "Ġgames": 1375,
      "ple": 1376,
      "aff": 1377,
      "ached": 1378,
      "rench": 1379,
      "Ġterm": 1380,
      "Ġcommand": 1381,
      "Ġtop": 1382,
      "ior": 1383,
      "Ġhand": 1384,
      "Ġposs": 1385,
      "ival": 1386,
      "Ġbelie": 1387,
      "Ġvery": 1388,
      "Ġdam": 1389,
      "ness": 1390,
      "Ġthose": 1391,
      "ĠHis": 1392,
      "ĠFeb": 1393,
      "ont": 1394,
      "ĠEurop": 1395,
      "ruary": 1396,
      "ĠFebruary": 1397,
      "Ġiss": 1398,
      "Ġstill": 1399,
      "Ġorgan": 1400,
      "ĠAnd": 1401,
      "Ġnext": 1402,
      "Ġspecies": 1403,
      "ĠFl": 1404,
      "Ġeffect": 1405,
      "ances": 1406,
      "Ġview": 1407,
      "riend": 1408,
      "self": 1409,
      "Ġpar": 1410,
      "Ġcapt": 1411,
      "Ġhelp": 1412,
      "ĠChrist": 1413,
      "ĠThere": 1414,
      "ĠNational": 1415,
      "aken": 1416,
      "Ġoriginal": 1417,
      "app": 1418,
      "Ġspe": 1419,
      "ature": 1420,
      "ences": 1421,
      "oci": 1422,
      "Ġwater": 1423,
      "ched": 1424,
      "ery": 1425,
      "Ġjoin": 1426,
      "Ġaddition": 1427,
      "ox": 1428,
      "ĠEurope": 1429,
      "Ġlist": 1430,
      "Ġdeb": 1431,
      "ĠWe": 1432,
      "Ġwithin": 1433,
      "Ġperiod": 1434,
      "Ġmembers": 1435,
      "lu": 1436,
      "sh": 1437,
      "Ġmark": 1438,
      "Ġbuilt": 1439,
      "Ġheld": 1440,
      "ĠFrench": 1441,
      "Ġexper": 1442,
      "Ġrelease": 1443,
      "Ġalthough": 1444,
      "Ġlate": 1445,
      "Ġformer": 1446,
      "Ġmatch": 1447,
      "Ġgreat": 1448,
      "ĠBar": 1449,
      "rew": 1450,
      "Ġsold": 1451,
      "lev": 1452,
      "alk": 1453,
      "Ġdest": 1454,
      "augh": 1455,
      "uted": 1456,
      "Ġcur": 1457,
      "Ġvideo": 1458,
      "tended": 1459,
      "ney": 1460,
      "hor": 1461,
      "line": 1462,
      "Ġcaus": 1463,
      "ĠWest": 1464,
      "ards": 1465,
      "ented": 1466,
      "Ġstorm": 1467,
      "Ġcover": 1468,
      "Ġrole": 1469,
      "Ġinit": 1470,
      "ropical": 1471,
      "ĠWilliam": 1472,
      "ĠPar": 1473,
      "af": 1474,
      "Ġcame": 1475,
      "Ġav": 1476,
      "Ġestab": 1477,
      "Ġtri": 1478,
      "Ġdays": 1479,
      "Ġresult": 1480,
      "ĠAm": 1481,
      "Ġmid": 1482,
      "Ġcontrol": 1483,
      "Ġstand": 1484,
      "ulation": 1485,
      "Ġpolit": 1486,
      "Ġreal": 1487,
      "ipp": 1488,
      "ĠX": 1489,
      "Ġprop": 1490,
      "ides": 1491,
      "ring": 1492,
      "ech": 1493,
      "Ġhowever": 1494,
      "itary": 1495,
      "ĠHer": 1496,
      "ler": 1497,
      "oon": 1498,
      "hel": 1499,
      "Ġcr": 1500,
      "Ġmy": 1501,
      "aster": 1502,
      "Ġfew": 1503,
      "ĠMin": 1504,
      "Ġtown": 1505,
      "Ġwind": 1506,
      "ense": 1507,
      "ĠGeor": 1508,
      "Ġyou": 1509,
      "Ġside": 1510,
      "Ġtw": 1511,
      "Ġcontinued": 1512,
      "akes": 1513,
      "atic": 1514,
      "Ġoften": 1515,
      "ĠMan": 1516,
      "Ġequ": 1517,
      "ham": 1518,
      "Ġlocal": 1519,
      "Ġsk": 1520,
      "ĠEar": 1521,
      "Ġpost": 1522,
      "let": 1523,
      "Ġamong": 1524,
      "Ġsay": 1525,
      "Ġsimilar": 1526,
      "ruction": 1527,
      "ĠAir": 1528,
      "ĠMich": 1529,
      "ĠChar": 1530,
      "omb": 1531,
      "Ġhum": 1532,
      "Ġclaim": 1533,
      "Ġconv": 1534,
      "elt": 1535,
      "ead": 1536,
      "estern": 1537,
      "gy": 1538,
      "side": 1539,
      "ĠEngland": 1540,
      "Ġ&": 1541,
      "ator": 1542,
      "ĠNo": 1543,
      "omen": 1544,
      "reet": 1545,
      "na": 1546,
      "Ġdifferent": 1547,
      "ese": 1548,
      "Ġsug": 1549,
      "read": 1550,
      "br": 1551,
      "ract": 1552,
      "Ġbeh": 1553,
      "Ġdel": 1554,
      "Ġfurther": 1555,
      "Ġtyp": 1556,
      "Ġsent": 1557,
      "ology": 1558,
      "ĠRec": 1559,
      "Ġlevel": 1560,
      "ves": 1561,
      "ĠDav": 1562,
      "Ġtake": 1563,
      "Ġconsidered": 1564,
      "Ġlaw": 1565,
      "Ġfre": 1566,
      "ops": 1567,
      "Ġtot": 1568,
      "ĠOne": 1569,
      "eter": 1570,
      "Ġcareer": 1571,
      "ots": 1572,
      "Ġproduction": 1573,
      "esc": 1574,
      "arch": 1575,
      "par": 1576,
      "Ġhalf": 1577,
      "ront": 1578,
      "urs": 1579,
      "ying": 1580,
      "uck": 1581,
      "ĠPark": 1582,
      "Ġhaving": 1583,
      "ĠCity": 1584,
      "ices": 1585,
      "ampions": 1586,
      "ĠEl": 1587,
      "ĠAcc": 1588,
      "ung": 1589,
      "ĠEnglish": 1590,
      "ms": 1591,
      "ĠAng": 1592,
      "Ġeast": 1593,
      "Ġroad": 1594,
      "Ġmoved": 1595,
      "ĠCo": 1596,
      "Ġmag": 1597,
      "Ġwest": 1598,
      "Ġant": 1599,
      "yl": 1600,
      "Ġwithout": 1601,
      "Ġevery": 1602,
      "ĠAlthough": 1603,
      "Ġappe": 1604,
      "rodu": 1605,
      "Ġposition": 1606,
      "Ġplayer": 1607,
      "Ġplan": 1608,
      "Ġbecome": 1609,
      "ĠCent": 1610,
      "Ġhistory": 1611,
      "Ġversion": 1612,
      "me": 1613,
      "ĠCount": 1614,
      "ondon": 1615,
      "bo": 1616,
      "Ġcast": 1617,
      "Ġinflu": 1618,
      "Ġel": 1619,
      "vers": 1620,
      "ĠLondon": 1621,
      "Ġhouse": 1622,
      "ches": 1623,
      "ĠCal": 1624,
      "ones": 1625,
      "Ġsound": 1626,
      "ford": 1627,
      "Ġcommun": 1628,
      "yle": 1629,
      "Ġfore": 1630,
      "ĠBatt": 1631,
      "Ġinvol": 1632,
      "ize": 1633,
      "Ġsuggest": 1634,
      "Ġstrong": 1635,
      "Ġclub": 1636,
      "aul": 1637,
      "irc": 1638,
      "Ġwritten": 1639,
      "atter": 1640,
      "Ġdefe": 1641,
      "ĠWith": 1642,
      "Ġbas": 1643,
      "Ġstat": 1644,
      "Ġannoun": 1645,
      "Ġless": 1646,
      "ĠRiver": 1647,
      "utes": 1648,
      "ĠSu": 1649,
      "Ġfoot": 1650,
      "Ġorder": 1651,
      "ape": 1652,
      "Ġrefer": 1653,
      "iety": 1654,
      "ĠCanad": 1655,
      "rest": 1656,
      "Ġprof": 1657,
      "craft": 1658,
      "sequ": 1659,
      "Ġaff": 1660,
      "Ġpoint": 1661,
      "ering": 1662,
      "Ġgiven": 1663,
      "Ġtem": 1664,
      "Ġlow": 1665,
      "ĠGener": 1666,
      "Ġhig": 1667,
      "Ġwant": 1668,
      "Ġtrad": 1669,
      "ĠUniversity": 1670,
      "iqu": 1671,
      "Ġgave": 1672,
      "Ġrad": 1673,
      "Ġfar": 1674,
      "Ġke": 1675,
      "rent": 1676,
      "ald": 1677,
      "Ġnever": 1678,
      "Ġimport": 1679,
      "ĠWhile": 1680,
      "ailed": 1681,
      "Ġchang": 1682,
      "Ġpat": 1683,
      "Ġreturned": 1684,
      "Ġsoc": 1685,
      "ories": 1686,
      "Ġrepres": 1687,
      "Ġtotal": 1688,
      "Ġvict": 1689,
      "ĠPol": 1690,
      "Ġfact": 1691,
      "ĠHigh": 1692,
      "Ġgood": 1693,
      "aly": 1694,
      "Ġcompany": 1695,
      "Ġwent": 1696,
      "ai": 1697,
      "Ġcountry": 1698,
      "roy": 1699,
      "Ġcomb": 1700,
      "Ġfire": 1701,
      "ges": 1702,
      "Ġfriend": 1703,
      "cess": 1704,
      "Ġpublished": 1705,
      "Ġhour": 1706,
      "ison": 1707,
      "con": 1708,
      "Ġproduced": 1709,
      "levision": 1710,
      "sp": 1711,
      "Ġfind": 1712,
      "Ġreported": 1713,
      "Ġorigin": 1714,
      "aun": 1715,
      "Ġyoun": 1716,
      "Ġlost": 1717,
      "Ġstated": 1718,
      "ille": 1719,
      "ably": 1720,
      "aign": 1721,
      "Ġcommon": 1722,
      "Ġprogram": 1723,
      "ĠEx": 1724,
      "Ġparticular": 1725,
      "isc": 1726,
      "Ġlight": 1727,
      "ĠSm": 1728,
      "Ġord": 1729,
      "ington": 1730,
      "Ġadm": 1731,
      "Ġinclude": 1732,
      "ĠAccording": 1733,
      "ĠNe": 1734,
      "echn": 1735,
      "Ġer": 1736,
      "urric": 1737,
      "Ġcompet": 1738,
      "used": 1739,
      "Ġrecorded": 1740,
      "Ġforces": 1741,
      "Ġbuilding": 1742,
      "Ġpress": 1743,
      "hing": 1744,
      "ief": 1745,
      "Ġneed": 1746,
      "Ġproject": 1747,
      "Ġbus": 1748,
      "ĠSy": 1749,
      "Ġnort": 1750,
      "ĠAb": 1751,
      "Ġships": 1752,
      "Ġshould": 1753,
      "Ġusing": 1754,
      "Ġeight": 1755,
      "Ġinterest": 1756,
      "aren": 1757,
      "Ġperformance": 1758,
      "Ġservice": 1759,
      "ploy": 1760,
      "Ġpopular": 1761,
      "ĠThese": 1762,
      "Ġide": 1763,
      "Ġtimes": 1764,
      "iment": 1765,
      "raw": 1766,
      "Ġmaking": 1767,
      "ĠRep": 1768,
      "Ġaircraft": 1769,
      "osp": 1770,
      "ĠAustralia": 1771,
      "Ġmilitary": 1772,
      "Ġten": 1773,
      "Ġhimself": 1774,
      "gr": 1775,
      "ned": 1776,
      "oyal": 1777,
      "Ġauthor": 1778,
      "Ġfather": 1779,
      "ĠSw": 1780,
      "iness": 1781,
      "tain": 1782,
      "Ġfun": 1783,
      "Ġbattle": 1784,
      "Ġanim": 1785,
      "ampionship": 1786,
      "ĠSec": 1787,
      "ĠJack": 1788,
      "lear": 1789,
      "Ġsit": 1790,
      "ae": 1791,
      "Ġlim": 1792,
      "Ġsongs": 1793,
      "ĠAss": 1794,
      "atch": 1795,
      "Ġsomet": 1796,
      "Ġfr": 1797,
      "outher": 1798,
      "Ġread": 1799,
      "ĠAf": 1800,
      "ensive": 1801,
      "ĠPres": 1802,
      "Ġsurv": 1803,
      "Ġcritic": 1804,
      "Ġdevelopment": 1805,
      "play": 1806,
      "ĠGeneral": 1807,
      "ither": 1808,
      "ords": 1809,
      "Ġhow": 1810,
      "eder": 1811,
      "Ġsw": 1812,
      "alth": 1813,
      "quad": 1814,
      "ĠState": 1815,
      "ĠSte": 1816,
      "cer": 1817,
      "itive": 1818,
      "olution": 1819,
      "outhern": 1820,
      "ases": 1821,
      "ĠJames": 1822,
      "Ġcross": 1823,
      "Ġgl": 1824,
      "Ġground": 1825,
      "ĠDr": 1826,
      "Ġft": 1827,
      "astern": 1828,
      "Ġremained": 1829,
      "acy": 1830,
      "ĠArmy": 1831,
      "Ġcharacters": 1832,
      "Ġnational": 1833,
      "Ġstar": 1834,
      "Ġget": 1835,
      "Ġste": 1836,
      "Ġmonths": 1837,
      "Ġsuff": 1838,
      "Ġpresent": 1839,
      "oll": 1840,
      "rick": 1841,
      "Ġdied": 1842,
      "ael": 1843,
      "Ġve": 1844,
      "ublic": 1845,
      "Ġgen": 1846,
      "Ġdeveloped": 1847,
      "Ġtitle": 1848,
      "work": 1849,
      "Ġsum": 1850,
      "ĠComp": 1851,
      "Ġter": 1852,
      "Ġcampaign": 1853,
      "Ġchart": 1854,
      "dom": 1855,
      "Ġforce": 1856,
      "ries": 1857,
      "rie": 1858,
      "urricane": 1859,
      "ĠLeague": 1860,
      "ument": 1861,
      "Ġchildren": 1862,
      "fic": 1863,
      "ream": 1864,
      "Ġintrodu": 1865,
      "Ġtour": 1866,
      "Ġfac": 1867,
      "Ġpromot": 1868,
      "bs": 1869,
      "ĠBo": 1870,
      "itted": 1871,
      "ency": 1872,
      "eth": 1873,
      "Ġsignific": 1874,
      "Ġacross": 1875,
      "isted": 1876,
      "Ġson": 1877,
      "ration": 1878,
      "Ġaway": 1879,
      "lands": 1880,
      "ression": 1881,
      "hern": 1882,
      "ĠGl": 1883,
      "Ġrelations": 1884,
      "Ġobs": 1885,
      "ĠDivision": 1886,
      "Ġofficial": 1887,
      "Ġfield": 1888,
      "Ġhistor": 1889,
      "ĠAmerica": 1890,
      "Ġfav": 1891,
      "Ġpra": 1892,
      "Ġfelt": 1893,
      "lege": 1894,
      "Ġnoted": 1895,
      "Ġnight": 1896,
      "Ġannounced": 1897,
      "Ġreached": 1898,
      "ĠRuss": 1899,
      "Ġintern": 1900,
      "most": 1901,
      "Ġred": 1902,
      "ĠCounty": 1903,
      "ĠSim": 1904,
      "ĠJapanese": 1905,
      "Ġcreated": 1906,
      "Ġareas": 1907,
      "Ġdestroy": 1908,
      "ask": 1909,
      "Ġtelevision": 1910,
      "aur": 1911,
      "ĠRoad": 1912,
      "Ġstation": 1913,
      "Ġcoun": 1914,
      "alt": 1915,
      "Ġsuccessful": 1916,
      "yn": 1917,
      "ressed": 1918,
      "ole": 1919,
      "ope": 1920,
      "Ġrock": 1921,
      "imately": 1922,
      "ĠStreet": 1923,
      "Ġask": 1924,
      "Ġarm": 1925,
      "reg": 1926,
      "vent": 1927,
      "Ġvarious": 1928,
      "ĠâĢĻ": 1929,
      "Ġpolitical": 1930,
      "Ġval": 1931,
      "Ġfollowed": 1932,
      "Ġseen": 1933,
      "iber": 1934,
      "ĠMad": 1935,
      "ĠMon": 1936,
      "Ġaver": 1937,
      "Ġbar": 1938,
      "Ġtoo": 1939,
      "Ġtrav": 1940,
      "ĠReg": 1941,
      "Ġrank": 1942,
      "Ġperformed": 1943,
      "Ġserved": 1944,
      "ĠRober": 1945,
      "ĠEast": 1946,
      "iting": 1947,
      "ising": 1948,
      "Ġcult": 1949,
      "Ġplayers": 1950,
      "Ġsuper": 1951,
      "Ġfront": 1952,
      "cast": 1953,
      "ĠGeorge": 1954,
      "Ġfull": 1955,
      "Ġdecl": 1956,
      "Ġtro": 1957,
      "Ġcond": 1958,
      "Ġprim": 1959,
      "Ġbegin": 1960,
      "Ġrev": 1961,
      "duct": 1962,
      "Ġblack": 1963,
      "ination": 1964,
      "Ġfle": 1965,
      "Ġput": 1966,
      "ality": 1967,
      "ĠTo": 1968,
      "elling": 1969,
      "Ġearl": 1970,
      "field": 1971,
      "Ġcirc": 1972,
      "omp": 1973,
      "ĠSer": 1974,
      "Ġcost": 1975,
      "idence": 1976,
      "Ġsee": 1977,
      "Ġstyle": 1978,
      "Ġprocess": 1979,
      "Ġsol": 1980,
      "abor": 1981,
      "hem": 1982,
      "Ġtest": 1983,
      "Ġlook": 1984,
      "ĠHen": 1985,
      "Ġmm": 1986,
      "reek": 1987,
      "ization": 1988,
      "Ġkilled": 1989,
      "Ġenc": 1990,
      "Ġseven": 1991,
      "Ġaud": 1992,
      "ays": 1993,
      "Ġvol": 1994,
      "rict": 1995,
      "ĠPhil": 1996,
      "Ġthroughout": 1997,
      "Ġcor": 1998,
      "Ġlet": 1999,
      "lished": 2000,
      "Ġtaken": 2001,
      "Ġable": 2002,
      "Ġtropical": 2003,
      "ĠBill": 2004,
      "ĠPer": 2005,
      "Ġfight": 2006,
      "Ġagre": 2007,
      "Ġdiscover": 2008,
      "ĠEm": 2009,
      "Ġnon": 2010,
      "Ġlittle": 2011,
      "Ġwid": 2012,
      "Ġsignificant": 2013,
      "ecut": 2014,
      "Ġbecom": 2015,
      "ertain": 2016,
      "Ġage": 2017,
      "Ġcy": 2018,
      "Ġfem": 2019,
      "Ġident": 2020,
      "Ġmeet": 2021,
      "Ġhit": 2022,
      "ĠAustralian": 2023,
      "Ġspecial": 2024,
      "ways": 2025,
      "Ġtechn": 2026,
      "Ġstruct": 2027,
      "ett": 2028,
      "Ġwriting": 2029,
      "oice": 2030,
      "Ġthought": 2031,
      "Ġestablished": 2032,
      "Ġbroad": 2033,
      "Ġdiv": 2034,
      "enced": 2035,
      "irl": 2036,
      "ĠDavid": 2037,
      "Ġappeared": 2038,
      "Ġbody": 2039,
      "Ġcop": 2040,
      "Ġdoes": 2041,
      "ĠAct": 2042,
      "Ġentire": 2043,
      "ĠPart": 2044,
      "Ġ!": 2045,
      "Ġcoll": 2046,
      "ana": 2047,
      "Ġmiles": 2048,
      "epend": 2049,
      "cil": 2050,
      "Ġcoast": 2051,
      "Ġpoints": 2052,
      "aval": 2053,
      "ĠRich": 2054,
      "Ġaward": 2055,
      "Ġroute": 2056,
      "Ġimpro": 2057,
      "Ġmember": 2058,
      "ought": 2059,
      "odes": 2060,
      "ground": 2061,
      "Ġactiv": 2062,
      "Ġrange": 2063,
      "Ġwomen": 2064,
      "Ġstarted": 2065,
      "ĠMed": 2066,
      "Ġdecided": 2067,
      "Ġcaused": 2068,
      "ivil": 2069,
      "ript": 2070,
      "ĠMor": 2071,
      "ĠAfric": 2072,
      "ĠYou": 2073,
      "Ġfeatures": 2074,
      "lected": 2075,
      "Ġgeneral": 2076,
      "Ġpain": 2077,
      "Ġeventually": 2078,
      "aves": 2079,
      "day": 2080,
      "orts": 2081,
      "iers": 2082,
      "iec": 2083,
      "iron": 2084,
      "hys": 2085,
      "conom": 2086,
      "ogn": 2087,
      "Ġrace": 2088,
      "less": 2089,
      "ĠRoyal": 2090,
      "ators": 2091,
      "Ġvot": 2092,
      "ming": 2093,
      "Ġfeet": 2094,
      "Ġarch": 2095,
      "ster": 2096,
      "Ġmanag": 2097,
      "Ġgrow": 2098,
      "here": 2099,
      "ĠHist": 2100,
      "Ġadded": 2101,
      "idd": 2102,
      "rison": 2103,
      "Ġtoget": 2104,
      "Ġtogether": 2105,
      "ĠHouse": 2106,
      "Ġhold": 2107,
      "Ġcut": 2108,
      "Ġwhite": 2109,
      "ĠMy": 2110,
      "Ġonce": 2111,
      "itar": 2112,
      "Ġredu": 2113,
      "ius": 2114,
      "Ġformed": 2115,
      "ivid": 2116,
      "Ġlocated": 2117,
      "Ġtre": 2118,
      "ample": 2119,
      "ĠPe": 2120,
      "Ġnov": 2121,
      "Ġstri": 2122,
      "Ġarg": 2123,
      "lin": 2124,
      "ĠSch": 2125,
      "Ġmodern": 2126,
      "Ġconn": 2127,
      "Ġinstead": 2128,
      "rought": 2129,
      "Ġpri": 2130,
      "bert": 2131,
      "emy": 2132,
      "men": 2133,
      "Ġesc": 2134,
      "ĠBlack": 2135,
      "aces": 2136,
      "Ġmix": 2137,
      "hic": 2138,
      "Ġimportant": 2139,
      "Ġball": 2140,
      "ades": 2141,
      "ĠIntern": 2142,
      "Ġcrew": 2143,
      "omm": 2144,
      "Ġsaw": 2145,
      "Ġaction": 2146,
      "Ġcompleted": 2147,
      "cing": 2148,
      "ĠQu": 2149,
      "Ġround": 2150,
      "ĠIndian": 2151,
      "head": 2152,
      "Ġplaying": 2153,
      "ps": 2154,
      "ects": 2155,
      "ĠOther": 2156,
      "oney": 2157,
      "bur": 2158,
      "ray": 2159,
      "off": 2160,
      "Ġpopulation": 2161,
      "Ġmater": 2162,
      "Ġinvest": 2163,
      "Ġinsp": 2164,
      "cent": 2165,
      "ament": 2166,
      "Ġbase": 2167,
      "ĠMichael": 2168,
      "ush": 2169,
      "Ġstage": 2170,
      "Ġmot": 2171,
      "Ġvoc": 2172,
      "Ġoccur": 2173,
      "Ġrather": 2174,
      "ells": 2175,
      "Ġopened": 2176,
      "Ġbehind": 2177,
      "Ġothers": 2178,
      "umb": 2179,
      "Ġfall": 2180,
      "Ġguns": 2181,
      "Ġren": 2182,
      "Ġbrother": 2183,
      "ceed": 2184,
      "asing": 2185,
      "Ġcomment": 2186,
      "Ġlik": 2187,
      "Ġborn": 2188,
      "igned": 2189,
      "Ġsite": 2190,
      "ements": 2191,
      "Ġfif": 2192,
      "aps": 2193,
      "Ġlive": 2194,
      "Ġloss": 2195,
      "Ġworks": 2196,
      "stit": 2197,
      "Ġbomb": 2198,
      "Ġworked": 2199,
      "ĠFrance": 2200,
      "Ġheavy": 2201,
      "por": 2202,
      "int": 2203,
      "ficult": 2204,
      "unk": 2205,
      "Ġmiss": 2206,
      "Ġsubsequ": 2207,
      "Ġpred": 2208,
      "Ġlack": 2209,
      "medi": 2210,
      "ĠSchool": 2211,
      "Ġparty": 2212,
      "Ġdifficult": 2213,
      "Ġclose": 2214,
      "Ġproble": 2215,
      "Ġconstruction": 2216,
      "lection": 2217,
      "wood": 2218,
      "Ġknow": 2219,
      "Ġra": 2220,
      "ĠWash": 2221,
      "oring": 2222,
      "ĠSome": 2223,
      "Ġweeks": 2224,
      "Ġrelationship": 2225,
      "Ġhost": 2226,
      "gg": 2227,
      "Ġoriginally": 2228,
      "ĠHam": 2229,
      "Ġsepar": 2230,
      "Ġassoci": 2231,
      "Ġupon": 2232,
      "Ġpract": 2233,
      "Ġleading": 2234,
      "ĠHenry": 2235,
      "Ġappoin": 2236,
      "ĠNor": 2237,
      "Ġalmost": 2238,
      "ĠRobert": 2239,
      "Ġvill": 2240,
      "Ġyoung": 2241,
      "Ġpeak": 2242,
      "Ġinj": 2243,
      "istic": 2244,
      "Ġdamage": 2245,
      "ĠMusic": 2246,
      "ĠSan": 2247,
      "Ġscored": 2248,
      "Ġfourth": 2249,
      "ĠPort": 2250,
      "Ġmer": 2251,
      "Ġinform": 2252,
      "ata": 2253,
      "Ġreve": 2254,
      "osition": 2255,
      "Ġprovided": 2256,
      "Ġcase": 2257,
      "ĠAle": 2258,
      "ĠBest": 2259,
      "ĠBattle": 2260,
      "Ġclos": 2261,
      "Ġengine": 2262,
      "Ġgoal": 2263,
      "ĠStar": 2264,
      "Ġaccept": 2265,
      "Ġcreat": 2266,
      "Ġscene": 2267,
      "Ġmi": 2268,
      "orpor": 2269,
      "Ġhuman": 2270,
      "board": 2271,
      "ĠDesp": 2272,
      "anch": 2273,
      "Ġbrought": 2274,
      "Ġdev": 2275,
      "ĠVir": 2276,
      "ellow": 2277,
      "ĠQue": 2278,
      "ĠRou": 2279,
      "Ġreb": 2280,
      "ĠBel": 2281,
      "Ġfree": 2282,
      "Ġindivid": 2283,
      "Ġfeatured": 2284,
      "ara": 2285,
      "ĠPaul": 2286,
      "Ġking": 2287,
      "angu": 2288,
      "ĠCour": 2289,
      "Ġleast": 2290,
      "ĠPresident": 2291,
      "ĠRed": 2292,
      "Ġmother": 2293,
      "Ġresul": 2294,
      "Ġworking": 2295,
      "Ġallowed": 2296,
      "Ġlaun": 2297,
      "Ġtowards": 2298,
      "Ġaverage": 2299,
      "ological": 2300,
      "Ġregion": 2301,
      "Ġwanted": 2302,
      "Ġbusiness": 2303,
      "Ġindust": 2304,
      "Ġtradition": 2305,
      "ĠWashington": 2306,
      "Ġtroops": 2307,
      "ino": 2308,
      "ened": 2309,
      "Ġplaced": 2310,
      "ĠAngel": 2311,
      "Ġhon": 2312,
      "azine": 2313,
      "Ġquick": 2314,
      "Ġeither": 2315,
      "Ġcritics": 2316,
      "Ġoffice": 2317,
      "be": 2318,
      "Ġrespect": 2319,
      "Ġavail": 2320,
      "antic": 2321,
      "Ġruns": 2322,
      "Ġreach": 2323,
      "Ġmult": 2324,
      "Ġexample": 2325,
      "ĠMil": 2326,
      "ĠPlay": 2327,
      "Ġprofess": 2328,
      "ĠCap": 2329,
      "Ġmaterial": 2330,
      "Ġeconom": 2331,
      "ĠHol": 2332,
      "Ġrecogn": 2333,
      "iff": 2334,
      "ĠKe": 2335,
      "aut": 2336,
      "Ġwife": 2337,
      "ula": 2338,
      "Ġarmy": 2339,
      "Ġestim": 2340,
      "Ġneg": 2341,
      "ky": 2342,
      "Ġfoc": 2343,
      "iol": 2344,
      "ĠDespite": 2345,
      "ule": 2346,
      "chie": 2347,
      "ential": 2348,
      "ĠAg": 2349,
      "ĠFollow": 2350,
      "ica": 2351,
      "Ġce": 2352,
      "Ġsex": 2353,
      "rey": 2354,
      "ength": 2355,
      "Ġsour": 2356,
      "Ġjoined": 2357,
      "quadron": 2358,
      "Ġgenerally": 2359,
      "arm": 2360,
      "Ġrail": 2361,
      "Ġmass": 2362,
      "ĠThom": 2363,
      "lic": 2364,
      "Ġdou": 2365,
      "Ġproper": 2366,
      "ama": 2367,
      "Ġcurrent": 2368,
      "ĠHill": 2369,
      "oid": 2370,
      "ze": 2371,
      "ving": 2372,
      "Ġevents": 2373,
      "Ġrepresent": 2374,
      "enes": 2375,
      "Ġbelieved": 2376,
      "Ġparticip": 2377,
      "ourn": 2378,
      "ĠFollowing": 2379,
      "Ġbill": 2380,
      "Ġfig": 2381,
      "ĠFirst": 2382,
      "ĠHall": 2383,
      "ĠGame": 2384,
      "ĠCup": 2385,
      "to": 2386,
      "ĠMal": 2387,
      "ĠMary": 2388,
      "lt": 2389,
      "Ġreplaced": 2390,
      "Ġvictory": 2391,
      "ĠDon": 2392,
      "Ġrul": 2393,
      "sc": 2394,
      "ĠGreat": 2395,
      "artment": 2396,
      "Ġdesigned": 2397,
      "Ġmph": 2398,
      "go": 2399,
      "Ġisland": 2400,
      "Ġsoon": 2401,
      "Ġnomin": 2402,
      "itch": 2403,
      "ĠLou": 2404,
      "iction": 2405,
      "ĠJe": 2406,
      "itte": 2407,
      "Ġemploy": 2408,
      "Ġfund": 2409,
      "Ġhours": 2410,
      "ĠTwo": 2411,
      "ĠEuropean": 2412,
      "xic": 2413,
      "rown": 2414,
      "Ġpresident": 2415,
      "Ġinvolved": 2416,
      "oms": 2417,
      "erous": 2418,
      "Ġfinished": 2419,
      "Ġsurf": 2420,
      "aled": 2421,
      "Ġstru": 2422,
      "ification": 2423,
      "asion": 2424,
      "ĠChampionship": 2425,
      "merc": 2426,
      "uk": 2427,
      "aper": 2428,
      "Ġbreak": 2429,
      "west": 2430,
      "Ġcourt": 2431,
      "inist": 2432,
      "Ġsaying": 2433,
      "ĠRoman": 2434,
      "oor": 2435,
      "uel": 2436,
      "fall": 2437,
      "Ġopening": 2438,
      "Ġthreat": 2439,
      "Ġhor": 2440,
      "ĠMart": 2441,
      "Ġshot": 2442,
      "ĠMet": 2443,
      "ago": 2444,
      "Ġscore": 2445,
      "ĠRoute": 2446,
      "Ġregular": 2447,
      "emor": 2448,
      "key": 2449,
      "Ġlength": 2450,
      "Ġdirector": 2451,
      "Ġdesp": 2452,
      "ĠScott": 2453,
      "ĠDan": 2454,
      "Ġconduct": 2455,
      "Ġlargest": 2456,
      "Ġhighway": 2457,
      "Ġindic": 2458,
      "Ġcontrib": 2459,
      "Ġz": 2460,
      "of": 2461,
      "Ġpossible": 2462,
      "Ġsouthern": 2463,
      "ecutive": 2464,
      "Ġunc": 2465,
      "Ġminutes": 2466,
      "ville": 2467,
      "Ġill": 2468,
      "Ġremov": 2469,
      "Ġhighest": 2470,
      "BC": 2471,
      "Ġly": 2472,
      "ishing": 2473,
      "Ġexc": 2474,
      "ĠFrom": 2475,
      "Ġearlier": 2476,
      "antry": 2477,
      "Ġhom": 2478,
      "ander": 2479,
      "Ġinitially": 2480,
      "ude": 2481,
      "Ġavailable": 2482,
      "Ġparticularly": 2483,
      "Ġpercent": 2484,
      "anned": 2485,
      "leg": 2486,
      "now": 2487,
      "ĠRepublic": 2488,
      "Ġsequ": 2489,
      "Ġtraining": 2490,
      "co": 2491,
      "Ġhard": 2492,
      "Ġforced": 2493,
      "ĠSing": 2494,
      "Ġexist": 2495,
      "ĠVal": 2496,
      "inn": 2497,
      "Ġmust": 2498,
      "Ġgrad": 2499,
      "ĠWil": 2500,
      "ights": 2501,
      "ĠCharles": 2502,
      "Ġcontr": 2503,
      "arn": 2504,
      "ĠKingdom": 2505,
      "ĠNavy": 2506,
      "ĠÂ°": 2507,
      "Ġpark": 2508,
      "hib": 2509,
      "iding": 2510,
      "ĠLa": 2511,
      "ĠAtl": 2512,
      "ĠMac": 2513,
      "Ġrespons": 2514,
      "ateg": 2515,
      "Ġended": 2516,
      "Ġquar": 2517,
      "Ġturned": 2518,
      "asy": 2519,
      "ĠThomas": 2520,
      "ĠOff": 2521,
      "ography": 2522,
      "ĠInternational": 2523,
      "Ġwall": 2524,
      "ĠDep": 2525,
      "Ġsocial": 2526,
      "Ġstudio": 2527,
      "uture": 2528,
      "ĠMcC": 2529,
      "ĠBer": 2530,
      "cher": 2531,
      "Ġchange": 2532,
      "iforn": 2533,
      "ĠChurch": 2534,
      "ĠRes": 2535,
      "Ġpiec": 2536,
      "Ġpraised": 2537,
      "ems": 2538,
      "ĠBut": 2539,
      "Ġlangu": 2540,
      "Ġpassed": 2541,
      "Ġnorthern": 2542,
      "Ġhy": 2543,
      "Ġincreased": 2544,
      "ĠVirgin": 2545,
      "ĠWhite": 2546,
      "ump": 2547,
      "ĠMag": 2548,
      "Ġobject": 2549,
      "Ġrese": 2550,
      "Ġpriv": 2551,
      "heast": 2552,
      "rian": 2553,
      "Ġregard": 2554,
      "Ġhurricane": 2555,
      "Ġeduc": 2556,
      "atural": 2557,
      "ĠBrown": 2558,
      "Ġkeep": 2559,
      "Ġcentral": 2560,
      "uff": 2561,
      "bor": 2562,
      "iation": 2563,
      "Ġphys": 2564,
      "Ġrelig": 2565,
      "Ġunits": 2566,
      "Ġnovel": 2567,
      "ĠSen": 2568,
      "ĠCanada": 2569,
      "Ġappearance": 2570,
      "Ġspeed": 2571,
      "itor": 2572,
      "ĠPal": 2573,
      "ĠCaliforn": 2574,
      "ership": 2575,
      "Ġpast": 2576,
      "Ġstop": 2577,
      "Ġimmedi": 2578,
      "ended": 2579,
      "anks": 2580,
      "Ġchurch": 2581,
      "ocr": 2582,
      "ios": 2583,
      "ĠSmith": 2584,
      "Ġordered": 2585,
      "ĠCam": 2586,
      "ĠRock": 2587,
      "Ġmeas": 2588,
      "Ġsym": 2589,
      "Ġdisp": 2590,
      "aughter": 2591,
      "Ġtreat": 2592,
      "sel": 2593,
      "ĠBay": 2594,
      "rem": 2595,
      "Ġtaking": 2596,
      "ference": 2597,
      "ĠRichard": 2598,
      "ĠBur": 2599,
      "ittee": 2600,
      "Ġindepend": 2601,
      "Ġmove": 2602,
      "Ġsigned": 2603,
      "ĠMer": 2604,
      "Ġlove": 2605,
      "ĠSam": 2606,
      "anding": 2607,
      "ique": 2608,
      "Ġquest": 2609,
      "ĠAlex": 2610,
      "Ġachie": 2611,
      "ĠCalifornia": 2612,
      "aker": 2613,
      "ston": 2614,
      "Ġbetter": 2615,
      "ĠUnion": 2616,
      "pped": 2617,
      "etwork": 2618,
      "ĠSl": 2619,
      "val": 2620,
      "Ġpers": 2621,
      "agon": 2622,
      "ĠGovern": 2623,
      "arily": 2624,
      "ecess": 2625,
      "ĠIsland": 2626,
      "ĠIr": 2627,
      "Ġcommerc": 2628,
      "pper": 2629,
      "Ġenough": 2630,
      "Ġpositive": 2631,
      "Ġwinds": 2632,
      "ĠCourt": 2633,
      "Ġwat": 2634,
      "apt": 2635,
      "rated": 2636,
      "Ġaccording": 2637,
      "ĠGod": 2638,
      "ume": 2639,
      "ears": 2640,
      "Ġspent": 2641,
      "Ġinn": 2642,
      "Ġgoing": 2643,
      "Ġhous": 2644,
      "ĠVict": 2645,
      "Ġabove": 2646,
      "ids": 2647,
      "Ġslow": 2648,
      "Ġap": 2649,
      "elled": 2650,
      "Ġoutside": 2651,
      "ĠMo": 2652,
      "nel": 2653,
      "Ġfilms": 2654,
      "Ġpot": 2655,
      "ilities": 2656,
      "ĠUp": 2657,
      "Ġtold": 2658,
      "ĠCong": 2659,
      "Ġfeel": 2660,
      "Ġfootball": 2661,
      "den": 2662,
      "Ġpreviously": 2663,
      "ĠAward": 2664,
      "quare": 2665,
      "Ġstates": 2666,
      "Ġclear": 2667,
      "Ġrecording": 2668,
      "ĠAssoci": 2669,
      "Ġmean": 2670,
      "Ġnine": 2671,
      "uation": 2672,
      "ĠMill": 2673,
      "Ġpur": 2674,
      "Ġfailed": 2675,
      "Ġsubject": 2676,
      "uter": 2677,
      "Ġassist": 2678,
      "Ġcome": 2679,
      "Ġrequired": 2680,
      "ĠCompany": 2681,
      "usion": 2682,
      "ĠGermany": 2683,
      "Ġdebut": 2684,
      "ee": 2685,
      "Ġelements": 2686,
      "alion": 2687,
      "Ġprob": 2688,
      "osing": 2689,
      "reng": 2690,
      "ks": 2691,
      "ĠIndia": 2692,
      "edy": 2693,
      "Ġreviews": 2694,
      "Ġey": 2695,
      "Ġinterview": 2696,
      "oul": 2697,
      "Ġlower": 2698,
      "Ġparts": 2699,
      "ĠStud": 2700,
      "ĠArt": 2701,
      "Ġcru": 2702,
      "ĠPeter": 2703,
      "Ġitself": 2704,
      "Ġthink": 2705,
      "Ġdirected": 2706,
      "lying": 2707,
      "ĠMark": 2708,
      "ĠChristian": 2709,
      "atin": 2710,
      "ĠAc": 2711,
      "Ġpay": 2712,
      "ands": 2713,
      "oph": 2714,
      "for": 2715,
      "ida": 2716,
      "Ġnar": 2717,
      "Ġdespite": 2718,
      "Ġabs": 2719,
      "Ġsil": 2720,
      "Ġcred": 2721,
      "Ġflow": 2722,
      "Ġesp": 2723,
      "ĠGold": 2724,
      "Ġcontract": 2725,
      "ĠThat": 2726,
      "ĠÂ£": 2727,
      "ibility": 2728,
      "itz": 2729,
      "Ġrain": 2730,
      "Ġ?": 2731,
      "oke": 2732,
      "Ġphot": 2733,
      "ĠCr": 2734,
      "ĠTimes": 2735,
      "Ġdro": 2736,
      "Ġur": 2737,
      "ĠNY": 2738,
      "ready": 2739,
      "Ġaccess": 2740,
      "isl": 2741,
      "ĠCollege": 2742,
      "erved": 2743,
      "Ġbeginning": 2744,
      "Ġgroups": 2745,
      "het": 2746,
      "ĠPat": 2747,
      "Ġviol": 2748,
      "Ġsection": 2749,
      "ĠTom": 2750,
      "ĠFranc": 2751,
      "onna": 2752,
      "nes": 2753,
      "ĠUK": 2754,
      "Ġbeg": 2755,
      "Ġwhose": 2756,
      "ĠSov": 2757,
      "Ġclaimed": 2758,
      "asons": 2759,
      "hester": 2760,
      "ĠWestern": 2761,
      "Ġinternational": 2762,
      "ows": 2763,
      "Ġasked": 2764,
      "Ġlines": 2765,
      "urb": 2766,
      "bers": 2767,
      "Ġtransfer": 2768,
      "ĠCast": 2769,
      "Ġcou": 2770,
      "ĠMexic": 2771,
      "mar": 2772,
      "Ġstreng": 2773,
      "tr": 2774,
      "Ġscreen": 2775,
      "Ġgive": 2776,
      "onse": 2777,
      "ĠSoviet": 2778,
      "airs": 2779,
      "rief": 2780,
      "van": 2781,
      "Ġadditional": 2782,
      "aint": 2783,
      "ĠFrank": 2784,
      "Ġkey": 2785,
      "Ġfuture": 2786,
      "ability": 2787,
      "Ġrap": 2788,
      "Ġwhom": 2789,
      "Ġleague": 2790,
      "berg": 2791,
      "ĠSpan": 2792,
      "Ġfort": 2793,
      "Ġpoor": 2794,
      "igan": 2795,
      "ĠFilm": 2796,
      "Ġgold": 2797,
      "ĠAwards": 2798,
      "acted": 2799,
      "ĠDem": 2800,
      "ĠSoc": 2801,
      "Ġtravel": 2802,
      "Ġbi": 2803,
      "Ġche": 2804,
      "Ġintroduced": 2805,
      "Ġevidence": 2806,
      "ki": 2807,
      "Ġdon": 2808,
      "Ġsea": 2809,
      "Ġprem": 2810,
      "Ġidea": 2811,
      "Ġquickly": 2812,
      "Ġop": 2813,
      "ĠGrand": 2814,
      "Ġalready": 2815,
      "Ġcenter": 2816,
      "Ġbridge": 2817,
      "ĠForce": 2818,
      "Ġfrequ": 2819,
      "ĠBen": 2820,
      "ĠDay": 2821,
      "ĠDo": 2822,
      "ma": 2823,
      "Ġelection": 2824,
      "Ġoccup": 2825,
      "usp": 2826,
      "Ġproduct": 2827,
      "ĠMost": 2828,
      "onst": 2829,
      "Ġexcept": 2830,
      "Ġdeal": 2831,
      "Ġarrived": 2832,
      "ecially": 2833,
      "atory": 2834,
      "Ġpil": 2835,
      "ĠCoun": 2836,
      "Ġwestern": 2837,
      "Ġbur": 2838,
      "Ġusually": 2839,
      "ĠBritain": 2840,
      "anded": 2841,
      "Ġmusical": 2842,
      "Ġblock": 2843,
      "irth": 2844,
      "eum": 2845,
      "Ġpen": 2846,
      "Ġcivil": 2847,
      "Ġradio": 2848,
      "Ġcal": 2849,
      "aring": 2850,
      "liam": 2851,
      "ergy": 2852,
      "ully": 2853,
      "Ġfemale": 2854,
      "Ġsometimes": 2855,
      "ĠHot": 2856,
      "Ġresponse": 2857,
      "ĠRob": 2858,
      "Ġstudy": 2859,
      "Ġdecision": 2860,
      "Ġfood": 2861,
      "Ġmoney": 2862,
      "back": 2863,
      "ĠVictor": 2864,
      "Ġcycl": 2865,
      "Ġmagazine": 2866,
      "ĠLater": 2867,
      "Ġespecially": 2868,
      "ship": 2869,
      "ĠPac": 2870,
      "Ġenv": 2871,
      "Ġissue": 2872,
      "err": 2873,
      "ĠOver": 2874,
      "ites": 2875,
      "liament": 2876,
      "eal": 2877,
      "unt": 2878,
      "Ġsurface": 2879,
      "Ġflood": 2880,
      "Ġmight": 2881,
      "Ġcarried": 2882,
      "Ġguitar": 2883,
      "Ġlab": 2884,
      "ena": 2885,
      "Ġcommunity": 2886,
      "Ġshows": 2887,
      "Ġliter": 2888,
      "Ġconstruct": 2889,
      "bour": 2890,
      "eck": 2891,
      "Ġestimated": 2892,
      "ĠChic": 2893,
      "Ġremain": 2894,
      "Ġeastern": 2895,
      "Ġdefeated": 2896,
      "Ġremaining": 2897,
      "Ġminor": 2898,
      "Ġdeterm": 2899,
      "ĠEarly": 2900,
      "ĠMount": 2901,
      "Ġapprox": 2902,
      "ĠVirginia": 2903,
      "Ġlarger": 2904,
      "inent": 2905,
      "Ġbecoming": 2906,
      "ession": 2907,
      "aries": 2908,
      "Ġcomplete": 2909,
      "Ġpolice": 2910,
      "asc": 2911,
      "Ġwood": 2912,
      "Ġmedia": 2913,
      "porary": 2914,
      "Ġsuggested": 2915,
      "Ġshoot": 2916,
      "Ġentered": 2917,
      "Ġteams": 2918,
      "Ġpressure": 2919,
      "han": 2920,
      "Ġcommercial": 2921,
      "Ġlatter": 2922,
      "Ġinvestig": 2923,
      "Ġlyric": 2924,
      "ĠLos": 2925,
      "ĠIm": 2926,
      "orps": 2927,
      "Ġsurround": 2928,
      "Ġconsider": 2929,
      "Ġmarket": 2930,
      "Ġdoc": 2931,
      "ift": 2932,
      "ĠJust": 2933,
      "erve": 2934,
      "Ġconcern": 2935,
      "Ġstudents": 2936,
      "Ġbrief": 2937,
      "ĠSuper": 2938,
      "ĠDu": 2939,
      "Ġpersonal": 2940,
      "ĠSecond": 2941,
      "Ġlo": 2942,
      "Ġprison": 2943,
      "ĠInf": 2944,
      "ulf": 2945,
      "ederal": 2946,
      "Ġcertain": 2947,
      "Ġdiscuss": 2948,
      "ĠIf": 2949,
      "ĠFle": 2950,
      "Ġcomplet": 2951,
      "Ġacqu": 2952,
      "ĠTex": 2953,
      "Ġeffects": 2954,
      "inct": 2955,
      "ĠJackson": 2956,
      "Ġappointed": 2957,
      "incip": 2958,
      "Ġsummer": 2959,
      "Ġprior": 2960,
      "Ġhop": 2961,
      "Ġepisodes": 2962,
      "change": 2963,
      "ĠJos": 2964,
      "alled": 2965,
      "acing": 2966,
      "su": 2967,
      "enth": 2968,
      "Ġstaff": 2969,
      "Ġemer": 2970,
      "Ġsize": 2971,
      "ises": 2972,
      "Ġder": 2973,
      "gen": 2974,
      "Ġchanges": 2975,
      "ĠLouis": 2976,
      "Ġsat": 2977,
      "Ġcommission": 2978,
      "Ġwinning": 2979,
      "ĠFlor": 2980,
      "Ġtar": 2981,
      "Ġlimited": 2982,
      "Ġscenes": 2983,
      "ĠOly": 2984,
      "Ġfleet": 2985,
      "imate": 2986,
      "Ġriver": 2987,
      "Ġdestroyed": 2988,
      "Ġleaving": 2989,
      "NA": 2990,
      "ĠOlymp": 2991,
      "ulated": 2992,
      "ĠClub": 2993,
      "ĠSpanish": 2994,
      "ires": 2995,
      "Ġdraw": 2996,
      "ex": 2997,
      "Ġden": 2998,
      "ĠCro": 2999,
      "Ġrights": 3000,
      "Ġself": 3001,
      "igade": 3002,
      "Ġtype": 3003,
      "Ġprovide": 3004,
      "idents": 3005,
      "ournal": 3006,
      "Ġwriter": 3007,
      "Ġpolic": 3008,
      "Ġfail": 3009,
      "Ġdate": 3010,
      "Ġtrib": 3011,
      "Ġterrit": 3012,
      "Ġproposed": 3013,
      "ension": 3014,
      "iser": 3015,
      "Ġinfluence": 3016,
      "Ġgirl": 3017,
      "Ġoverall": 3018,
      "ĠParty": 3019,
      "ties": 3020,
      "Ġstructure": 3021,
      "ped": 3022,
      "Ġtransport": 3023,
      "Ġarrang": 3024,
      "Ġcontro": 3025,
      "ests": 3026,
      "Ġkil": 3027,
      "Ġtax": 3028,
      "Ġdivision": 3029,
      "Ġscript": 3030,
      "inese": 3031,
      "sy": 3032,
      "ĠGreen": 3033,
      "ĠOper": 3034,
      "Ġagreed": 3035,
      "ĠAssociation": 3036,
      "Ġrunning": 3037,
      "iral": 3038,
      "ores": 3039,
      "Ġintended": 3040,
      "Ġroom": 3041,
      "yr": 3042,
      "Ġjud": 3043,
      "ĠEdward": 3044,
      "Ġanti": 3045,
      "Ġwide": 3046,
      "atives": 3047,
      "omer": 3048,
      "Ġpurch": 3049,
      "Ġdaughter": 3050,
      "ĠPri": 3051,
      "Ġsupported": 3052,
      "Ġbroadcast": 3053,
      "Ġnearly": 3054,
      "ĠChicago": 3055,
      "Ġbow": 3056,
      "Ġdeep": 3057,
      "ending": 3058,
      "ga": 3059,
      "ĠItal": 3060,
      "Ġresearch": 3061,
      "Ġbig": 3062,
      "Ġestablish": 3063,
      "ĠMany": 3064,
      "ĠAdm": 3065,
      "Ġhelped": 3066,
      "ĠChinese": 3067,
      "imum": 3068,
      "Ġmarried": 3069,
      "Ġmovement": 3070,
      "Ġawarded": 3071,
      "aded": 3072,
      "AF": 3073,
      "ĠCouncil": 3074,
      "Ġlay": 3075,
      "Ġnd": 3076,
      "que": 3077,
      "ĠSong": 3078,
      "Ġmultip": 3079,
      "ĠRo": 3080,
      "Ġfavor": 3081,
      "Ġcreate": 3082,
      "atively": 3083,
      "Ġintens": 3084,
      "Ġdisplay": 3085,
      "ging": 3086,
      "Ġsusp": 3087,
      "Ġdi": 3088,
      "ĠEv": 3089,
      "Ġdark": 3090,
      "ĠEnter": 3091,
      "Ġbird": 3092,
      "ror": 3093,
      "tt": 3094,
      "Ġdiss": 3095,
      "lo": 3096,
      "pris": 3097,
      "teen": 3098,
      "Ġstars": 3099,
      "sen": 3100,
      "ban": 3101,
      "II": 3102,
      "iles": 3103,
      "Ġlonger": 3104,
      "ĠCont": 3105,
      "Ġlanguage": 3106,
      "Ġcaptured": 3107,
      "Ġhigher": 3108,
      "Ġplanned": 3109,
      "ĠEmp": 3110,
      "dle": 3111,
      "Ġcompared": 3112,
      "Ġincreasing": 3113,
      "Ġfans": 3114,
      "Ġstay": 3115,
      "Ġcourse": 3116,
      "Ġconclud": 3117,
      "Ġchanged": 3118,
      "selves": 3119,
      "ĠServ": 3120,
      "Ġexperience": 3121,
      "Ġapproximately": 3122,
      "Ġrelated": 3123,
      "ĠJohnson": 3124,
      "Ġfeature": 3125,
      "Ġdone": 3126,
      "burg": 3127,
      "Ġthemselves": 3128,
      "Ġfifth": 3129,
      "Ġliving": 3130,
      "ĠKore": 3131,
      "Ġcat": 3132,
      "Ġproducer": 3133,
      "ronic": 3134,
      "ĠHistory": 3135,
      "ounds": 3136,
      "enty": 3137,
      "tained": 3138,
      "Ġwithd": 3139,
      "Ġmostly": 3140,
      "ĠPacific": 3141,
      "ĠBack": 3142,
      "Ġtracks": 3143,
      "Ġtemper": 3144,
      "isions": 3145,
      "Ġspace": 3146,
      "ĠLit": 3147,
      "abit": 3148,
      "arent": 3149,
      "Ġoperations": 3150,
      "Ġthus": 3151,
      "ĠBillboard": 3152,
      "Ġwoman": 3153,
      "Ġremains": 3154,
      "Ġdead": 3155,
      "Ġquarter": 3156,
      "Ġbring": 3157,
      "ĠNot": 3158,
      "Ġour": 3159,
      "olic": 3160,
      "Ġnatural": 3161,
      "Ġwhether": 3162,
      "thing": 3163,
      "ha": 3164,
      "umn": 3165,
      "Ġsoldiers": 3166,
      "ĠApp": 3167,
      "Ġimm": 3168,
      "ĠBet": 3169,
      "Ġweap": 3170,
      "andon": 3171,
      "Ġprobably": 3172,
      "Ġdram": 3173,
      "ĠFinal": 3174,
      "Ġconcept": 3175,
      "Ġult": 3176,
      "imin": 3177,
      "Ġdepart": 3178,
      "can": 3179,
      "ĠInter": 3180,
      "Ġleader": 3181,
      "ĠSal": 3182,
      "ĠScot": 3183,
      "Ġbuildings": 3184,
      "Ġcopies": 3185,
      "Ġsyn": 3186,
      "Ġface": 3187,
      "Ġlyrics": 3188,
      "Ġreact": 3189,
      "Ġextended": 3190,
      "Ġcomplex": 3191,
      "ĠSince": 3192,
      "Ġvoice": 3193,
      "hood": 3194,
      "Ġforward": 3195,
      "ĠAtlantic": 3196,
      "oint": 3197,
      "Ġboy": 3198,
      "Ġboard": 3199,
      "Ġbattles": 3200,
      "Ġchall": 3201,
      "ĠMont": 3202,
      "Ġissued": 3203,
      "ĠUnder": 3204,
      "Ġreally": 3205,
      "Ġsuffered": 3206,
      "Ġheav": 3207,
      "iant": 3208,
      "vin": 3209,
      "iring": 3210,
      "riage": 3211,
      "Ġcountries": 3212,
      "ospital": 3213,
      "ĠLake": 3214,
      "raz": 3215,
      "ĠKn": 3216,
      "Ġcm": 3217,
      "ĠCongress": 3218,
      "Ġincludes": 3219,
      "ĠLove": 3220,
      "ĠSever": 3221,
      "Ġimmediately": 3222,
      "ĠFort": 3223,
      "Ġgoals": 3224,
      "ĠFlorida": 3225,
      "ĠSun": 3226,
      "ams": 3227,
      "Ġattend": 3228,
      "ĠBoth": 3229,
      "Ġmixed": 3230,
      "Ġdeg": 3231,
      "Ġprivate": 3232,
      "Ġmanager": 3233,
      "Ġcapital": 3234,
      "Ġbreed": 3235,
      "Ġofficers": 3236,
      "ĠJim": 3237,
      "ĠBig": 3238,
      "Ġlikely": 3239,
      "Ġemb": 3240,
      "ĠOl": 3241,
      "ĠJew": 3242,
      "Ġcann": 3243,
      "lebr": 3244,
      "Ġremoved": 3245,
      "Ġdistrib": 3246,
      "ĠMartin": 3247,
      "ĠOld": 3248,
      "ĠQueen": 3249,
      "Ġsubsequently": 3250,
      "ĠTexas": 3251,
      "Ġincrease": 3252,
      "Ġinitial": 3253,
      "venue": 3254,
      "Ġplant": 3255,
      "ĠSea": 3256,
      "Ġmach": 3257,
      "Ġhealth": 3258,
      "Ġmount": 3259,
      "ĠTown": 3260,
      "Ġplans": 3261,
      "Ġleave": 3262,
      "Ġalways": 3263,
      "Ġcompan": 3264,
      "ĠChina": 3265,
      "Ġge": 3266,
      "ĠDist": 3267,
      "Ġfocus": 3268,
      "ĠMr": 3269,
      "ibr": 3270,
      "Ġstatus": 3271,
      "ĠTur": 3272,
      "ections": 3273,
      "Ġlocation": 3274,
      "Ġnetwork": 3275,
      "Ġservices": 3276,
      "Ġvia": 3277,
      "ĠAnother": 3278,
      "Ġvisit": 3279,
      "hold": 3280,
      "order": 3281,
      "bury": 3282,
      "Ġcoin": 3283,
      "ĠLaw": 3284,
      "Ġoffered": 3285,
      "Ġproblems": 3286,
      "Ġmur": 3287,
      "Ġi": 3288,
      "ien": 3289,
      "uth": 3290,
      "ĠLord": 3291,
      "Ġflag": 3292,
      "Ġcolon": 3293,
      "Ġterms": 3294,
      "Ġinstr": 3295,
      "ĠHow": 3296,
      "rial": 3297,
      "ys": 3298,
      "Ġapproach": 3299,
      "aily": 3300,
      "Ġmodel": 3301,
      "ĠEarth": 3302,
      "stant": 3303,
      "Ġnorm": 3304,
      "Ġcarry": 3305,
      "ounted": 3306,
      "Ġfell": 3307,
      "Ġvillage": 3308,
      "Ġsomething": 3309,
      "ĠCamp": 3310,
      "Ġadminist": 3311,
      "ĠStep": 3312,
      "Ġtons": 3313,
      "Ġmajority": 3314,
      "ironment": 3315,
      "Ġtow": 3316,
      "Ġprofessional": 3317,
      "ĠCanadian": 3318,
      "ĠPet": 3319,
      "orning": 3320,
      "ĠTrans": 3321,
      "ĠBoy": 3322,
      "amer": 3323,
      "ria": 3324,
      "ously": 3325,
      "ĠAfrica": 3326,
      "ĠIts": 3327,
      "etic": 3328,
      "adium": 3329,
      "Ġgot": 3330,
      "ĠRail": 3331,
      "Ġinters": 3332,
      "Ġconsist": 3333,
      "ograph": 3334,
      "Ġcause": 3335,
      "ills": 3336,
      "uries": 3337,
      "Ġdamaged": 3338,
      "well": 3339,
      "Ġcounter": 3340,
      "Ġappears": 3341,
      "Ġmeeting": 3342,
      "ĠWood": 3343,
      "ari": 3344,
      "Ġjob": 3345,
      "Ġconfir": 3346,
      "Ġran": 3347,
      "ĠMur": 3348,
      "Ġadop": 3349,
      "aches": 3350,
      "Ġranked": 3351,
      "Ġminute": 3352,
      "ĠHighway": 3353,
      "ili": 3354,
      "ĠCenter": 3355,
      "che": 3356,
      "ĠSquadron": 3357,
      "Ġindividual": 3358,
      "cean": 3359,
      "Ġcomposed": 3360,
      "Ġmeth": 3361,
      "Ġrevealed": 3362,
      "Ġattacks": 3363,
      "ĠRussian": 3364,
      "Ġflight": 3365,
      "itt": 3366,
      "ĠTour": 3367,
      "Ġplot": 3368,
      "itect": 3369,
      "ny": 3370,
      "Ġsch": 3371,
      "ctor": 3372,
      "Ġraised": 3373,
      "reater": 3374,
      "Ġdiscovered": 3375,
      "umed": 3376,
      "ĠIII": 3377,
      "ware": 3378,
      "ify": 3379,
      "Ġfinanc": 3380,
      "Ġrespectively": 3381,
      "Ġmakes": 3382,
      "ĠAngeles": 3383,
      "ĠCarol": 3384,
      "ĠKent": 3385,
      "oes": 3386,
      "urt": 3387,
      "ĠCentral": 3388,
      "olk": 3389,
      "Ġnumerous": 3390,
      "Ġassociated": 3391,
      "ĠSir": 3392,
      "Ġtakes": 3393,
      "Ġinspired": 3394,
      "Ġdomin": 3395,
      "ij": 3396,
      "Ġaltern": 3397,
      "ĠLu": 3398,
      "reak": 3399,
      "aging": 3400,
      "Ġlived": 3401,
      "Ġneeded": 3402,
      "Ġanc": 3403,
      "Ġlaunched": 3404,
      "Ġyet": 3405,
      "ĠMel": 3406,
      "ription": 3407,
      "ĠAnt": 3408,
      "Ġoccurred": 3409,
      "Ġnature": 3410,
      "ails": 3411,
      "Ġcontains": 3412,
      "ĠBow": 3413,
      "Ġattacked": 3414,
      "Ġshown": 3415,
      "Ġvehic": 3416,
      "Ġattempted": 3417,
      "fact": 3418,
      "ĠRh": 3419,
      "Ġcand": 3420,
      "uments": 3421,
      "Ġbene": 3422,
      "Ġpow": 3423,
      "Ġcoach": 3424,
      "estival": 3425,
      "Ġmoving": 3426,
      "Ġconditions": 3427,
      "ĠRad": 3428,
      "uals": 3429,
      "ĠMiss": 3430,
      "ĠDV": 3431,
      "Ġamb": 3432,
      "Ġdig": 3433,
      "Ġaccomp": 3434,
      "ĠGroup": 3435,
      "ĠTV": 3436,
      "Ġsales": 3437,
      "ĠTor": 3438,
      "ective": 3439,
      "down": 3440,
      "ĠYear": 3441,
      "ault": 3442,
      "lement": 3443,
      "Ġcollect": 3444,
      "joy": 3445,
      "ĠBu": 3446,
      "Ġissues": 3447,
      "Ġyards": 3448,
      "urity": 3449,
      "aught": 3450,
      "Ġbirth": 3451,
      "gely": 3452,
      "Ġwhole": 3453,
      "ĠEmpire": 3454,
      "Ġexam": 3455,
      "Ġinformation": 3456,
      "Ġslight": 3457,
      "arian": 3458,
      "Ġupper": 3459,
      "ĠGreek": 3460,
      "Ġreferred": 3461,
      "ĠStr": 3462,
      "ĠRev": 3463,
      "Ġcritical": 3464,
      "Ġmom": 3465,
      "de": 3466,
      "Ġbox": 3467,
      "Ġdefeat": 3468,
      "ĠDes": 3469,
      "lor": 3470,
      "uing": 3471,
      "Ġnumbers": 3472,
      "Ġfinally": 3473,
      "Ġsmaller": 3474,
      "reme": 3475,
      "Ġresulted": 3476,
      "Ġselected": 3477,
      "Ġelected": 3478,
      "Ġscient": 3479,
      "iest": 3480,
      "Ġgrant": 3481,
      "eph": 3482,
      "Ġportray": 3483,
      "Ġqual": 3484,
      "Ġsen": 3485,
      "Ġactive": 3486,
      "ĠPenn": 3487,
      "Ġsinger": 3488,
      "win": 3489,
      "Ġbad": 3490,
      "vert": 3491,
      "Ġprincip": 3492,
      "ĠOut": 3493,
      "oe": 3494,
      "Ġmission": 3495,
      "ste": 3496,
      "Ġcelebr": 3497,
      "Ġsecret": 3498,
      "Ġstandard": 3499,
      "Ġindustry": 3500,
      "Ġlargely": 3501,
      "Ġsal": 3502,
      "uated": 3503,
      "Ġoperation": 3504,
      "ĠItalian": 3505,
      "Ġgrand": 3506,
      "itation": 3507,
      "enant": 3508,
      "Ġpit": 3509,
      "Ġassigned": 3510,
      "Ġlink": 3511,
      "imb": 3512,
      "Ġens": 3513,
      "ortun": 3514,
      "ĠDel": 3515,
      "Ġcer": 3516,
      "ĠViet": 3517,
      "Ġang": 3518,
      "Ġearned": 3519,
      "Ġcommented": 3520,
      "Ġlegisl": 3521,
      "Ġsaf": 3522,
      "Ġthr": 3523,
      "onic": 3524,
      "Ġanaly": 3525,
      "Ġexpected": 3526,
      "Ġlisted": 3527,
      "Ġmale": 3528,
      "ĠCorps": 3529,
      "Ġprec": 3530,
      "Ġaudience": 3531,
      "Ġroy": 3532,
      "itude": 3533,
      "ĠDVD": 3534,
      "Ġcovered": 3535,
      "izing": 3536,
      "Ġartic": 3537,
      "ken": 3538,
      "Ġsched": 3539,
      "Ġunable": 3540,
      "ĠCrit": 3541,
      "Ġpurp": 3542,
      "ĠTer": 3543,
      "Ġtraditional": 3544,
      "irection": 3545,
      "Ġtrade": 3546,
      "ĠMichigan": 3547,
      "Ġeducation": 3548,
      "Ġartist": 3549,
      "Ġrefused": 3550,
      "Ġnewsp": 3551,
      "Ġfriends": 3552,
      "Ġdouble": 3553,
      "Ġclosed": 3554,
      "Ġheart": 3555,
      "ĠGar": 3556,
      "Ġrecover": 3557,
      "Ġsem": 3558,
      "Ġattention": 3559,
      "Ġprimary": 3560,
      "Ġunderst": 3561,
      "Ġrequest": 3562,
      "Ġmethod": 3563,
      "ounts": 3564,
      "aine": 3565,
      "use": 3566,
      "Ġprevent": 3567,
      "Ġtalk": 3568,
      "Ġsister": 3569,
      "Ġkind": 3570,
      "Ġofficer": 3571,
      "ogue": 3572,
      "Ġreason": 3573,
      "Ġbelow": 3574,
      "ĠWales": 3575,
      "ighter": 3576,
      "Ġletter": 3577,
      "anced": 3578,
      "ipped": 3579,
      "Ġcontem": 3580,
      "ĠDis": 3581,
      "amb": 3582,
      "Ġperformances": 3583,
      "Ġenjoy": 3584,
      "Ġability": 3585,
      "Ġplat": 3586,
      "Ġdepression": 3587,
      "hips": 3588,
      "Ġmeant": 3589,
      "Ġdeclared": 3590,
      "kin": 3591,
      "Ġfighting": 3592,
      "oly": 3593,
      "Ġwalk": 3594,
      "Ġgiving": 3595,
      "ider": 3596,
      "ĠNort": 3597,
      "pted": 3598,
      "undred": 3599,
      "Ġword": 3600,
      "Ġreligious": 3601,
      "ĠMore": 3602,
      "Ġcommander": 3603,
      "Ġblood": 3604,
      "Ġtheat": 3605,
      "Ġhot": 3606,
      "tered": 3607,
      "oud": 3608,
      "Ġsett": 3609,
      "Ġbooks": 3610,
      "Ġmiddle": 3611,
      "ĠEr": 3612,
      "Ġcompl": 3613,
      "ĠDemocr": 3614,
      "ĠMass": 3615,
      "isher": 3616,
      "ĠPre": 3617,
      "Ġrate": 3618,
      "ĠCath": 3619,
      "Ġmatches": 3620,
      "zz": 3621,
      "Ġund": 3622,
      "Ġmax": 3623,
      "ples": 3624,
      "Ġrecords": 3625,
      "ĠCare": 3626,
      "iled": 3627,
      "Ġnames": 3628,
      "ĠAcad": 3629,
      "com": 3630,
      "Ġconstit": 3631,
      "bridge": 3632,
      "Ġproduce": 3633,
      "aped": 3634,
      "Ġquestion": 3635,
      "ĠZeal": 3636,
      "ĠBec": 3637,
      "ĠTeam": 3638,
      "Ġserious": 3639,
      "Ġcompetition": 3640,
      "ector": 3641,
      "Ġunit": 3642,
      "ĠTest": 3643,
      "ĠOx": 3644,
      "antasy": 3645,
      "Ġcentre": 3646,
      "ounded": 3647,
      "ĠMinister": 3648,
      "Ġtouch": 3649,
      "Ġvocals": 3650,
      "Ġdisapp": 3651,
      "Ġmention": 3652,
      "ĠSeveral": 3653,
      "Ġabandon": 3654,
      "utch": 3655,
      "ĠMajor": 3656,
      "odies": 3657,
      "iences": 3658,
      "Ġrapid": 3659,
      "ĠLong": 3660,
      "Ġaccount": 3661,
      "icted": 3662,
      "road": 3663,
      "ĠArch": 3664,
      "ady": 3665,
      "shire": 3666,
      "Ġnecess": 3667,
      "Ġkilomet": 3668,
      "Ġenergy": 3669,
      "rug": 3670,
      "ims": 3671,
      "ĠMidd": 3672,
      "quar": 3673,
      "ona": 3674,
      "Ġtraff": 3675,
      "icient": 3676,
      "Ġconstructed": 3677,
      "Ġdra": 3678,
      "Ġdut": 3679,
      "ĠKenn": 3680,
      "ervation": 3681,
      "ĠFore": 3682,
      "ening": 3683,
      "Ġrd": 3684,
      "edic": 3685,
      "Ġtheme": 3686,
      "ĠZealand": 3687,
      "ĠCons": 3688,
      "Ġvir": 3689,
      "ĠMexico": 3690,
      "ares": 3691,
      "Ġris": 3692,
      "echan": 3693,
      "ĠWal": 3694,
      "Ġdu": 3695,
      "Ġnearby": 3696,
      "Ġroyal": 3697,
      "Ġhar": 3698,
      "Ġhighly": 3699,
      "Ġseparate": 3700,
      "ĠTime": 3701,
      "oses": 3702,
      "ĠFox": 3703,
      "Ġtrain": 3704,
      "Ġpick": 3705,
      "Ġcontinue": 3706,
      "ishop": 3707,
      "rier": 3708,
      "Ġeffort": 3709,
      "Ġchief": 3710,
      "Ġpositions": 3711,
      "ĠAfrican": 3712,
      "Ġcombat": 3713,
      "Ġdrum": 3714,
      "Ġpresented": 3715,
      "Ġannual": 3716,
      "Ġprep": 3717,
      "Ġcontrovers": 3718,
      "Ġreduced": 3719,
      "Ġtur": 3720,
      "ĠSo": 3721,
      "ette": 3722,
      "ĠFour": 3723,
      "Ġcas": 3724,
      "Ġdirectly": 3725,
      "Ġmor": 3726,
      "ĠChris": 3727,
      "ieut": 3728,
      "ansion": 3729,
      "Ġlevels": 3730,
      "ibly": 3731,
      "Ġmeans": 3732,
      "Ġnotes": 3733,
      "Ġattended": 3734,
      "Ġtried": 3735,
      "Ġsevent": 3736,
      "Ġpractice": 3737,
      "ĠMatt": 3738,
      "Ġneigh": 3739,
      "ĠSum": 3740,
      "emorial": 3741,
      "Ġforest": 3742,
      "ether": 3743,
      "ĠHaw": 3744,
      "ĠMadonna": 3745,
      "Ġcompos": 3746,
      "Ġedition": 3747,
      "Ġfast": 3748,
      "ining": 3749,
      "vement": 3750,
      "Ġcle": 3751,
      "Ġtwenty": 3752,
      "Ġstating": 3753,
      "arents": 3754,
      "Ġaccepted": 3755,
      "Ġarchitect": 3756,
      "Ġnuc": 3757,
      "Ġmetal": 3758,
      "Ġmovie": 3759,
      "Ġwatch": 3760,
      "Ġconcert": 3761,
      "ĠChart": 3762,
      "ĠWall": 3763,
      "Ġtext": 3764,
      "Ġadvance": 3765,
      "oper": 3766,
      "Ġrepe": 3767,
      "ado": 3768,
      "anes": 3769,
      "Ġcandid": 3770,
      "rical": 3771,
      "ĠBob": 3772,
      "ĠCor": 3773,
      "ĠScotland": 3774,
      "Ġpair": 3775,
      "cel": 3776,
      "track": 3777,
      "acher": 3778,
      "ĠJones": 3779,
      "stitute": 3780,
      "osen": 3781,
      "Ġrein": 3782,
      "Ġdirection": 3783,
      "ĠDar": 3784,
      "Ġlegal": 3785,
      "Ġschools": 3786,
      "Ġdism": 3787,
      "ersey": 3788,
      "ĠTheir": 3789,
      "Ġseem": 3790,
      "Ġthick": 3791,
      "Ġreject": 3792,
      "Ġrare": 3793,
      "lict": 3794,
      "illery": 3795,
      "eway": 3796,
      "ĠTre": 3797,
      "ĠDepartment": 3798,
      "oo": 3799,
      "aver": 3800,
      "ĠCreek": 3801,
      "Ġefforts": 3802,
      "Ġrecomm": 3803,
      "ĠManc": 3804,
      "Ġmarriage": 3805,
      "Ġcollege": 3806,
      "Ġhorse": 3807,
      "Ġ+": 3808,
      "ĠSar": 3809,
      "Ġmanaged": 3810,
      "inem": 3811,
      "Ġoil": 3812,
      "Ġasp": 3813,
      "Ġpurs": 3814,
      "ĠHel": 3815,
      "ĠLeg": 3816,
      "Ġresulting": 3817,
      "Ġending": 3818,
      "icip": 3819,
      "sis": 3820,
      "ĠCross": 3821,
      "irit": 3822,
      "ĠInfantry": 3823,
      "Ġavoid": 3824,
      "wide": 3825,
      "iance": 3826,
      "ieutenant": 3827,
      "Ġshowed": 3828,
      "Ġwing": 3829,
      "utions": 3830,
      "ĠThree": 3831,
      "Ġresponsible": 3832,
      "Ġdropped": 3833,
      "ĠAnn": 3834,
      "Ġinside": 3835,
      "band": 3836,
      "Ġnation": 3837,
      "Ġenvironment": 3838,
      "Ġcases": 3839,
      "Ġkept": 3840,
      "light": 3841,
      "ĠArab": 3842,
      "ĠDou": 3843,
      "Ġmeaning": 3844,
      "house": 3845,
      "Ġculture": 3846,
      "Ġcust": 3847,
      "ĠFoot": 3848,
      "ĠBost": 3849,
      "awn": 3850,
      "Ġincorpor": 3851,
      "Ġbegins": 3852,
      "Ġmorning": 3853,
      "Ġcyclone": 3854,
      "illed": 3855,
      "Ġvariety": 3856,
      "Ġrat": 3857,
      "ceeded": 3858,
      "ĠService": 3859,
      "isation": 3860,
      "gl": 3861,
      "Ġhouses": 3862,
      "Ġwords": 3863,
      "peror": 3864,
      "Ġforms": 3865,
      "ĠPost": 3866,
      "Ġchampionship": 3867,
      "Ġcerem": 3868,
      "Ġdom": 3869,
      "Ġarrest": 3870,
      "Ġinches": 3871,
      "ĠWilliams": 3872,
      "Ġschol": 3873,
      "Ġcontinues": 3874,
      "ĠStone": 3875,
      "ĠHung": 3876,
      "Ġyard": 3877,
      "ĠRecords": 3878,
      "Ġmarked": 3879,
      "ĠSecret": 3880,
      "ĠGo": 3881,
      "like": 3882,
      "Ġscience": 3883,
      "MS": 3884,
      "Ġperm": 3885,
      "Ġsymb": 3886,
      "cend": 3887,
      "Ġuses": 3888,
      "olf": 3889,
      "Ġeconomic": 3890,
      "ecting": 3891,
      "Ġbank": 3892,
      "ĠParliament": 3893,
      "gypt": 3894,
      "ĠBC": 3895,
      "ĠNews": 3896,
      "Ġspl": 3897,
      "ait": 3898,
      "ĠSur": 3899,
      "Ġsource": 3900,
      "ĠMic": 3901,
      "ĠGames": 3902,
      "iated": 3903,
      "Ġquality": 3904,
      "Ġlear": 3905,
      "writ": 3906,
      "Ġhundred": 3907,
      "thel": 3908,
      "Ġsettle": 3909,
      "Ġconducted": 3910,
      "mon": 3911,
      "ĠStan": 3912,
      "ulations": 3913,
      "Ġstarting": 3914,
      "ĠEgypt": 3915,
      "Ġimpact": 3916,
      "Ġyour": 3917,
      "Ġstrugg": 3918,
      "Ġallowing": 3919,
      "Ġspecific": 3920,
      "thur": 3921,
      "aph": 3922,
      "Ġple": 3923,
      "ĠBook": 3924,
      "ĠSociety": 3925,
      "ĠOh": 3926,
      "Ġpresence": 3927,
      "Ġsides": 3928,
      "ĠJer": 3929,
      "Ġbeat": 3930,
      "bed": 3931,
      "Ġamount": 3932,
      "Ġmetres": 3933,
      "ĠFin": 3934,
      "wh": 3935,
      "Ġviewers": 3936,
      "Ġdance": 3937,
      "Ġchap": 3938,
      "ols": 3939,
      "Ġexhib": 3940,
      "ĠCle": 3941,
      "ĠSouthern": 3942,
      "Ġrule": 3943,
      "ĠÃ": 3944,
      "ĠPrince": 3945,
      "ĠStephen": 3946,
      "Ġunivers": 3947,
      "Ġtransferred": 3948,
      "Ġmultiple": 3949,
      "Ġraid": 3950,
      "Ġdistinct": 3951,
      "Ġpotential": 3952,
      "cle": 3953,
      "ĠTri": 3954,
      "Ġforeign": 3955,
      "Ġsuppl": 3956,
      "ĠCommittee": 3957,
      "ĠOxford": 3958,
      "ĠArm": 3959,
      "een": 3960,
      "ĠWin": 3961,
      "Ġcontrast": 3962,
      "Ġpeaked": 3963,
      "irm": 3964,
      "Ġenemy": 3965,
      "ĠJoseph": 3966,
      "Ġtraffic": 3967,
      "ĠLatin": 3968,
      "ingu": 3969,
      "orped": 3970,
      "Ġbecomes": 3971,
      "ka": 3972,
      "Ġcaptain": 3973,
      "itiz": 3974,
      "Ġowned": 3975,
      "Ġfounded": 3976,
      "Ġthings": 3977,
      "ĠSol": 3978,
      "Ġgreater": 3979,
      "Ġmess": 3980,
      "ĠSpec": 3981,
      "ĠAdmiral": 3982,
      "Ġportion": 3983,
      "ĠLike": 3984,
      "Ġconcluded": 3985,
      "Ġvocal": 3986,
      "ĠGeorg": 3987,
      "mark": 3988,
      "Ġencoun": 3989,
      "itan": 3990,
      "Ġrespond": 3991,
      "Ġfederal": 3992,
      "Ġattempts": 3993,
      "sych": 3994,
      "Ġscoring": 3995,
      "Ġrelatively": 3996,
      "ĠHal": 3997,
      "uit": 3998,
      "Ġproperty": 3999,
      "ĠHarrison": 4000,
      "Ġcastle": 4001,
      "Ġstories": 4002,
      "ĠBoston": 4003,
      "ĠClass": 4004,
      "ĠChief": 4005,
      "Ġprimarily": 4006,
      "ĠManchester": 4007,
      "Ġdemonst": 4008,
      "ĠSat": 4009,
      "ita": 4010,
      "ĠFred": 4011,
      "Ġfinancial": 4012,
      "inet": 4013,
      "Ġactually": 4014,
      "ĠBecause": 4015,
      "ĠJeff": 4016,
      "ĠBefore": 4017,
      "ĠCaptain": 4018,
      "orter": 4019,
      "Ġanimals": 4020,
      "ellig": 4021,
      "ressive": 4022,
      "ĠBrad": 4023,
      "ĠHurricane": 4024,
      "Ġcollection": 4025,
      "ĠVietn": 4026,
      "Ġobserved": 4027,
      "fect": 4028,
      "ĠSwed": 4029,
      "Ġopportun": 4030,
      "ĠOs": 4031,
      "Ġfeaturing": 4032,
      "Ġtitled": 4033,
      "aud": 4034,
      "Ġtourn": 4035,
      "Ġlif": 4036,
      "ao": 4037,
      "ĠForm": 4038,
      "Ġwriters": 4039,
      "Ġinch": 4040,
      "istics": 4041,
      "ĠBridge": 4042,
      "Ġwrite": 4043,
      "Ġjournal": 4044,
      "Ġstrength": 4045,
      "ĠSil": 4046,
      "ĠBattalion": 4047,
      "Ġweaken": 4048,
      "ĠEver": 4049,
      "ours": 4050,
      "Ġsituation": 4051,
      "Ġwor": 4052,
      "ĠTw": 4053,
      "Ġpaid": 4054,
      "Ġmechan": 4055,
      "ĠDef": 4056,
      "Ġparents": 4057,
      "Ġdistance": 4058,
      "Ġspot": 4059,
      "Ġcompanies": 4060,
      "ĠTim": 4061,
      "ĠCommission": 4062,
      "Ġfigure": 4063,
      "Ġindependent": 4064,
      "Ġacting": 4065,
      "right": 4066,
      "Ġonto": 4067,
      "perial": 4068,
      "ĠOtt": 4069,
      "Ġdivided": 4070,
      "Ġactor": 4071,
      "Ġpremi": 4072,
      "umber": 4073,
      "Ġshare": 4074,
      "Ġpiece": 4075,
      "ĠLittle": 4076,
      "ĠDen": 4077,
      "ĠVer": 4078,
      "ĠProdu": 4079,
      "Ġslightly": 4080,
      "ĠParis": 4081,
      "Ġmind": 4082,
      "ĠLife": 4083,
      "Ġcollabor": 4084,
      "Ġtarget": 4085,
      "ĠSeries": 4086,
      "Ġfunction": 4087,
      "Ġselling": 4088,
      "ada": 4089,
      "ĠBat": 4090,
      "ĠVan": 4091,
      "Ġconcent": 4092,
      "Ġpowerful": 4093,
      "ĠColumb": 4094,
      "Ġreform": 4095,
      "Ġrating": 4096,
      "Ġera": 4097,
      "Ġtorped": 4098,
      "ricket": 4099,
      "ĠEntertain": 4100,
      "Ġinnings": 4101,
      "Ġplays": 4102,
      "ĠBBC": 4103,
      "Ġbroke": 4104,
      "Ġtoday": 4105,
      "Ġlot": 4106,
      "ils": 4107,
      "eds": 4108,
      "ĠCarl": 4109,
      "Ġmel": 4110,
      "Ġultimately": 4111,
      "Ġactions": 4112,
      "ĠYoun": 4113,
      "istry": 4114,
      "Ġsquare": 4115,
      "Ġtrial": 4116,
      "Ġwaters": 4117,
      "chest": 4118,
      "Ġrough": 4119,
      "ĠHistor": 4120,
      "oration": 4121,
      "ĠCroat": 4122,
      "mond": 4123,
      "Ġcho": 4124,
      "ĠLuc": 4125,
      "ply": 4126,
      "anna": 4127,
      "Ġmaximum": 4128,
      "lam": 4129,
      "Ġdise": 4130,
      "Ġpilot": 4131,
      "Ġbound": 4132,
      "ĠMax": 4133,
      "annel": 4134,
      "ĠPan": 4135,
      "astic": 4136,
      "Ġcompletely": 4137,
      "Ġpolicy": 4138,
      "ĠAcademy": 4139,
      "Ġsought": 4140,
      "udd": 4141,
      "Ġinterp": 4142,
      "acts": 4143,
      "force": 4144,
      "Ġscale": 4145,
      "Ġblue": 4146,
      "Ġsociety": 4147,
      "rel": 4148,
      "Ġmainly": 4149,
      "ĠMuseum": 4150,
      "Ġdesignated": 4151,
      "Ġlog": 4152,
      "ĠLine": 4153,
      "Ġbehav": 4154,
      "Ġess": 4155,
      "cers": 4156,
      "uge": 4157,
      "Ġofficials": 4158,
      "ĠSaint": 4159,
      "Ġhus": 4160,
      "Ġconver": 4161,
      "Ġcombined": 4162,
      "Ġstruck": 4163,
      "Ġactivity": 4164,
      "Ġtask": 4165,
      "Ġinfluenced": 4166,
      "ĠPop": 4167,
      "mas": 4168,
      "while": 4169,
      "Ġgar": 4170,
      "stein": 4171,
      "olved": 4172,
      "ylvan": 4173,
      "Ġsearch": 4174,
      "Ġalongside": 4175,
      "Ġwear": 4176,
      "Ġvess": 4177,
      "Ġtransl": 4178,
      "ĠEntertainment": 4179,
      "Ġcalling": 4180,
      "Ġthir": 4181,
      "Ġthous": 4182,
      "ĠItaly": 4183,
      "Ġnortheast": 4184,
      "ees": 4185,
      "ĠBrigade": 4186,
      "Ġseconds": 4187,
      "ĠWay": 4188,
      "Ġsout": 4189,
      "ĠAmericans": 4190,
      "Ġbatter": 4191,
      "Ġcorn": 4192,
      "ĠHor": 4193,
      "ĠGre": 4194,
      "Ġsources": 4195,
      "alle": 4196,
      "ĠLee": 4197,
      "Ġseg": 4198,
      "Ġwinter": 4199,
      "ani": 4200,
      "orses": 4201,
      "Ġbackground": 4202,
      "ĠRegiment": 4203,
      "ĠIre": 4204,
      "Ġwebs": 4205,
      "aga": 4206,
      "Ġcrow": 4207,
      "Ġplatform": 4208,
      "rative": 4209,
      "Ġnaval": 4210,
      "Ġtheory": 4211,
      "Ġgained": 4212,
      "Ġsuc": 4213,
      "Ġrecent": 4214,
      "Ġice": 4215,
      "Ġmem": 4216,
      "Ġnominated": 4217,
      "ota": 4218,
      "Ġnews": 4219,
      "Ġartists": 4220,
      "ĠConf": 4221,
      "Ġelectric": 4222,
      "ĠTod": 4223,
      "Ġpromoted": 4224,
      "quarters": 4225,
      "Ġencour": 4226,
      "ĠWind": 4227,
      "Ġproblem": 4228,
      "iano": 4229,
      "Ġwidely": 4230,
      "aven": 4231,
      "Ġconfirmed": 4232,
      "Ġsystems": 4233,
      "ĠAvenue": 4234,
      "ĠIreland": 4235,
      "Ġresults": 4236,
      "ĠMod": 4237,
      "Ġreaching": 4238,
      "Ġpassing": 4239,
      "ini": 4240,
      "Ġproved": 4241,
      "illa": 4242,
      "ibrary": 4243,
      "rate": 4244,
      "ĠAdd": 4245,
      "ĠFleet": 4246,
      "HL": 4247,
      "osaur": 4248,
      "Ġconflict": 4249,
      "Ġsubsequent": 4250,
      "Ġalbums": 4251,
      "Ġinvasion": 4252,
      "Ġexplained": 4253,
      "Ġgreatest": 4254,
      "Ġcharge": 4255,
      "adel": 4256,
      "ube": 4257,
      "Ġresist": 4258,
      "Ġtend": 4259,
      "Ġcontent": 4260,
      "Ġcoming": 4261,
      "Ġpeace": 4262,
      "ux": 4263,
      "Ġwick": 4264,
      "ĠKh": 4265,
      "nown": 4266,
      "Ġsixth": 4267,
      "Ġcounty": 4268,
      "ih": 4269,
      "Ġnorthwest": 4270,
      "Ġhero": 4271,
      "Ġshortly": 4272,
      "Ġweather": 4273,
      "ĠGood": 4274,
      "oured": 4275,
      "Ġserve": 4276,
      "Ġcausing": 4277,
      "Ġversions": 4278,
      "Ġadj": 4279,
      "Ġsays": 4280,
      "ĠVictoria": 4281,
      "Ġequip": 4282,
      "ĠOrig": 4283,
      "hew": 4284,
      "Ġsust": 4285,
      "Ġexpressed": 4286,
      "Ġir": 4287,
      "Ġborder": 4288,
      "ĠEll": 4289,
      "Ġreception": 4290,
      "itness": 4291,
      "Ġpath": 4292,
      "ĠLo": 4293,
      "Ġdefend": 4294,
      "Ġseek": 4295,
      "Ġburn": 4296,
      "arden": 4297,
      "tation": 4298,
      "Ġresidents": 4299,
      "ĠRay": 4300,
      "iced": 4301,
      "ĠBus": 4302,
      "ĠCharl": 4303,
      "ĠTropical": 4304,
      "ĠAut": 4305,
      "ĠCatholic": 4306,
      "Ġemot": 4307,
      "Ġcities": 4308,
      "Ġsoundtrack": 4309,
      "Ġsn": 4310,
      "ĠValley": 4311,
      "ĠWork": 4312,
      "ĠLive": 4313,
      "Ġfavour": 4314,
      "omy": 4315,
      "Ġseasons": 4316,
      "ugh": 4317,
      "Ġsense": 4318,
      "Ġappearances": 4319,
      "aling": 4320,
      "TV": 4321,
      "ategory": 4322,
      "ĠTy": 4323,
      "town": 4324,
      "ĠNorm": 4325,
      "Ġsexual": 4326,
      "Ġchem": 4327,
      "Ġhospital": 4328,
      "ĠNin": 4329,
      "Ġrequire": 4330,
      "Ġidentified": 4331,
      "ĠSant": 4332,
      "Ġphysical": 4333,
      "Ġgreen": 4334,
      "ĠThough": 4335,
      "Ġartillery": 4336,
      "Ġolder": 4337,
      "ĠLight": 4338,
      "Ġhands": 4339,
      "ips": 4340,
      "ancy": 4341,
      "Ġdedic": 4342,
      "Ġtrue": 4343,
      "Ġoffer": 4344,
      "Ġdocument": 4345,
      "Ġtells": 4346,
      "ighth": 4347,
      "Ġkg": 4348,
      "Ġiron": 4349,
      "ĠMiddle": 4350,
      "ĠLiber": 4351,
      "Ġrepresented": 4352,
      "ĠCommun": 4353,
      "ĠThrough": 4354,
      "Ġweapons": 4355,
      "bit": 4356,
      "ĠFar": 4357,
      "unction": 4358,
      "ĠFootball": 4359,
      "Ġahead": 4360,
      "ĠJul": 4361,
      "ero": 4362,
      "ĠDev": 4363,
      "Ġeas": 4364,
      "eption": 4365,
      "ĠShow": 4366,
      "Ġheavily": 4367,
      "ĠSub": 4368,
      "ylvania": 4369,
      "AS": 4370,
      "Ġnegot": 4371,
      "Ġgas": 4372,
      "Ġpun": 4373,
      "ĠUpon": 4374,
      "ĠTay": 4375,
      "ĠDun": 4376,
      "itable": 4377,
      "Ġdefense": 4378,
      "ĠDutch": 4379,
      "ĠWeek": 4380,
      "abeth": 4381,
      "Ġalone": 4382,
      "Ġapparent": 4383,
      "Ġimage": 4384,
      "Ġspread": 4385,
      "Ġstudies": 4386,
      "Ġstudent": 4387,
      "Ġofficially": 4388,
      "ĠAv": 4389,
      "ĠDirect": 4390,
      "ĠRy": 4391,
      "Ġdistrict": 4392,
      "Ġhusband": 4393,
      "ya": 4394,
      "Ġexecutive": 4395,
      "ĠYoung": 4396,
      "Ġdebuted": 4397,
      "Ġfarm": 4398,
      "ĠBey": 4399,
      "essions": 4400,
      "bon": 4401,
      "Ġconsisted": 4402,
      "Ġcapture": 4403,
      "Ġinstit": 4404,
      "Ġprominent": 4405,
      "Ġorganization": 4406,
      "ĠAlbert": 4407,
      "ĠEliz": 4408,
      "ĠTop": 4409,
      "Ġsend": 4410,
      "Ġinjury": 4411,
      "Ġfired": 4412,
      "ĠColon": 4413,
      "Ġbit": 4414,
      "Ġequipment": 4415,
      "Ġwild": 4416,
      "Ġpack": 4417,
      "Ġstone": 4418,
      "ĠVol": 4419,
      "ĠFer": 4420,
      "ĠBond": 4421,
      "za": 4422,
      "Ġprepar": 4423,
      "Ġfigures": 4424,
      "Ġresc": 4425,
      "anger": 4426,
      "Ġargued": 4427,
      "Ġsurpris": 4428,
      "Ġexped": 4429,
      "Ġpattern": 4430,
      "Ġaired": 4431,
      "ĠMen": 4432,
      "AA": 4433,
      "Ġinstrument": 4434,
      "ĠDi": 4435,
      "Ġgrowth": 4436,
      "ĠIll": 4437,
      "ĠCivil": 4438,
      "ushed": 4439,
      "Ġcouple": 4440,
      "Ġdoing": 4441,
      "ĠFe": 4442,
      "Ġreturning": 4443,
      "ĠHomer": 4444,
      "Ġring": 4445,
      "load": 4446,
      "acity": 4447,
      "Ġcontemporary": 4448,
      "Ġpal": 4449,
      "Ġpict": 4450,
      "Ġhun": 4451,
      "ockey": 4452,
      "Ġfloor": 4453,
      "Ġpoet": 4454,
      "ĠKr": 4455,
      "pool": 4456,
      "ĠSk": 4457,
      "ĠRog": 4458,
      "Ġcert": 4459,
      "Ġweight": 4460,
      "Ġdrug": 4461,
      "Ġtun": 4462,
      "Ġpieces": 4463,
      "Ġlaid": 4464,
      "lers": 4465,
      "Ġdoub": 4466,
      "Ġleaders": 4467,
      "Ġmatter": 4468,
      "ĠNorthern": 4469,
      "ĠFre": 4470,
      "Ġaffected": 4471,
      "ĠRam": 4472,
      "Ġhabit": 4473,
      "Ġstep": 4474,
      "Ġmagn": 4475,
      "Ġeth": 4476,
      "Ġmaintained": 4477,
      "ĠDaniel": 4478,
      "ĠJon": 4479,
      "ĠDam": 4480,
      "appen": 4481,
      "Ġoccasion": 4482,
      "Ġearth": 4483,
      "Ġpropos": 4484,
      "Ġcrowd": 4485,
      "resp": 4486,
      "Ġvisited": 4487,
      "Ġshell": 4488,
      "Ġtermin": 4489,
      "Ġcomes": 4490,
      "Ġcommunic": 4491,
      "Ġhere": 4492,
      "eld": 4493,
      "ĠMat": 4494,
      "ĠStorm": 4495,
      "Ġcriticized": 4496,
      "Ġspeech": 4497,
      "Ġactivities": 4498,
      "ĠCarolina": 4499,
      "Ġstra": 4500,
      "ĠGal": 4501,
      "acement": 4502,
      "inson": 4503,
      "emic": 4504,
      "ental": 4505,
      "Ġattract": 4506,
      "Ġcitiz": 4507,
      "Ġexec": 4508,
      "ifying": 4509,
      "Ġtoward": 4510,
      "Ġreign": 4511,
      "Ġemph": 4512,
      "Ġtournament": 4513,
      "ĠBre": 4514,
      "Ġox": 4515,
      "Ġsingles": 4516,
      "Ġtrees": 4517,
      "lines": 4518,
      "Ġreference": 4519,
      "Ġhall": 4520,
      "Ġsenior": 4521,
      "Ġformation": 4522,
      "ĠScottish": 4523,
      "ocked": 4524,
      "rog": 4525,
      "Ġsetting": 4526,
      "elve": 4527,
      "ĠOcean": 4528,
      "Ġadapt": 4529,
      "Ġmurder": 4530,
      "Ġmedical": 4531,
      "ĠGovernment": 4532,
      "Ġtrying": 4533,
      "Ġsurre": 4534,
      "ĠSystem": 4535,
      "Ġterritory": 4536,
      "ĠHard": 4537,
      "Ġworldwide": 4538,
      "ĠOperation": 4539,
      "ote": 4540,
      "ĠMarsh": 4541,
      "ners": 4542,
      "ĠDistrict": 4543,
      "Ġstations": 4544,
      "Ġguest": 4545,
      "Ġbud": 4546,
      "Ġappl": 4547,
      "Ġpan": 4548,
      "Ġdelay": 4549,
      "estic": 4550,
      "ruit": 4551,
      "ĠBackground": 4552,
      "ĠFantasy": 4553,
      "Ġbirds": 4554,
      "ĠField": 4555,
      "ĠHolly": 4556,
      "ĠTem": 4557,
      "Ġfellow": 4558,
      "ĠWrit": 4559,
      "embly": 4560,
      "Ġclaims": 4561,
      "ĠGovernor": 4562,
      "Ġmachine": 4563,
      "Ġdoll": 4564,
      "ĠKar": 4565,
      "Ġrang": 4566,
      "Ġbul": 4567,
      "Ġhistorian": 4568,
      "Ġaccident": 4569,
      "ĠPenns": 4570,
      "Ġrisk": 4571,
      "Ġrainfall": 4572,
      "Ġfully": 4573,
      "Ġdog": 4574,
      "Ġload": 4575,
      "ivity": 4576,
      "Ġcell": 4577,
      "ĠHome": 4578,
      "uled": 4579,
      "Ġtherefore": 4580,
      "Ġgod": 4581,
      "Ġuniversity": 4582,
      "Ġvalue": 4583,
      "Ġtreatment": 4584,
      "Ġsplit": 4585,
      "ĠDuke": 4586,
      "Ġchosen": 4587,
      "ĠGuard": 4588,
      "uct": 4589,
      "sw": 4590,
      "omers": 4591,
      "uls": 4592,
      "Ġcontest": 4593,
      "Ġgovernor": 4594,
      "amber": 4595,
      "velopment": 4596,
      "orne": 4597,
      "Ġtwice": 4598,
      "Ġfrequently": 4599,
      "Ġreports": 4600,
      "gian": 4601,
      "resh": 4602,
      "ĠStudios": 4603,
      "stone": 4604,
      "ĠShort": 4605,
      "ĠPolish": 4606,
      "Ġleaves": 4607,
      "rael": 4608,
      "ĠGirl": 4609,
      "Ġdyn": 4610,
      "ĠBeat": 4611,
      "ĠSenate": 4612,
      "Ġsens": 4613,
      "Ġopt": 4614,
      "Ġremark": 4615,
      "stitution": 4616,
      "Ġfaced": 4617,
      "ĠRod": 4618,
      "Ġwalls": 4619,
      "Ġagg": 4620,
      "Ġpaper": 4621,
      "ĠEastern": 4622,
      "ias": 4623,
      "rain": 4624,
      "Ġhyd": 4625,
      "aved": 4626,
      "ampion": 4627,
      "ordin": 4628,
      "Ġopin": 4629,
      "Ġoperated": 4630,
      "ĠBart": 4631,
      "Ġlabel": 4632,
      "Ġfollows": 4633,
      "ledge": 4634,
      "ĠLew": 4635,
      "Ġsurrounding": 4636,
      "Ġwounded": 4637,
      "eller": 4638,
      "ala": 4639,
      "Ġgrew": 4640,
      "Ġmanu": 4641,
      "Ġbillion": 4642,
      "ĠMean": 4643,
      "ĠRos": 4644,
      "ading": 4645,
      "Ġcontained": 4646,
      "ĠAndrew": 4647,
      "Ġplanet": 4648,
      "ayer": 4649,
      "Ġherself": 4650,
      "ĠAllied": 4651,
      "onents": 4652,
      "ĠChristmas": 4653,
      "Ġdegree": 4654,
      "Ġmanufact": 4655,
      "Ġcondition": 4656,
      "Ġhorses": 4657,
      "ĠMD": 4658,
      "Ġaccompan": 4659,
      "Ġpasses": 4660,
      "Ġtypically": 4661,
      "Ġswe": 4662,
      "Ġescape": 4663,
      "ĠRom": 4664,
      "Ġcolor": 4665,
      "rect": 4666,
      "Ġsimply": 4667,
      "isco": 4668,
      "ĠWilson": 4669,
      "Ġfuel": 4670,
      "Ġsle": 4671,
      "edd": 4672,
      "ĠCorn": 4673,
      "Ġbrown": 4674,
      "illy": 4675,
      "Ġmaster": 4676,
      "ĠNight": 4677,
      "Ġrailway": 4678,
      "ĠTaylor": 4679,
      "Ġelement": 4680,
      "utation": 4681,
      "Ġlives": 4682,
      "Ġdraft": 4683,
      "ĠJud": 4684,
      "Ġarms": 4685,
      "Ġorders": 4686,
      "ety": 4687,
      "Ġeditor": 4688,
      "Ġserving": 4689,
      "Ġbal": 4690,
      "antly": 4691,
      "ĠJoe": 4692,
      "Ġcasual": 4693,
      "ĠElizabeth": 4694,
      "Ġauthority": 4695,
      "Ġchose": 4696,
      "Ġnothing": 4697,
      "Ġvote": 4698,
      "ĠAlexander": 4699,
      "Ġmoment": 4700,
      "ager": 4701,
      "Ġworkers": 4702,
      "Ġcamer": 4703,
      "Ġcannot": 4704,
      "Ġnative": 4705,
      "ĠMa": 4706,
      "Ġconsecutive": 4707,
      "Ġopposed": 4708,
      "isters": 4709,
      "izes": 4710,
      "Ġnewly": 4711,
      "ĠMike": 4712,
      "ucky": 4713,
      "Ġunknown": 4714,
      "Ġparticipated": 4715,
      "ricult": 4716,
      "Ġfan": 4717,
      "pass": 4718,
      "ĠEach": 4719,
      "pton": 4720,
      "ancing": 4721,
      "Ġath": 4722,
      "Ġgrowing": 4723,
      "Ġemphas": 4724,
      "uous": 4725,
      "aming": 4726,
      "Ġwebsite": 4727,
      "Ġbass": 4728,
      "Ġattrib": 4729,
      "ĠBru": 4730,
      "fully": 4731,
      "Ġnewspaper": 4732,
      "Ġrear": 4733,
      "Ġphil": 4734,
      "Ġproducers": 4735,
      "mit": 4736,
      "igg": 4737,
      "Ġlosing": 4738,
      "ĠOf": 4739,
      "ographer": 4740,
      "ef": 4741,
      "Ġfair": 4742,
      "iot": 4743,
      "Ġadvanced": 4744,
      "Ġadopted": 4745,
      "andy": 4746,
      "agn": 4747,
      "Ġfilming": 4748,
      "Ġextra": 4749,
      "Ġheard": 4750,
      "ĠCastle": 4751,
      "ĠHum": 4752,
      "ĠFestival": 4753,
      "Ġoffensive": 4754,
      "ĠPennsylvania": 4755,
      "gend": 4756,
      "ĠHy": 4757,
      "Ġopposition": 4758,
      "Ġsevere": 4759,
      "ĠDet": 4760,
      "enge": 4761,
      "ĠChe": 4762,
      "Ġspirit": 4763,
      "ilies": 4764,
      "Ġfeed": 4765,
      "Ġfiction": 4766,
      "Ġentr": 4767,
      "imens": 4768,
      "ĠIslands": 4769,
      "ĠExp": 4770,
      "Ġsequence": 4771,
      "ĠPers": 4772,
      "Ġactors": 4773,
      "ĠJac": 4774,
      "Ġbasis": 4775,
      "enger": 4776,
      "Ġguard": 4777,
      "Ġsquadron": 4778,
      "Ġcapacity": 4779,
      "ĠWhat": 4780,
      "Ġcouncil": 4781,
      "Ġpsych": 4782,
      "ĠPen": 4783,
      "Ġextend": 4784,
      "Ġends": 4785,
      "Ġprin": 4786,
      "ĠConn": 4787,
      "ĠReception": 4788,
      "ĠSound": 4789,
      "more": 4790,
      "Ġweak": 4791,
      "Ġabandoned": 4792,
      "Ġadvant": 4793,
      "anda": 4794,
      "Ġsilver": 4795,
      "ĠFurther": 4796,
      "ype": 4797,
      "azz": 4798,
      "ĠIrish": 4799,
      "rong": 4800,
      "Ġmis": 4801,
      "Ġrival": 4802,
      "eed": 4803,
      "Ġcompar": 4804,
      "gent": 4805,
      "ĠTra": 4806,
      "Ġextr": 4807,
      "ĠHarry": 4808,
      "ĠWat": 4809,
      "Ġrom": 4810,
      "ĠWW": 4811,
      "then": 4812,
      "Ġhonor": 4813,
      "ano": 4814,
      "Ġflying": 4815,
      "ĠInst": 4816,
      "gu": 4817,
      "ĠBlue": 4818,
      "ĠGi": 4819,
      "hi": 4820,
      "rid": 4821,
      "Ġelev": 4822,
      "tar": 4823,
      "ĠRet": 4824,
      "room": 4825,
      "ables": 4826,
      "Ġkick": 4827,
      "isers": 4828,
      "ĠCard": 4829,
      "Ġcreating": 4830,
      "ocated": 4831,
      "ĠTech": 4832,
      "Ġbey": 4833,
      "ĠJersey": 4834,
      "ĠSpain": 4835,
      "Ġfilmed": 4836,
      "Ġcoal": 4837,
      "Ġlaunch": 4838,
      "Ġhappen": 4839,
      "Ġenter": 4840,
      "Ġdeploy": 4841,
      "Ġregarded": 4842,
      "Ġnormal": 4843,
      "Ġast": 4844,
      "Ġincident": 4845,
      "Ġexpansion": 4846,
      "Ġpoll": 4847,
      "Ġcriticism": 4848,
      "Ġindividuals": 4849,
      "ĠAre": 4850,
      "Ġhomes": 4851,
      "ĠSS": 4852,
      "Ġagreement": 4853,
      "ĠGall": 4854,
      "Ġbeyond": 4855,
      "Ġfailure": 4856,
      "ports": 4857,
      "ĠBab": 4858,
      "ĠSquare": 4859,
      "Ġevac": 4860,
      "Ġsail": 4861,
      "under": 4862,
      "ĠFam": 4863,
      "Ġspect": 4864,
      "ĠCoast": 4865,
      "Ġdismiss": 4866,
      "apers": 4867,
      "Ġfamous": 4868,
      "Ġspring": 4869,
      "Ġchair": 4870,
      "Ġeye": 4871,
      "add": 4872,
      "Ġsports": 4873,
      "Ġchalleng": 4874,
      "Ġmeasure": 4875,
      "Ġboat": 4876,
      "Ġpossibly": 4877,
      "Ġhistorical": 4878,
      "ĠUs": 4879,
      "Ġnegative": 4880,
      "Ġinte": 4881,
      "Ġliber": 4882,
      "uses": 4883,
      "ĠPublic": 4884,
      "TC": 4885,
      "ĠLand": 4886,
      "min": 4887,
      "gar": 4888,
      "Ġbodies": 4889,
      "Ġachieved": 4890,
      "Ġroles": 4891,
      "Ġmob": 4892,
      "Ġprogress": 4893,
      "Ġcontact": 4894,
      "Ġbelieve": 4895,
      "Ġstrike": 4896,
      "Ġkilling": 4897,
      "Ġunf": 4898,
      "ĠProduction": 4899,
      "ĠBul": 4900,
      "ĠRevolution": 4901,
      "Ġretired": 4902,
      "Ġnarrow": 4903,
      "orters": 4904,
      "imet": 4905,
      "Ġideas": 4906,
      "ifications": 4907,
      "Ġsupply": 4908,
      "ienced": 4909,
      "Ġdrive": 4910,
      "ĠInstitute": 4911,
      "ĠIsrael": 4912,
      "ĠLind": 4913,
      "ĠLy": 4914,
      "Ġdisease": 4915,
      "ĠWild": 4916,
      "ĠCD": 4917,
      "ĠArthur": 4918,
      "BA": 4919,
      "Ġtorpedo": 4920,
      "onent": 4921,
      "Ġpersonnel": 4922,
      "mosp": 4923,
      "Ġrid": 4924,
      "Ġbriefly": 4925,
      "Ġvo": 4926,
      "Ġbenef": 4927,
      "ĠBroad": 4928,
      "set": 4929,
      "Ġtower": 4930,
      "Ġdiam": 4931,
      "oln": 4932,
      "ĠDue": 4933,
      "Ġarmed": 4934,
      "Ġeffective": 4935,
      "Ġimag": 4936,
      "FA": 4937,
      "ĠCat": 4938,
      "Ġperman": 4939,
      "Ġapplic": 4940,
      "ĠElect": 4941,
      "Ġrepeated": 4942,
      "ĠMeanwhile": 4943,
      "Ġkilometres": 4944,
      "Ġreceive": 4945,
      "Ġgranted": 4946,
      "Ġroads": 4947,
      "Ġadministration": 4948,
      "Ġnecessary": 4949,
      "Ġbudget": 4950,
      "iny": 4951,
      "Ġtree": 4952,
      "Ġrejected": 4953,
      "edom": 4954,
      "Ġinterchange": 4955,
      "ĠMul": 4956,
      "ĠRepublican": 4957,
      "Ġunsu": 4958,
      "Ġtwelve": 4959,
      "Ġtable": 4960,
      "Ġgross": 4961,
      "Ġinfantry": 4962,
      "iner": 4963,
      "ĠEnd": 4964,
      "aith": 4965,
      "Ġpet": 4966,
      "ĠPerson": 4967,
      "Ġleadership": 4968,
      "Ġimproved": 4969,
      "Ġcolumn": 4970,
      "ĠOhio": 4971,
      "Ġextensive": 4972,
      "Ġturns": 4973,
      "Ġinh": 4974,
      "ĠDoctor": 4975,
      "avalry": 4976,
      "ĠAlbum": 4977,
      "ĠClark": 4978,
      "ĠCub": 4979,
      "Ġyellow": 4980,
      "Ġdata": 4981,
      "ĠSund": 4982,
      "imal": 4983,
      "ourney": 4984,
      "ĠHead": 4985,
      "Ġmanagement": 4986,
      "Ġpurpose": 4987,
      "Ġlanding": 4988,
      "kins": 4989,
      "iments": 4990,
      "ĠGerm": 4991,
      "Ġparalle": 4992,
      "Ġlands": 4993,
      "Ġstraight": 4994,
      "Ġplants": 4995,
      "Ġexpress": 4996,
      "Ġseat": 4997,
      "Ġcrossing": 4998,
      "Ġdescribes": 4999,
      "Ġdefin": 5000,
      "ĠMid": 5001,
      "Ġmile": 5002,
      "Ġexpanded": 5003,
      "Ġbroken": 5004,
      "ĠBoard": 5005,
      "Ġsuccessfully": 5006,
      "Ġsolo": 5007,
      "ĠLes": 5008,
      "Ġchoice": 5009,
      "ĠSecretary": 5010,
      "Ġfranch": 5011,
      "lusion": 5012,
      "Ġintellig": 5013,
      "Ġfought": 5014,
      "Ġlearn": 5015,
      "ĠBraz": 5016,
      "ĠLiver": 5017,
      "adelph": 5018,
      "Ġdidn": 5019,
      "ocks": 5020,
      "Ġdeliver": 5021,
      "Ġsurrender": 5022,
      "Ġorganized": 5023,
      "ĠRA": 5024,
      "Ġcaught": 5025,
      "ĠPhiladelph": 5026,
      "Ġexplos": 5027,
      "iday": 5028,
      "Ġanimal": 5029,
      "hol": 5030,
      "ĠJes": 5031,
      "Ġvehicles": 5032,
      "Ġexcl": 5033,
      "Ġsuggests": 5034,
      "uate": 5035,
      "ĠCy": 5036,
      "ĠBon": 5037,
      "Ġcommissioned": 5038,
      "Ġancient": 5039,
      "etball": 5040,
      "Ġroof": 5041,
      "Ġacquired": 5042,
      "Ġchor": 5043,
      "haps": 5044,
      "Ġplaces": 5045,
      "Ġdrama": 5046,
      "Ġcommittee": 5047,
      "ĠEven": 5048,
      "ĠCambridge": 5049,
      "Ġcreation": 5050,
      "ĠGeorgia": 5051,
      "Ġcomedy": 5052,
      "ĠPu": 5053,
      "ĠHarv": 5054,
      "ĠNever": 5055,
      "ĠAsh": 5056,
      "stream": 5057,
      "Ġtypes": 5058,
      "Ġgives": 5059,
      "Ġglob": 5060,
      "Ġarticle": 5061,
      "Ġseventh": 5062,
      "ĠPhiladelphia": 5063,
      "iable": 5064,
      "ĠHit": 5065,
      "ĠBurn": 5066,
      "Ġprefer": 5067,
      "ĠMir": 5068,
      "Ġrow": 5069,
      "Ġroll": 5070,
      "Ġwave": 5071,
      "Ġsoft": 5072,
      "Ġnuclear": 5073,
      "Ġfat": 5074,
      "iate": 5075,
      "ĠMov": 5076,
      "Ġauthorities": 5077,
      "Ġheadquarters": 5078,
      "appy": 5079,
      "attle": 5080,
      "ĠSher": 5081,
      "war": 5082,
      "ĠIS": 5083,
      "ĠAlso": 5084,
      "rif": 5085,
      "Ġcontain": 5086,
      "ĠRon": 5087,
      "Ġsecurity": 5088,
      "Ġdetermined": 5089,
      "Ġcenturies": 5090,
      "ĠBell": 5091,
      "Ġislands": 5092,
      "Ġcommonly": 5093,
      "iations": 5094,
      "etts": 5095,
      "ĠAddition": 5096,
      "Ġgenus": 5097,
      "ĠMu": 5098,
      "Ġmentioned": 5099,
      "Ġrecently": 5100,
      "ĠCommon": 5101,
      "ĠRussia": 5102,
      "Ġbott": 5103,
      "ĠSR": 5104,
      "Ġcontrolled": 5105,
      "Ġlooking": 5106,
      "iana": 5107,
      "ĠRel": 5108,
      "ĠConst": 5109,
      "Ġbeaut": 5110,
      "ĠProt": 5111,
      "Ġstreet": 5112,
      "restling": 5113,
      "akers": 5114,
      "ĠAmong": 5115,
      "Ġaim": 5116,
      "umes": 5117,
      "Ġhousehold": 5118,
      "rich": 5119,
      "ico": 5120,
      "ĠWars": 5121,
      "Ġfamilies": 5122,
      "Ġsets": 5123,
      "Ġupgr": 5124,
      "Ġbattalion": 5125,
      "erc": 5126,
      "Ġfinds": 5127,
      "ĠLiverpool": 5128,
      "Ġdecre": 5129,
      "Ġexperiment": 5130,
      "Ġadvert": 5131,
      "Ġacad": 5132,
      "Ġstanding": 5133,
      "Ġwithdraw": 5134,
      "ĠNintend": 5135,
      "ima": 5136,
      "ĠEp": 5137,
      "ĠLar": 5138,
      "ĠNintendo": 5139,
      "Ġillust": 5140,
      "Ġdrop": 5141,
      "Ġsinging": 5142,
      "oted": 5143,
      "ĠLinc": 5144,
      "rupt": 5145,
      "uting": 5146,
      "Ġreflect": 5147,
      "Ġunique": 5148,
      "ĠPrime": 5149,
      "itled": 5150,
      "ĠColumbia": 5151,
      "ĠSup": 5152,
      "agement": 5153,
      "Ġtouchdown": 5154,
      "ĠEarl": 5155,
      "Ġheight": 5156,
      "fort": 5157,
      "Ġcontaining": 5158,
      "Ġentirely": 5159,
      "Ġdeck": 5160,
      "ĠJenn": 5161,
      "Ġcultural": 5162,
      "arts": 5163,
      "Ġdefence": 5164,
      "Ġfinish": 5165,
      "ĠGil": 5166,
      "Ġprotect": 5167,
      "Ġcontributed": 5168,
      "Ġfish": 5169,
      "Ġorchest": 5170,
      "Ġdial": 5171,
      "ĠAsia": 5172,
      "once": 5173,
      "ĠKorean": 5174,
      "ĠLincoln": 5175,
      "ĠSingap": 5176,
      "Ġthemes": 5177,
      "Ġprovides": 5178,
      "ev": 5179,
      "ishes": 5180,
      "orship": 5181,
      "ĠDevelopment": 5182,
      "Ġyounger": 5183,
      "Ġflooding": 5184,
      "ĠLieutenant": 5185,
      "acks": 5186,
      "Ġunp": 5187,
      "ĠChap": 5188,
      "Ġpurchased": 5189,
      "Ġstrik": 5190,
      "ĠBrazil": 5191,
      "Ġmist": 5192,
      "Ġtitles": 5193,
      "Ġdefensive": 5194,
      "Ġawards": 5195,
      "Ġhol": 5196,
      "Ġatmosp": 5197,
      "ĠRol": 5198,
      "ĠCarey": 5199,
      "Ġsac": 5200,
      "ura": 5201,
      "ĠJewish": 5202,
      "outs": 5203,
      "Ġarrival": 5204,
      "ĠUr": 5205,
      "amin": 5206,
      "Ġscheduled": 5207,
      "ĠGro": 5208,
      "ipl": 5209,
      "ĠChild": 5210,
      "Ġpowers": 5211,
      "ĠFrancisco": 5212,
      "Ġaccompanied": 5213,
      "ĠSingapore": 5214,
      "agan": 5215,
      "Ġexpedition": 5216,
      "Ġresemb": 5217,
      "Ġconvers": 5218,
      "Ġprote": 5219,
      "ĠPeople": 5220,
      "Ġunus": 5221,
      "inity": 5222,
      "illing": 5223,
      "Ġquite": 5224,
      "Ġthing": 5225,
      "ĠHay": 5226,
      "respond": 5227,
      "Ġceremony": 5228,
      "Ġexisting": 5229,
      "Ġtry": 5230,
      "Ġperfect": 5231,
      "Ġlocations": 5232,
      "Ġworth": 5233,
      "Ġformula": 5234,
      "Ġperforming": 5235,
      "icial": 5236,
      "oma": 5237,
      "roll": 5238,
      "Ġinteract": 5239,
      "Ġdedicated": 5240,
      "Ġadvantage": 5241,
      "ĠSix": 5242,
      "ĠOffice": 5243,
      "ĠPot": 5244,
      "water": 5245,
      "ping": 5246,
      "atures": 5247,
      "ĠHun": 5248,
      "Ġcomputer": 5249,
      "igr": 5250,
      "ĠVen": 5251,
      "Ġextrem": 5252,
      "Ġstore": 5253,
      "Ġphilos": 5254,
      "Ġoccupied": 5255,
      "Ġsquad": 5256,
      "Ġintensity": 5257,
      "ĠTam": 5258,
      "ĠDisney": 5259,
      "Station": 5260,
      "ĠâĪ": 5261,
      "laim": 5262,
      "ĠHon": 5263,
      "ulate": 5264,
      "Ġmounted": 5265,
      "Ġfresh": 5266,
      "ĠHMS": 5267,
      "Ġwhy": 5268,
      "ĠDark": 5269,
      "ĠPlayStation": 5270,
      "ĠOrder": 5271,
      "ĠTurn": 5272,
      "Ġbat": 5273,
      "ĠLis": 5274,
      "ava": 5275,
      "ashion": 5276,
      "Ġconsists": 5277,
      "ĠAnderson": 5278,
      "Ġfix": 5279,
      "ĠKey": 5280,
      "Ġfirm": 5281,
      "Ġnob": 5282,
      "ĠSteve": 5283,
      "Ġclosely": 5284,
      "Ġmouth": 5285,
      "ĠConference": 5286,
      "ĠLewis": 5287,
      "Ġcricket": 5288,
      "Ġcurrently": 5289,
      "Ġsession": 5290,
      "rig": 5291,
      "yles": 5292,
      "ĠMiller": 5293,
      "ĠBrian": 5294,
      "ĠDie": 5295,
      "Ġindustrial": 5296,
      "ĠBalt": 5297,
      "Ġsimple": 5298,
      "wall": 5299,
      "racted": 5300,
      "Ġpiano": 5301,
      "ĠBad": 5302,
      "Ġsupporting": 5303,
      "Ġelimin": 5304,
      "Ġfacilities": 5305,
      "Ġtail": 5306,
      "ĠOnce": 5307,
      "Ġboats": 5308,
      "ĠByz": 5309,
      "Ġsurvey": 5310,
      "och": 5311,
      "ĠRadio": 5312,
      "Ġrated": 5313,
      "Ġlic": 5314,
      "ĠKel": 5315,
      "Ġprotection": 5316,
      "Ġdrawn": 5317,
      "ĠOlympic": 5318,
      "Ġcold": 5319,
      "Ġbelong": 5320,
      "ilton": 5321,
      "Ġtim": 5322,
      "ĠBrook": 5323,
      "Ġegg": 5324,
      "Ġtrains": 5325,
      "Ġgraph": 5326,
      "Ġrise": 5327,
      "Ġdefined": 5328,
      "ĠGrant": 5329,
      "rons": 5330,
      "Ġselection": 5331,
      "Ġsubmar": 5332,
      "Ġsteam": 5333,
      "ĠByzant": 5334,
      "Ġstructures": 5335,
      "ĠAtt": 5336,
      "Ġregions": 5337,
      "Ġprotected": 5338,
      "Ġcalls": 5339,
      "ĠRailway": 5340,
      "ĠMot": 5341,
      "ola": 5342,
      "ĠEmperor": 5343,
      "Ġmotion": 5344,
      "ĠNHL": 5345,
      "Ġcomic": 5346,
      "Ġfocused": 5347,
      "Ġ#": 5348,
      "Ġtrail": 5349,
      "Ġreceiving": 5350,
      "Ġthrow": 5351,
      "Ġaid": 5352,
      "Ġengaged": 5353,
      "mouth": 5354,
      "hens": 5355,
      "Ġopportunity": 5356,
      "Ġpros": 5357,
      "Ġshooting": 5358,
      "Ġlabor": 5359,
      "Ġcry": 5360,
      "sey": 5361,
      "Ġanalysis": 5362,
      "Ġshark": 5363,
      "Ġhair": 5364,
      "Ġcorrespond": 5365,
      "Ġcitizens": 5366,
      "ĠPress": 5367,
      "Ġnotable": 5368,
      "ĠGulf": 5369,
      "Ġstrengthen": 5370,
      "iration": 5371,
      "usc": 5372,
      "Ġadap": 5373,
      "Ġmotor": 5374,
      "Ġsport": 5375,
      "Ġobserv": 5376,
      "Ġexperienced": 5377,
      "ĠJr": 5378,
      "Ġholding": 5379,
      "Ġmountain": 5380,
      "ĠGermans": 5381,
      "ĠShak": 5382,
      "Ġconference": 5383,
      "Ġproviding": 5384,
      "ĠWalter": 5385,
      "Ġfer": 5386,
      "ĠHollywood": 5387,
      "gn": 5388,
      "Ġdry": 5389,
      "Ġresident": 5390,
      "Ġsoutheast": 5391,
      "ĠMah": 5392,
      "unior": 5393,
      "ĠOnly": 5394,
      "uan": 5395,
      "Ġhired": 5396,
      "Ġvisual": 5397,
      "Ġviewed": 5398,
      "ults": 5399,
      "burgh": 5400,
      "Ġrapidly": 5401,
      "ĠDavis": 5402,
      "Ġcharts": 5403,
      "Ġlap": 5404,
      "Ġeyes": 5405,
      "ĠBas": 5406,
      "Ġcasualties": 5407,
      "ĠBarb": 5408,
      "ĠDemocratic": 5409,
      "ifically": 5410,
      "ĠSummer": 5411,
      "Ġbranch": 5412,
      "Ġmerch": 5413,
      "Ġvolume": 5414,
      "Ġrecognized": 5415,
      "opher": 5416,
      "Ġtransform": 5417,
      "Ġscholars": 5418,
      "Ġsites": 5419,
      "ĠReview": 5420,
      "ĠSpecial": 5421,
      "ĠBor": 5422,
      "Ġreaction": 5423,
      "vention": 5424,
      "ua": 5425,
      "Ġgain": 5426,
      "ĠInc": 5427,
      "inger": 5428,
      "Ġconcer": 5429,
      "ĠBetween": 5430,
      "Ġparallel": 5431,
      "ĠRome": 5432,
      "Ġrob": 5433,
      "ĠSerb": 5434,
      "Ġmut": 5435,
      "Ġteach": 5436,
      "Ġshared": 5437,
      "ĠWater": 5438,
      "Ġdigital": 5439,
      "Ġpublication": 5440,
      "Ġvac": 5441,
      "Ġeconomy": 5442,
      "ĠJean": 5443,
      "inth": 5444,
      "Ġtemperature": 5445,
      "ĠBeyonce": 5446,
      "ĠFall": 5447,
      "essed": 5448,
      "Ġdeveloping": 5449,
      "Ġmoder": 5450,
      "Ġedge": 5451,
      "Ġintersection": 5452,
      "Ġsteel": 5453,
      "FL": 5454,
      "ĠVar": 5455,
      "ĠGib": 5456,
      "ĠEs": 5457,
      "Ġcool": 5458,
      "standing": 5459,
      "Ġcart": 5460,
      "eper": 5461,
      "Ġapproved": 5462,
      "ĠPo": 5463,
      "Ġsecondary": 5464,
      "friend": 5465,
      "Ġsymbol": 5466,
      "Ġwa": 5467,
      "ĠLady": 5468,
      "Ġchance": 5469,
      "ĠGreg": 5470,
      "Ġlosses": 5471,
      "zer": 5472,
      "ĠPrinc": 5473,
      "ĠDown": 5474,
      "ĠKir": 5475,
      "ĠBank": 5476,
      "Ġwitness": 5477,
      "Ġprepared": 5478,
      "Ġvon": 5479,
      "omew": 5480,
      "Ġsubstant": 5481,
      "Ġbelief": 5482,
      "ĠDaily": 5483,
      "ĠGord": 5484,
      "ĠLab": 5485,
      "Ġsignificantly": 5486,
      "Ġletters": 5487,
      "Ġenl": 5488,
      "ĠWomen": 5489,
      "iful": 5490,
      "Ġbands": 5491,
      "Ġrac": 5492,
      "ĠMusl": 5493,
      "olt": 5494,
      "ĠUN": 5495,
      "Ġdomestic": 5496,
      "Ġsort": 5497,
      "Ġharm": 5498,
      "Ġsave": 5499,
      "ingly": 5500,
      "ĠProv": 5501,
      "iter": 5502,
      "rence": 5503,
      "Ġven": 5504,
      "ĠNap": 5505,
      "Ġfranchise": 5506,
      "Ġknew": 5507,
      "Ġinstruct": 5508,
      "Ġmyth": 5509,
      "Ġunsuccess": 5510,
      "Ġgoes": 5511,
      "Ġliterature": 5512,
      "Ġsouthwest": 5513,
      "ĠSyd": 5514,
      "Ġroughly": 5515,
      "yer": 5516,
      "ĠMun": 5517,
      "Ġactress": 5518,
      "Ġheads": 5519,
      "Ġla": 5520,
      "atre": 5521,
      "Ġtechnology": 5522,
      "ĠCommand": 5523,
      "ĠColonel": 5524,
      "Ġcard": 5525,
      "Ġdescend": 5526,
      "Ġton": 5527,
      "Ġadvent": 5528,
      "Ġresistance": 5529,
      "Ġassault": 5530,
      "unte": 5531,
      "ographic": 5532,
      "theless": 5533,
      "Ġpainting": 5534,
      "ĠNaz": 5535,
      "Ġanything": 5536,
      "Ġbrothers": 5537,
      "Ġmic": 5538,
      "break": 5539,
      "Ġcars": 5540,
      "ients": 5541,
      "Ġpitch": 5542,
      "Ġadult": 5543,
      "awa": 5544,
      "Ġgameplay": 5545,
      "Ġurban": 5546,
      "ĠPoint": 5547,
      "Ġprojects": 5548,
      "Ġsemi": 5549,
      "Ġlb": 5550,
      "ĠSupreme": 5551,
      "Ġexact": 5552,
      "ĠKentucky": 5553,
      "ĠIndust": 5554,
      "worth": 5555,
      "Ġshape": 5556,
      "asty": 5557,
      "Ġstoryline": 5558,
      "Ġcore": 5559,
      "achus": 5560,
      "Ġemployed": 5561,
      "Ġhyp": 5562,
      "gers": 5563,
      "ĠNick": 5564,
      "Ġrules": 5565,
      "Ġreasons": 5566,
      "Ġdaily": 5567,
      "ym": 5568,
      "Ġinjured": 5569,
      "ĠMos": 5570,
      "ĠStation": 5571,
      "Ġagent": 5572,
      "Ġtank": 5573,
      "ĠMas": 5574,
      "iminal": 5575,
      "ĠTen": 5576,
      "Ġshall": 5577,
      "ologist": 5578,
      "Ġwatched": 5579,
      "earch": 5580,
      "Ġshaped": 5581,
      "Ġpopularity": 5582,
      "Ġcomposition": 5583,
      "onder": 5584,
      "box": 5585,
      "Ġcab": 5586,
      "ĠAlb": 5587,
      "ĠIndepend": 5588,
      "Ġdeclined": 5589,
      "Ġign": 5590,
      "Ġsand": 5591,
      "ropri": 5592,
      "ĠIV": 5593,
      "Ġperhaps": 5594,
      "Ġadding": 5595,
      "ĠâĪĴ": 5596,
      "ĠSpring": 5597,
      "Ġrenamed": 5598,
      "Ġenjoyed": 5599,
      "ĠPhilipp": 5600,
      "amm": 5601,
      "Ġisol": 5602,
      "Ġopinion": 5603,
      "Ġgetting": 5604,
      "Ġfit": 5605,
      "Ġcompris": 5606,
      "ĠNorway": 5607,
      "Ġet": 5608,
      "iege": 5609,
      "mann": 5610,
      "Ġreputation": 5611,
      "Ġconnected": 5612,
      "istan": 5613,
      "Ġundert": 5614,
      "la": 5615,
      "ĠImp": 5616,
      "Ġestate": 5617,
      "Ġdrew": 5618,
      "ĠRoss": 5619,
      "ĠWhit": 5620,
      "Ġpoem": 5621,
      "Ġmuseum": 5622,
      "Ġregarding": 5623,
      "Ġconverted": 5624,
      "itors": 5625,
      "Ġretire": 5626,
      "ĠSand": 5627,
      "ĠFair": 5628,
      "Ġstages": 5629,
      "Ġviews": 5630,
      "Ġlov": 5631,
      "inking": 5632,
      "osa": 5633,
      "gency": 5634,
      "ĠOlympics": 5635,
      "ador": 5636,
      "ĠBern": 5637,
      "Ġnor": 5638,
      "ĠMain": 5639,
      "avel": 5640,
      "Ġagricult": 5641,
      "heim": 5642,
      "ĠGolden": 5643,
      "Ġallows": 5644,
      "ĠMassachus": 5645,
      "ceived": 5646,
      "Ġdistingu": 5647,
      "bound": 5648,
      "omic": 5649,
      "onym": 5650,
      "ĠBase": 5651,
      "Ġheaded": 5652,
      "Ġalternative": 5653,
      "Ġcalc": 5654,
      "ĠCur": 5655,
      "ĠMassachusetts": 5656,
      "Ġnick": 5657,
      "istol": 5658,
      "Ġjourney": 5659,
      "Ġdepth": 5660,
      "ĠPrem": 5661,
      "Ġmissing": 5662,
      "Ġcited": 5663,
      "ĠWalk": 5664,
      "Ġincreasingly": 5665,
      "ĠSus": 5666,
      "Ġturning": 5667,
      "Ġsun": 5668,
      "Ġapproached": 5669,
      "Ġstadium": 5670,
      "ĠAirport": 5671,
      "Ġaw": 5672,
      "Ġresponded": 5673,
      "ĠDream": 5674,
      "rets": 5675,
      "Ġplanning": 5676,
      "ĠSel": 5677,
      "osl": 5678,
      "ĠAbb": 5679,
      "see": 5680,
      "verse": 5681,
      "Ġknowledge": 5682,
      "otic": 5683,
      "ĠOb": 5684,
      "Ġeasily": 5685,
      "Ġoverl": 5686,
      "Ġwealth": 5687,
      "Ġexerc": 5688,
      "Ġescort": 5689,
      "Ġtall": 5690,
      "Ġfashion": 5691,
      "era": 5692,
      "ĠHan": 5693,
      "ĠKa": 5694,
      "Ġtrip": 5695,
      "enc": 5696,
      "Ġcells": 5697,
      "Ġcollected": 5698,
      "oir": 5699,
      "psons": 5700,
      "athan": 5701,
      "ĠAbout": 5702,
      "Ġsucceeded": 5703,
      "Ġconstitution": 5704,
      "Ġequal": 5705,
      "ules": 5706,
      "Ġrebu": 5707,
      "Ġexistence": 5708,
      "ĠImperial": 5709,
      "Ġintroduction": 5710,
      "Ġsafety": 5711,
      "rett": 5712,
      "ĠSimpsons": 5713,
      "ignment": 5714,
      "ilding": 5715,
      "Ġauth": 5716,
      "ĠLet": 5717,
      "ĠHart": 5718,
      "Ġoccas": 5719,
      "Ġlearned": 5720,
      "Ġsustained": 5721,
      "Ġoperating": 5722,
      "ĠPlan": 5723,
      "zen": 5724,
      "Ġmodels": 5725,
      "rin": 5726,
      "ipe": 5727,
      "ĠGra": 5728,
      "ĠInit": 5729,
      "Ġcarrying": 5730,
      "Ġpromotion": 5731,
      "Ġcolle": 5732,
      "apped": 5733,
      "ĠVietnam": 5734,
      "ii": 5735,
      "apes": 5736,
      "Ġexchange": 5737,
      "Ġbaseball": 5738,
      "ĠBall": 5739,
      "Ġrhy": 5740,
      "Ġlimit": 5741,
      "Ġshowing": 5742,
      "Ġyouth": 5743,
      "ĠSongs": 5744,
      "ĠRun": 5745,
      "Ġburied": 5746,
      "wise": 5747,
      "ĠLoc": 5748,
      "mitted": 5749,
      "ĠMaria": 5750,
      "Ġhumans": 5751,
      "Ġcredited": 5752,
      "Ġseems": 5753,
      "gal": 5754,
      "ns": 5755,
      "Ġdepend": 5756,
      "Ġpul": 5757,
      "ĠCape": 5758,
      "uration": 5759,
      "vis": 5760,
      "Ġflu": 5761,
      "Ġimprove": 5762,
      "come": 5763,
      "arp": 5764,
      "Ġfreeway": 5765,
      "Ġarranged": 5766,
      "Ġweakened": 5767,
      "ĠOttoman": 5768,
      "ĠRoy": 5769,
      "Ġimpl": 5770,
      "Ġdesigns": 5771,
      "iat": 5772,
      "ĠShortly": 5773,
      "Ġproducing": 5774,
      "ĠLeon": 5775,
      "Ġproceed": 5776,
      "Ġhydro": 5777,
      "Ġjoint": 5778,
      "ĠSydney": 5779,
      "Ġpaint": 5780,
      "Ġsettlement": 5781,
      "inary": 5782,
      "state": 5783,
      "Ġathlet": 5784,
      "Ġshel": 5785,
      "Ġlasted": 5786,
      "Ġearliest": 5787,
      "ĠPoland": 5788,
      "ĠMoore": 5789,
      "ĠKen": 5790,
      "Ġdescription": 5791,
      "Ġnote": 5792,
      "Ġscul": 5793,
      "Ġacres": 5794,
      "ĠAD": 5795,
      "Ġretained": 5796,
      "ĠMaryland": 5797,
      "Ġlandfall": 5798,
      "ĠWho": 5799,
      "eman": 5800,
      "put": 5801,
      "Ġvan": 5802,
      "ĠNaval": 5803,
      "ĠBal": 5804,
      "Ġlaws": 5805,
      "Ġbed": 5806,
      "Ġflat": 5807,
      "Ġappoint": 5808,
      "lee": 5809,
      "ĠMTV": 5810,
      "ĠPict": 5811,
      "ĠStew": 5812,
      "Ġgenre": 5813,
      "Ġreserve": 5814,
      "ato": 5815,
      "Ġreplace": 5816,
      "ivalent": 5817,
      "Ġinstall": 5818,
      "Ġprograms": 5819,
      "Ġassistant": 5820,
      "insula": 5821,
      "Ġconsc": 5822,
      "ources": 5823,
      "ivered": 5824,
      "Ġplayoff": 5825,
      "Ġstatement": 5826,
      "reets": 5827,
      "issance": 5828,
      "Ġapplied": 5829,
      "iling": 5830,
      "Ġentrance": 5831,
      "leton": 5832,
      "Ġviolence": 5833,
      "Ġcatch": 5834,
      "ĠMcG": 5835,
      "bell": 5836,
      "Ġcoastal": 5837,
      "Ġscientific": 5838,
      "Ġhits": 5839,
      "Ġconsequ": 5840,
      "Ġpatrol": 5841,
      "ader": 5842,
      "iform": 5843,
      "Ġtrust": 5844,
      "Ġvirt": 5845,
      "ĠRhodes": 5846,
      "Ġtick": 5847,
      "Ġneut": 5848,
      "ĠArts": 5849,
      "Ġmaintain": 5850,
      "othes": 5851,
      "osis": 5852,
      "Ġcandidate": 5853,
      "Ġexclus": 5854,
      "Ġbattery": 5855,
      "ĠJay": 5856,
      "Ġitems": 5857,
      "Ġsynt": 5858,
      "ĠTheatre": 5859,
      "Ġindicated": 5860,
      "Ġgradually": 5861,
      "Ġtowns": 5862,
      "tical": 5863,
      "avig": 5864,
      "Ġpolitics": 5865,
      "Ġstopped": 5866,
      "Ġdelivered": 5867,
      "Ġsections": 5868,
      "engers": 5869,
      "Ġcinem": 5870,
      "Ġdistribution": 5871,
      "Ġstream": 5872,
      "ĠBowl": 5873,
      "eler": 5874,
      "Ġfilled": 5875,
      "Ġindependence": 5876,
      "ĠConfeder": 5877,
      "vest": 5878,
      "ĠEdu": 5879,
      "Ġdetails": 5880,
      "math": 5881,
      "Ġtact": 5882,
      "lan": 5883,
      "iger": 5884,
      "Ġcombination": 5885,
      "Ġban": 5886,
      "onia": 5887,
      "eke": 5888,
      "Ġsupplies": 5889,
      "ĠMulder": 5890,
      "ĠRem": 5891,
      "Ġselect": 5892,
      "iro": 5893,
      "Ġways": 5894,
      "oard": 5895,
      "Ġparties": 5896,
      "ĠGordon": 5897,
      "Ġemp": 5898,
      "Ġengines": 5899,
      "Ġappeal": 5900,
      "Ġcamera": 5901,
      "ba": 5902,
      "ora": 5903,
      "Ġprisoners": 5904,
      "ĠÎ": 5905,
      "ads": 5906,
      "ĠPass": 5907,
      "ushing": 5908,
      "Ġbask": 5909,
      "time": 5910,
      "ĠFire": 5911,
      "Ġglass": 5912,
      "Ġaware": 5913,
      "ĠIG": 5914,
      "ira": 5915,
      "ĠStadium": 5916,
      "ĠSa": 5917,
      "Ġalle": 5918,
      "Ġacts": 5919,
      "emies": 5920,
      "Ġregister": 5921,
      "Ġcampus": 5922,
      "Ġextremely": 5923,
      "izations": 5924,
      "Ġentitled": 5925,
      "iversary": 5926,
      "ĠAri": 5927,
      "Ġsecure": 5928,
      "eral": 5929,
      "ĠBra": 5930,
      "rell": 5931,
      "Ġfinding": 5932,
      "Ġinvestigation": 5933,
      "Ġonline": 5934,
      "Ġdecade": 5935,
      "Ġty": 5936,
      "orporation": 5937,
      "ĠWell": 5938,
      "mb": 5939,
      "Ġevening": 5940,
      "Ġwinner": 5941,
      "idden": 5942,
      "Ġbought": 5943,
      "eless": 5944,
      "inois": 5945,
      "ĠStaff": 5946,
      "ĠConstant": 5947,
      "Ġthreatened": 5948,
      "Ġtal": 5949,
      "Ġadapted": 5950,
      "Ġsurvived": 5951,
      "Ġmessage": 5952,
      "Ġruled": 5953,
      "Ġwars": 5954,
      "Ġreligion": 5955,
      "Ġsomew": 5956,
      "Ġstudied": 5957,
      "Ġknots": 5958,
      "ella": 5959,
      "ĠUnivers": 5960,
      "ĠJustice": 5961,
      "Ġroutes": 5962,
      "ropol": 5963,
      "Ġwrites": 5964,
      "ĠJan": 5965,
      "Ġaddress": 5966,
      "Ġarc": 5967,
      "Ġregiment": 5968,
      "Ġproposal": 5969,
      "Ġdeaths": 5970,
      "ĠBos": 5971,
      "ashed": 5972,
      "ĠHere": 5973,
      "Ġconsum": 5974,
      "ĠAC": 5975,
      "Ġdownload": 5976,
      "ĠProf": 5977,
      "Ġrelief": 5978,
      "ĠInstead": 5979,
      "Ġfear": 5980,
      "Ġvoted": 5981,
      "ĠBand": 5982,
      "Ġreduce": 5983,
      "Ġmales": 5984,
      "aug": 5985,
      "Ġspecifically": 5986,
      "ĠAge": 5987,
      "icks": 5988,
      "aka": 5989,
      "ieval": 5990,
      "Ġrevolution": 5991,
      "Ġspons": 5992,
      "Ġcrown": 5993,
      "ansas": 5994,
      "Ġkingdom": 5995,
      "Ġtrou": 5996,
      "Ġphase": 5997,
      "Ġduty": 5998,
      "iques": 5999,
      "Ġportrayed": 6000,
      "ĠBir": 6001,
      "ĠSimon": 6002,
      "Ġcontroversy": 6003,
      "rec": 6004,
      "Ġrecalled": 6005,
      "ĠKim": 6006,
      "phoon": 6007,
      "Ã¸": 6008,
      "Ġfict": 6009,
      "Ġopera": 6010,
      "ighters": 6011,
      "Ġimplement": 6012,
      "Ġsoul": 6013,
      "ĠMemorial": 6014,
      "Ġcauses": 6015,
      "ĠGun": 6016,
      "ctions": 6017,
      "Ġeverything": 6018,
      "ĠTony": 6019,
      "Ġutil": 6020,
      "Ġstret": 6021,
      "Ġbottom": 6022,
      "Ġec": 6023,
      "Ġcapable": 6024,
      "Ġsell": 6025,
      "Ġbreeding": 6026,
      "Ġago": 6027,
      "ervative": 6028,
      "Ġconvin": 6029,
      "Ġreferences": 6030,
      "Ġimportance": 6031,
      "ĠAnth": 6032,
      "Ġtanks": 6033,
      "bourne": 6034,
      "Ġoffers": 6035,
      "Ġteacher": 6036,
      "ĠCop": 6037,
      "ĠSingles": 6038,
      "BN": 6039,
      "Ġentry": 6040,
      "Ġarrested": 6041,
      "va": 6042,
      "Ġmeters": 6043,
      "Ġble": 6044,
      "ĠCirc": 6045,
      "ician": 6046,
      "senal": 6047,
      "Ġsufficient": 6048,
      "Ġadmitted": 6049,
      "Ġclimb": 6050,
      "ĠDirector": 6051,
      "ĠNic": 6052,
      "aked": 6053,
      "Ġowner": 6054,
      "Ġcorner": 6055,
      "entially": 6056,
      "Ġnomination": 6057,
      "acter": 6058,
      "Ġinternal": 6059,
      "ĠAdams": 6060,
      "Ġcrossed": 6061,
      "uzz": 6062,
      "ĠNel": 6063,
      "ĠVe": 6064,
      "ĠAlan": 6065,
      "ĠVill": 6066,
      "Ġconcerns": 6067,
      "ĠDougl": 6068,
      "Ġproducts": 6069,
      "Ġinstalled": 6070,
      "ĠKong": 6071,
      "Ġconvoy": 6072,
      "chers": 6073,
      "ĠCritical": 6074,
      "ela": 6075,
      "Ġequipped": 6076,
      "anean": 6077,
      "ĠHamilton": 6078,
      "ipping": 6079,
      "adow": 6080,
      "ĠIGN": 6081,
      "ali": 6082,
      "Ġinvited": 6083,
      "ĠPit": 6084,
      "Ġpreced": 6085,
      "ĠPower": 6086,
      "ĠJane": 6087,
      "ĠJord": 6088,
      "ĠEngine": 6089,
      "Ġstarts": 6090,
      "Ġconqu": 6091,
      "Ġinterested": 6092,
      "Ġrecommended": 6093,
      "Ġcrime": 6094,
      "Ġones": 6095,
      "Ġprincipal": 6096,
      "Ġremainder": 6097,
      "wich": 6098,
      "ĠMoon": 6099,
      "ĠBeach": 6100,
      "Ġretreat": 6101,
      "Ġactual": 6102,
      "ructure": 6103,
      "Ġmort": 6104,
      "Ġtell": 6105,
      "ĠMcK": 6106,
      "ĠYour": 6107,
      "Ġshut": 6108,
      "Ġmedal": 6109,
      "espread": 6110,
      "Ġjump": 6111,
      "Ġuns": 6112,
      "ĠKennedy": 6113,
      "Ġautom": 6114,
      "ĠOk": 6115,
      "ĠUTC": 6116,
      "ĠPlot": 6117,
      "Ġcharged": 6118,
      "Ġacid": 6119,
      "Ġapart": 6120,
      "Ġconsisting": 6121,
      "Ġstock": 6122,
      "Ġobjects": 6123,
      "ĠForest": 6124,
      "Ġfunds": 6125,
      "ĠFA": 6126,
      "Ġdoor": 6127,
      "Ġunl": 6128,
      "Ġsolid": 6129,
      "hat": 6130,
      "ĠVII": 6131,
      "Ġprice": 6132,
      "ĠEric": 6133,
      "Ġcomposer": 6134,
      "ĠIndones": 6135,
      "Ġpromote": 6136,
      "Ġbor": 6137,
      "Ġalt": 6138,
      "rete": 6139,
      "Ġdates": 6140,
      "ĠAdam": 6141,
      "Ġfemales": 6142,
      "Ġmilit": 6143,
      "ĠGram": 6144,
      "Ġfly": 6145,
      "Ġpage": 6146,
      "ĠAlf": 6147,
      "Ġmun": 6148,
      "ilation": 6149,
      "Ġconsiderable": 6150,
      "Ġham": 6151,
      "BS": 6152,
      "ses": 6153,
      "Ġvent": 6154,
      "ĠDeath": 6155,
      "ĠNBA": 6156,
      "ĠVideo": 6157,
      "Ġsnow": 6158,
      "ĠFound": 6159,
      "erted": 6160,
      "met": 6161,
      "entions": 6162,
      "ĠToday": 6163,
      "Ġnest": 6164,
      "ĠId": 6165,
      "Ġhotel": 6166,
      "ĠAst": 6167,
      "Ġgrounds": 6168,
      "Ġextension": 6169,
      "Ġtypical": 6170,
      "Ġduties": 6171,
      "ĠCart": 6172,
      "ĠNether": 6173,
      "ĠMilitary": 6174,
      "ĠColl": 6175,
      "Ġintegr": 6176,
      "Ġsomeone": 6177,
      "Ġcorrect": 6178,
      "Ġgall": 6179,
      "Ġrural": 6180,
      "Ġeighth": 6181,
      "ĠTransport": 6182,
      "ĠProg": 6183,
      "ĠHoward": 6184,
      "Ġevolution": 6185,
      "Ġdriving": 6186,
      "ĠSunday": 6187,
      "Ġpenal": 6188,
      "ĠIndiana": 6189,
      "ĠProject": 6190,
      "Ġblow": 6191,
      "Ġdecades": 6192,
      "vements": 6193,
      "Ġimages": 6194,
      "Ġidentity": 6195,
      "Ġreading": 6196,
      "Ġzone": 6197,
      "Ġlane": 6198,
      "ĠFreder": 6199,
      "ati": 6200,
      "Ġremix": 6201,
      "Ġoccurs": 6202,
      "ĠNorwe": 6203,
      "ĠScully": 6204,
      "ĠTurk": 6205,
      "Ġpermanent": 6206,
      "ĠOd": 6207,
      "after": 6208,
      "osite": 6209,
      "Ġsole": 6210,
      "Ġbrigade": 6211,
      "Ġchallenge": 6212,
      "Ġmanner": 6213,
      "ĠAk": 6214,
      "Ġfrag": 6215,
      "ĠFive": 6216,
      "Ġaspects": 6217,
      "Ġskin": 6218,
      "Ġdated": 6219,
      "regon": 6220,
      "ĠHitler": 6221,
      "Ġspin": 6222,
      "Ġvolcan": 6223,
      "ĠFeder": 6224,
      "Ġru": 6225,
      "Ġnoting": 6226,
      "Ġsubs": 6227,
      "Ġposted": 6228,
      "Ġslowly": 6229,
      "ĠHou": 6230,
      "ĠPortug": 6231,
      "Ġrestaur": 6232,
      "Ġcolour": 6233,
      "Ġsupporters": 6234,
      "ĠScient": 6235,
      "ĠRyan": 6236,
      "aware": 6237,
      "ĠMarc": 6238,
      "ensus": 6239,
      "hetic": 6240,
      "Ġclean": 6241,
      "wick": 6242,
      "Ġinvolving": 6243,
      "Ġdescribing": 6244,
      "cknow": 6245,
      "ĠWWE": 6246,
      "ĠBry": 6247,
      "Ġspeak": 6248,
      "ĠResearch": 6249,
      "Ġsculpt": 6250,
      "ĠCult": 6251,
      "ĠGen": 6252,
      "Ġenemies": 6253,
      "Ġentering": 6254,
      "Ġvessels": 6255,
      "ĠAssembly": 6256,
      "veland": 6257,
      "ivals": 6258,
      "Ġdepartment": 6259,
      "ĠScience": 6260,
      "Ġequivalent": 6261,
      "osaurus": 6262,
      "Ġdress": 6263,
      "ĠConstitution": 6264,
      "Ġobtained": 6265,
      "ĠMountain": 6266,
      "ĠBol": 6267,
      "ĠPear": 6268,
      "iley": 6269,
      "Ġclasses": 6270,
      "ĠRose": 6271,
      "Ġdebate": 6272,
      "BI": 6273,
      "Ġsettled": 6274,
      "Ġaccur": 6275,
      "ĠMagazine": 6276,
      "Ġbasic": 6277,
      "Ġaer": 6278,
      "Ġparliament": 6279,
      "Ġpurchase": 6280,
      "ĠHug": 6281,
      "ĠMedit": 6282,
      "ĠArgent": 6283,
      "Ġdecor": 6284,
      "Ġsongwrit": 6285,
      "ĠRolling": 6286,
      "Ġdecline": 6287,
      "risis": 6288,
      "orney": 6289,
      "Ġarmor": 6290,
      "Ġoldest": 6291,
      "Ġwidespread": 6292,
      "ĠOregon": 6293,
      "Ġincome": 6294,
      "Ġconcerned": 6295,
      "Ġdin": 6296,
      "agues": 6297,
      "Ġdeparture": 6298,
      "ĠGill": 6299,
      "ĠCleveland": 6300,
      "Ġattached": 6301,
      "Ġfaith": 6302,
      "Ġconnection": 6303,
      "Ġrecognition": 6304,
      "ĠSpace": 6305,
      "ĠIllinois": 6306,
      "Ġaccused": 6307,
      "Ġformal": 6308,
      "ĠThroughout": 6309,
      "ĠDouglas": 6310,
      "heastern": 6311,
      "Ġmemorial": 6312,
      "ĠLenn": 6313,
      "erto": 6314,
      "Ġmode": 6315,
      "Ġcertified": 6316,
      "hus": 6317,
      "Ġfolk": 6318,
      "Ġsequel": 6319,
      "ĠHo": 6320,
      "Ġouter": 6321,
      "bar": 6322,
      "hr": 6323,
      "iller": 6324,
      "ĠWeekly": 6325,
      "Ġdeleg": 6326,
      "Ġderived": 6327,
      "Ġcommitted": 6328,
      "ĠRele": 6329,
      "cation": 6330,
      "hered": 6331,
      "ĠAndy": 6332,
      "ĠMediterr": 6333,
      "Ġll": 6334,
      "Ġassumed": 6335,
      "aki": 6336,
      "ko": 6337,
      "Ġacknow": 6338,
      "Ġwearing": 6339,
      "Ġswim": 6340,
      "ĠStanley": 6341,
      "Ġdisturb": 6342,
      "ĠâĢĿ": 6343,
      "ĠJordan": 6344,
      "Ġtele": 6345,
      "Ġsegment": 6346,
      "aired": 6347,
      "Ġacclaim": 6348,
      "ekend": 6349,
      "ĠDal": 6350,
      "ĠArsenal": 6351,
      "Ġhosted": 6352,
      "nic": 6353,
      "ĠPier": 6354,
      "Ġterminus": 6355,
      "western": 6356,
      "Ġcharges": 6357,
      "Ġpopulations": 6358,
      "Ġreturns": 6359,
      "Ġvalley": 6360,
      "ĠRoger": 6361,
      "ubb": 6362,
      "Ġtemple": 6363,
      "Ġdenied": 6364,
      "ĠNow": 6365,
      "ommod": 6366,
      "ĠKevin": 6367,
      "ĠThird": 6368,
      "Ġsessions": 6369,
      "Ġfine": 6370,
      "icit": 6371,
      "ĠStand": 6372,
      "ĠBeatles": 6373,
      "ĠDisc": 6374,
      "ĠRecording": 6375,
      "Ġtorn": 6376,
      "ĠTreat": 6377,
      "idges": 6378,
      "Ġchampion": 6379,
      "agonist": 6380,
      "Ġfoss": 6381,
      "Ġregional": 6382,
      "ĠFamily": 6383,
      "AT": 6384,
      "Ġliterary": 6385,
      "Ġthousands": 6386,
      "ĠIra": 6387,
      "Ġtransition": 6388,
      "ĠMediterranean": 6389,
      "ĠTro": 6390,
      "Ġdemand": 6391,
      "ĠISBN": 6392,
      "ĠNorwegian": 6393,
      "ras": 6394,
      "Ġsupposed": 6395,
      "alog": 6396,
      "ĠBruce": 6397,
      "ĠTenn": 6398,
      "Ġflo": 6399,
      "ĠBristol": 6400,
      "Ġcong": 6401,
      "ĠMedia": 6402,
      "bro": 6403,
      "iously": 6404,
      "ĠLow": 6405,
      "ĠâĢľ": 6406,
      "Ġdowntown": 6407,
      "ooth": 6408,
      "aret": 6409,
      "Ġcanc": 6410,
      "Ġwickets": 6411,
      "ione": 6412,
      "Ġwarm": 6413,
      "Ġintelligence": 6414,
      "Ġshots": 6415,
      "heme": 6416,
      "ĠKat": 6417,
      "Ġpassengers": 6418,
      "Ġsailed": 6419,
      "Ġstrongly": 6420,
      "Ġhang": 6421,
      "Ġcirculation": 6422,
      "ĠSpe": 6423,
      "ĠSky": 6424,
      "Ġpossibility": 6425,
      "ÅĤ": 6426,
      "Ġgeneration": 6427,
      "hedral": 6428,
      "ĠFederal": 6429,
      "Ġanimated": 6430,
      "Ġfreedom": 6431,
      "Ġhope": 6432,
      "achel": 6433,
      "Ġcircum": 6434,
      "ĠPhilip": 6435,
      "reck": 6436,
      "Ġthirty": 6437,
      "Ġfictional": 6438,
      "emed": 6439,
      "ĠTar": 6440,
      "ĠAnton": 6441,
      "Ġansw": 6442,
      "Ġreplacement": 6443,
      "Ġbehavior": 6444,
      "ophy": 6445,
      "ĠChannel": 6446,
      "Ġhill": 6447,
      "Ġrich": 6448,
      "Ġcommanded": 6449,
      "ĠMexican": 6450,
      "Ġminister": 6451,
      "Ġcommit": 6452,
      "Ġassistance": 6453,
      "ĠRain": 6454,
      "Ġmissions": 6455,
      "Ġbegun": 6456,
      "ĠÃĹ": 6457,
      "Ġcloud": 6458,
      "Ġcriminal": 6459,
      "Ġmoves": 6460,
      "Ġmissed": 6461,
      "Ġdestruction": 6462,
      "Ġcrash": 6463,
      "ĠBush": 6464,
      "Ġpoly": 6465,
      "Ġbrain": 6466,
      "Ġexception": 6467,
      "ĠSav": 6468,
      "atinum": 6469,
      "Ġhighlight": 6470,
      "Ġcosts": 6471,
      "Ġtied": 6472,
      "Ġfruit": 6473,
      "ĠKorea": 6474,
      "Ġbringing": 6475,
      "Ġhip": 6476,
      "iva": 6477,
      "fl": 6478,
      "ĠWithin": 6479,
      "Ġvolunte": 6480,
      "Ġalleged": 6481,
      "Ġintention": 6482,
      "Ġfinishing": 6483,
      "ategy": 6484,
      "Ġprotest": 6485,
      "Ġspeaking": 6486,
      "ĠColor": 6487,
      "rations": 6488,
      "Ġfeeling": 6489,
      "aire": 6490,
      "Ġunusual": 6491,
      "ĠAdditionally": 6492,
      "ĠFame": 6493,
      "elsh": 6494,
      "ĠMaster": 6495,
      "Ġdemol": 6496,
      "Ġrecovered": 6497,
      "Ġincorporated": 6498,
      "ĠLisa": 6499,
      "Ġintercept": 6500,
      "Ġstayed": 6501,
      "Ġproperties": 6502,
      "Ġattributed": 6503,
      "rophy": 6504,
      "uro": 6505,
      "Ġserves": 6506,
      "Ġbreaking": 6507,
      "Ġopposite": 6508,
      "Ġstrateg": 6509,
      "Ġemerged": 6510,
      "Ġsons": 6511,
      "ĠDig": 6512,
      "ĠRow": 6513,
      "Ġshop": 6514,
      "Ġdriven": 6515,
      "Ġtheatre": 6516,
      "ĠWeb": 6517,
      "ĠMorris": 6518,
      "Ġatmosphere": 6519,
      "ĠTelevision": 6520,
      "onto": 6521,
      "Ġpremiere": 6522,
      "Ġchorus": 6523,
      "Ġoccasionally": 6524,
      "othing": 6525,
      "Ġready": 6526,
      "ĠNorman": 6527,
      "ĠConc": 6528,
      "Ġclassic": 6529,
      "ĠPhill": 6530,
      "ĠPrior": 6531,
      "ĠInt": 6532,
      "Ġregularly": 6533,
      "ĠRobinson": 6534,
      "borne": 6535,
      "Ġcourts": 6536,
      "oral": 6537,
      "organ": 6538,
      "Ġdipl": 6539,
      "Ġcavalry": 6540,
      "Ġdang": 6541,
      "Ġeffectively": 6542,
      "Ġestablishment": 6543,
      "Ġspok": 6544,
      "pe": 6545,
      "Ġmethods": 6546,
      "riers": 6547,
      "ja": 6548,
      "enses": 6549,
      "Ġprey": 6550,
      "Ġvary": 6551,
      "Ġsounds": 6552,
      "olec": 6553,
      "Ġcompletion": 6554,
      "mes": 6555,
      "ĠAround": 6556,
      "Ġresponsibility": 6557,
      "ĠHawai": 6558,
      "ĠSimilar": 6559,
      "pective": 6560,
      "Ġmaterials": 6561,
      "ĠConstruction": 6562,
      "ĠUnlike": 6563,
      "Ġshore": 6564,
      "wan": 6565,
      "Ġdivers": 6566,
      "ĠIron": 6567,
      "ĠPur": 6568,
      "ĠFI": 6569,
      "Ġsurviving": 6570,
      "ĠMorgan": 6571,
      "Ġdream": 6572,
      "Ġattracted": 6573,
      "Ġprovince": 6574,
      "Ġfields": 6575,
      "Ġdissip": 6576,
      "ĠFinn": 6577,
      "Ġwarning": 6578,
      "ĠTemple": 6579,
      "Ġentertain": 6580,
      "ĠNelson": 6581,
      "Ġheat": 6582,
      "Ġdivisions": 6583,
      "Ġaccommod": 6584,
      "Ġpersu": 6585,
      "ĠPatrick": 6586,
      "Ġglobal": 6587,
      "sole": 6588,
      "Ġclassified": 6589,
      "Ġtechnical": 6590,
      "ĠFrancis": 6591,
      "Ġdifferences": 6592,
      "Ġinterpret": 6593,
      "Ġquant": 6594,
      "ĠUSA": 6595,
      "ĠSweden": 6596,
      "ĠPremier": 6597,
      "thm": 6598,
      "oslav": 6599,
      "aza": 6600,
      "Ġpassage": 6601,
      "Ġcruiser": 6602,
      "ĠBah": 6603,
      "ĠHa": 6604,
      "ece": 6605,
      "nold": 6606,
      "ompl": 6607,
      "lets": 6608,
      "osh": 6609,
      "ĠCas": 6610,
      "abled": 6611,
      "Ġaboard": 6612,
      "ĠLanc": 6613,
      "Ġclubs": 6614,
      "Ġneither": 6615,
      "isms": 6616,
      "ĠFord": 6617,
      "Ġassociation": 6618,
      "Ġstood": 6619,
      "ĠWelsh": 6620,
      "Ġratings": 6621,
      "Ġmo": 6622,
      "Ġmusicians": 6623,
      "oz": 6624,
      "inton": 6625,
      "Ġrooms": 6626,
      "Ġic": 6627,
      "ĠAz": 6628,
      "Ġnone": 6629,
      "Ġeleven": 6630,
      "Ġreinforce": 6631,
      "lig": 6632,
      "ĠNich": 6633,
      "nings": 6634,
      "ĠMit": 6635,
      "ĠBudd": 6636,
      "Ġeru": 6637,
      "Ġshif": 6638,
      "oyd": 6639,
      "Ġoutbreak": 6640,
      "Ġcheck": 6641,
      "Ġseparated": 6642,
      "ĠNations": 6643,
      "Ġancest": 6644,
      "ĠSab": 6645,
      "ĠOw": 6646,
      "Ġdesire": 6647,
      "Ġclimate": 6648,
      "ĠToronto": 6649,
      "ĠAnne": 6650,
      "Ġvotes": 6651,
      "uty": 6652,
      "nce": 6653,
      "umin": 6654,
      "Ġbattleships": 6655,
      "weight": 6656,
      "Ġclassification": 6657,
      "Ġseemed": 6658,
      "real": 6659,
      "Ġvehicle": 6660,
      "Ġpredecess": 6661,
      "ĠCab": 6662,
      "teenth": 6663,
      "Ġmedic": 6664,
      "Ġpicture": 6665,
      "ĠTechn": 6666,
      "Ġchemical": 6667,
      "ĠByzantine": 6668,
      "Ġmovements": 6669,
      "Ġreality": 6670,
      "Ġmemory": 6671,
      "ĠCE": 6672,
      "ĠAllen": 6673,
      "Ġhoped": 6674,
      "Ġrequested": 6675,
      "Ġbasketball": 6676,
      "ĠMatthew": 6677,
      "Ġrose": 6678,
      "ĠProfess": 6679,
      "char": 6680,
      "ĠJournal": 6681,
      "ewhere": 6682,
      "Ġraise": 6683,
      "ĠNetherlands": 6684,
      "isf": 6685,
      "Ġhistorians": 6686,
      "Ġsam": 6687,
      "oli": 6688,
      "Ġdifficulty": 6689,
      "pping": 6690,
      "Ġrestored": 6691,
      "ĠEvery": 6692,
      "ds": 6693,
      "omot": 6694,
      "ca": 6695,
      "Ġille": 6696,
      "Ġpure": 6697,
      "agle": 6698,
      "Ġprogramme": 6699,
      "ovic": 6700,
      "Ġcommunities": 6701,
      "Ġexpect": 6702,
      "ĠNar": 6703,
      "Ġremember": 6704,
      "ĠMarine": 6705,
      "ĠIraq": 6706,
      "ĠJews": 6707,
      "Ġdelayed": 6708,
      "ĠDean": 6709,
      "ĠRaj": 6710,
      "Ġteen": 6711,
      "ĠDog": 6712,
      "Ġanniversary": 6713,
      "Ġdiscovery": 6714,
      "Ġgreatly": 6715,
      "utt": 6716,
      "Ġrelative": 6717,
      "Ġflank": 6718,
      "Ġsqu": 6719,
      "Ġinspiration": 6720,
      "Ġinjuries": 6721,
      "ĠAgain": 6722,
      "ĠUlt": 6723,
      "Ġkid": 6724,
      "Ġotherwise": 6725,
      "ĠOpen": 6726,
      "ĠRu": 6727,
      "ĠDE": 6728,
      "ĠUSS": 6729,
      "ĠDesign": 6730,
      "Ġvide": 6731,
      "oh": 6732,
      "ĠHell": 6733,
      "Ġaccounts": 6734,
      "Ġneighbor": 6735,
      "Ġfunding": 6736,
      "Ġpraise": 6737,
      "Ġsurrounded": 6738,
      "ĠJacob": 6739,
      "Ġfal": 6740,
      "ĠPow": 6741,
      "Ġspoke": 6742,
      "Ġpenalty": 6743,
      "Ġneeds": 6744,
      "Ġclaiming": 6745,
      "Ġdepict": 6746,
      "Ġmassive": 6747,
      "Ġinner": 6748,
      "Ġbatting": 6749,
      "Ġpartner": 6750,
      "Ġtries": 6751,
      "ĠWhe": 6752,
      "ureau": 6753,
      "ĠPA": 6754,
      "ĠThomp": 6755,
      "Ġsuit": 6756,
      "Ġcrosses": 6757,
      "Ġdens": 6758,
      "Ġweapon": 6759,
      "Ġstrategy": 6760,
      "CA": 6761,
      "Ġassemb": 6762,
      "Ġforming": 6763,
      "anny": 6764,
      "Ġcrop": 6765,
      "Ġdie": 6766,
      "burn": 6767,
      "ĠBishop": 6768,
      "ĠSax": 6769,
      "Ġwrong": 6770,
      "Ġdocumentary": 6771,
      "ĠDer": 6772,
      "Ġlegend": 6773,
      "sex": 6774,
      "Ġastron": 6775,
      "yard": 6776,
      "Ġinvolvement": 6777,
      "don": 6778,
      "ĠDomin": 6779,
      "Ġfled": 6780,
      "Ġconte": 6781,
      "Ġaccompl": 6782,
      "Ġarchitecture": 6783,
      "Ġstands": 6784,
      "ache": 6785,
      "Ġworst": 6786,
      "Ġpremiered": 6787,
      "gets": 6788,
      "Ġconsp": 6789,
      "Ġtemporary": 6790,
      "ĠThompson": 6791,
      "ĠAth": 6792,
      "ĠCa": 6793,
      "abil": 6794,
      "ĠMarg": 6795,
      "Ġrecru": 6796,
      "ĠCroatian": 6797,
      "irt": 6798,
      "RA": 6799,
      "Ġremn": 6800,
      "Ġdismissed": 6801,
      "ĠSports": 6802,
      "Ġdetermine": 6803,
      "Ġgirls": 6804,
      "Ġtra": 6805,
      "Ġbombard": 6806,
      "Ġgal": 6807,
      "ĠRussell": 6808,
      "Ġplane": 6809,
      "ici": 6810,
      "Ġsale": 6811,
      "ĠBou": 6812,
      "uther": 6813,
      "ester": 6814,
      "Ġweekend": 6815,
      "ĠArmen": 6816,
      "ami": 6817,
      "ĠGlob": 6818,
      "Ġcategory": 6819,
      "Ġhear": 6820,
      "ĠKelly": 6821,
      "Ġconvinced": 6822,
      "ĠDick": 6823,
      "ĠLast": 6824,
      "Ġensure": 6825,
      "Ġadaptation": 6826,
      "Ġash": 6827,
      "ĠCentre": 6828,
      "Ġlat": 6829,
      "Ġrot": 6830,
      "Ġresources": 6831,
      "Ġha": 6832,
      "Ġreserv": 6833,
      "Ġinterests": 6834,
      "going": 6835,
      "ĠOak": 6836,
      "ĠIslam": 6837,
      "Ġsomewhat": 6838,
      "Ġsight": 6839,
      "ĠNFL": 6840,
      "ĠPuerto": 6841,
      "inder": 6842,
      "Ġlibrary": 6843,
      "Ġshr": 6844,
      "ĠHeart": 6845,
      "ĠHoly": 6846,
      "Ġscheme": 6847,
      "Ġimmediate": 6848,
      "oster": 6849,
      "ĠCarter": 6850,
      "Ġmedieval": 6851,
      "Ġcolonial": 6852,
      "Ġdispl": 6853,
      "ĠHop": 6854,
      "Ġstreets": 6855,
      "ĠFront": 6856,
      "ĠHend": 6857,
      "Ġpresidential": 6858,
      "Ġfalling": 6859,
      "Ġabsor": 6860,
      "Ġstarred": 6861,
      "ĠTrib": 6862,
      "Ġcul": 6863,
      "ĠRick": 6864,
      "Ġacademic": 6865,
      "Ġray": 6866,
      "Ġfighter": 6867,
      "Ġraces": 6868,
      "ĠAlong": 6869,
      "Ġtechniques": 6870,
      "ĠModern": 6871,
      "Ġclassical": 6872,
      "Ġsurviv": 6873,
      "agre": 6874,
      "body": 6875,
      "Ġcarbon": 6876,
      "ĠBrother": 6877,
      "Ġninth": 6878,
      "Ġappropri": 6879,
      "ĠCooper": 6880,
      "Ġthrone": 6881,
      "onds": 6882,
      "Ġscrap": 6883,
      "Ġmeets": 6884,
      "Ġeggs": 6885,
      "Ġhal": 6886,
      "ĠNiel": 6887,
      "Ġadults": 6888,
      "ĠNetwork": 6889,
      "ĠMars": 6890,
      "Ġbright": 6891,
      "ige": 6892,
      "Ġcommemor": 6893,
      "Ġpassenger": 6894,
      "Ġloyal": 6895,
      "wealth": 6896,
      "Ġow": 6897,
      "Ġfitted": 6898,
      "ĠWinter": 6899,
      "itzer": 6900,
      "ĠHungarian": 6901,
      "Ġsubmarine": 6902,
      "Ġori": 6903,
      "ĠSn": 6904,
      "Ġphotograph": 6905,
      "Ġlake": 6906,
      "bec": 6907,
      "ĠWright": 6908,
      "Ġreviewer": 6909,
      "ran": 6910,
      "Ġpin": 6911,
      "ĠEle": 6912,
      "ĠAI": 6913,
      "dden": 6914,
      "Ġabsence": 6915,
      "ĠParker": 6916,
      "Ġsuperior": 6917,
      "ĠJam": 6918,
      "Ġseeing": 6919,
      "Ġfavorite": 6920,
      "yo": 6921,
      "icide": 6922,
      "ĠThus": 6923,
      "ĠFree": 6924,
      "Ġinterior": 6925,
      "Ġrenew": 6926,
      "Ġengineer": 6927,
      "edding": 6928,
      "night": 6929,
      "Ġsed": 6930,
      "Ġattacking": 6931,
      "Ġelse": 6932,
      "ĠBatman": 6933,
      "osure": 6934,
      "Ġairport": 6935,
      "ĠBang": 6936,
      "Ġalien": 6937,
      "Ġdeemed": 6938,
      "ĠNC": 6939,
      "ĠLabor": 6940,
      "ĠHarris": 6941,
      "Ġvisible": 6942,
      "Ġpartn": 6943,
      "ronze": 6944,
      "Ġdating": 6945,
      "Ġappearing": 6946,
      "Ġsynthes": 6947,
      "Ġconclusion": 6948,
      "ĠEst": 6949,
      "Ġconvection": 6950,
      "ĠGard": 6951,
      "Ġlanded": 6952,
      "Ġromantic": 6953,
      "Ġafterwards": 6954,
      "Ġcharacteristics": 6955,
      "Ġleads": 6956,
      "ĠWy": 6957,
      "Ġelections": 6958,
      "Ġdub": 6959,
      "acent": 6960,
      "Ġoperate": 6961,
      "Ġfacility": 6962,
      "lyn": 6963,
      "Ġcolony": 6964,
      "ĠLibrary": 6965,
      "Ġencouraged": 6966,
      "ĠDNA": 6967,
      "Ġretirement": 6968,
      "Ġlies": 6969,
      "Ġeveryone": 6970,
      "Ġtemperatures": 6971,
      "Ġsuffering": 6972,
      "ĠDor": 6973,
      "ogen": 6974,
      "Ġcredit": 6975,
      "ĠMurray": 6976,
      "ĠTok": 6977,
      "ĠPak": 6978,
      "Ġmodified": 6979,
      "Ġcontroversial": 6980,
      "Ġlegislation": 6981,
      "Ġmunicip": 6982,
      "Ġholds": 6983,
      "ĠLate": 6984,
      "Ġpainted": 6985,
      "asure": 6986,
      "ĠEducation": 6987,
      "Ġdoct": 6988,
      "Ġgone": 6989,
      "using": 6990,
      "ĠNob": 6991,
      "ossible": 6992,
      "Ġattempting": 6993,
      "Ġbelieves": 6994,
      "ĠKnight": 6995,
      "vens": 6996,
      "Ġx": 6997,
      "urches": 6998,
      "Ġwings": 6999,
      "ĠBerlin": 7000,
      "Ġdistributed": 7001,
      "ĠâĤ": 7002,
      "ĠPolice": 7003,
      "ĠHouston": 7004,
      "ito": 7005,
      "Ġrescue": 7006,
      "Ġcode": 7007,
      "Ġdominated": 7008,
      "roit": 7009,
      "ivan": 7010,
      "Ġsecured": 7011,
      "ixon": 7012,
      "Ġjudge": 7013,
      "ĠCommonwealth": 7014,
      "Ġauthors": 7015,
      "ĠGri": 7016,
      "Ġcontinuing": 7017,
      "ĠCommander": 7018,
      "Ġdepicted": 7019,
      "Ġlooked": 7020,
      "ĠRAAF": 7021,
      "ĠPalace": 7022,
      "Ġstandards": 7023,
      "Ġbattleship": 7024,
      "Ġanyone": 7025,
      "ĠSimp": 7026,
      "Ġcancer": 7027,
      "ĠDur": 7028,
      "Ġhabitat": 7029,
      "Ġmonarch": 7030,
      "Ġlongest": 7031,
      "aser": 7032,
      "ĠAdvent": 7033,
      "Ġbuy": 7034,
      "ĠHospital": 7035,
      "Ġtrained": 7036,
      "arsh": 7037,
      "ĠSanta": 7038,
      "eor": 7039,
      "Ġpound": 7040,
      "Ġunsuccessful": 7041,
      "Ġarchae": 7042,
      "ĠGh": 7043,
      "Ġrailroad": 7044,
      "scape": 7045,
      "ker": 7046,
      "ĠStory": 7047,
      "coming": 7048,
      "Ġgraphics": 7049,
      "Ġrum": 7050,
      "Ġbiggest": 7051,
      "Ġgrass": 7052,
      "oen": 7053,
      "ĠSwedish": 7054,
      "Ġchairman": 7055,
      "apse": 7056,
      "ĠIndians": 7057,
      "Ġarrangement": 7058,
      "ĠRoberts": 7059,
      "Ġwins": 7060,
      "Ġunion": 7061,
      "chang": 7062,
      "aska": 7063,
      "eline": 7064,
      "emet": 7065,
      "Ġsudden": 7066,
      "ĠYug": 7067,
      "anth": 7068,
      "ĠCry": 7069,
      "ĠSimpson": 7070,
      "Ġsan": 7071,
      "ĠCook": 7072,
      "ĠUt": 7073,
      "ultane": 7074,
      "Ġcarrier": 7075,
      "Ġneck": 7076,
      "Ġod": 7077,
      "Ġacknowled": 7078,
      "igration": 7079,
      "Ġnickn": 7080,
      "rait": 7081,
      "ĠJesus": 7082,
      "ĠGet": 7083,
      "ais": 7084,
      "eenth": 7085,
      "apping": 7086,
      "tic": 7087,
      "Ġinformed": 7088,
      "Ġmeasures": 7089,
      "Ġmap": 7090,
      "ĠCorporation": 7091,
      "ĠObs": 7092,
      "Ġrepresenting": 7093,
      "encies": 7094,
      "emetery": 7095,
      "Ġreleases": 7096,
      "Ġbelt": 7097,
      "inals": 7098,
      "Ġdeployed": 7099,
      "Ġachieve": 7100,
      "Ġgarrison": 7101,
      "atically": 7102,
      "ture": 7103,
      "ĠWarner": 7104,
      "Ġalleg": 7105,
      "ĠEy": 7106,
      "Ġcloser": 7107,
      "ĠJason": 7108,
      "Ġformerly": 7109,
      "Ġsees": 7110,
      "Ġgenerated": 7111,
      "book": 7112,
      "Ġhistoric": 7113,
      "ĠSilver": 7114,
      "ĠYugoslav": 7115,
      "ĠNBC": 7116,
      "Ġemergency": 7117,
      "ternal": 7118,
      "Ġgrade": 7119,
      "Ġconvention": 7120,
      "Ġstyles": 7121,
      "uster": 7122,
      "tenance": 7123,
      "ĠSocial": 7124,
      "ĠAnthony": 7125,
      "Ġbats": 7126,
      "ĠBa": 7127,
      "Ġassass": 7128,
      "Ġgets": 7129,
      "Ġsiege": 7130,
      "Ġtrials": 7131,
      "Ġquestions": 7132,
      "fare": 7133,
      "Ġbon": 7134,
      "Ġmoderate": 7135,
      "Ġfestival": 7136,
      "Ġinfluential": 7137,
      "Ġveter": 7138,
      "Ġmolec": 7139,
      "ĠMort": 7140,
      "opes": 7141,
      "Ġemotional": 7142,
      "Ġowners": 7143,
      "Ġcycle": 7144,
      "ĠDetroit": 7145,
      "ĠCroatia": 7146,
      "hire": 7147,
      "Ġnovels": 7148,
      "ĠRAF": 7149,
      "ĠYan": 7150,
      "ĠCru": 7151,
      "Ġsuccessor": 7152,
      "Ġinfluences": 7153,
      "Ġnarrative": 7154,
      "ĠLyn": 7155,
      "ĠSupp": 7156,
      "olph": 7157,
      "ĠGaga": 7158,
      "Ġdefended": 7159,
      "Ġbab": 7160,
      "ĠMerc": 7161,
      "Ġjournalist": 7162,
      "Ġexcess": 7163,
      "eing": 7164,
      "Ġstead": 7165,
      "ĠTrack": 7166,
      "Ġchildhood": 7167,
      "Ġexperiences": 7168,
      "Ġapparently": 7169,
      "Ġthin": 7170,
      "Ġdiscussed": 7171,
      "ĠChamber": 7172,
      "Ġlegs": 7173,
      "otype": 7174,
      "Ġvictims": 7175,
      "Ġeat": 7176,
      "Ġalco": 7177,
      "Ġconstant": 7178,
      "ĠAuthor": 7179,
      "har": 7180,
      "iography": 7181,
      "Ġpregn": 7182,
      "aws": 7183,
      "Ġmathem": 7184,
      "Ġtreated": 7185,
      "ĠBelg": 7186,
      "ĠGilbert": 7187,
      "Ġveget": 7188,
      "Ġenvironmental": 7189,
      "owa": 7190,
      "aints": 7191,
      "Ġinstruments": 7192,
      "Ġridge": 7193,
      "Ġrender": 7194,
      "Ġgiant": 7195,
      "Ġconcur": 7196,
      "hess": 7197,
      "Ġexecuted": 7198,
      "ĠSpears": 7199,
      "Ġster": 7200,
      "Ġdetail": 7201,
      "fire": 7202,
      "ĠPrincess": 7203,
      "Ġenters": 7204,
      "Ġdiplom": 7205,
      "ĠSull": 7206,
      "ĠAsian": 7207,
      "Ġoffices": 7208,
      "Ġwooden": 7209,
      "Ġcoins": 7210,
      "noon": 7211,
      "arked": 7212,
      "Ġdepos": 7213,
      "ĠClinton": 7214,
      "ĠMelbourne": 7215,
      "Ġfactors": 7216,
      "Ġmine": 7217,
      "ĠHans": 7218,
      "achment": 7219,
      "ji": 7220,
      "Ġhunting": 7221,
      "imore": 7222,
      "Ġbear": 7223,
      "ĠVice": 7224,
      "ĠSomers": 7225,
      "usted": 7226,
      "ĠNielsen": 7227,
      "Ġmaint": 7228,
      "agu": 7229,
      "aft": 7230,
      "ĠEvans": 7231,
      "Ġchannel": 7232,
      "ĠKhan": 7233,
      "Ġhundreds": 7234,
      "ĠPope": 7235,
      "ĠHin": 7236,
      "ĠDesc": 7237,
      "Ġride": 7238,
      "Ġresigned": 7239,
      "aste": 7240,
      "ĠXbox": 7241,
      "Ġuniform": 7242,
      "Ġskills": 7243,
      "Ġreveals": 7244,
      "ĠNevertheless": 7245,
      "Ġnavig": 7246,
      "ching": 7247,
      "Ġgay": 7248,
      "Ġpointed": 7249,
      "Ġocean": 7250,
      "Ġchapter": 7251,
      "una": 7252,
      "Ġwatching": 7253,
      "ĠCategory": 7254,
      "ĠGuy": 7255,
      "Ġpushed": 7256,
      "Ġspend": 7257,
      "Ġprevented": 7258,
      "stances": 7259,
      "ĠPC": 7260,
      "ĠAtlant": 7261,
      "Ġclim": 7262,
      "iliar": 7263,
      "Ġpreferred": 7264,
      "Ġdrums": 7265,
      "ĠExpress": 7266,
      "rees": 7267,
      "Ġhappened": 7268,
      "ĠStewart": 7269,
      "Ġopponents": 7270,
      "Ġfootage": 7271,
      "Ġfacing": 7272,
      "ĠMuslim": 7273,
      "Ġfur": 7274,
      "Ġflew": 7275,
      "ez": 7276,
      "ĠHeavy": 7277,
      "Ġreportedly": 7278,
      "Ġformat": 7279,
      "Ġformally": 7280,
      "Ġdifference": 7281,
      "ĠJose": 7282,
      "Ġlanguages": 7283,
      "Ġlocomot": 7284,
      "Ġthereafter": 7285,
      "ĠTurkish": 7286,
      "ĠTower": 7287,
      "Ġintense": 7288,
      "ĠSamuel": 7289,
      "Ġthousand": 7290,
      "ĠOrigin": 7291,
      "ois": 7292,
      "Ġresign": 7293,
      "Ġhanded": 7294,
      "Ġrelationships": 7295,
      "ĠWing": 7296,
      "Ġfiring": 7297,
      "Ġpull": 7298,
      "Ġnotably": 7299,
      "ogether": 7300,
      "Ġvisitors": 7301,
      "Ġinhabit": 7302,
      "ĠLennon": 7303,
      "Ġanimation": 7304,
      "Ġdevice": 7305,
      "icians": 7306,
      "ĠCarib": 7307,
      "PA": 7308,
      "ĠColorado": 7309,
      "Ġemployees": 7310,
      "Ġexisted": 7311,
      "Ġchain": 7312,
      "Ġgather": 7313,
      "Ġvision": 7314,
      "tty": 7315,
      "ĠQueens": 7316,
      "ĠGreece": 7317,
      "Ġaccompany": 7318,
      "ĠSarah": 7319,
      "ĠLev": 7320,
      "Ġlinked": 7321,
      "orous": 7322,
      "ĠReal": 7323,
      "Ġexposed": 7324,
      "ĠBaltimore": 7325,
      "ĠAustria": 7326,
      "Ġhearing": 7327,
      "roc": 7328,
      "Ġdeparted": 7329,
      "Ġparticipate": 7330,
      "ĠDom": 7331,
      "Ġboil": 7332,
      "Ġpoetry": 7333,
      "ĠAlbums": 7334,
      "mun": 7335,
      "Ġdialogue": 7336,
      "onies": 7337,
      "rant": 7338,
      "Ġextent": 7339,
      "ĠTal": 7340,
      "ĠBird": 7341,
      "ĠBenn": 7342,
      "Ġlearning": 7343,
      "Ġdetailed": 7344,
      "Ġaudio": 7345,
      "Ġannounce": 7346,
      "Ġrebell": 7347,
      "bean": 7348,
      "Ġsubstantial": 7349,
      "Ġinstance": 7350,
      "ĠOrgan": 7351,
      "spec": 7352,
      "ĠMalays": 7353,
      "Ġresidential": 7354,
      "Ġimpressed": 7355,
      "Ġcruisers": 7356,
      "ĠSullivan": 7357,
      "resent": 7358,
      "Ġuniverse": 7359,
      "Ġbes": 7360,
      "ĠLane": 7361,
      "IA": 7362,
      "Ġbeach": 7363,
      "unes": 7364,
      "ĠWriting": 7365,
      "endment": 7366,
      "rum": 7367,
      "oto": 7368,
      "ĠInitially": 7369,
      "ropolitan": 7370,
      "iens": 7371,
      "orage": 7372,
      "Ġafternoon": 7373,
      "elle": 7374,
      "ĠBed": 7375,
      "ĠRey": 7376,
      "ĠFoundation": 7377,
      "ĠEdd": 7378,
      "Ġperiods": 7379,
      "Ġhuge": 7380,
      "prise": 7381,
      "ĠMarshall": 7382,
      "Ġpublisher": 7383,
      "Ġeasy": 7384,
      "Ġstem": 7385,
      "ĠDave": 7386,
      "ĠFrederick": 7387,
      "Ġoverse": 7388,
      "Ġenthus": 7389,
      "jo": 7390,
      "Ġtaught": 7391,
      "Ġimprison": 7392,
      "hatt": 7393,
      "ĠStock": 7394,
      "ogan": 7395,
      "Ġterritories": 7396,
      "Ġplate": 7397,
      "Ġdriver": 7398,
      "ĠMario": 7399,
      "Ġtesting": 7400,
      "uts": 7401,
      "Ġreviewers": 7402,
      "stic": 7403,
      "Ġfil": 7404,
      "ĠChronic": 7405,
      "ĠWrestling": 7406,
      "ĠArk": 7407,
      "Ġvideos": 7408,
      "Ġdiameter": 7409,
      "mad": 7410,
      "rot": 7411,
      "usic": 7412,
      "Ġhappy": 7413,
      "iami": 7414,
      "Ġtests": 7415,
      "ĠHaving": 7416,
      "phy": 7417,
      "Ġtempor": 7418,
      "ĠOt": 7419,
      "Ġhat": 7420,
      "raph": 7421,
      "ĠBanks": 7422,
      "Ġupd": 7423,
      "Ġsky": 7424,
      "Ġvessel": 7425,
      "Ġisolated": 7426,
      "ĠHorn": 7427,
      "ĠAnna": 7428,
      "itter": 7429,
      "Ġbridges": 7430,
      "Ġunderstand": 7431,
      "Ġnegotiations": 7432,
      "Ġske": 7433,
      "ĠRaw": 7434,
      "Ġteeth": 7435,
      "ribed": 7436,
      "Ġstable": 7437,
      "po": 7438,
      "Ġagents": 7439,
      "Ġfeud": 7440,
      "Ġencountered": 7441,
      "ĠHorse": 7442,
      "Ġinher": 7443,
      "Ġvul": 7444,
      "ĠErn": 7445,
      "ĠSomerset": 7446,
      "Ġpicked": 7447,
      "Ġmart": 7448,
      "raf": 7449,
      "Ġreprodu": 7450,
      "Ġsympt": 7451,
      "Ġwithdrew": 7452,
      "Ġgoods": 7453,
      "ĠCz": 7454,
      "ĠRelease": 7455,
      "ĠAud": 7456,
      "olas": 7457,
      "Ġconsol": 7458,
      "Ġdangerous": 7459,
      "ĠAndre": 7460,
      "ĠLim": 7461,
      "Ġfactor": 7462,
      "ican": 7463,
      "Ġlob": 7464,
      "Ġaged": 7465,
      "Ġfounder": 7466,
      "Ġsleep": 7467,
      "Ġsimultane": 7468,
      "Ġdiagn": 7469,
      "Ġjunior": 7470,
      "Ġteamm": 7471,
      "Ġnormally": 7472,
      "Ġupgraded": 7473,
      "ĠAnglo": 7474,
      "ĠMississ": 7475,
      "Ġbehavi": 7476,
      "Ġinsur": 7477,
      "roke": 7478,
      "Ġreun": 7479,
      "ĠMiami": 7480,
      "Ġkeeping": 7481,
      "ĠDS": 7482,
      "Ġrelie": 7483,
      "ĠGiants": 7484,
      "icop": 7485,
      "ĠKnow": 7486,
      "oys": 7487,
      "Ġwindow": 7488,
      "Ġspecimens": 7489,
      "Ġpounds": 7490,
      "Ġsatell": 7491,
      "Ġsure": 7492,
      "Ġmedium": 7493,
      "Ġcollaps": 7494,
      "ĠSeattle": 7495,
      "Ġethnic": 7496,
      "orial": 7497,
      "Ġpartly": 7498,
      "Ġfrequent": 7499,
      "Ġlowest": 7500,
      "Ġtie": 7501,
      "Ġcrisis": 7502,
      "Ġorganizations": 7503,
      "ĠPlayer": 7504,
      "etime": 7505,
      "Ġengineering": 7506,
      "Ġprohib": 7507,
      "Ġtraveled": 7508,
      "Ġtoll": 7509,
      "ologists": 7510,
      "Ġwhereas": 7511,
      "ĠSoon": 7512,
      "ĠCre": 7513,
      "Ġapprec": 7514,
      "ĠChampionships": 7515,
      "Ġresear": 7516,
      "sea": 7517,
      "Ġproced": 7518,
      "Ġdesigner": 7519,
      "Ġrefers": 7520,
      "Ġtechnique": 7521,
      "ĠAlab": 7522,
      "Ġrarely": 7523,
      "amese": 7524,
      "ĠTreaty": 7525,
      "Ġlose": 7526,
      "aria": 7527,
      "ĠNapole": 7528,
      "Ġtone": 7529,
      "Ġdiet": 7530,
      "Ġoutf": 7531,
      "Ġdeter": 7532,
      "Ġdoesn": 7533,
      "Ġturrets": 7534,
      "lie": 7535,
      "ĠIowa": 7536,
      "alo": 7537,
      "Ġinsc": 7538,
      "ĠAlabama": 7539,
      "igen": 7540,
      "ĠAustralians": 7541,
      "Ġcriticised": 7542,
      "ĠBuck": 7543,
      "Ġpermission": 7544,
      "Ġmir": 7545,
      "Ġspending": 7546,
      "Ġunderw": 7547,
      "mission": 7548,
      "otes": 7549,
      "Ġvic": 7550,
      "Ġpartially": 7551,
      "Ġmaintenance": 7552,
      "ĠForces": 7553,
      "Ġvice": 7554,
      "Ġfinale": 7555,
      "Ġadvice": 7556,
      "usal": 7557,
      "Ġdifficulties": 7558,
      "ĠTrek": 7559,
      "Ġbypass": 7560,
      "Ġplatinum": 7561,
      "Ġagree": 7562,
      "oked": 7563,
      "Ġrestric": 7564,
      "Ġuncertain": 7565,
      "uris": 7566,
      "Ġverse": 7567,
      "ĠHuman": 7568,
      "Ġpolicies": 7569,
      "Ġax": 7570,
      "Ġcompete": 7571,
      "Ġranking": 7572,
      "borough": 7573,
      "Ġcomplic": 7574,
      "Ġmainstream": 7575,
      "iece": 7576,
      "Ġindicate": 7577,
      "ennis": 7578,
      "ĠBan": 7579,
      "ĠSon": 7580,
      "Ġpersonality": 7581,
      "Ġrefuge": 7582,
      "Ġproport": 7583,
      "Ġrecordings": 7584,
      "Ġconcerts": 7585,
      "ĠTs": 7586,
      "Ġliqu": 7587,
      "Ġremove": 7588,
      "uscript": 7589,
      "Ġcomments": 7590,
      "Ġexcell": 7591,
      "ĠCaribbean": 7592,
      "inction": 7593,
      "Ġmonument": 7594,
      "Ġfinals": 7595,
      "helm": 7596,
      "Ġchronic": 7597,
      "Ġwindows": 7598,
      "Ġanticip": 7599,
      "ĠCharlie": 7600,
      "ĠRa": 7601,
      "ĠLawrence": 7602,
      "Ġsafe": 7603,
      "ilst": 7604,
      "Ġseats": 7605,
      "attered": 7606,
      "uv": 7607,
      "igs": 7608,
      "Ġrepair": 7609,
      "Ġfalls": 7610,
      "ygen": 7611,
      "Ġfighters": 7612,
      "Ġdiver": 7613,
      "ĠThen": 7614,
      "Ġhonour": 7615,
      "Ġrecommend": 7616,
      "gery": 7617,
      "Ġrestrict": 7618,
      "Ġstrip": 7619,
      "Ġrates": 7620,
      "ĠExt": 7621,
      "Ġextreme": 7622,
      "ĠYanke": 7623,
      "ĠML": 7624,
      "aya": 7625,
      "Ġcovers": 7626,
      "Ġrepresentative": 7627,
      "ĠTownship": 7628,
      "ĠMinnes": 7629,
      "Ġsymp": 7630,
      "ĠCanal": 7631,
      "Ġdestroyers": 7632,
      "Ġpitched": 7633,
      "Ġalter": 7634,
      "Ġrecur": 7635,
      "Ġtenth": 7636,
      "Ġrecon": 7637,
      "Ġforcing": 7638,
      "Ġprompted": 7639,
      "Ġdivor": 7640,
      "ĠSenator": 7641,
      "Ġmamm": 7642,
      "ĠCrown": 7643,
      "ĠBros": 7644,
      "Ġtruth": 7645,
      "Ġshear": 7646,
      "Ġmoral": 7647,
      "ss": 7648,
      "away": 7649,
      "Ġdescribe": 7650,
      "Ġphr": 7651,
      "Ġphen": 7652,
      "Ġbrand": 7653,
      "ĠMinistry": 7654,
      "iy": 7655,
      "Ġhockey": 7656,
      "ĠBuff": 7657,
      "ĠCall": 7658,
      "Ġminimum": 7659,
      "ĠIan": 7660,
      "Ġbases": 7661,
      "Ġtravelled": 7662,
      "Ġdynasty": 7663,
      "ĠNazi": 7664,
      "ĠGarden": 7665,
      "Ġturb": 7666,
      "chell": 7667,
      "Ġchurches": 7668,
      "ĠKu": 7669,
      "Ġreconst": 7670,
      "rim": 7671,
      "ĠHand": 7672,
      "Ġfriendly": 7673,
      "Ġexamples": 7674,
      "Ġboys": 7675,
      "ĠGrammy": 7676,
      "ĠBri": 7677,
      "Ġneighborhood": 7678,
      "lock": 7679,
      "Ġhull": 7680,
      "Ġdrawing": 7681,
      "power": 7682,
      "Ġdiff": 7683,
      "Ġbombers": 7684,
      "ĠHungary": 7685,
      "ĠCountry": 7686,
      "iac": 7687,
      "Ġpric": 7688,
      "Ġunn": 7689,
      "Ġdoctor": 7690,
      "ila": 7691,
      "Ġtub": 7692,
      "ugby": 7693,
      "Ġtribute": 7694,
      "ĠMcD": 7695,
      "Ġhousing": 7696,
      "Ġdisplayed": 7697,
      "Ġadjacent": 7698,
      "Ġinaug": 7699,
      "Ġapproval": 7700,
      "ĠReturn": 7701,
      "ĠCred": 7702,
      "ĠHealth": 7703,
      "Ġcredits": 7704,
      "ĠDance": 7705,
      "Ġprompt": 7706,
      "ĠChristopher": 7707,
      "kes": 7708,
      "ĠEvent": 7709,
      "Ġcollapse": 7710,
      "ĠBlood": 7711,
      "ĠBenj": 7712,
      "ĠBelgium": 7713,
      "anium": 7714,
      "Ġlisting": 7715,
      "MA": 7716,
      "icy": 7717,
      "Ġjoining": 7718,
      "Ġcreator": 7719,
      "gas": 7720,
      "alions": 7721,
      "Ġgrown": 7722,
      "ĠHamp": 7723,
      "Ġdesignation": 7724,
      "ĠUSD": 7725,
      "ĠDiego": 7726,
      "Ġovers": 7727,
      "Ġpartnership": 7728,
      "Ġprotagonist": 7729,
      "ĠPolit": 7730,
      "Ġju": 7731,
      "ĠCR": 7732,
      "Ġexplo": 7733,
      "Ġmoments": 7734,
      "ĠShakesp": 7735,
      "Ġacted": 7736,
      "ĠHotel": 7737,
      "Ġrefere": 7738,
      "Ġchanging": 7739,
      "ĠMedal": 7740,
      "Ġcreative": 7741,
      "Ġ*": 7742,
      "onnaissance": 7743,
      "FC": 7744,
      "Ġpowered": 7745,
      "Ġfung": 7746,
      "Ġcopy": 7747,
      "ĠBenjamin": 7748,
      "ĠMP": 7749,
      "Ġasks": 7750,
      "ĠChildren": 7751,
      "ĠRoc": 7752,
      "ĠLi": 7753,
      "Ġarts": 7754,
      "ĠMach": 7755,
      "ĠCold": 7756,
      "imeter": 7757,
      "Ġradar": 7758,
      "Ġtrend": 7759,
      "Ġtreaty": 7760,
      "Ġdollars": 7761,
      "Ġstorms": 7762,
      "ĠAh": 7763,
      "ĠMuch": 7764,
      "olis": 7765,
      "Ġorb": 7766,
      "Ġadvis": 7767,
      "Ġinstrumental": 7768,
      "Ġappointment": 7769,
      "col": 7770,
      "Ġpossession": 7771,
      "Ġvictories": 7772,
      "Ġvillages": 7773,
      "ĠRepresent": 7774,
      "velt": 7775,
      "ĠMichel": 7776,
      "Ġwheel": 7777,
      "Ġeliminated": 7778,
      "Ġsurvive": 7779,
      "Ġscientists": 7780,
      "ĠLegacy": 7781,
      "Ġels": 7782,
      "Ġcanal": 7783,
      "Ġelsewhere": 7784,
      "Ġrounds": 7785,
      "Ġsurprise": 7786,
      "ĠHud": 7787,
      "Ġpaintings": 7788,
      "Ġcovering": 7789,
      "ĠGuardian": 7790,
      "ĠNat": 7791,
      "Ġtruck": 7792,
      "ounced": 7793,
      "Ġprecip": 7794,
      "Ġmand": 7795,
      "ĠRoose": 7796,
      "Ġtelling": 7797,
      "Ġorbit": 7798,
      "Ġminimal": 7799,
      "ĠRecord": 7800,
      "Ġseeking": 7801,
      "ĠMississipp": 7802,
      "Ġnewspapers": 7803,
      "ĠVietnamese": 7804,
      "Ġarriving": 7805,
      "Ġinnov": 7806,
      "mers": 7807,
      "icts": 7808,
      "ĠHockey": 7809,
      "Ġoccupation": 7810,
      "Ġbenefit": 7811,
      "ĠHills": 7812,
      "ĠLin": 7813,
      "Ġhelping": 7814,
      "Ġrhythm": 7815,
      "ĠInterstate": 7816,
      "ĠBeck": 7817,
      "ogy": 7818,
      "ĠAlfred": 7819,
      "Ġsuicide": 7820,
      "uda": 7821,
      "Ġpurposes": 7822,
      "ivated": 7823,
      "ĠRand": 7824,
      "ĠDC": 7825,
      "Ġvalues": 7826,
      "Ġdispute": 7827,
      "ĠMinnesota": 7828,
      "ĠKurt": 7829,
      "Ġtwin": 7830,
      "Ġoccasions": 7831,
      "Ġped": 7832,
      "Ġgrav": 7833,
      "ĠLaure": 7834,
      "otten": 7835,
      "Ġunlike": 7836,
      "Ġsmooth": 7837,
      "Ġbrick": 7838,
      "ĠDead": 7839,
      "Ġfishing": 7840,
      "rupted": 7841,
      "Ġloan": 7842,
      "ĠÃĨ": 7843,
      "Ġpool": 7844,
      "Ġmurd": 7845,
      "Ġoption": 7846,
      "itud": 7847,
      "ecraft": 7848,
      "ĠManhatt": 7849,
      "Ġmanuscript": 7850,
      "Ġstruggle": 7851,
      "Ġcateg": 7852,
      "Ġgard": 7853,
      "active": 7854,
      "Ġdegrees": 7855,
      "ĠManhattan": 7856,
      "ES": 7857,
      "Ġsoil": 7858,
      "Ġmarry": 7859,
      "idi": 7860,
      "forced": 7861,
      "ĠAdminist": 7862,
      "ĠWalker": 7863,
      "ouri": 7864,
      "ods": 7865,
      "Ġschedule": 7866,
      "ĠFranklin": 7867,
      "Ġbalance": 7868,
      "ĠPeninsula": 7869,
      "Ġemperor": 7870,
      "Ġwet": 7871,
      "Ġgat": 7872,
      "ĠRoosevelt": 7873,
      "Ġpreserved": 7874,
      "abb": 7875,
      "Ġconcrete": 7876,
      "ĠFlight": 7877,
      "sters": 7878,
      "ĠPerform": 7879,
      "bra": 7880,
      "chen": 7881,
      "ĠHind": 7882,
      "atherine": 7883,
      "ographical": 7884,
      "Ġresumed": 7885,
      "rows": 7886,
      "Ġpublicly": 7887,
      "ls": 7888,
      "Ġsurvivors": 7889,
      "ĠLam": 7890,
      "ĠKansas": 7891,
      "ĠTrust": 7892,
      "eu": 7893,
      "atus": 7894,
      "enh": 7895,
      "anz": 7896,
      "Ġcompeted": 7897,
      "dale": 7898,
      "Ġviolent": 7899,
      "Ġcooper": 7900,
      "Ġcandidates": 7901,
      "Ġcryst": 7902,
      "iders": 7903,
      "ĠHong": 7904,
      "ante": 7905,
      "ĠMontreal": 7906,
      "Ġwedding": 7907,
      "Ġpilots": 7908,
      "munition": 7909,
      "Ġneighbour": 7910,
      "Ġspan": 7911,
      "Ġflash": 7912,
      "ĠLl": 7913,
      "Ġprocl": 7914,
      "rad": 7915,
      "ĠIndustry": 7916,
      "roid": 7917,
      "Ġabilities": 7918,
      "Ġdies": 7919,
      "Ġalignment": 7920,
      "entional": 7921,
      "Ġimpossible": 7922,
      "Ġdiscip": 7923,
      "ĠPortland": 7924,
      "Ġneutral": 7925,
      "overs": 7926,
      "ĠShel": 7927,
      "Ġbeautiful": 7928,
      "ĠSet": 7929,
      "incial": 7930,
      "Ġintensified": 7931,
      "Ġwrest": 7932,
      "ĠSatur": 7933,
      "ĠComb": 7934,
      "Ġcoordin": 7935,
      "Ġmulti": 7936,
      "Ġteaching": 7937,
      "Ġcook": 7938,
      "ishment": 7939,
      "Ġhelicop": 7940,
      "Ġdefeating": 7941,
      "Ġassisted": 7942,
      "acle": 7943,
      "Ġconsult": 7944,
      "Ġadvoc": 7945,
      "Ġpoison": 7946,
      "ĠNash": 7947,
      "ĠAnim": 7948,
      "zy": 7949,
      "Ġelectronic": 7950,
      "Ġargument": 7951,
      "Ġnations": 7952,
      "ĠNative": 7953,
      "ĠBuilding": 7954,
      "rome": 7955,
      "Ġprosp": 7956,
      "xual": 7957,
      "Ġlists": 7958,
      "Ġbusinesses": 7959,
      "Ġcustom": 7960,
      "ĠAff": 7961,
      "Ġserial": 7962,
      "Ġrivers": 7963,
      "Ġgrey": 7964,
      "oking": 7965,
      "ĠBorn": 7966,
      "Ġassists": 7967,
      "ĠTun": 7968,
      "ĠFal": 7969,
      "ĠMississippi": 7970,
      "Ġdanc": 7971,
      "ilty": 7972,
      "Ġopponent": 7973,
      "Ġelabor": 7974,
      "Ġabsol": 7975,
      "ensions": 7976,
      "Ġagricultural": 7977,
      "ĠBull": 7978,
      "uman": 7979,
      "Ġinteresting": 7980,
      "Ġtunnel": 7981,
      "Ġlem": 7982,
      "Ġsubmitted": 7983,
      "Ġfoundation": 7984,
      "Ġbacking": 7985,
      "Ġsuitable": 7986,
      "Ġencounter": 7987,
      "Ġsigning": 7988,
      "Ġovert": 7989,
      "Ġsimpl": 7990,
      "ĠDigital": 7991,
      "mph": 7992,
      "Ġmines": 7993,
      "ĠIce": 7994,
      "ĠWard": 7995,
      "ĠCole": 7996,
      "ĠLith": 7997,
      "obile": 7998,
      "ĠBrun": 7999,
      "Ġunderstanding": 8000,
      "Ġoxygen": 8001,
      "Ġfifteen": 8002,
      "Ġscholar": 8003,
      "ĠFried": 8004,
      "odore": 8005,
      "ĠArea": 8006,
      "Ġparent": 8007,
      "eare": 8008,
      "aron": 8009,
      "Ġciting": 8010,
      "ĠBlues": 8011,
      "Ġsymptoms": 8012,
      "ĠGab": 8013,
      "Ġbehalf": 8014,
      "Ġwaves": 8015,
      "ĠTennes": 8016,
      "Ġsunk": 8017,
      "Ġpercentage": 8018,
      "ĠShakespeare": 8019,
      "cop": 8020,
      "Ġforests": 8021,
      "itated": 8022,
      "Ġparish": 8023,
      "ulating": 8024,
      "Ġsituated": 8025,
      "Ġclosing": 8026,
      "Ġninet": 8027,
      "Ġsigns": 8028,
      "Ġspiritual": 8029,
      "ĠAR": 8030,
      "ĠHalo": 8031,
      "Ġsank": 8032,
      "Ġforty": 8033,
      "ĠKon": 8034,
      "Ġammunition": 8035,
      "ĠOffic": 8036,
      "Ġsubjects": 8037,
      "Ġrepairs": 8038,
      "Ġusual": 8039,
      "ĠAthlet": 8040,
      "ĠHindu": 8041,
      "ĠVinc": 8042,
      "Ġvoiced": 8043,
      "ĠDw": 8044,
      "ĠCampbell": 8045,
      "Ġjunction": 8046,
      "Ġillness": 8047,
      "ĠAlexand": 8048,
      "Ġimperial": 8049,
      "onymous": 8050,
      "Ġresolution": 8051,
      "ĠRace": 8052,
      "ĠHero": 8053,
      "ĠSteven": 8054,
      "ĠRap": 8055,
      "ctic": 8056,
      "ĠHistoric": 8057,
      "ĠRang": 8058,
      "Ġasking": 8059,
      "Ġassess": 8060,
      "Ġfunctions": 8061,
      "ĠCob": 8062,
      "Ġcollaboration": 8063,
      "Ġcorpor": 8064,
      "Ġdisaster": 8065,
      "Ġaudiences": 8066,
      "Ġattendance": 8067,
      "ĠLucas": 8068,
      "Ġlieutenant": 8069,
      "Ġnom": 8070,
      "Ġsuspended": 8071,
      "ĠWolf": 8072,
      "rams": 8073,
      "Ġdeliber": 8074,
      "Ġsuperv": 8075,
      "Ġcontroll": 8076,
      "ĠEgyptian": 8077,
      "Ġrestaurant": 8078,
      "alities": 8079,
      "Ġunderground": 8080,
      "Ġevil": 8081,
      "Ġfeelings": 8082,
      "ĠMargaret": 8083,
      "ĠFriend": 8084,
      "Ġflights": 8085,
      "ĠKings": 8086,
      "Ġexit": 8087,
      "ĠDiv": 8088,
      "ĠPle": 8089,
      "ĠVI": 8090,
      "Ġaffairs": 8091,
      "ĠStevens": 8092,
      "Ġcargo": 8093,
      "Ġskull": 8094,
      "ĠTennessee": 8095,
      "Ġtargets": 8096,
      "ĠApple": 8097,
      "father": 8098,
      "ĠSurv": 8099,
      "face": 8100,
      "Ġmountains": 8101,
      "ĠTag": 8102,
      "ĠOp": 8103,
      "ĠLouisiana": 8104,
      "Ġwilling": 8105,
      "Ġrecre": 8106,
      "Ġaffair": 8107,
      "ĠBox": 8108,
      "Ġoperational": 8109,
      "Ġearthqu": 8110,
      "Ġfuneral": 8111,
      "Ġdocuments": 8112,
      "Ġaimed": 8113,
      "Ġcompilation": 8114,
      "Ġfiled": 8115,
      "ĠLad": 8116,
      "Ġmeasured": 8117,
      "ĠDest": 8118,
      "Ġpoorly": 8119,
      "ĠMissouri": 8120,
      "ĠWarren": 8121,
      "ĠDepression": 8122,
      "ĠPalest": 8123,
      "ĠLabour": 8124,
      "Ġabol": 8125,
      "ĠPhilippines": 8126,
      "uable": 8127,
      "odge": 8128,
      "iveness": 8129,
      "ĠWol": 8130,
      "Ġanch": 8131,
      "Ġpron": 8132,
      "icate": 8133,
      "no": 8134,
      "Ġcircuit": 8135,
      "Ġliked": 8136,
      "Ġregistered": 8137,
      "Ġlect": 8138,
      "Ġiniti": 8139,
      "Ġelder": 8140,
      "ĠProm": 8141,
      "Ġstring": 8142,
      "Ġstatue": 8143,
      "Ġfavorable": 8144,
      "Ġrecognised": 8145,
      "ĠSi": 8146,
      "Ġprofessor": 8147,
      "ĠMitchell": 8148,
      "rates": 8149,
      "Ġadopt": 8150,
      "Ġtemporarily": 8151,
      "Ġexplosion": 8152,
      "Ġentertainment": 8153,
      "lah": 8154,
      "Ġsector": 8155,
      "ĠBilly": 8156,
      "Ġprol": 8157,
      "ĠHarvey": 8158,
      "Ġrout": 8159,
      "Ġrepresents": 8160,
      "ĠDragon": 8161,
      "rator": 8162,
      "Ġwreck": 8163,
      "amps": 8164,
      "Ġreplacing": 8165,
      "Ġpy": 8166,
      "ĠCritics": 8167,
      "Ġsequences": 8168,
      "ĠMcL": 8169,
      "asters": 8170,
      "inea": 8171,
      "Ġshells": 8172,
      "ĠHu": 8173,
      "agen": 8174,
      "Ġjazz": 8175,
      "Ġartwork": 8176,
      "Ġfifty": 8177,
      "Ġoffering": 8178,
      "ibl": 8179,
      "ĠIndependent": 8180,
      "ĠMack": 8181,
      "ĠNag": 8182,
      "Ġpreparation": 8183,
      "ĠCzech": 8184,
      "ĠNon": 8185,
      "Ġmargin": 8186,
      "Ġresidence": 8187,
      "Ġrestoration": 8188,
      "Ġinterpre": 8189,
      "amic": 8190,
      "Ġwore": 8191,
      "overe": 8192,
      "ateur": 8193,
      "ĠSmall": 8194,
      "ĠGraham": 8195,
      "ifer": 8196,
      "weet": 8197,
      "Ġwel": 8198,
      "ception": 8199,
      "Ġreflected": 8200,
      "Ġterror": 8201,
      "ĠMes": 8202,
      "Ġalliance": 8203,
      "Ġdirectors": 8204,
      "species": 8205,
      "ĠBusiness": 8206,
      "Ġreluct": 8207,
      "Ġexpensive": 8208,
      "Ġprime": 8209,
      "Ġbot": 8210,
      "ania": 8211,
      "orders": 8212,
      "ĠFederation": 8213,
      "Ġtouring": 8214,
      "Ġoverw": 8215,
      "Ġcompleting": 8216,
      "Ġalcohol": 8217,
      "ĠJoh": 8218,
      "Ġcyl": 8219,
      "ĠNear": 8220,
      "Ġamongst": 8221,
      "ĠKirk": 8222,
      "ĠFem": 8223,
      "Ġthinking": 8224,
      "Ġsup": 8225,
      "artney": 8226,
      "ta": 8227,
      "athy": 8228,
      "Ġsuggesting": 8229,
      "Ġbanks": 8230,
      "cho": 8231,
      "issions": 8232,
      "Ġrebuilt": 8233,
      "Ġhorror": 8234,
      "Ġrig": 8235,
      "ĠSeven": 8236,
      "ĠUE": 8237,
      "inental": 8238,
      "Ġnucle": 8239,
      "ancell": 8240,
      "Ġpulled": 8241,
      "ques": 8242,
      "Ġcoverage": 8243,
      "Ġcancelled": 8244,
      "ĠEdge": 8245,
      "Ġracing": 8246,
      "Ġdimens": 8247,
      "Ġwasn": 8248,
      "ylan": 8249,
      "bishop": 8250,
      "eron": 8251,
      "atics": 8252,
      "ĠGrey": 8253,
      "Ġdecides": 8254,
      "Ġfrig": 8255,
      "Ġescaped": 8256,
      "ĠAriz": 8257,
      "Ġamounts": 8258,
      "Ġlacked": 8259,
      "ĠCuba": 8260,
      "ĠGuide": 8261,
      "Ġcolonies": 8262,
      "Ġbay": 8263,
      "ĠRing": 8264,
      "Ġtribes": 8265,
      "Ġreven": 8266,
      "ellect": 8267,
      "idel": 8268,
      "andal": 8269,
      "Ġclearly": 8270,
      "Ġdramatic": 8271,
      "Ġsubt": 8272,
      "Ġpredomin": 8273,
      "Ġcommunication": 8274,
      "Ġcous": 8275,
      "ĠPhoen": 8276,
      "TA": 8277,
      "osm": 8278,
      "Ġengagement": 8279,
      "rage": 8280,
      "ĠFiles": 8281,
      "ĠVis": 8282,
      "Ġpatterns": 8283,
      "overeign": 8284,
      "ĠCow": 8285,
      "Ġgarden": 8286,
      "rix": 8287,
      "Ġfamiliar": 8288,
      "Ġmarks": 8289,
      "Ġargues": 8290,
      "ĠIndies": 8291,
      "Ġownership": 8292,
      "ĠPersian": 8293,
      "quir": 8294,
      "ĠMarie": 8295,
      "Ġben": 8296,
      "ĠJosh": 8297,
      "ĠTamil": 8298,
      "orer": 8299,
      "Ġperspective": 8300,
      "Ġdrove": 8301,
      "ĠArizona": 8302,
      "Ġsaved": 8303,
      "ĠBureau": 8304,
      "Ġarmored": 8305,
      "Ġmerchant": 8306,
      "ĠMagn": 8307,
      "emon": 8308,
      "Ġcontributions": 8309,
      "Ġca": 8310,
      "Ġgang": 8311,
      "Ġcod": 8312,
      "ĠSnow": 8313,
      "ĠSaturday": 8314,
      "ĠSony": 8315,
      "ĠMaur": 8316,
      "ĠHem": 8317,
      "Ġtru": 8318,
      "Ġfastest": 8319,
      "Ġremnants": 8320,
      "Ġsolution": 8321,
      "Ġwicket": 8322,
      "urally": 8323,
      "ĠYe": 8324,
      "Ġadministrative": 8325,
      "uary": 8326,
      "Ġprint": 8327,
      "Ġplayoffs": 8328,
      "nik": 8329,
      "Ġfalse": 8330,
      "Ġartistic": 8331,
      "sky": 8332,
      "Ġrit": 8333,
      "oming": 8334,
      "ĠDylan": 8335,
      "unch": 8336,
      "Ġcharacterized": 8337,
      "Ġmilitia": 8338,
      "Ġcrews": 8339,
      "okes": 8340,
      "ieties": 8341,
      "Ġbadly": 8342,
      "Ġrising": 8343,
      "Ġexecut": 8344,
      "Ġboundary": 8345,
      "idency": 8346,
      "ĠScout": 8347,
      "rine": 8348,
      "Ġseverely": 8349,
      "Ġinstitutions": 8350,
      "Ġseed": 8351,
      "ĠMess": 8352,
      "Ġbulk": 8353,
      "SP": 8354,
      "Ġtag": 8355,
      "Ġkings": 8356,
      "Ġretail": 8357,
      "Ġobv": 8358,
      "Ġflagship": 8359,
      "orious": 8360,
      "Ġarmament": 8361,
      "ĠConfederate": 8362,
      "Ġearning": 8363,
      "Ġdepending": 8364,
      "rep": 8365,
      "Ġdisappoin": 8366,
      "Ġexplains": 8367,
      "ĠLov": 8368,
      "Ġgenetic": 8369,
      "ĠOklah": 8370,
      "Ġexcav": 8371,
      "Ġdistinctive": 8372,
      "ĠCher": 8373,
      "Ġbowling": 8374,
      "Ġdemonstrated": 8375,
      "Ġrestricted": 8376,
      "Ġinland": 8377,
      "Ġthrew": 8378,
      "Ġnotice": 8379,
      "Ġfallen": 8380,
      "Ġbronze": 8381,
      "Ġrecip": 8382,
      "Ġideal": 8383,
      "Ġfrust": 8384,
      "Ġranks": 8385,
      "Ġcomparison": 8386,
      "Ġranging": 8387,
      "Ġcondem": 8388,
      "Ġinhabitants": 8389,
      "pan": 8390,
      "ĠKal": 8391,
      "Ġarrive": 8392,
      "storm": 8393,
      "ĠFel": 8394,
      "Ġearn": 8395,
      "Ġdraf": 8396,
      "Ġexplain": 8397,
      "orph": 8398,
      "Ġpoems": 8399,
      "ĠSwitzer": 8400,
      "Ġpractices": 8401,
      "Ġcontrols": 8402,
      "cru": 8403,
      "Ġelectron": 8404,
      "omber": 8405,
      "ĠMrs": 8406,
      "Ġcontext": 8407,
      "uations": 8408,
      "Ġloop": 8409,
      "ĠMurphy": 8410,
      "Ġriders": 8411,
      "ivia": 8412,
      "ĠkW": 8413,
      "Ġmaneu": 8414,
      "Ġerr": 8415,
      "exp": 8416,
      "ĠSwitzerland": 8417,
      "rating": 8418,
      "Ġwants": 8419,
      "ectic": 8420,
      "Ġconservative": 8421,
      "Ġquiet": 8422,
      "Ġwider": 8423,
      "Ġsisters": 8424,
      "Ġmental": 8425,
      "Ġplus": 8426,
      "Ġsatisf": 8427,
      "Ġfaster": 8428,
      "Ġgap": 8429,
      "Ġshield": 8430,
      "ĠWilhelm": 8431,
      "ĠBroadway": 8432,
      "ĠProgram": 8433,
      "ĠEconom": 8434,
      "Ġrevol": 8435,
      "formation": 8436,
      "Ġexclud": 8437,
      "ĠChand": 8438,
      "ĠDelaware": 8439,
      "Ġspotted": 8440,
      "Ġreaches": 8441,
      "eton": 8442,
      "anches": 8443,
      "Ġdistinguished": 8444,
      "gate": 8445,
      "Ġpace": 8446,
      "Ġsurge": 8447,
      "rm": 8448,
      "Ġautob": 8449,
      "Ġapplication": 8450,
      "Ġacceler": 8451,
      "Ġnorthward": 8452,
      "ĠLiz": 8453,
      "Ġvulner": 8454,
      "equ": 8455,
      "ĠBarry": 8456,
      "ĠOklahoma": 8457,
      "itting": 8458,
      "Ġevolved": 8459,
      "life": 8460,
      "ĠEP": 8461,
      "Ġmeat": 8462,
      "Ġnominations": 8463,
      "ĠSuch": 8464,
      "ĠMik": 8465,
      "Ġsynd": 8466,
      "Ġframe": 8467,
      "unc": 8468,
      "Ġmillimet": 8469,
      "Ġexhibition": 8470,
      "Ġkit": 8471,
      "Ġagency": 8472,
      "ĠABC": 8473,
      "otton": 8474,
      "ĠAustrian": 8475,
      "Ġquarterback": 8476,
      "Ġsatellite": 8477,
      "Ġpalace": 8478,
      "Ġgate": 8479,
      "ocking": 8480,
      "Ġhouseholds": 8481,
      "Ġsubspecies": 8482,
      "Ġdominant": 8483,
      "Ġprotein": 8484,
      "Ġprepare": 8485,
      "inh": 8486,
      "Ġstorage": 8487,
      "ruption": 8488,
      "Ġpredicted": 8489,
      "Ġobtain": 8490,
      "Ġtriple": 8491,
      "isp": 8492,
      "ĠAmy": 8493,
      "sequently": 8494,
      "oga": 8495,
      "Ġslaves": 8496,
      "ĠOriginal": 8497,
      "estone": 8498,
      "Ġtex": 8499,
      "ĠPed": 8500,
      "inations": 8501,
      "bre": 8502,
      "Ġprinted": 8503,
      "Ġabund": 8504,
      "Ġboss": 8505,
      "ĠTokyo": 8506,
      "ĠLithuan": 8507,
      "Ġspr": 8508,
      "Ġrepeatedly": 8509,
      "Ġallies": 8510,
      "Ġfixed": 8511,
      "Ġattained": 8512,
      "Ġarticles": 8513,
      "Ġpredecessor": 8514,
      "Ġintellect": 8515,
      "Ġcarriers": 8516,
      "DS": 8517,
      "Ġstores": 8518,
      "Ġvel": 8519,
      "ĠPerry": 8520,
      "Ġblocks": 8521,
      "Ġvertical": 8522,
      "ĠLeslie": 8523,
      "Ġtack": 8524,
      "Ġvs": 8525,
      "Ġyield": 8526,
      "CC": 8527,
      "Ġsurgery": 8528,
      "Ġnet": 8529,
      "Ġvast": 8530,
      "Ġpeaking": 8531,
      "Ġpup": 8532,
      "urst": 8533,
      "ĠOriginally": 8534,
      "ĠRidge": 8535,
      "Ġbiographer": 8536,
      "Ġphilosophy": 8537,
      "Ġillegal": 8538,
      "Ġstrict": 8539,
      "Ġdisagre": 8540,
      "Ġsignal": 8541,
      "Ġexcellent": 8542,
      "Ar": 8543,
      "Ġadventure": 8544,
      "asts": 8545,
      "Ġperceived": 8546,
      "ĠBaby": 8547,
      "anton": 8548,
      "azing": 8549,
      "Ġbattalions": 8550,
      "rus": 8551,
      "Ġphenomen": 8552,
      "Ġbombs": 8553,
      "Ġremarked": 8554,
      "Ġwaiting": 8555,
      "ication": 8556,
      "Ġseriously": 8557,
      "pet": 8558,
      "Ġpretty": 8559,
      "Ġwestward": 8560,
      "Ġarmour": 8561,
      "Ġapartment": 8562,
      "ĠDenmark": 8563,
      "Ġchoose": 8564,
      "ĠJonathan": 8565,
      "Ġcomfort": 8566,
      "Ġuseful": 8567,
      "Ġmeetings": 8568,
      "riptions": 8569,
      "Ġcircumstances": 8570,
      "ĠRico": 8571,
      "ĠNik": 8572,
      "Ġthor": 8573,
      "agasc": 8574,
      "oven": 8575,
      "Ġsuburb": 8576,
      "ĠClar": 8577,
      "ĠAtlanta": 8578,
      "anche": 8579,
      "aughters": 8580,
      "Ġcurren": 8581,
      "Ġdrugs": 8582,
      "ĠRih": 8583,
      "ĠPlayers": 8584,
      "Ġcoinc": 8585,
      "ĠBaseball": 8586,
      "acon": 8587,
      "urer": 8588,
      "Ġcivilian": 8589,
      "Ġsket": 8590,
      "ĠRihanna": 8591,
      "itage": 8592,
      "Ġtight": 8593,
      "ĠJohnny": 8594,
      "Ġlayer": 8595,
      "Ġdollar": 8596,
      "oned": 8597,
      "ori": 8598,
      "Ġwhilst": 8599,
      "rik": 8600,
      "Ġsick": 8601,
      "ĠFif": 8602,
      "ĠNixon": 8603,
      "Ġphone": 8604,
      "Ġcasting": 8605,
      "ĠCampaign": 8606,
      "Ġreaders": 8607,
      "ĠTerrit": 8608,
      "fish": 8609,
      "ĠBomb": 8610,
      "uma": 8611,
      "Ġreconnaissance": 8612,
      "Ġvisiting": 8613,
      "ĠBernard": 8614,
      "Ġbreat": 8615,
      "imen": 8616,
      "Ġmatters": 8617,
      "ĠAbbey": 8618,
      "Ġretain": 8619,
      "ĠJuan": 8620,
      "Ġinstitution": 8621,
      "Ġjuris": 8622,
      "Ġfriendship": 8623,
      "ĠMother": 8624,
      "Ġchamber": 8625,
      "ĠEdwards": 8626,
      "Ġsimilarly": 8627,
      "Ġplanets": 8628,
      "Ġstrengthened": 8629,
      "Ġtiss": 8630,
      "Ġgust": 8631,
      "apolis": 8632,
      "aro": 8633,
      "Ġdemanded": 8634,
      "Ġalternate": 8635,
      "Ġsimultaneously": 8636,
      "Ġlegacy": 8637,
      "Ġpanel": 8638,
      "Ġenlisted": 8639,
      "ĠHann": 8640,
      "pha": 8641,
      "mingham": 8642,
      "ridge": 8643,
      "rose": 8644,
      "ĠRailroad": 8645,
      "Ġtyphoon": 8646,
      "ĠArnold": 8647,
      "abs": 8648,
      "Ġinsisted": 8649,
      "nie": 8650,
      "arth": 8651,
      "Ġlanes": 8652,
      "Ġjustice": 8653,
      "ĠPitts": 8654,
      "Ġalive": 8655,
      "erk": 8656,
      "ĠRoll": 8657,
      "Ġclock": 8658,
      "ĠBh": 8659,
      "onomy": 8660,
      "Ġrevers": 8661,
      "ĠBath": 8662,
      "avery": 8663,
      "Ġshipping": 8664,
      "acked": 8665,
      "ĠBrig": 8666,
      "Ġbacked": 8667,
      "Ġpromised": 8668,
      "ĠJimmy": 8669,
      "Ġrevenue": 8670,
      "Ġpossess": 8671,
      "arant": 8672,
      "Ġhorn": 8673,
      "Ġbombing": 8674,
      "ĠKeith": 8675,
      "ĠLess": 8676,
      "Ġrub": 8677,
      "Ġmainland": 8678,
      "Ġdemands": 8679,
      "ĠPrize": 8680,
      "bl": 8681,
      "ĠTel": 8682,
      "Ġconsole": 8683,
      "estyle": 8684,
      "Ġroots": 8685,
      "Ġathletes": 8686,
      "Ġdemocr": 8687,
      "Ġstruggled": 8688,
      "Ġdrivers": 8689,
      "aration": 8690,
      "Ġpunk": 8691,
      "Ġhook": 8692,
      "Ġguilty": 8693,
      "Ġpersonally": 8694,
      "Ġportions": 8695,
      "Ġdefinition": 8696,
      "entle": 8697,
      "Ġlooks": 8698,
      "ĠInternet": 8699,
      "Ġconscious": 8700,
      "ĠRal": 8701,
      "Ġorchestra": 8702,
      "rac": 8703,
      "Ġpione": 8704,
      "ĠRachel": 8705,
      "rast": 8706,
      "ĠLex": 8707,
      "Ġaudition": 8708,
      "Ġguitarist": 8709,
      "Ġbehaviour": 8710,
      "ĠChel": 8711,
      "lus": 8712,
      "Ġsung": 8713,
      "Ġempt": 8714,
      "Ġpropag": 8715,
      "ĠMadagasc": 8716,
      "ĠWor": 8717,
      "Ġcontinu": 8718,
      "Ġarmies": 8719,
      "eland": 8720,
      "Ġjobs": 8721,
      "ĠYankees": 8722,
      "ĠCra": 8723,
      "regation": 8724,
      "ĠWag": 8725,
      "Ġartific": 8726,
      "Ġdemolished": 8727,
      "ĠTracy": 8728,
      "Ġmarketing": 8729,
      "inian": 8730,
      "Ġstarring": 8731,
      "TW": 8732,
      "acre": 8733,
      "ĠInn": 8734,
      "Ġruling": 8735,
      "Ġsubst": 8736,
      "ĠBirmingham": 8737,
      "emen": 8738,
      "Ġdancing": 8739,
      "ĠOpp": 8740,
      "ghan": 8741,
      "Ġsurpass": 8742,
      "Ġoblig": 8743,
      "Ġheading": 8744,
      "ĠEventually": 8745,
      "Ġcounties": 8746,
      "Ġbelieving": 8747,
      "ĠFurthermore": 8748,
      "Ġfeels": 8749,
      "Ġprofile": 8750,
      "uki": 8751,
      "ĠMcCartney": 8752,
      "ĠPars": 8753,
      "ĠRat": 8754,
      "Ġfactory": 8755,
      "ĠLost": 8756,
      "Ġmining": 8757,
      "Ġincreases": 8758,
      "ĠPil": 8759,
      "ĠImpact": 8760,
      "Ġindu": 8761,
      "Ġorganisation": 8762,
      "Ġpursue": 8763,
      "Ġessential": 8764,
      "ĠObama": 8765,
      "ĠTon": 8766,
      "odox": 8767,
      "Ġtheater": 8768,
      "ĠNine": 8769,
      "Ġcompens": 8770,
      "azines": 8771,
      "Ġdiscovers": 8772,
      "ĠHugh": 8773,
      "ĠMcM": 8774,
      "ĠGray": 8775,
      "lain": 8776,
      "eding": 8777,
      "Ġpages": 8778,
      "ĠCanter": 8779,
      "Ġbonus": 8780,
      "ĠChen": 8781,
      "ĠShaw": 8782,
      "ĠEnterprise": 8783,
      "ĠUniversal": 8784,
      "upp": 8785,
      "Ġgro": 8786,
      "Ġdelivery": 8787,
      "Ġsharp": 8788,
      "Ġdiscont": 8789,
      "ĠAld": 8790,
      "ĠWes": 8791,
      "Ġclothing": 8792,
      "Ġexpression": 8793,
      "ĠPhoenix": 8794,
      "dy": 8795,
      "inding": 8796,
      "Ġaffect": 8797,
      "Ġsucceed": 8798,
      "Ġconspir": 8799,
      "tery": 8800,
      "ĠBobby": 8801,
      "rov": 8802,
      "ĠDefence": 8803,
      "roph": 8804,
      "Ġobst": 8805,
      "Ġmobile": 8806,
      "ĠBaker": 8807,
      "Ġports": 8808,
      "grad": 8809,
      "ĠVik": 8810,
      "Ġmultipl": 8811,
      "Ġerected": 8812,
      "Ġelevation": 8813,
      "ĠHudson": 8814,
      "inister": 8815,
      "ĠCost": 8816,
      "adi": 8817,
      "ultan": 8818,
      "ĠComple": 8819,
      "Ġsq": 8820,
      "Ġrif": 8821,
      "din": 8822,
      "gence": 8823,
      "ĠFat": 8824,
      "ouver": 8825,
      "ĠAy": 8826,
      "ĠPubl": 8827,
      "Ġcrest": 8828,
      "Ġforecast": 8829,
      "Ġsecretary": 8830,
      "ĠWayne": 8831,
      "Ġdoubt": 8832,
      "ĠBuddh": 8833,
      "Ġoverseas": 8834,
      "folk": 8835,
      "Ġengage": 8836,
      "Ġpatron": 8837,
      "ĠBach": 8838,
      "ĠGirls": 8839,
      "ĠConnectic": 8840,
      "acc": 8841,
      "Ġacou": 8842,
      "Ġdrink": 8843,
      "Ġsettlers": 8844,
      "ĠWorks": 8845,
      "ĠPearl": 8846,
      "ĠMadagascar": 8847,
      "Ġaccum": 8848,
      "Ġmayor": 8849,
      "Ġhoriz": 8850,
      "ĠLeonard": 8851,
      "fe": 8852,
      "Ġdefences": 8853,
      "ĠMans": 8854,
      "ĠRights": 8855,
      "Ġkiss": 8856,
      "ĠConnecticut": 8857,
      "LC": 8858,
      "ĠLang": 8859,
      "tario": 8860,
      "ĠNapoleon": 8861,
      "ĠJar": 8862,
      "ĠIran": 8863,
      "Ġdeterior": 8864,
      "Ġstick": 8865,
      "Ġaltered": 8866,
      "ĠPeace": 8867,
      "Ġrenov": 8868,
      "ĠTodd": 8869,
      "umps": 8870,
      "ĠOntario": 8871,
      "ĠBosn": 8872,
      "inces": 8873,
      "Ġchest": 8874,
      "ĠMorrison": 8875,
      "ĠJup": 8876,
      "ĠKarl": 8877,
      "Ġexpand": 8878,
      "Ġbid": 8879,
      "Ġlisten": 8880,
      "irty": 8881,
      "Ġcancel": 8882,
      "Ġbaby": 8883,
      "ĠCanterbury": 8884,
      "ĠRub": 8885,
      "ĠGoth": 8886,
      "atern": 8887,
      "Ġhighways": 8888,
      "Ġobjective": 8889,
      "Ġcompounds": 8890,
      "Ġmusician": 8891,
      "Ġstress": 8892,
      "Ġlegislature": 8893,
      "ĠCommunity": 8894,
      "Ġcup": 8895,
      "iph": 8896,
      "ĠFriday": 8897,
      "ĠNAS": 8898,
      "ĠStat": 8899,
      "shore": 8900,
      "Ġsalt": 8901,
      "otyp": 8902,
      "ĠHold": 8903,
      "ensively": 8904,
      "Ġcampaigns": 8905,
      "Ġraising": 8906,
      "Ġconversion": 8907,
      "ĠAllies": 8908,
      "cles": 8909,
      "Ġdisl": 8910,
      "Ġaftermath": 8911,
      "Ġdecisions": 8912,
      "Ġaerial": 8913,
      "ĠMaj": 8914,
      "Ġsoldier": 8915,
      "Ġconcentration": 8916,
      "warf": 8917,
      "Ġvoy": 8918,
      "Ġorganised": 8919,
      "owed": 8920,
      "Ġsitting": 8921,
      "Ġsolar": 8922,
      "Ġwait": 8923,
      "Ġorn": 8924,
      "Ġindicating": 8925,
      "Ġacknowledged": 8926,
      "Ġliquid": 8927,
      "Ġhidden": 8928,
      "Ġprove": 8929,
      "Ġtrouble": 8930,
      "Ġscen": 8931,
      "Ġexactly": 8932,
      "Ġwealthy": 8933,
      "Ġwrestling": 8934,
      "asant": 8935,
      "ĠTNA": 8936,
      "Ġdressed": 8937,
      "Ġdanger": 8938,
      "ĠBoys": 8939,
      "ĠForeign": 8940,
      "ĠSem": 8941,
      "ĠMountains": 8942,
      "Ġpermitted": 8943,
      "Ġchapel": 8944,
      "Ġdissipated": 8945,
      "Ġimprovements": 8946,
      "Ġstriking": 8947,
      "Ġappropriate": 8948,
      "Ġhapp": 8949,
      "ĠSpart": 8950,
      "SA": 8951,
      "ĠCyr": 8952,
      "annon": 8953,
      "ĠPruss": 8954,
      "Ġrealized": 8955,
      "ĠMicro": 8956,
      "Ġraids": 8957,
      "ĠWindows": 8958,
      "ĠManu": 8959,
      "Ġconfron": 8960,
      "Ġgraduated": 8961,
      "Ġradical": 8962,
      "Ġaggressive": 8963,
      "ĠGene": 8964,
      "rawn": 8965,
      "Ġpublications": 8966,
      "Ġski": 8967,
      "Ġremoval": 8968,
      "Ġexecution": 8969,
      "tha": 8970,
      "ĠGriff": 8971,
      "atropical": 8972,
      "ĠDiam": 8973,
      "Ġencl": 8974,
      "Ġprofit": 8975,
      "Ġobservations": 8976,
      "Ġvenue": 8977,
      "Ġmeter": 8978,
      "Ġfewer": 8979,
      "Ġtravels": 8980,
      "Ġcelebrated": 8981,
      "Ġinterpretation": 8982,
      "ĠUEFA": 8983,
      "irts": 8984,
      "elli": 8985,
      "ĠOutstanding": 8986,
      "ĠPatt": 8987,
      "bird": 8988,
      "Ġtheatrical": 8989,
      "ĠGary": 8990,
      "Ġinitiated": 8991,
      "aments": 8992,
      "Ġstationed": 8993,
      "oker": 8994,
      "ancouver": 8995,
      "Ġfounding": 8996,
      "uese": 8997,
      "Ġrequires": 8998,
      "Ġturret": 8999,
      "ĠTol": 9000,
      "Ġpublishing": 9001,
      "Ġevacuated": 9002,
      "arr": 9003,
      "ifies": 9004,
      "ĠSymph": 9005,
      "pent": 9006,
      "ĠVancouver": 9007,
      "ĠSeason": 9008,
      "agg": 9009,
      "Ġdefending": 9010,
      "Ġoriginated": 9011,
      "Ġorigins": 9012,
      "Ġdebt": 9013,
      "Ġcannon": 9014,
      "jan": 9015,
      "Ġles": 9016,
      "Ġestablishing": 9017,
      "Ġexplan": 9018,
      "Ġjurisd": 9019,
      "ĠKit": 9020,
      "EC": 9021,
      "oons": 9022,
      "Ġconsidering": 9023,
      "ĠDrive": 9024,
      "ĠJupiter": 9025,
      "itals": 9026,
      "agh": 9027,
      "ivation": 9028,
      "ĠLegend": 9029,
      "Ġrebellion": 9030,
      "Ġconnect": 9031,
      "Ġarrangements": 9032,
      "ulous": 9033,
      "Ġbrill": 9034,
      "raction": 9035,
      "Ġsteps": 9036,
      "Ġtort": 9037,
      "ĠDall": 9038,
      "ĠFu": 9039,
      "Ġshorter": 9040,
      "Ġcutting": 9041,
      "Ġannouncement": 9042,
      "ĠLion": 9043,
      "ĠEdin": 9044,
      "Ġbones": 9045,
      "Ġstrategic": 9046,
      "Ġguarant": 9047,
      "Ġapproaching": 9048,
      "Ġfantasy": 9049,
      "ĠPakistan": 9050,
      "mund": 9051,
      "ĠLaur": 9052,
      "Ġdonated": 9053,
      "Ġplacing": 9054,
      "Ġmush": 9055,
      "ĠDeb": 9056,
      "Ġmagazines": 9057,
      "ĠGate": 9058,
      "ĠChampions": 9059,
      "ĠMint": 9060,
      "Ġlying": 9061,
      "Ġconnecting": 9062,
      "Ġwalking": 9063,
      "itudes": 9064,
      "Ġhosts": 9065,
      "Ġaspect": 9066,
      "adier": 9067,
      "Ġongoing": 9068,
      "ĠLas": 9069,
      "ennium": 9070,
      "autical": 9071,
      "Ġmagic": 9072,
      "Ġextratropical": 9073,
      "ĠCycl": 9074,
      "ĠRio": 9075,
      "itively": 9076,
      "ĠChampion": 9077,
      "Ġinsects": 9078,
      "ĠPortuguese": 9079,
      "ĠAdministration": 9080,
      "Ġedited": 9081,
      "Ġfunny": 9082,
      "ĠBradman": 9083,
      "Ġdiscussion": 9084,
      "Ġtalent": 9085,
      "Ġdrag": 9086,
      "Ġclosest": 9087,
      "Ġcolleagues": 9088,
      "Ġmemor": 9089,
      "Ġlin": 9090,
      "Ġoutl": 9091,
      "Ġyoungest": 9092,
      "hears": 9093,
      "Ġqualified": 9094,
      "Ġwithdrawal": 9095,
      "Ġgathered": 9096,
      "Ġtor": 9097,
      "Ġdecide": 9098,
      "Ġstrongest": 9099,
      "ĠTriple": 9100,
      "ĠMem": 9101,
      "Ġputting": 9102,
      "Ġpredict": 9103,
      "Ġhypothes": 9104,
      "Ġtubes": 9105,
      "Sp": 9106,
      "rous": 9107,
      "ecution": 9108,
      "Ġbattlecru": 9109,
      "ĠÃĨthel": 9110,
      "Ġforth": 9111,
      "ova": 9112,
      "Ġvolumes": 9113,
      "ĠPotter": 9114,
      "ĠTrophy": 9115,
      "ĠMong": 9116,
      "ĠDwight": 9117,
      "ĠTit": 9118,
      "ĠOur": 9119,
      "Ġlandscape": 9120,
      "Ġrede": 9121,
      "Ġidentify": 9122,
      "Ġsupplied": 9123,
      "dess": 9124,
      "adal": 9125,
      "Ġglac": 9126,
      "Ġcircle": 9127,
      "Ġwatershed": 9128,
      "ĠBegin": 9129,
      "Ġindicates": 9130,
      "Ġpale": 9131,
      "ĠStu": 9132,
      "pert": 9133,
      "Ġmerely": 9134,
      "Ġangle": 9135,
      "Ġcollapsed": 9136,
      "Ġchallenged": 9137,
      "ĠAlice": 9138,
      "Ġswitch": 9139,
[...]
