{
  "version": "1.0",
  "truncation": null,
  "padding": null,
  "added_tokens": [
    {
      "id": 0,
      "content": "<|system|>",
      "single_word": false,
      "lstrip": false,
      "rstrip": false,
      "normalized": false,
      "special": true
    },
    {
      "id": 1,
      "content": "<|user|>",
      "single_word": false,
      "lstrip": false,
      "rstrip": false,
      "normalized": false,
      "special": true
    },
    {
      "id": 2,
      "content": "<|assistant|>",
      "single_word": false,
      "lstrip": false,
      "rstrip": false,
      "normalized": false,
      "special": true
    },
    {
      "id": 3,
      "content": "<|end|>",
      "single_word": false,
      "lstrip": false,
      "rstrip": false,
      "normalized": false,
      "special": true
    }
  ],
  "normalizer": {
    "type": "NFC"
  },
  "pre_tokenizer": {
    "type": "Sequence",
    "pretokenizers": [
      {
        "type": "Digits",
        "individual_digits": true
      },
      {
        "type": "ByteLevel",
        "add_prefix_space": false,
        "trim_offsets": true,
        "use_regex": true
      }
    ]
  },
  "post_processor": {
    "type": "ByteLevel",
    "add_prefix_space": true,
    "trim_offsets": false,
    "use_regex": true
  },
  "decoder": {
    "type": "ByteLevel",
    "add_prefix_space": true,
    "trim_offsets": true,
    "use_regex": true
  },
  "model": {
    "type": "BPE",
    "dropout": null,
    "unk_token": null,
    "continuing_subword_prefix": null,
    "end_of_word_suffix": null,
    "fuse_unk": false,
    "byte_fallback": false,
    "vocab": {
      "<|system|>": 0,
      "<|user|>": 1,
      "<|assistant|>": 2,
      "<|end|>": 3,
      "!": 4,
      "\"": 5,
      "#": 6,
      "$": 7,
      "%": 8,
      "&": 9,
      "'": 10,
      "(": 11,
      ")": 12,
      "*": 13,
      "+": 14,
      ",": 15,
      "-": 16,
      ".": 17,
      "/": 18,
      "0": 19,
      "1": 20,
      "2": 21,
      "3": 22,
      "4": 23,
      "5": 24,
      "6": 25,
      "7": 26,
      "8": 27,
      "9": 28,
      ":": 29,
      ";": 30,
      "<": 31,
      "=": 32,
      ">": 33,
      "?": 34,
      "@": 35,
      "A": 36,
      "B": 37,
      "C": 38,
      "D": 39,
      "E": 40,
      "F": 41,
      "G": 42,
      "H": 43,
      "I": 44,
      "J": 45,
      "K": 46,
      "L": 47,
      "M": 48,
      "N": 49,
      "O": 50,
      "P": 51,
      "Q": 52,
      "R": 53,
      "S": 54,
      "T": 55,
      "U": 56,
      "V": 57,
      "W": 58,
      "X": 59,
      "Y": 60,
      "Z": 61,
      "[": 62,
      "\\": 63,
      "]": 64,
      "^": 65,
      "_": 66,
      "`": 67,
      "a": 68,
      "b": 69,
      "c": 70,
      "d": 71,
      "e": 72,
      "f": 73,
      "g": 74,
      "h": 75,
      "i": 76,
      "j": 77,
      "k": 78,
      "l": 79,
      "m": 80,
      "n": 81,
      "o": 82,
      "p": 83,
      "q": 84,
      "r": 85,
      "s": 86,
      "t": 87,
      "u": 88,
      "v": 89,
      "w": 90,
      "x": 91,
      "y": 92,
      "z": 93,
      "|": 94,
      "}": 95,
      "~": 96,
      "¡": 97,
      "¢": 98,
      "£": 99,
      "¤": 100,
      "¥": 101,
      "¦": 102,
      "§": 103,
      "¨": 104,
      "©": 105,
      "ª": 106,
      "«": 107,
      "¬": 108,
      "®": 109,
      "¯": 110,
      "°": 111,
      "±": 112,
      "²": 113,
      "³": 114,
      "´": 115,
      "µ": 116,
      "¶": 117,
      "·": 118,
      "¸": 119,
      "¹": 120,
      "º": 121,
      "»": 122,
      "¼": 123,
      "½": 124,
      "¾": 125,
      "¿": 126,
      "Â": 127,
      "Ã": 128,
      "Ä": 129,
      "Å": 130,
      "Æ": 131,
      "Ç": 132,
      "È": 133,
      "É": 134,
      "Ê": 135,
      "Ë": 136,
      "Ì": 137,
      "Í": 138,
      "Î": 139,
      "Ï": 140,
      "Ð": 141,
      "Ñ": 142,
      "Ò": 143,
      "Ó": 144,
      "Ô": 145,
      "Õ": 146,
      "Ö": 147,
      "×": 148,
      "Ø": 149,
      "Ù": 150,
      "Ú": 151,
      "Û": 152,
      "Ü": 153,
      "Ý": 154,
      "Þ": 155,
      "ß": 156,
      "à": 157,
      "á": 158,
      "â": 159,
      "ã": 160,
      "ä": 161,
      "å": 162,
      "æ": 163,
      "ç": 164,
      "è": 165,
      "é": 166,
      "ê": 167,
      "ë": 168,
      "ì": 169,
      "í": 170,
      "ï": 171,
      "ð": 172,
      "Ċ": 173,
      "Ġ": 174,
      "Ģ": 175,
      "ģ": 176,
      "Ĥ": 177,
      "ĥ": 178,
      "Ħ": 179,
      "ħ": 180,
      "Ĩ": 181,
      "ĩ": 182,
      "Ī": 183,
      "ī": 184,
      "Ĭ": 185,
      "ĭ": 186,
      "Į": 187,
      "į": 188,
      "İ": 189,
      "ı": 190,
      "Ĳ": 191,
      "ĳ": 192,
      "Ĵ": 193,
      "ĵ": 194,
      "Ķ": 195,
      "ķ": 196,
      "ĸ": 197,
      "Ĺ": 198,
      "ĺ": 199,
      "Ļ": 200,
      "ļ": 201,
      "Ľ": 202,
      "ľ": 203,
      "Ŀ": 204,
      "ŀ": 205,
      "Ł": 206,
      "ł": 207,
      "Ń": 208,
      "Ġt": 209,
      "Ġa": 210,
      "in": 211,
      "he": 212,
      "re": 213,
      "on": 214,
      "er": 215,
      "Ġs": 216,
      "Ġthe": 217,
      "or": 218,
      "ou": 219,
      "Ġw": 220,
      "at": 221,
      "nd": 222,
      "Ġc": 223,
      "it": 224,
      "es": 225,
      "Ġf": 226,
      "ing": 227,
      "is": 228,
      "en": 229,
      "Ġb": 230,
      "Ġp": 231,
      "an": 232,
      "Ġo": 233,
      "Ġto": 234,
      "ed": 235,
      "al": 236,
      "ar": 237,
      "Ġand": 238,
      "Ġm": 239,
      "Ġin": 240,
      "Ġof": 241,
      "le": 242,
      "Ġd": 243,
      "om": 244,
      "ic": 245,
      "ion": 246,
      "Ġh": 247,
      "as": 248,
      "il": 249,
      "Ġy": 250,
      "Ġth": 251,
      "ro": 252,
      "Ġl": 253,
      "Ġyou": 254,
      "ve": 255,
      "ent": 256,
      "st": 257,
      "âĢ": 258,
      "Ġe": 259,
      "Ġre": 260,
      "ct": 261,
      "Ġn": 262,
      "ĠS": 263,
      "et": 264,
      "Ġg": 265,
      "ĠT": 266,
      "Ġfor": 267,
      "el": 268,
      "Ġis": 269,
      "ĠC": 270,
      "ay": 271,
      "Ġon": 272,
      "id": 273,
      "ow": 274,
      "ot": 275,
      "ĠI": 276,
      "ac": 277,
      "ĠA": 278,
      "ol": 279,
      "Ġbe": 280,
      "ig": 281,
      "ly": 282,
      "ith": 283,
      "am": 284,
      "us": 285,
      "im": 286,
      "ad": 287,
      "ur": 288,
      "Ġwith": 289,
      "ver": 290,
      "ation": 291,
      "Ġst": 292,
      "ĠM": 293,
      "ĠP": 294,
      "ut": 295,
      "ir": 296,
      "âĢĻ": 297,
      "ch": 298,
      "ĠB": 299,
      "ill": 300,
      "ce": 301,
      "ers": 302,
      "our": 303,
      "Ġthat": 304,
      "Ġare": 305,
      "Ġit": 306,
      "un": 307,
      "ul": 308,
      "Ġal": 309,
      "Ġpro": 310,
      "ĠW": 311,
      "Ġhe": 312,
      "ge": 313,
      "ra": 314,
      "out": 315,
      "Ġan": 316,
      "Ġyour": 317,
      "oo": 318,
      "ter": 319,
      "Ġwe": 320,
      "pp": 321,
      "if": 322,
      "ĠD": 323,
      "ke": 324,
      "ĠF": 325,
      "se": 326,
      "Ġha": 327,
      "ess": 328,
      "ĠR": 329,
      "ĠH": 330,
      "ab": 331,
      "Ġor": 332,
      "est": 333,
      "Ġcom": 334,
      "Ġcon": 335,
      "Ġwh": 336,
      "ore": 337,
      "igh": 338,
      "Ġas": 339,
      "Ġat": 340,
      "ew": 341,
      "Ġfr": 342,
      "ĠL": 343,
      "ort": 344,
      "ate": 345,
      "ure": 346,
      "her": 347,
      "ĠThe": 348,
      "em": 349,
      "qu": 350,
      "ri": 351,
      "Ġex": 352,
      "ity": 353,
      "Ġse": 354,
      "pe": 355,
      "Ġv": 356,
      "ist": 357,
      "ĠG": 358,
      "art": 359,
      "ant": 360,
      "ĠE": 361,
      "Ġwill": 362,
      "ĠN": 363,
      "Ġcan": 364,
      "ust": 365,
      "ment": 366,
      "Ġfrom": 367,
      "Ġr": 368,
      "ive": 369,
      "Ġsh": 370,
      "op": 371,
      "ld": 372,
      "Ġthis": 373,
      "Ġus": 374,
      "nt": 375,
      "ight": 376,
      "oc": 377,
      "and": 378,
      "Ġhave": 379,
      "um": 380,
      "ain": 381,
      "up": 382,
      "Ġ(": 383,
      "th": 384,
      "Ġde": 385,
      "all": 386,
      "ĠO": 387,
      "os": 388,
      "ome": 389,
      "ies": 390,
      "ard": 391,
      "Ġch": 392,
      "The": 393,
      "Ġby": 394,
      "ear": 395,
      "Ġpl": 396,
      "res": 397,
      "ĠâĢ": 398,
      "Ġwas": 399,
      "ide": 400,
      "ack": 401,
      "Ġle": 402,
      "age": 403,
      "ast": 404,
      "ect": 405,
      "ost": 406,
      "ice": 407,
      "ial": 408,
      "Ġall": 409,
      "rou": 410,
      "Ġour": 411,
      "ag": 412,
      "Ġwor": 413,
      "Ġsu": 414,
      "Ġnot": 415,
      "king": 416,
      "able": 417,
      "ell": 418,
      "iv": 419,
      "per": 420,
      "od": 421,
      "are": 422,
      "ud": 423,
      "ine": 424,
      "ail": 425,
      "Ġhas": 426,
      "Ġab": 427,
      "Ġne": 428,
      "ĠJ": 429,
      "ip": 430,
      "gh": 431,
      "ions": 432,
      "ere": 433,
      "ake": 434,
      "ire": 435,
      "Ġj": 436,
      "Ġup": 437,
      "pt": 438,
      "ff": 439,
      "ks": 440,
      "Ġad": 441,
      "Ġout": 442,
      "ĠU": 443,
      "Ġk": 444,
      "Ġcomp": 445,
      "very": 446,
      "ould": 447,
      "Ġdo": 448,
      "ind": 449,
      "cc": 450,
      "Ġmore": 451,
      "ry": 452,
      "du": 453,
      "hen": 454,
      "one": 455,
      "ated": 456,
      "orm": 457,
      "ase": 458,
      "ace": 459,
      "ime": 460,
      "Ġen": 461,
      "..": 462,
      "ĠSt": 463,
      "ite": 464,
      "act": 465,
      "iz": 466,
      "ie": 467,
      "ood": 468,
      "og": 469,
      "Ġso": 470,
      "Ġoff": 471,
      "ther": 472,
      "ign": 473,
      "Ġtheir": 474,
      "so": 475,
      "ĠTh": 476,
      "pl": 477,
      "Ġcont": 478,
      "Ġint": 479,
      "ich": 480,
      "cl": 481,
      "ĠIn": 482,
      "ber": 483,
      "Ġte": 484,
      "'s": 485,
      "ally": 486,
      "erv": 487,
      "Ġcl": 488,
      "Ġme": 489,
      "ĠK": 490,
      "ans": 491,
      "ance": 492,
      "ĠY": 493,
      "ach": 494,
      "Ġnew": 495,
      "ĠV": 496,
      "ak": 497,
      "ep": 498,
      "reat": 499,
      "ll": 500,
      "ia": 501,
      "Ġone": 502,
      "ong": 503,
      "ue": 504,
      "ous": 505,
      "Ġbut": 506,
      "Ġim": 507,
      "form": 508,
      "Ġapp": 509,
      "ib": 510,
      "Ġtr": 511,
      "ays": 512,
      "ame": 513,
      "Ġqu": 514,
      "ap": 515,
      "ick": 516,
      "ub": 517,
      "ree": 518,
      "âĢĿ": 519,
      "Ġabout": 520,
      "Ġsp": 521,
      "Ġman": 522,
      "Ġthey": 523,
      "Ġyear": 524,
      "ations": 525,
      "Ġres": 526,
      "ount": 527,
      "Ġper": 528,
      "ove": 529,
      "Ġalso": 530,
      "Ġun": 531,
      "und": 532,
      "Ġsa": 533,
      "ile": 534,
      "Ġtime": 535,
      "ook": 536,
      "ark": 537,
      "ary": 538,
      "ĠCh": 539,
      "vel": 540,
      "ult": 541,
      "ike": 542,
      "ings": 543,
      "Ġro": 544,
      "ond": 545,
      "own": 546,
      "Ġget": 547,
      "ction": 548,
      "Ġwhich": 549,
      "Ġfe": 550,
      "ven": 551,
      "Ġmy": 552,
      "ors": 553,
      "ents": 554,
      "Ġany": 555,
      "ĠWe": 556,
      "ord": 557,
      "ild": 558,
      "av": 559,
      "ition": 560,
      "int": 561,
      "Ġneed": 562,
      "Ġpart": 563,
      "Ġpr": 564,
      "Ġwho": 565,
      "ĠIt": 566,
      "ater": 567,
      "te": 568,
      "Ġover": 569,
      "ress": 570,
      "Ġgo": 571,
      "Ġacc": 572,
      "port": 573,
      "Ġother": 574,
      "Ġdes": 575,
      "lp": 576,
      "ence": 577,
      "ish": 578,
      "Ġ-": 579,
      "oy": 580,
      "com": 581,
      "Ġbeen": 582,
      "ens": 583,
      "Ġsome": 584,
      "clud": 585,
      "ade": 586,
      "Ġar": 587,
      "ck": 588,
      "Ġhelp": 589,
      "wn": 590,
      "Ġpre": 591,
      "Ġsc": 592,
      "Ġkn": 593,
      "Ġspe": 594,
      "ov": 595,
      "ob": 596,
      "Ġwork": 597,
      "Ġhis": 598,
      "Ġwhen": 599,
      "day": 600,
      "Ġthem": 601,
      "ru": 602,
      "Ġcol": 603,
      "iew": 604,
      "ĠâĢľ": 605,
      "Ġdis": 606,
      "Ġprodu": 607,
      "Ġserv": 608,
      "irst": 609,
      "ound": 610,
      "ning": 611,
      "mer": 612,
      "ical": 613,
      "ool": 614,
      "rough": 615,
      "Th": 616,
      "Ġlike": 617,
      "Ġprov": 618,
      "low": 619,
      "Ġag": 620,
      "Ġ&": 621,
      "ose": 622,
      "ft": 623,
      "Ġadd": 624,
      "ĠâĢĵ": 625,
      "Ġinclud": 626,
      "Ġits": 627,
      "ĠRe": 628,
      "red": 629,
      "Ġbu": 630,
      "Ġif": 631,
      "ĠThis": 632,
      "Ġmake": 633,
      "ely": 634,
      "ices": 635,
      "ang": 636,
      "Ġthan": 637,
      "Ġpe": 638,
      "anc": 639,
      "old": 640,
      "vers": 641,
      "fter": 642,
      "ne": 643,
      "Ġthere": 644,
      "Ġhow": 645,
      "ory": 646,
      "pport": 647,
      "ont": 648,
      "Ġwhat": 649,
      "iness": 650,
      "Ġjust": 651,
      "ature": 652,
      "Ġcomm": 653,
      "Ġtw": 654,
      "hed": 655,
      "Ġloc": 656,
      "ough": 657,
      "Ġrec": 658,
      "round": 659,
      "Ġinto": 660,
      "here": 661,
      "We": 662,
      "ting": 663,
      "Ġfirst": 664,
      "ful": 665,
      "gr": 666,
      "Ġthrough": 667,
      "Ġuse": 668,
      "||": 669,
      "usiness": 670,
      "ons": 671,
      "lect": 672,
      "Ġevery": 673,
      "Ġhome": 674,
      "ual": 675,
      "ates": 676,
      "lic": 677,
      "Ġback": 678,
      "tern": 679,
      "Ġam": 680,
      "lease": 681,
      "ments": 682,
      "ities": 683,
      "ily": 684,
      "ople": 685,
      "Ġexper": 686,
      "ange": 687,
      "Ġfl": 688,
      "fere": 689,
      "urn": 690,
      "ric": 691,
      "formation": 692,
      "Ġwould": 693,
      "Ġmost": 694,
      "amp": 695,
      "Ġco": 696,
      "xt": 697,
      "Ġwell": 698,
      "ating": 699,
      "Ġmay": 700,
      "Ġem": 701,
      "Ġwere": 702,
      "...": 703,
      "Ġher": 704,
      "les": 705,
      "ious": 706,
      "Ġonly": 707,
      "Ġknow": 708,
      "oth": 709,
      "Ġph": 710,
      "Ġdesign": 711,
      "vent": 712,
      "ject": 713,
      "Ġtra": 714,
      "end": 715,
      "ustom": 716,
      "Ġwant": 717,
      "Ġplay": 718,
      "Ġsee": 719,
      "Ġbet": 720,
      "ian": 721,
      "row": 722,
      "Ġav": 723,
      "ĠYou": 724,
      "Ġtwo": 725,
      "any": 726,
      "Ġbl": 727,
      "bs": 728,
      "Ġind": 729,
      "we": 730,
      "cial": 731,
      "ink": 732,
      "use": 733,
      "Ġhad": 734,
      "ise": 735,
      "Ġno": 736,
      "als": 737,
      "itt": 738,
      "Ġpeople": 739,
      "Ġke": 740,
      "Ġproduct": 741,
      "Ġ$": 742,
      "ph": 743,
      "ĠHe": 744,
      "Ġgreat": 745,
      "Ġsaid": 746,
      "Ġsm": 747,
      "ts": 748,
      "In": 749,
      "ty": 750,
      "ible": 751,
      "Ġbest": 752,
      "ock": 753,
      "Ġbusiness": 754,
      "enc": 755,
      "ife": 756,
      "ng": 757,
      "iss": 758,
      "Ġstart": 759,
      "uring": 760,
      "Ġafter": 761,
      "ĠPro": 762,
      "Ġhigh": 763,
      "ath": 764,
      "Ġund": 765,
      "ased": 766,
      "ility": 767,
      "Ġcons": 768,
      "ss": 769,
      "ific": 770,
      "This": 771,
      "air": 772,
      "Ġdif": 773,
      "Ġfin": 774,
      "Ġvery": 775,
      "ull": 776,
      "Ġthese": 777,
      "Ġbr": 778,
      "ailable": 779,
      "ience": 780,
      "yst": 781,
      "hip": 782,
      "Ġday": 783,
      "Ġyears": 784,
      "Ġact": 785,
      "its": 786,
      "fore": 787,
      "ets": 788,
      "oint": 789,
      "Ġwee": 790,
      "Ġmany": 791,
      "Ġhere": 792,
      "Ġcar": 793,
      "hes": 794,
      "Ġbec": 795,
      "Ġinformation": 796,
      "Ġimp": 797,
      "ward": 798,
      "Ġreg": 799,
      "Ġfind": 800,
      "Ġgood": 801,
      "aking": 802,
      "ĠCom": 803,
      "cess": 804,
      "Ġteam": 805,
      "Ġgu": 806,
      "ract": 807,
      "Ġown": 808,
      "Ġnow": 809,
      "Ġunder": 810,
      "line": 811,
      "erson": 812,
      "pen": 813,
      "Ġfam": 814,
      "Ġcustom": 815,
      "pect": 816,
      "ower": 817,
      "oss": 818,
      "Ġway": 819,
      "Ġins": 820,
      "Ġ\"": 821,
      "Ġinc": 822,
      "ystem": 823,
      "velop": 824,
      "ular": 825,
      "li": 826,
      "ax": 827,
      "Ġrem": 828,
      "Ġsec": 829,
      "Ġmon": 830,
      "ĠSh": 831,
      "Ġset": 832,
      "ash": 833,
      "ational": 834,
      "get": 835,
      "ĠSe": 836,
      "ited": 837,
      "Ġtake": 838,
      "ĠDe": 839,
      "Ġshe": 840,
      "ner": 841,
      "Ġwhere": 842,
      "unity": 843,
      "ason": 844,
      "Ġinv": 845,
      "Ġche": 846,
      "ize": 847,
      "Ġac": 848,
      "nds": 849,
      "view": 850,
      "Ġeas": 851,
      "Ġavailable": 852,
      "Ġvis": 853,
      "Ġbel": 854,
      "atch": 855,
      "ert": 856,
      ").": 857,
      "uch": 858,
      "ollow": 859,
      "ouse": 860,
      "ause": 861,
      "io": 862,
      "land": 863,
      "Ġdel": 864,
      "aw": 865,
      "Ġprovid": 866,
      "Ġmin": 867,
      "Ġmade": 868,
      "ble": 869,
      "ĠUn": 870,
      "Ġent": 871,
      "Ġrequ": 872,
      "Ġright": 873,
      "Ġeven": 874,
      "Ġshow": 875,
      "erm": 876,
      "Ġlong": 877,
      "Ġshould": 878,
      "chool": 879,
      "Ġdec": 880,
      "Ġcre": 881,
      "Ġsupport": 882,
      "ality": 883,
      "az": 884,
      "ork": 885,
      "arket": 886,
      "Ġdown": 887,
      "Ġinst": 888,
      "alth": 889,
      "hat": 890,
      "ren": 891,
      "elf": 892,
      "gan": 893,
      "let": 894,
      "ix": 895,
      "ĠIf": 896,
      "Ġread": 897,
      "chn": 898,
      "der": 899,
      "olog": 900,
      "Ġret": 901,
      "Ġlook": 902,
      "Ġdon": 903,
      "Ġdiffere": 904,
      "oun": 905,
      "ug": 906,
      "riv": 907,
      "arm": 908,
      "ank": 909,
      "ooking": 910,
      "ale": 911,
      "ave": 912,
      "Ġdet": 913,
      "Ġrel": 914,
      "ption": 915,
      "Ġmod": 916,
      "arn": 917,
      "oad": 918,
      "ues": 919,
      "rib": 920,
      "pr": 921,
      "Ġthen": 922,
      "Ġlast": 923,
      "ident": 924,
      "ĠNew": 925,
      "Ġsur": 926,
      "ient": 927,
      "Ġbefore": 928,
      "ics": 929,
      "Ġbo": 930,
      "Ġeff": 931,
      "Ġcur": 932,
      "Ġart": 933,
      "Ġcould": 934,
      "Ġmuch": 935,
      "arch": 936,
      "gram": 937,
      "way": 938,
      "'t": 939,
      "irect": 940,
      "Ġdevelop": 941,
      "ener": 942,
      "Ġcall": 943,
      "Ġmem": 944,
      "ee": 945,
      "ages": 946,
      "Ġtrans": 947,
      "ps": 948,
      "ered": 949,
      "Ġfree": 950,
      "ative": 951,
      "aut": 952,
      "Ġsystem": 953,
      "Ġused": 954,
      "ict": 955,
      "âĢľ": 956,
      "Ġlist": 957,
      "Ġworld": 958,
      "Ġoffer": 959,
      "ĠFr": 960,
      "oor": 961,
      "Ġservice": 962,
      "fect": 963,
      "Ġperson": 964,
      "Ġpur": 965,
      "Ġsk": 966,
      "Ġaround": 967,
      "co": 968,
      "Ġeach": 969,
      "ple": 970,
      "Ġfollow": 971,
      "Ġlove": 972,
      "Ġcle": 973,
      "els": 974,
      "Ġsim": 975,
      "Ġlife": 976,
      "Ġwhile": 977,
      "ather": 978,
      "ures": 979,
      "akes": 980,
      "Ġfeature": 981,
      "Ġopen": 982,
      "pping": 983,
      "Ġstud": 984,
      "Ġatt": 985,
      "Re": 986,
      "rit": 987,
      "ces": 988,
      "ession": 989,
      "Ġcare": 990,
      "Ġtoo": 991,
      "Ġmonth": 992,
      "ours": 993,
      "olut": 994,
      "ins": 995,
      "Ġlead": 996,
      "room": 997,
      "Ġnum": 998,
      "Ġplace": 999,
      "ott": 1000,
      "ĠPl": 1001,
      "ining": 1002,
      "ĠAl": 1003,
      "Ġrun": 1004,
      "ĠCl": 1005,
      "ĠBe": 1006,
      "other": 1007,
      "Ġhand": 1008,
      "ced": 1009,
      "Ġagain": 1010,
      "rent": 1011,
      "arge": 1012,
      "ĠAnd": 1013,
      "ince": 1014,
      "Ġbuild": 1015,
      "Ġcompany": 1016,
      "aint": 1017,
      "ĠLe": 1018,
      "ines": 1019,
      "Ġtop": 1020,
      "Ġsuch": 1021,
      "Ġexperience": 1022,
      "Ġkeep": 1023,
      "Ġra": 1024,
      "Ġpres": 1025,
      "Ġbeing": 1026,
      "iving": 1027,
      "Ġform": 1028,
      "),": 1029,
      "Ġdifferent": 1030,
      "Ġend": 1031,
      "Ġprof": 1032,
      "ĠAd": 1033,
      "ĠAr": 1034,
      "Ġfamily": 1035,
      "iel": 1036,
      "It": 1037,
      "ĠFor": 1038,
      "Ġfun": 1039,
      "Ġrece": 1040,
      "ene": 1041,
      "ways": 1042,
      "arg": 1043,
      "Ġplan": 1044,
      "Ġsign": 1045,
      "Ġwater": 1046,
      "iqu": 1047,
      "If": 1048,
      "Ġser": 1049,
      "ied": 1050,
      "ars": 1051,
      "ik": 1052,
      "ired": 1053,
      "Ġroom": 1054,
      "St": 1055,
      "ata": 1056,
      "ives": 1057,
      "ys": 1058,
      "Ġproject": 1059,
      "orth": 1060,
      "Ġarea": 1061,
      "ĠTe": 1062,
      "ĠBl": 1063,
      "read": 1064,
      "atur": 1065,
      "Ġprocess": 1066,
      "Ġdoes": 1067,
      "Ġtechn": 1068,
      "alk": 1069,
      "Ġpost": 1070,
      "ety": 1071,
      "rand": 1072,
      "Ġmed": 1073,
      "ital": 1074,
      "Ġallow": 1075,
      "Ġproper": 1076,
      "ames": 1077,
      "Ġlot": 1078,
      "ĠAn": 1079,
      "Ġmarket": 1080,
      "Ġgr": 1081,
      "oot": 1082,
      "ross": 1083,
      "Ġthose": 1084,
      "joy": 1085,
      "Ġadv": 1086,
      "ĠEx": 1087,
      "Ġaccess": 1088,
      "ever": 1089,
      "Ġboth": 1090,
      "Ġlight": 1091,
      "Ġusing": 1092,
      "Ġbecause": 1093,
      "ants": 1094,
      "Ġinter": 1095,
      "Ġimport": 1096,
      "bers": 1097,
      "ness": 1098,
      "ER": 1099,
      "less": 1100,
      "Ġfull": 1101,
      "Ġext": 1102,
      "imes": 1103,
      "Ġcount": 1104,
      "erest": 1105,
      "Ġweek": 1106,
      "nce": 1107,
      "Ġchild": 1108,
      "ĠAs": 1109,
      "Ġstr": 1110,
      "Ġprogram": 1111,
      "ass": 1112,
      "Ġdisc": 1113,
      "ĠAll": 1114,
      "Ġgame": 1115,
      "Ġthree": 1116,
      "Ġservices": 1117,
      "Ġed": 1118,
      "ery": 1119,
      "Ġaut": 1120,
      "Ġvar": 1121,
      "ually": 1122,
      "ivers": 1123,
      "Ġdays": 1124,
      "ah": 1125,
      "led": 1126,
      "Ġduring": 1127,
      "ween": 1128,
      "Ġfound": 1129,
      "Ġsmall": 1130,
      "Ġcent": 1131,
      "Ġincluding": 1132,
      "ails": 1133,
      "Ġwebs": 1134,
      "Ġnext": 1135,
      "Ġrep": 1136,
      "Ġprovide": 1137,
      "reen": 1138,
      "Ġfew": 1139,
      "tt": 1140,
      "Ġrest": 1141,
      "ving": 1142,
      ".âĢĿ": 1143,
      "Ġfrie": 1144,
      "Ġexp": 1145,
      "ĠQ": 1146,
      "Ġpol": 1147,
      "ier": 1148,
      "Ġhapp": 1149,
      "nect": 1150,
      "Ġref": 1151,
      "au": 1152,
      "Ġwin": 1153,
      "Ġpay": 1154,
      "Ġonline": 1155,
      "ized": 1156,
      "br": 1157,
      "Ġsure": 1158,
      "Ġproducts": 1159,
      "ield": 1160,
      "Ġbetween": 1161,
      "ublic": 1162,
      "Ġcome": 1163,
      "Ġorder": 1164,
      "Ġdid": 1165,
      "att": 1166,
      "ittle": 1167,
      "Ġsub": 1168,
      "Ġfeel": 1169,
      "Ġstill": 1170,
      "Ġval": 1171,
      "Ġalways": 1172,
      "Ġperfect": 1173,
      "Ġvisit": 1174,
      "ology": 1175,
      "Ġcontact": 1176,
      "Ġgoing": 1177,
      "You": 1178,
      "Ġbeaut": 1179,
      "ware": 1180,
      "ral": 1181,
      "ved": 1182,
      "Ġcontin": 1183,
      "ern": 1184,
      "Ġcour": 1185,
      "Ġcurrent": 1186,
      "Ġgl": 1187,
      "ĠCol": 1188,
      "Ġitem": 1189,
      "Ġevent": 1190,
      "ished": 1191,
      "Ġposs": 1192,
      "Ġpoint": 1193,
      "Ġphot": 1194,
      "Ġev": 1195,
      "ĠThey": 1196,
      "ĠSc": 1197,
      "ccess": 1198,
      "IN": 1199,
      "roup": 1200,
      "Ġsame": 1201,
      "Ġtoday": 1202,
      "Ġreally": 1203,
      "Ġve": 1204,
      "ior": 1205,
      "ĠWh": 1206,
      "ards": 1207,
      "Ġann": 1208,
      "Ġhealth": 1209,
      "gy": 1210,
      "Ġexc": 1211,
      "RE": 1212,
      "Ġide": 1213,
      "rist": 1214,
      "Ġspecial": 1215,
      "iver": 1216,
      "ium": 1217,
      "Ġhim": 1218,
      "Ġstand": 1219,
      "Ġlooking": 1220,
      "Ġseason": 1221,
      "Ġappro": 1222,
      "ling": 1223,
      "Ġenjoy": 1224,
      "Ġinterest": 1225,
      "Ġorgan": 1226,
      "Ġquest": 1227,
      "Ġcost": 1228,
      "Ġquality": 1229,
      "thing": 1230,
      "outh": 1231,
      "Ġpat": 1232,
      "Ġcor": 1233,
      "ĠTr": 1234,
      "ton": 1235,
      "Ġeasy": 1236,
      "uss": 1237,
      ",âĢĿ": 1238,
      "uc": 1239,
      "âĢ¦": 1240,
      "Ġdef": 1241,
      "Ġview": 1242,
      "Ġfil": 1243,
      "Ġreal": 1244,
      "Ġstre": 1245,
      "ĠZ": 1246,
      "ĠInd": 1247,
      "man": 1248,
      "Ġmeet": 1249,
      "Ġnumber": 1250,
      "Ġwithin": 1251,
      "Ġdirect": 1252,
      "eng": 1253,
      "Ġwebsite": 1254,
      "Ġbetter": 1255,
      "Ġty": 1256,
      "Ġimportant": 1257,
      "Ġable": 1258,
      "itional": 1259,
      "Ġbig": 1260,
      "ĠSp": 1261,
      "iful": 1262,
      "Ġworking": 1263,
      "Ġplease": 1264,
      "Ġperform": 1265,
      "Ġdist": 1266,
      "Ġreport": 1267,
      "Ġthings": 1268,
      "ined": 1269,
      "Ġsaf": 1270,
      "Ġgive": 1271,
      "Ġgrow": 1272,
      "ĠTo": 1273,
      "Ġlittle": 1274,
      "Ġopt": 1275,
      "Ġresult": 1276,
      "ruct": 1277,
      "Ġlocal": 1278,
      "Ġgener": 1279,
      "Ġcomple": 1280,
      "Ġschool": 1281,
      "fort": 1282,
      "ĠCon": 1283,
      "Ġsecond": 1284,
      "ĠThere": 1285,
      "Ġconf": 1286,
      "ode": 1287,
      "Ġcommunity": 1288,
      "ote": 1289,
      "ploy": 1290,
      "lection": 1291,
      "Ġcheck": 1292,
      "ves": 1293,
      "ĠCent": 1294,
      "bo": 1295,
      "iday": 1296,
      "ĠUS": 1297,
      "ON": 1298,
      "Ġhead": 1299,
      "Ġwithout": 1300,
      "Ġsit": 1301,
      "be": 1302,
      "aterial": 1303,
      "Ġsl": 1304,
      "ider": 1305,
      "stand": 1306,
      "Ġthough": 1307,
      "ately": 1308,
      "to": 1309,
      "yle": 1310,
      "For": 1311,
      "Ġbelow": 1312,
      "Ġoper": 1313,
      "orn": 1314,
      "itc": 1315,
      "raph": 1316,
      "oney": 1317,
      "Ġshare": 1318,
      "Ġsince": 1319,
      "ĠHow": 1320,
      "ision": 1321,
      "ories": 1322,
      "of": 1323,
      "ĠPh": 1324,
      "aces": 1325,
      "Ġhard": 1326,
      "What": 1327,
      "Ġtri": 1328,
      "Ġpurch": 1329,
      "ift": 1330,
      "Ġmust": 1331,
      "eth": 1332,
      "Ġpartic": 1333,
      "Ġvide": 1334,
      "tect": 1335,
      "Ġdata": 1336,
      "ique": 1337,
      "Ġbed": 1338,
      "Ġequ": 1339,
      "Ġlevel": 1340,
      "ooks": 1341,
      "ales": 1342,
      "Ġla": 1343,
      "Ġthink": 1344,
      "Ġiss": 1345,
      "AT": 1346,
      "Ġair": 1347,
      "Ġput": 1348,
      "Ġear": 1349,
      "ĠCo": 1350,
      "ĠMan": 1351,
      "Ġspace": 1352,
      "Ġresp": 1353,
      "ential": 1354,
      "Ġfeatures": 1355,
      "ĠPr": 1356,
      "ley": 1357,
      "Ġdri": 1358,
      "illion": 1359,
      "ĠBut": 1360,
      "rol": 1361,
      "Ġneeds": 1362,
      "ush": 1363,
      "aj": 1364,
      "ients": 1365,
      "Ġeng": 1366,
      "Ġprofession": 1367,
      "ĠOr": 1368,
      "Ġpower": 1369,
      "ĠRes": 1370,
      "ww": 1371,
      "self": 1372,
      "Ġspec": 1373,
      "Ġincre": 1374,
      "gg": 1375,
      "ms": 1376,
      "Ġindust": 1377,
      "ĠWith": 1378,
      "sc": 1379,
      "ody": 1380,
      "agement": 1381,
      "ains": 1382,
      "ently": 1383,
      "duct": 1384,
      "pped": 1385,
      "Ġbuy": 1386,
      "Ġinvest": 1387,
      "ĠSo": 1388,
      "Ġhouse": 1389,
      "aster": 1390,
      "Ġest": 1391,
      "ator": 1392,
      "cept": 1393,
      "meric": 1394,
      "Ġcond": 1395,
      "Ġmaking": 1396,
      "Ġsite": 1397,
      "Ġmov": 1398,
      "ency": 1399,
      "con": 1400,
      "ats": 1401,
      "ember": 1402,
      "ability": 1403,
      "part": 1404,
      "Ġbeautiful": 1405,
      "ĠShe": 1406,
      "icle": 1407,
      "ann": 1408,
      "Ġimpro": 1409,
      "Ġconnect": 1410,
      "Ġbook": 1411,
      "comm": 1412,
      "Ġbre": 1413,
      "Ġoffers": 1414,
      "ission": 1415,
      "Ġtry": 1416,
      "ribut": 1417,
      "inal": 1418,
      "ills": 1419,
      "ĠâĢĺ": 1420,
      "Ġpack": 1421,
      "Ġapplic": 1422,
      "Ġinclude": 1423,
      "As": 1424,
      "Ġclean": 1425,
      "ĠFe": 1426,
      "ĠÂ": 1427,
      "Ġprice": 1428,
      "aff": 1429,
      "Ġpos": 1430,
      "Our": 1431,
      "Ġopport": 1432,
      "Ġcreat": 1433,
      "Ġcr": 1434,
      "Ġanother": 1435,
      "ists": 1436,
      "oh": 1437,
      "Ġcreate": 1438,
      "Ġlearn": 1439,
      "Ġlarge": 1440,
      "Ġpop": 1441,
      "af": 1442,
      "Ġfac": 1443,
      "Ġinf": 1444,
      "Pro": 1445,
      "Ġstore": 1446,
      "ury": 1447,
      "Ġold": 1448,
      "ights": 1449,
      "ĠOn": 1450,
      "Ġfour": 1451,
      "Ġexpl": 1452,
      "atter": 1453,
      "mber": 1454,
      "ĠOur": 1455,
      "Ġ/": 1456,
      "ec": 1457,
      "oose": 1458,
      "side": 1459,
      "ases": 1460,
      "Ġbro": 1461,
      "load": 1462,
      "Ġstate": 1463,
      "Ġsoc": 1464,
      "Ġx": 1465,
      "ird": 1466,
      "ĠApp": 1467,
      "Ġupd": 1468,
      "Ġhot": 1469,
      "work": 1470,
      "Ġmet": 1471,
      "pend": 1472,
      "by": 1473,
      "Ġcustomers": 1474,
      "ĠBr": 1475,
      "ST": 1476,
      "ope": 1477,
      "tend": 1478,
      "How": 1479,
      "ok": 1480,
      "ised": 1481,
      "Ġreview": 1482,
      "ĠFl": 1483,
      "aring": 1484,
      "ney": 1485,
      "Ġsay": 1486,
      "Ġsupp": 1487,
      "ilt": 1488,
      "ina": 1489,
      "Ġaff": 1490,
      "Ġprom": 1491,
      "Ġsoft": 1492,
      "Ġpar": 1493,
      "Ġminut": 1494,
      "Ġi": 1495,
      "Ġreturn": 1496,
      "urs": 1497,
      "Ġintern": 1498,
      "gether": 1499,
      "Ġtogether": 1500,
      "ering": 1501,
      "Ġalong": 1502,
      "ĠComm": 1503,
      "cent": 1504,
      "Ġmus": 1505,
      "Ġens": 1506,
      "Ġfood": 1507,
      "Ġrange": 1508,
      "ids": 1509,
      "Ġexpect": 1510,
      "Ġjob": 1511,
      "Ġaway": 1512,
      "ording": 1513,
      "Ġcomes": 1514,
      "Ġmight": 1515,
      "Ġfact": 1516,
      "ows": 1517,
      "Ġnear": 1518,
      "Ġprotect": 1519,
      "Ġdev": 1520,
      "Ġeffect": 1521,
      "ocus": 1522,
      "Ġcap": 1523,
      "Ġchange": 1524,
      "Sh": 1525,
      "ners": 1526,
      "Ġemail": 1527,
      "ĠChrist": 1528,
      "uck": 1529,
      "ified": 1530,
      "Ġlet": 1531,
      "ĠAmeric": 1532,
      "Ġsuccess": 1533,
      "Ġnews": 1534,
      "Ġinstall": 1535,
      "Ġproble": 1536,
      "ĠIs": 1537,
      "Ġpage": 1538,
      "ically": 1539,
      "por": 1540,
      "gin": 1541,
      "enef": 1542,
      "med": 1543,
      "Ġfollowing": 1544,
      "Ġpossible": 1545,
      "ĠServ": 1546,
      "Ġclos": 1547,
      "ex": 1548,
      "fact": 1549,
      "ele": 1550,
      "Ġactiv": 1551,
      "Ġworks": 1552,
      "uper": 1553,
      "enn": 1554,
      "Ġchildren": 1555,
      "Ġshort": 1556,
      "Ġel": 1557,
      "Ġchang": 1558,
      "lish": 1559,
      "itions": 1560,
      "ify": 1561,
      "ĠCar": 1562,
      "Ġless": 1563,
      "AN": 1564,
      "ron": 1565,
      "Ġacross": 1566,
      "ane": 1567,
      "ips": 1568,
      "There": 1569,
      "Ġbas": 1570,
      "Ġsing": 1571,
      "raft": 1572,
      "Ġsolut": 1573,
      "Ġpast": 1574,
      "ape": 1575,
      "iting": 1576,
      "iversity": 1577,
      "Ġproperty": 1578,
      "Ġmaterial": 1579,
      "ams": 1580,
      "Ġquick": 1581,
      "iety": 1582,
      "Ġfav": 1583,
      "ots": 1584,
      "Ġmembers": 1585,
      "ense": 1586,
      "Wh": 1587,
      "ivid": 1588,
      "Ġsw": 1589,
      "commend": 1590,
      "pos": 1591,
      "Ġpersonal": 1592,
      "Ġob": 1593,
      "Ġpresent": 1594,
      "rem": 1595,
      "Ġtrad": 1596,
      "ieve": 1597,
      "Ġlive": 1598,
      "Ġhours": 1599,
      "Ġpublic": 1600,
      "Ġelect": 1601,
      "til": 1602,
      "Ġgot": 1603,
      "Ġname": 1604,
      "Ch": 1605,
      "Ġnight": 1606,
      "Ġtimes": 1607,
      "AR": 1608,
      "Ġpract": 1609,
      "Ġmoney": 1610,
      "Ġbring": 1611,
      "Ġjo": 1612,
      "ateg": 1613,
      "ising": 1614,
      "Ġaccount": 1615,
      "Ġcert": 1616,
      "ĠCont": 1617,
      "ĠEng": 1618,
      "Ġside": 1619,
      "ĠMar": 1620,
      "Ġturn": 1621,
      "oice": 1622,
      "pecial": 1623,
      "itchen": 1624,
      "Ġmove": 1625,
      "ym": 1626,
      "Ġbased": 1627,
      "Ġcut": 1628,
      "ĠYour": 1629,
      "Ġsize": 1630,
      "Ġvideo": 1631,
      "uture": 1632,
      "Ġemploy": 1633,
      "ĠNo": 1634,
      "Ġagainst": 1635,
      "ipping": 1636,
      "ries": 1637,
      "ĠCan": 1638,
      "Ġcourse": 1639,
      "une": 1640,
      "Ġconst": 1641,
      "OR": 1642,
      "cri": 1643,
      "uly": 1644,
      "Ġnever": 1645,
      "uro": 1646,
      "ances": 1647,
      "ared": 1648,
      "apt": 1649,
      "ĠDes": 1650,
      "Ġmakes": 1651,
      "Ġvers": 1652,
      "Ġcomfort": 1653,
      "ummer": 1654,
      "Ġstay": 1655,
      "Ġmult": 1656,
      "Ġcity": 1657,
      "âĢĶ": 1658,
      "Ġline": 1659,
      "Ġsom": 1660,
      "unch": 1661,
      "come": 1662,
      "ĠAm": 1663,
      "Ġfocus": 1664,
      "ding": 1665,
      "ests": 1666,
      "Ġdetails": 1667,
      "ready": 1668,
      "ĠMay": 1669,
      "Com": 1670,
      "Ġchar": 1671,
      "ĠCity": 1672,
      "ivery": 1673,
      "Ġnet": 1674,
      "ĠâĢĶ": 1675,
      "ĠCount": 1676,
      "Ġland": 1677,
      "Ġuntil": 1678,
      "AL": 1679,
      "Ġtem": 1680,
      "ured": 1681,
      "sh": 1682,
      "Ġpa": 1683,
      "ĠWor": 1684,
      "aur": 1685,
      "arent": 1686,
      "Ġbenef": 1687,
      "ienc": 1688,
      "Ġhist": 1689,
      "Ġwr": 1690,
      "Ġpie": 1691,
      "fer": 1692,
      "He": 1693,
      "ration": 1694,
      "Ġbuilding": 1695,
      "ED": 1696,
      "Ad": 1697,
      "alf": 1698,
      "atest": 1699,
      "hether": 1700,
      "ĠChe": 1701,
      "ones": 1702,
      "raw": 1703,
      "ination": 1704,
      "ĠX": 1705,
      "ES": 1706,
      "Ġcamp": 1707,
      "Ġ.": 1708,
      "Ġtool": 1709,
      "app": 1710,
      "the": 1711,
      "Ġtravel": 1712,
      "Ġask": 1713,
      "Ġdr": 1714,
      "ization": 1715,
      "Ġfriends": 1716,
      "Ġste": 1717,
      "An": 1718,
      "verage": 1719,
      "Ġunderstand": 1720,
      "'re": 1721,
      "osp": 1722,
      "Ġstudents": 1723,
      "ball": 1724,
      "Ġindustry": 1725,
      "Ġgroup": 1726,
      "ĠAt": 1727,
      "ump": 1728,
      "Ġtre": 1729,
      "Ġdesigned": 1730,
      "irt": 1731,
      "pro": 1732,
      "Ġrecommend": 1733,
      "Ġhaving": 1734,
      "Ġquestions": 1735,
      "Ġsol": 1736,
      "wards": 1737,
      "omen": 1738,
      "ides": 1739,
      "Ġitems": 1740,
      "ai": 1741,
      "Ġfit": 1742,
      "To": 1743,
      "Ġdeal": 1744,
      "Ġwhy": 1745,
      "Ġmain": 1746,
      "Ġmaint": 1747,
      "veral": 1748,
      "orts": 1749,
      "ived": 1750,
      "EN": 1751,
      "ĠGu": 1752,
      "Ġstep": 1753,
      "ention": 1754,
      "Ġ|": 1755,
      "Ġrequire": 1756,
      "Ġfuture": 1757,
      "book": 1758,
      "ograph": 1759,
      "Ġdevelopment": 1760,
      "Ġlocated": 1761,
      "Ġwind": 1762,
      "Ġunique": 1763,
      "mm": 1764,
      "atural": 1765,
      "Ġalready": 1766,
      "Ġprint": 1767,
      "ement": 1768,
      "Ġlow": 1769,
      "ten": 1770,
      "play": 1771,
      "Ġgetting": 1772,
      "!!": 1773,
      "Ġ#": 1774,
      "ister": 1775,
      "Ġorig": 1776,
      "Ġtreat": 1777,
      "ufact": 1778,
      "resh": 1779,
      "Ġpriv": 1780,
      "sw": 1781,
      "//": 1782,
      "Ġ:": 1783,
      "Ġtechnology": 1784,
      "Ġmonths": 1785,
      "rop": 1786,
      "Ġcommun": 1787,
      "Ġcolor": 1788,
      "ource": 1789,
      "yn": 1790,
      "Ġannoun": 1791,
      "Ġhold": 1792,
      "vious": 1793,
      "Ġleft": 1794,
      "ĠMe": 1795,
      "ĠPark": 1796,
      "Ġsell": 1797,
      "Ġspecific": 1798,
      "Ġcard": 1799,
      "Ġbecome": 1800,
      "ĠNe": 1801,
      "hor": 1802,
      "anies": 1803,
      "Ġcomplet": 1804,
      "ĠOff": 1805,
      "elebr": 1806,
      "yl": 1807,
      "Ġmillion": 1808,
      ".\"": 1809,
      "Ġdem": 1810,
      "ored": 1811,
      "aging": 1812,
      "When": 1813,
      "Ġbath": 1814,
      "ĠWhen": 1815,
      "Ġbeh": 1816,
      "Ġminutes": 1817,
      "Ġseveral": 1818,
      "ilities": 1819,
      "Ġprofessional": 1820,
      "lex": 1821,
      "Ġoffic": 1822,
      "ĠThese": 1823,
      "ĠMed": 1824,
      "Ġcase": 1825,
      "Ġfront": 1826,
      "Ġconc": 1827,
      "Ġwa": 1828,
      "iles": 1829,
      "://": 1830,
      "Ġhost": 1831,
      "rict": 1832,
      "Ġcomplete": 1833,
      "ajor": 1834,
      "ĠSchool": 1835,
      "Ġdone": 1836,
      "Ġoptions": 1837,
      "Ġlim": 1838,
      "Ġyet": 1839,
      "de": 1840,
      "urther": 1841,
      "ĠSu": 1842,
      "Ġliving": 1843,
      "Ġcomb": 1844,
      "Ġseries": 1845,
      "Ġterm": 1846,
      "ober": 1847,
      "Ġfund": 1848,
      "Ġcou": 1849,
      "Ġsocial": 1850,
      "Ġpot": 1851,
      "Ġstarted": 1852,
      "obile": 1853,
      "oom": 1854,
      "Ġsho": 1855,
      "Ġprovides": 1856,
      "Ġtour": 1857,
      "Ġgames": 1858,
      "Ġcountry": 1859,
      "Ġmeans": 1860,
      "astic": 1861,
      "Ġes": 1862,
      "Ġcontrol": 1863,
      "ividual": 1864,
      "ference": 1865,
      "Ġele": 1866,
      "Ġlatest": 1867,
      "Ġkey": 1868,
      "Ġrese": 1869,
      "Ġever": 1870,
      "back": 1871,
      "Ġincludes": 1872,
      "ĠBu": 1873,
      "rom": 1874,
      "ĠWhat": 1875,
      "gle": 1876,
      "Ġoffice": 1877,
      "ĠComp": 1878,
      "irm": 1879,
      "Ġevents": 1880,
      "Ġnon": 1881,
      "ĠPlease": 1882,
      "All": 1883,
      "urity": 1884,
      "anks": 1885,
      "Ġselect": 1886,
      "ches": 1887,
      "rap": 1888,
      "Ġvol": 1889,
      "Ġoften": 1890,
      "ID": 1891,
      "Please": 1892,
      "redit": 1893,
      "Ġhol": 1894,
      "ruction": 1895,
      "Ġmusic": 1896,
      "ĠBo": 1897,
      "__": 1898,
      "Ġconsider": 1899,
      "Ġfloor": 1900,
      "Ġeverything": 1901,
      "ring": 1902,
      "min": 1903,
      "Ġcustomer": 1904,
      "ably": 1905,
      "Ġbrand": 1906,
      "Ġrecord": 1907,
      "Ġmar": 1908,
      "Ġstaff": 1909,
      "nov": 1910,
      "AC": 1911,
      "Ġreceive": 1912,
      "Ġkind": 1913,
      "ĠIntern": 1914,
      "urch": 1915,
      "Ġchall": 1916,
      "Ġmom": 1917,
      "Ġstyle": 1918,
      "Ġstrong": 1919,
      "Ġimprove": 1920,
      "ohn": 1921,
      "Ġwon": 1922,
      "Ġstory": 1923,
      "Ġhig": 1924,
      "On": 1925,
      "ental": 1926,
      "Ġdue": 1927,
      "Ġdiscuss": 1928,
      "Ġareas": 1929,
      "ources": 1930,
      "ism": 1931,
      "iven": 1932,
      "ĠJan": 1933,
      "Ġmind": 1934,
      "Ġtest": 1935,
      "ained": 1936,
      "now": 1937,
      "Ġleg": 1938,
      "igital": 1939,
      "Ġensure": 1940,
      "ĠThat": 1941,
      "oll": 1942,
      "ster": 1943,
      "Ġlog": 1944,
      "Ġrele": 1945,
      "Ġocc": 1946,
      "Ġveh": 1947,
      "aged": 1948,
      "itive": 1949,
      "Ġready": 1950,
      "ux": 1951,
      "acy": 1952,
      "Ġenough": 1953,
      "IT": 1954,
      "cription": 1955,
      "ouch": 1956,
      "Ġcontent": 1957,
      "IC": 1958,
      "Ġchoose": 1959,
      "Ġbegin": 1960,
      "ĠUniversity": 1961,
      "for": 1962,
      "ĠOne": 1963,
      "son": 1964,
      "ĠSouth": 1965,
      "urance": 1966,
      "reet": 1967,
      "ional": 1968,
      "Ġsimple": 1969,
      "par": 1970,
      "Ġ'": 1971,
      "ĠGr": 1972,
      "ĠEn": 1973,
      "Ġport": 1974,
      "--": 1975,
      "Ġcompanies": 1976,
      "Ġkitchen": 1977,
      "Ġsearch": 1978,
      "pm": 1979,
      "ĠQu": 1980,
      "Ġadded": 1981,
      "ops": 1982,
      "isting": 1983,
      "Ġener": 1984,
      "err": 1985,
      "Ġrepl": 1986,
      "rain": 1987,
      "Ġflow": 1988,
      "ĠDo": 1989,
      "ample": 1990,
      "augh": 1991,
      "idd": 1992,
      "Ġseem": 1993,
      "Ġfoot": 1994,
      "ĠNorth": 1995,
      "Ġindividual": 1996,
      "ched": 1997,
      "Ġsingle": 1998,
      "ille": 1999,
      "rew": 2000,
      "Ġheart": 2001,
      "Ġredu": 2002,
      "ĠSm": 2003,
      "ĠDay": 2004,
      "iam": 2005,
      "Ġclose": 2006,
      "'ll": 2007,
      "ites": 2008,
      "arden": 2009,
      "Ġmajor": 2010,
      "Ġdate": 2011,
      "Ġweb": 2012,
      "Ġtot": 2013,
      "ĠHigh": 2014,
      "ĠBro": 2015,
      "Ġfriend": 2016,
      "Ġz": 2017,
      "ancial": 2018,
      "Ġword": 2019,
      "Ġearly": 2020,
      "ĠAust": 2021,
      "Ġthing": 2022,
      "ĠMin": 2023,
      "Ġwalk": 2024,
      "Ġperformance": 2025,
      "Ġfield": 2026,
      "Ġbreak": 2027,
      "Ġsales": 2028,
      "atform": 2029,
      "Ġmot": 2030,
      "With": 2031,
      "Ġpurchase": 2032,
      "ĠCal": 2033,
      "Ġpri": 2034,
      "coming": 2035,
      "Ġhom": 2036,
      "Ġlocation": 2037,
      "Cl": 2038,
      "Ġonce": 2039,
      "cle": 2040,
      "time": 2041,
      "Ġexperienc": 2042,
      "iation": 2043,
      "Ġaddress": 2044,
      "Ex": 2045,
      "âĢ¢": 2046,
      "Ġfive": 2047,
      "uary": 2048,
      "azing": 2049,
      "Ġaddition": 2050,
      "Ġfavor": 2051,
      "Ġcelebr": 2052,
      "Ġothers": 2053,
      "me": 2054,
      "asing": 2055,
      "Ġcal": 2056,
      "amer": 2057,
      "ĠEuro": 2058,
      "ĠGod": 2059,
      "Ġvalue": 2060,
      "Ġphone": 2061,
      "ĠInst": 2062,
      "Ġbit": 2063,
      "Ġtrack": 2064,
      "Ġthroughout": 2065,
      "ipment": 2066,
      "Ġopportunity": 2067,
      "Ġpict": 2068,
      "Ġabove": 2069,
      "Ġclients": 2070,
      "ĠTw": 2071,
      "Ġcurrently": 2072,
      "Ph": 2073,
      "Ġfore": 2074,
      "Ġpopular": 2075,
      "roll": 2076,
      "aim": 2077,
      "Ġlik": 2078,
      "ĠAss": 2079,
      "ees": 2080,
      "Ġfire": 2081,
      "Ġbox": 2082,
      "Ġtraining": 2083,
      "vert": 2084,
      "most": 2085,
      "Al": 2086,
      "Ġvia": 2087,
      "Ġprovided": 2088,
      "ĠÂ£": 2089,
      "resent": 2090,
      "Ġforward": 2091,
      "ĠCO": 2092,
      "inks": 2093,
      "aining": 2094,
      "Ġappear": 2095,
      "ream": 2096,
      "ibility": 2097,
      "Ġfar": 2098,
      "ĠPol": 2099,
      "ĠCounty": 2100,
      "ensive": 2101,
      "ager": 2102,
      "opy": 2103,
      "Ġey": 2104,
      "Ġass": 2105,
      "itor": 2106,
      "itted": 2107,
      "Ġresults": 2108,
      "Ġwond": 2109,
      "lished": 2110,
      "Ġbedroom": 2111,
      "ĠMy": 2112,
      "Ġbar": 2113,
      "Ġlarg": 2114,
      "ĠMore": 2115,
      "nes": 2116,
      "Ġsummer": 2117,
      "Ġsays": 2118,
      "clus": 2119,
      "ĠUnited": 2120,
      "Ġmiss": 2121,
      "ural": 2122,
      "iate": 2123,
      "Ġbody": 2124,
      "Ġeveryone": 2125,
      "ided": 2126,
      "Ġroad": 2127,
      "ĠAir": 2128,
      "ask": 2129,
      "over": 2130,
      "Ġtype": 2131,
      "pper": 2132,
      "Ġhum": 2133,
      "ibr": 2134,
      "Ġsoon": 2135,
      "ger": 2136,
      "ony": 2137,
      "imate": 2138,
      "Ġenc": 2139,
      "Ġwood": 2140,
      "aturday": 2141,
      "cast": 2142,
      "Ġextra": 2143,
      "Ġhope": 2144,
      "AS": 2145,
      "ither": 2146,
      "Ġmanufact": 2147,
      "Ġeduc": 2148,
      "arr": 2149,
      "Ġfurther": 2150,
      "Ġmess": 2151,
      "Ġnatural": 2152,
      "ĠHowever": 2153,
      "ret": 2154,
      "Ġclear": 2155,
      "Ġdoing": 2156,
      "elcome": 2157,
      "Ġdou": 2158,
      "illed": 2159,
      "atic": 2160,
      "uff": 2161,
      "Ġknown": 2162,
      "IS": 2163,
      "orage": 2164,
      "Ġmanagement": 2165,
      "ĠDis": 2166,
      "aps": 2167,
      "fully": 2168,
      "Ġyoung": 2169,
      "Ġenergy": 2170,
      "Ġtable": 2171,
      "Ġpick": 2172,
      "Ġtaking": 2173,
      "ek": 2174,
      "Ġmatch": 2175,
      "Ġrequired": 2176,
      "oon": 2177,
      "ĠUs": 2178,
      "Ġmach": 2179,
      "Ġinvol": 2180,
      "eter": 2181,
      "oved": 2182,
      "ires": 2183,
      "'ve": 2184,
      "Ġmean": 2185,
      "Ġpress": 2186,
      "ply": 2187,
      "ĠTra": 2188,
      "Ġbuilt": 2189,
      "aily": 2190,
      "Ġdelivery": 2191,
      "conom": 2192,
      "Ġhappy": 2193,
      "inc": 2194,
      "sel": 2195,
      "icy": 2196,
      "Ġtook": 2197,
      "idge": 2198,
      "Ġparticip": 2199,
      "icro": 2200,
      "iod": 2201,
      "Ġful": 2202,
      "Ġamount": 2203,
      "Ġwrit": 2204,
      "Cont": 2205,
      "Ġrespons": 2206,
      "Ġyourself": 2207,
      "ĠFriday": 2208,
      "Ġvarious": 2209,
      "Ġcalled": 2210,
      "ĠEd": 2211,
      "Ġtal": 2212,
      "aken": 2213,
      "OU": 2214,
      "ĠPer": 2215,
      "Ġmedia": 2216,
      "ĠRep": 2217,
      "Ġaccom": 2218,
      "Ġmen": 2219,
      "Ġlaw": 2220,
      "egr": 2221,
      "itch": 2222,
      "face": 2223,
      "Ġoption": 2224,
      "bor": 2225,
      "Ġcover": 2226,
      "Ġet": 2227,
      "Ġsend": 2228,
      "Ġsun": 2229,
      "Ġcame": 2230,
      "pecially": 2231,
      "Ġpoints": 2232,
      "ellent": 2233,
      "Ġwatch": 2234,
      "ĠJohn": 2235,
      "Ġcontinue": 2236,
      "Ġmeas": 2237,
      "ilar": 2238,
      "Ġcoming": 2239,
      "Ġwide": 2240,
      "abor": 2241,
      "Ġtext": 2242,
      "Ġtell": 2243,
      "unday": 2244,
      "airs": 2245,
      "Ġresearch": 2246,
      "obal": 2247,
      "ged": 2248,
      "Be": 2249,
      "Ġ...": 2250,
      "Ġfast": 2251,
      "ĠKe": 2252,
      "ino": 2253,
      "Ġcharact": 2254,
      "atures": 2255,
      "ram": 2256,
      "go": 2257,
      "Ã©": 2258,
      "Ġtyp": 2259,
      "Ġwhite": 2260,
      "ING": 2261,
      "ĠCenter": 2262,
      "Ġadditional": 2263,
      "Ġautom": 2264,
      "Ġansw": 2265,
      "alls": 2266,
      "Ġissues": 2267,
      "imum": 2268,
      "Ġincluded": 2269,
      "lement": 2270,
      "Ġinsp": 2271,
      "head": 2272,
      "arning": 2273,
      "ĠUK": 2274,
      "Ġplatform": 2275,
      "Ġface": 2276,
      "ĠPart": 2277,
      "Ġlink": 2278,
      "year": 2279,
      "mercial": 2280,
      "âĢĵ": 2281,
      "pril": 2282,
      "umb": 2283,
      "ĠPar": 2284,
      "Ġdoesn": 2285,
      "ĠOct": 2286,
      "Ġseen": 2287,
      "ĠState": 2288,
      "ĠWorld": 2289,
      "ledge": 2290,
      "Ġsuper": 2291,
      "onday": 2292,
      "Ġmag": 2293,
      ".,": 2294,
      "ĠWest": 2295,
      "rodu": 2296,
      "edding": 2297,
      "icult": 2298,
      "Ġplayers": 2299,
      "Ġfre": 2300,
      "itter": 2301,
      "Ġattend": 2302,
      "oogle": 2303,
      "wood": 2304,
      "ĠVal": 2305,
      "ĠNot": 2306,
      "Ġblog": 2307,
      "Ġago": 2308,
      "mas": 2309,
      "Ġhalf": 2310,
      "Ġsle": 2311,
      "Ġneeded": 2312,
      "Ġsafe": 2313,
      "Ġways": 2314,
      "not": 2315,
      "ead": 2316,
      "Ġach": 2317,
      "ises": 2318,
      "iple": 2319,
      "Ġusers": 2320,
      "Ġallows": 2321,
      "Ġleast": 2322,
      "Ġcertain": 2323,
      "Ġdrive": 2324,
      "ffic": 2325,
      "ĠGl": 2326,
      "Ġord": 2327,
      "Ġhappen": 2328,
      "ĠReg": 2329,
      "icles": 2330,
      "Ġweeks": 2331,
      "ades": 2332,
      "ĠEurope": 2333,
      "Ġamazing": 2334,
      "Ġrelations": 2335,
      "Ġdog": 2336,
      "rive": 2337,
      "Ġcoll": 2338,
      "Ġdam": 2339,
      "Ġspend": 2340,
      "No": 2341,
      "irl": 2342,
      "Ġlater": 2343,
      "Ġsoftware": 2344,
      "ung": 2345,
      "Ġengine": 2346,
      "Ġprep": 2347,
      "Ġfinal": 2348,
      "Ġbott": 2349,
      "Ġrent": 2350,
      "Ġclick": 2351,
      "mit": 2352,
      "ĠBar": 2353,
      "aced": 2354,
      "Ġtown": 2355,
      "ĠEm": 2356,
      "oud": 2357,
      "ĠIm": 2358,
      "eds": 2359,
      "Ġcreated": 2360,
      "Ġprivate": 2361,
      "ables": 2362,
      "Ġtax": 2363,
      "ief": 2364,
      "Ġcredit": 2365,
      "ued": 2366,
      "alt": 2367,
      "Ġproblem": 2368,
      "Ġsix": 2369,
      "just": 2370,
      "AM": 2371,
      "Ġrunning": 2372,
      "Ġentire": 2373,
      "ĠHere": 2374,
      "lege": 2375,
      "Ġmark": 2376,
      "org": 2377,
      "Ġhair": 2378,
      "orning": 2379,
      "OT": 2380,
      "Ġheld": 2381,
      "Ġofficial": 2382,
      "Ġcontract": 2383,
      "ĠSaturday": 2384,
      "ands": 2385,
      "Ġred": 2386,
      "Ġsale": 2387,
      "Ġpain": 2388,
      "Ġvariety": 2389,
      "Ġperiod": 2390,
      "ĠHome": 2391,
      "Ġregular": 2392,
      "hers": 2393,
      "Ġ[": 2394,
      "Ġpotential": 2395,
      "cy": 2396,
      "Ġhistory": 2397,
      "Ġtouch": 2398,
      "Ġgiven": 2399,
      "anced": 2400,
      "Ġimpact": 2401,
      "Ġcool": 2402,
      "Ġoriginal": 2403,
      "Ġsitu": 2404,
      "Ġfamil": 2405,
      "ĠNational": 2406,
      "ĠAfter": 2407,
      "arter": 2408,
      "Ġjour": 2409,
      "ators": 2410,
      "Ġversion": 2411,
      "ians": 2412,
      "Ġmodel": 2413,
      "Ġprojects": 2414,
      "Ġwhole": 2415,
      "ĠAmerican": 2416,
      "arant": 2417,
      "Ġwent": 2418,
      "ming": 2419,
      "Ġeasily": 2420,
      "Ġblack": 2421,
      "Ġapplication": 2422,
      "Ġrestaur": 2423,
      ",\"": 2424,
      "ĠAug": 2425,
      "ĠDr": 2426,
      "Ġfunction": 2427,
      "ival": 2428,
      "Ġaccording": 2429,
      "nder": 2430,
      "Ġsound": 2431,
      "Ġdiff": 2432,
      "ĠAut": 2433,
      "ham": 2434,
      "ague": 2435,
      "Ġdisplay": 2436,
      "Ġsystems": 2437,
      "Ġskin": 2438,
      "ada": 2439,
      "Ġconsum": 2440,
      "Ġoutside": 2441,
      "Ġcollect": 2442,
      "Ġpub": 2443,
      "Ġactivities": 2444,
      "Ġ+": 2445,
      "Ġgift": 2446,
      "aching": 2447,
      "crib": 2448,
      "Ġthird": 2449,
      "ength": 2450,
      "ĠSept": 2451,
      "Ġparticular": 2452,
      "ĠSte": 2453,
      "isk": 2454,
      "ĠJuly": 2455,
      "New": 2456,
      "Ġespecially": 2457,
      "Ġtakes": 2458,
      "So": 2459,
      "Ġincrease": 2460,
      "Ġequipment": 2461,
      "Ġround": 2462,
      "ĠPe": 2463,
      "ĠArt": 2464,
      "earch": 2465,
      "elt": 2466,
      "ze": 2467,
      "ĠJune": 2468,
      "icated": 2469,
      "Ġinside": 2470,
      "ĠMarch": 2471,
      "Ġreason": 2472,
      "Ġposition": 2473,
      "Ġmeeting": 2474,
      "Ġtotal": 2475,
      "put": 2476,
      "Ġfavorite": 2477,
      "ĠAustral": 2478,
      "Ġfab": 2479,
      "Ġmodern": 2480,
      "aving": 2481,
      "ĠInc": 2482,
      "ulation": 2483,
      "overed": 2484,
      "Ġparent": 2485,
      "Ġcollection": 2486,
      "ĠSw": 2487,
      "And": 2488,
      "Ġlay": 2489,
      "aus": 2490,
      "ication": 2491,
      "hips": 2492,
      "iet": 2493,
      "Ġdry": 2494,
      "Ġlo": 2495,
      "Ġpercent": 2496,
      "Ġcult": 2497,
      "ĠYork": 2498,
      "ĠSunday": 2499,
      "Ġdidn": 2500,
      "ole": 2501,
      "ĠJanuary": 2502,
      "ground": 2503,
      "Ġage": 2504,
      "cember": 2505,
      "Ġprevious": 2506,
      "Ġapply": 2507,
      "Ġthought": 2508,
      "At": 2509,
      "ĠStreet": 2510,
      "Ġsil": 2511,
      "ĠWill": 2512,
      "ET": 2513,
      "Ġpan": 2514,
      "Ġskills": 2515,
      "Ġgoal": 2516,
      "ogn": 2517,
      "ĠMc": 2518,
      "Ġchoice": 2519,
      "wor": 2520,
      "ĠApril": 2521,
      "bout": 2522,
      "Ġeffic": 2523,
      "Ġwonder": 2524,
      "angu": 2525,
      "Ġinj": 2526,
      "light": 2527,
      "Ġcommon": 2528,
      "urg": 2529,
      "Ġfinish": 2530,
      "ovember": 2531,
      "Ġsomeone": 2532,
      "Ġmember": 2533,
      "Ġwomen": 2534,
      "Ġreceived": 2535,
      "**": 2536,
      "ively": 2537,
      "ville": 2538,
      "Ġclub": 2539,
      "Ġfinancial": 2540,
      "Ġkids": 2541,
      "ĠCor": 2542,
      "Ġrecently": 2543,
      "Ġvac": 2544,
      "Ġproviding": 2545,
      "ĠUp": 2546,
      "Ġsche": 2547,
      "Ġetc": 2548,
      "ecut": 2549,
      "Ġcondition": 2550,
      "ĠFace": 2551,
      "ION": 2552,
      "ana": 2553,
      "Ġbag": 2554,
      "Ġleave": 2555,
      "aker": 2556,
      "ached": 2557,
      "Ġsafety": 2558,
      "ĠHealth": 2559,
      "Ġwhether": 2560,
      "Ġexample": 2561,
      "oid": 2562,
      "Ġsave": 2563,
      "Ġess": 2564,
      "Ġfall": 2565,
      "Ġeither": 2566,
      "kend": 2567,
      "aby": 2568,
      "OS": 2569,
      "ĠBlack": 2570,
      "Ġhit": 2571,
      "Ġbase": 2572,
      "Ġoil": 2573,
      "idence": 2574,
      "yd": 2575,
      "Ġant": 2576,
      "LS": 2577,
      "Ġdownload": 2578,
      "izes": 2579,
      "'m": 2580,
      "Ġrate": 2581,
      "ĠAdd": 2582,
      "ĠSec": 2583,
      "ĠMon": 2584,
      "Ġsqu": 2585,
      "Ġchanges": 2586,
      "Ġprices": 2587,
      "imal": 2588,
      "Ġdeliver": 2589,
      "Ġbus": 2590,
      "Ġquickly": 2591,
      "Ġstock": 2592,
      "ĠOut": 2593,
      "Ġ,": 2594,
      "Ġtaken": 2595,
      "Ġtalk": 2596,
      "che": 2597,
      "board": 2598,
      "Ġground": 2599,
      "ĠFin": 2600,
      "ĠAre": 2601,
      "ĠChristmas": 2602,
      "right": 2603,
      "Ġidea": 2604,
      "hing": 2605,
      "ĠEl": 2606,
      "ipped": 2607,
      "Ġdraw": 2608,
      "oring": 2609,
      "Ġproduction": 2610,
      "Ġrole": 2611,
      "Ġdigital": 2612,
      "Des": 2613,
      "Ġstorage": 2614,
      "ĠDesign": 2615,
      "ĠMonday": 2616,
      "rec": 2617,
      "Ġintegr": 2618,
      "ype": 2619,
      "cer": 2620,
      "Ġlonger": 2621,
      "selves": 2622,
      "ĠDirect": 2623,
      "Ġmobile": 2624,
      "ctor": 2625,
      "Ġphotos": 2626,
      "Ġactually": 2627,
      "Ġinit": 2628,
      "uge": 2629,
      "ler": 2630,
      "ox": 2631,
      "door": 2632,
      "rs": 2633,
      "Ġsat": 2634,
      "Ġpaint": 2635,
      "Ġquestion": 2636,
      "ĠService": 2637,
      "Ġplans": 2638,
      "Ġnote": 2639,
      "Ġsolutions": 2640,
      "Read": 2641,
      "ĠDep": 2642,
      "Ġmaterials": 2643,
      "Ġbusinesses": 2644,
      "Ġfresh": 2645,
      "Ġbehind": 2646,
      "ĠAg": 2647,
      "Ġpiece": 2648,
      "ĠTV": 2649,
      "Ġself": 2650,
      "Ġcomput": 2651,
      "house": 2652,
      "Ġcharg": 2653,
      "Ġsolution": 2654,
      "Ġgrowth": 2655,
      "Ġpartners": 2656,
      "Ġknowledge": 2657,
      "though": 2658,
      "LE": 2659,
      "Ġswe": 2660,
      "hib": 2661,
      "Ġident": 2662,
      "Ġrecent": 2663,
      "cing": 2664,
      "Ġstandard": 2665,
      "Ġboard": 2666,
      "ification": 2667,
      "unities": 2668,
      "Ġdetail": 2669,
      "Add": 2670,
      "ĠBusiness": 2671,
      "istration": 2672,
      "Ġsecurity": 2673,
      "uk": 2674,
      "Ġnecess": 2675,
      "ĠSk": 2676,
      "ĠGroup": 2677,
      "Ġinsurance": 2678,
      "Ġmount": 2679,
      "ĠDon": 2680,
      "Ġdifficult": 2681,
      "Ġmarketing": 2682,
      "Ġjoin": 2683,
      "Your": 2684,
      "Ġnetwork": 2685,
      "Ġeconom": 2686,
      "ondon": 2687,
      "Ġleading": 2688,
      "Ġbal": 2689,
      "Ġbra": 2690,
      "Ġhtt": 2691,
      "off": 2692,
      "Ġquite": 2693,
      "Ġprior": 2694,
      "Ġwarm": 2695,
      "Ġfully": 2696,
      "Ġexcellent": 2697,
      "Ġmorning": 2698,
      "Ġpaper": 2699,
      "Ġaccept": 2700,
      "Ġcouple": 2701,
      "partment": 2702,
      "Ġbelieve": 2703,
      "Ġple": 2704,
      "ĠNet": 2705,
      "inking": 2706,
      "Ġhon": 2707,
      "Ġrepresent": 2708,
      "ume": 2709,
      "Ġscreen": 2710,
      "ĠRed": 2711,
      "Ġalmost": 2712,
      "ĠNow": 2713,
      "izing": 2714,
      "Ġshows": 2715,
      "Ġdoor": 2716,
      "itable": 2717,
      "hood": 2718,
      "hel": 2719,
      "ĠSer": 2720,
      "ĠHouse": 2721,
      "ĠFeb": 2722,
      "Ġcenter": 2723,
      "eed": 2724,
      "Â®": 2725,
      "Ġcode": 2726,
      "ĠGe": 2727,
      "Ġshipping": 2728,
      "ĠOctober": 2729,
      "Ġdaily": 2730,
      "Ġsimply": 2731,
      "Ġtrip": 2732,
      "ĠPres": 2733,
      "ursday": 2734,
      "Ġpool": 2735,
      "Ġannounced": 2736,
      "Ġlooks": 2737,
      "ĠGoogle": 2738,
      "Ġtools": 2739,
      "based": 2740,
      "HE": 2741,
      "ĠRoad": 2742,
      "ties": 2743,
      "Ġabs": 2744,
      "ounc": 2745,
      "olf": 2746,
      "Ġvehicle": 2747,
      "Ġrout": 2748,
      "Ġrequest": 2749,
      "cover": 2750,
      "ĠInt": 2751,
      "ules": 2752,
      "Ġlearning": 2753,
      "Un": 2754,
      "Ġcareer": 2755,
      "ĠDel": 2756,
      "irth": 2757,
      "ĠSeptember": 2758,
      "ĠServices": 2759,
      "ĠAcc": 2760,
      "ha": 2761,
      "osed": 2762,
      "ednes": 2763,
      "dule": 2764,
      "Ġarticle": 2765,
      "Ġsmo": 2766,
      "Ġworth": 2767,
      "Ġded": 2768,
      "Ġcomfortable": 2769,
      "Ġrelease": 2770,
      "Ġanything": 2771,
      "Ġdirectly": 2772,
      "Ġparts": 2773,
      "ivity": 2774,
      "Ġchalleng": 2775,
      "riend": 2776,
      "ĠHol": 2777,
      "Ġhelps": 2778,
      "US": 2779,
      "Ġdeb": 2780,
      "ging": 2781,
      "iron": 2782,
      "ison": 2783,
      "lier": 2784,
      "ĠFrom": 2785,
      "Ġauthor": 2786,
      "ĠWind": 2787,
      "Ġchance": 2788,
      "Ġconstruction": 2789,
      "Ġsent": 2790,
      "ĠDecember": 2791,
      "gress": 2792,
      "ĠJust": 2793,
      "oe": 2794,
      "ĠAc": 2795,
      "Pl": 2796,
      "Ġtick": 2797,
      "Ġpractice": 2798,
      "Ġfilm": 2799,
      "mod": 2800,
      "reg": 2801,
      "ĠFacebook": 2802,
      "ĠStud": 2803,
      "Ġplaying": 2804,
      "My": 2805,
      "uesday": 2806,
      "Ġcamer": 2807,
      "Ġproblems": 2808,
      "ffee": 2809,
      "idents": 2810,
      "ĠRead": 2811,
      "Ġsugg": 2812,
      "ĠNovember": 2813,
      "Here": 2814,
      "Ġpass": 2815,
      "ĠBy": 2816,
      "Ġuser": 2817,
      "Ġsimilar": 2818,
      "Ġhighly": 2819,
      "Ġinterested": 2820,
      "Ġsignific": 2821,
      "Ġarr": 2822,
      "Ġissue": 2823,
      "Ġwedding": 2824,
      "ĠAugust": 2825,
      "Ġsmart": 2826,
      "De": 2827,
      "Ġgarden": 2828,
      "AD": 2829,
      "Ġprem": 2830,
      "ething": 2831,
      "Ġcontribut": 2832,
      "Ġplant": 2833,
      "Ġideas": 2834,
      "Ġplanning": 2835,
      "Ġreach": 2836,
      "acing": 2837,
      "Ġstra": 2838,
      "Do": 2839,
      "Ġlikely": 2840,
      "Ġsubs": 2841,
      "ĠLa": 2842,
      "ĠAv": 2843,
      "Ġfurn": 2844,
      "Ġdevice": 2845,
      "Ġinnov": 2846,
      "ructure": 2847,
      "Ġtypes": 2848,
      "eral": 2849,
      "Ġlives": 2850,
      "Ġsn": 2851,
      "ednesday": 2852,
      "Ġaction": 2853,
      "Ġweekend": 2854,
      "Ġweather": 2855,
      "Ġcosts": 2856,
      "ĠSan": 2857,
      "Ġbenefits": 2858,
      "ett": 2859,
      "Ġshop": 2860,
      "Ġexpert": 2861,
      "ĠAf": 2862,
      "EO": 2863,
      "emic": 2864,
      "Ġmultiple": 2865,
      "Ġphys": 2866,
      "Ġwanted": 2867,
      "ĠPa": 2868,
      "One": 2869,
      "Ġpret": 2870,
      "Ġparty": 2871,
      "Ġdefin": 2872,
      "Ġmoment": 2873,
      "avy": 2874,
      "Ġnice": 2875,
      "Ġhotel": 2876,
      "Ġut": 2877,
      "iding": 2878,
      "my": 2879,
      "www": 2880,
      "rect": 2881,
      "riving": 2882,
      "Ġbathroom": 2883,
      "Ġhomes": 2884,
      "aches": 2885,
      "nam": 2886,
      "Get": 2887,
      "OM": 2888,
      "Ġdecor": 2889,
      "Ġprob": 2890,
      "Pr": 2891,
      "Ġinternational": 2892,
      "iff": 2893,
      "Fe": 2894,
      "Ġstop": 2895,
      "ĠStates": 2896,
      "ership": 2897,
      "mail": 2898,
      "Ġconditions": 2899,
      "Ġwal": 2900,
      "ĠLondon": 2901,
      "Ġstarting": 2902,
      "Ġgives": 2903,
      "Ġfeed": 2904,
      "Ġoffering": 2905,
      "rown": 2906,
      "ouncil": 2907,
      "Ġhowever": 2908,
      "Ġtold": 2909,
      "Ġmix": 2910,
      "iring": 2911,
      "uit": 2912,
      "hern": 2913,
      "Ġstudy": 2914,
      "ĠHot": 2915,
      "ĠYear": 2916,
      "EC": 2917,
      "Ġbud": 2918,
      "where": 2919,
      "PS": 2920,
      "ruary": 2921,
      "Ġimage": 2922,
      "Ġreviews": 2923,
      "Ġexpected": 2924,
      "Ġgold": 2925,
      "ĠMarket": 2926,
      "Ġdress": 2927,
      "ĠDet": 2928,
      "Ġpretty": 2929,
      "Ġtrail": 2930,
      "Ġdeep": 2931,
      "asons": 2932,
      "After": 2933,
      "olution": 2934,
      "Ġwear": 2935,
      "oman": 2936,
      "ĠAssoc": 2937,
      "Ġlif": 2938,
      "ĠInformation": 2939,
      "ĠFree": 2940,
      "Ġencour": 2941,
      "Ġopportunities": 2942,
      "enance": 2943,
      "Ġexact": 2944,
      "ester": 2945,
      "amily": 2946,
      "oday": 2947,
      "Ġsepar": 2948,
      "ford": 2949,
      "Ġmatter": 2950,
      "Ġdom": 2951,
      "Ġworked": 2952,
      "Ġroll": 2953,
      "Ġrecogn": 2954,
      "Ġmid": 2955,
      "But": 2956,
      "ension": 2957,
      "enty": 2958,
      "anch": 2959,
      "Ġhigher": 2960,
      "Ġcommercial": 2961,
      "Ġguarant": 2962,
      "Ġfill": 2963,
      "Ġwall": 2964,
      "aign": 2965,
      "etimes": 2966,
      "Ġhands": 2967,
      "Ġlate": 2968,
      "Ġintrodu": 2969,
      "Ġtemper": 2970,
      "Ġguide": 2971,
      "Ġsomething": 2972,
      "ried": 2973,
      "Ġfabric": 2974,
      "Ġsty": 2975,
      "cel": 2976,
      "ĠPre": 2977,
      "Ġshopping": 2978,
      "Ġsignificant": 2979,
      "Ġdouble": 2980,
      "cm": 2981,
      "Ġneigh": 2982,
      "Ġclaim": 2983,
      "Ġtreatment": 2984,
      "ĠCle": 2985,
      "ĠSoc": 2986,
      "erve": 2987,
      "Ġusually": 2988,
      "Ġenter": 2989,
      "wh": 2990,
      "Ġball": 2991,
      "ĠNews": 2992,
      "Ġmax": 2993,
      "Ġgar": 2994,
      "arth": 2995,
      "ĠReal": 2996,
      "ĠPat": 2997,
      "ara": 2998,
      "ama": 2999,
      "orge": 3000,
      "Ġisn": 3001,
      "Con": 3002,
      "ares": 3003,
      "Ġsens": 3004,
      "ube": 3005,
      "Ġteams": 3006,
      "ese": 3007,
      "erved": 3008,
      "rie": 3009,
      "Ġstat": 3010,
      "Ġholiday": 3011,
      "Ġdest": 3012,
      "lin": 3013,
      "place": 3014,
      "Ġtrying": 3015,
      "iddle": 3016,
      "Ġcharacter": 3017,
      "erc": 3018,
      "ĠIN": 3019,
      "mon": 3020,
      "Ġplayer": 3021,
      "Ġfix": 3022,
      "ĠInternational": 3023,
      "Ġgreen": 3024,
      "Ġprevent": 3025,
      "Ġreading": 3026,
      "Ġstri": 3027,
      "Ġep": 3028,
      "ellow": 3029,
      "lim": 3030,
      "ey": 3031,
      "Ġessential": 3032,
      "Ġheat": 3033,
      "ĠHar": 3034,
      "adu": 3035,
      "Ġestab": 3036,
      "ĠPort": 3037,
      "ges": 3038,
      "ĠClub": 3039,
      "Ġregard": 3040,
      "Ġapplications": 3041,
      "pose": 3042,
      "Ġcand": 3043,
      "Ġcomment": 3044,
      "Ġaverage": 3045,
      "AP": 3046,
      "ĠIns": 3047,
      "isc": 3048,
      "Ġgiving": 3049,
      "EL": 3050,
      "Ġanyone": 3051,
      "ĠSome": 3052,
      "ĠGreat": 3053,
      "na": 3054,
      "Ġspeed": 3055,
      "Ġlower": 3056,
      "Ġsubject": 3057,
      "Ġcrit": 3058,
      "Ġtrue": 3059,
      "Ġstreng": 3060,
      "Ġconven": 3061,
      "Ġaffect": 3062,
      "Ġappoint": 3063,
      "Ġideal": 3064,
      "ashion": 3065,
      "oin": 3066,
      "ishing": 3067,
      "ilit": 3068,
      "ĠIndia": 3069,
      "Ġnorm": 3070,
      "Ġimages": 3071,
      "zz": 3072,
      "Ġtips": 3073,
      "Ġsett": 3074,
      "Ġgoals": 3075,
      "amed": 3076,
      "earn": 3077,
      "Ġloss": 3078,
      "Ġadjust": 3079,
      "ĠThursday": 3080,
      "ĠDav": 3081,
      "App": 3082,
      "ĠHer": 3083,
      "hest": 3084,
      "Ġemer": 3085,
      "ĠPlay": 3086,
      "Ġbooks": 3087,
      "itten": 3088,
      "Ġviews": 3089,
      "ĠOf": 3090,
      "amb": 3091,
      "Ġgeneral": 3092,
      "field": 3093,
      "ography": 3094,
      "VID": 3095,
      "Ġconsult": 3096,
      "rig": 3097,
      "Ġbatter": 3098,
      "ples": 3099,
      "Ġcannot": 3100,
      "Ġdeterm": 3101,
      "key": 3102,
      "Ġtrust": 3103,
      "Ġasked": 3104,
      "views": 3105,
      "Ġdepend": 3106,
      "ĠSim": 3107,
      "Ġearn": 3108,
      "aves": 3109,
      "vey": 3110,
      "IP": 3111,
      "Ġfamilies": 3112,
      "ington": 3113,
      "ĠSpr": 3114,
      "ĠAng": 3115,
      "Ġqual": 3116,
      "Ġsteel": 3117,
      "ĠSystem": 3118,
      "akers": 3119,
      "unte": 3120,
      "Ġglobal": 3121,
      "ought": 3122,
      "ĠCons": 3123,
      "idential": 3124,
      "iture": 3125,
      "Ġattract": 3126,
      "eal": 3127,
      "imately": 3128,
      "Ġfile": 3129,
      "Ġdecision": 3130,
      "mission": 3131,
      "Ġones": 3132,
      "Ġappli": 3133,
      "Ġpayment": 3134,
      "Contact": 3135,
      "Ġcreating": 3136,
      "ospital": 3137,
      "Ġtraditional": 3138,
      "Ġmachine": 3139,
      "ute": 3140,
      "epend": 3141,
      "Ġcir": 3142,
      "Ġretail": 3143,
      "Ġachieve": 3144,
      "uel": 3145,
      "Ġelse": 3146,
      "ĠLoc": 3147,
      "Ġcook": 3148,
      "hold": 3149,
      "Ġresources": 3150,
      "Ġcompet": 3151,
      "Ġphoto": 3152,
      "Ġbad": 3153,
      "cul": 3154,
      "Ar": 3155,
      "ibrary": 3156,
      "anguage": 3157,
      "irit": 3158,
      "ĠTuesday": 3159,
      "artment": 3160,
      "ĠGet": 3161,
      "Ġplaces": 3162,
      "IL": 3163,
      "Ġrequirements": 3164,
      "enge": 3165,
      "Ġsold": 3166,
      "Ġaud": 3167,
      "Ġcaus": 3168,
      "Ġreleased": 3169,
      "Ġcommit": 3170,
      "iant": 3171,
      "Ġprograms": 3172,
      "Ġhuge": 3173,
      "Ġconcern": 3174,
      "Ġaward": 3175,
      "ĠAct": 3176,
      "Ġguests": 3177,
      "Ġlimited": 3178,
      "Ġsuggest": 3179,
      "Ġestate": 3180,
      "Ġwonderful": 3181,
      "Ġemployees": 3182,
      "Ġsecure": 3183,
      "change": 3184,
      "Ġrad": 3185,
      "rab": 3186,
      "Ġrespect": 3187,
      "Ġinvolved": 3188,
      "âĤ": 3189,
      "phone": 3190,
      "Ġhour": 3191,
      "Ġability": 3192,
      "Ġinfl": 3193,
      "Ġmedical": 3194,
      "Ġsurround": 3195,
      "Ġroof": 3196,
      "Ġdevices": 3197,
      "ĠEast": 3198,
      "ĠWednesday": 3199,
      "Ġlic": 3200,
      "Ġfans": 3201,
      "Ġimmed": 3202,
      "These": 3203,
      "roid": 3204,
      "aming": 3205,
      "ĠWater": 3206,
      "ĠTrans": 3207,
      "acks": 3208,
      "ĠMod": 3209,
      "Ġafford": 3210,
      "Ġrelax": 3211,
      "Ġ@": 3212,
      "rows": 3213,
      "Ġtast": 3214,
      "Ġelectric": 3215,
      "Ġaim": 3216,
      "Ġcapt": 3217,
      "Ġcharge": 3218,
      "Ġfig": 3219,
      "Ġeducation": 3220,
      "ĠAfric": 3221,
      "Ġtransport": 3222,
      "Ġprobably": 3223,
      "Che": 3224,
      "ĠDist": 3225,
      "Ġfirm": 3226,
      "ĠMich": 3227,
      "add": 3228,
      "Ġrooms": 3229,
      "Ġplayed": 3230,
      "RO": 3231,
      "Ġformer": 3232,
      "Ġdeg": 3233,
      "Ġhuman": 3234,
      "Ġmoving": 3235,
      "Ġreli": 3236,
      "press": 3237,
      "ĠFebruary": 3238,
      "ĠWhile": 3239,
      "unt": 3240,
      "Ġdecided": 3241,
      "venue": 3242,
      "ening": 3243,
      "ris": 3244,
      "Ġunit": 3245,
      "Ġsuccessful": 3246,
      "Ġwriting": 3247,
      "Ġpromot": 3248,
      "Ġsupply": 3249,
      "Ġwords": 3250,
      "ĠTechn": 3251,
      "Ġparking": 3252,
      "ĠEst": 3253,
      "net": 3254,
      "Ġpark": 3255,
      "Ġextrem": 3256,
      "ĠCour": 3257,
      "Ġcat": 3258,
      "Ġspot": 3259,
      "Ġclient": 3260,
      "Ġcolors": 3261,
      "ĠAmerica": 3262,
      "Ġimpress": 3263,
      "apan": 3264,
      "Ġadvant": 3265,
      "Ġmiles": 3266,
      "Ġhous": 3267,
      "ĠOpen": 3268,
      "Ġwelcome": 3269,
      "Ġorders": 3270,
      "Ġupdate": 3271,
      "Ġrisk": 3272,
      "Ġnecessary": 3273,
      "ĠHis": 3274,
      "vest": 3275,
      "ports": 3276,
      ":||": 3277,
      "Ġweight": 3278,
      "Ġfeet": 3279,
      "Ġfarm": 3280,
      "ny": 3281,
      "itect": 3282,
      "Ġcards": 3283,
      "Ġsource": 3284,
      "clusive": 3285,
      "oors": 3286,
      "aly": 3287,
      "Se": 3288,
      "Tr": 3289,
      "ĠCare": 3290,
      "ĠEnglish": 3291,
      "ĠProduct": 3292,
      "Ġreported": 3293,
      "Ġop": 3294,
      "Ġwait": 3295,
      "Ġrelated": 3296,
      "Ġparents": 3297,
      "Ġselection": 3298,
      "Ġtim": 3299,
      "band": 3300,
      "About": 3301,
      "elling": 3302,
      "Ġcraft": 3303,
      "Ġgrowing": 3304,
      "wide": 3305,
      "ĠAnt": 3306,
      "azon": 3307,
      "Ġclass": 3308,
      "itely": 3309,
      "icks": 3310,
      "Ġcy": 3311,
      "Ġcases": 3312,
      "ception": 3313,
      "ĠMag": 3314,
      "Ġcampaign": 3315,
      "Ġmessage": 3316,
      "Ġarriv": 3317,
      "Ġload": 3318,
      "urb": 3319,
      "Ġanswer": 3320,
      "unning": 3321,
      "Ġeffective": 3322,
      "Ġgirl": 3323,
      "Ġsection": 3324,
      "ĠChar": 3325,
      "chitect": 3326,
      "Ġwinter": 3327,
      "Ġcomments": 3328,
      "Loc": 3329,
      "Ġenh": 3330,
      "Ġcause": 3331,
      "ipe": 3332,
      "Phone": 3333,
      "Ġoutdoor": 3334,
      "ounter": 3335,
      "Ġneg": 3336,
      "Ġcarry": 3337,
      "ĠEvery": 3338,
      "Ġorganization": 3339,
      "Bl": 3340,
      "Ġwish": 3341,
      "ule": 3342,
      "oph": 3343,
      "ancing": 3344,
      "Ġeasier": 3345,
      "ĠGold": 3346,
      "Ġsurpr": 3347,
      "Ġattention": 3348,
      "à¤": 3349,
      "ĠPost": 3350,
      "ĠKing": 3351,
      "Ġmat": 3352,
      "ida": 3353,
      "iforn": 3354,
      "Ġinvestment": 3355,
      "Ġaw": 3356,
      "ĠAM": 3357,
      "box": 3358,
      "ĠRec": 3359,
      "Ġloved": 3360,
      "Ġsaw": 3361,
      "oke": 3362,
      "ĠCheck": 3363,
      "From": 3364,
      "Ġscore": 3365,
      "ica": 3366,
      "Ġpositive": 3367,
      "Ġpartner": 3368,
      "Ġlaunch": 3369,
      "ĠProgram": 3370,
      "Ġagre": 3371,
      "Le": 3372,
      "Ġhear": 3373,
      "Ġcomputer": 3374,
      "By": 3375,
      "Ġobject": 3376,
      "ĠGreen": 3377,
      "Ġdistribut": 3378,
      "nal": 3379,
      "roups": 3380,
      "Ġapproach": 3381,
      "Ġterms": 3382,
      "oos": 3383,
      "Ġprim": 3384,
      "Ġhelping": 3385,
      "Ġannual": 3386,
      "Ġgoes": 3387,
      "istic": 3388,
      "Ġsong": 3389,
      "Ġcoffee": 3390,
      "Ġcross": 3391,
      "ĠFirst": 3392,
      "ĠAustralia": 3393,
      "rest": 3394,
      "Ġpattern": 3395,
      "ari": 3396,
      "OL": 3397,
      "ĠGo": 3398,
      "asy": 3399,
      "bon": 3400,
      "Ġschedule": 3401,
      "bit": 3402,
      "Ġver": 3403,
      "Ġeye": 3404,
      "roud": 3405,
      "ault": 3406,
      "ĠSpe": 3407,
      "Ġavoid": 3408,
      "down": 3409,
      "useum": 3410,
      "IM": 3411,
      "Ġcompletely": 3412,
      "acity": 3413,
      "Ġstories": 3414,
      "ifornia": 3415,
      "gest": 3416,
      "arget": 3417,
      "Ġlevels": 3418,
      "Ġlost": 3419,
      "Ġsports": 3420,
      "urning": 3421,
      "Ġdiscount": 3422,
      "Ġflex": 3423,
      "Ġmanufacture": 3424,
      "Ġadvice": 3425,
      "pre": 3426,
      "Ġupon": 3427,
      "Ġlength": 3428,
      "Ġjourney": 3429,
      "Ġaccommod": 3430,
      "rial": 3431,
      "enior": 3432,
      "____": 3433,
      "ĠHall": 3434,
      "Ġgas": 3435,
      "rag": 3436,
      "Ġcamera": 3437,
      "ensions": 3438,
      "Ġlab": 3439,
      "ĠPM": 3440,
      "val": 3441,
      "Product": 3442,
      "More": 3443,
      "Ġregion": 3444,
      "attle": 3445,
      "inner": 3446,
      "ĠProf": 3447,
      "Ġexplore": 3448,
      "Ġconvers": 3449,
      "ĠLake": 3450,
      "Ġcountries": 3451,
      "Ġsites": 3452,
      "Ġserve": 3453,
      "UR": 3454,
      "Ġpieces": 3455,
      "Ġpatients": 3456,
      "Ġrates": 3457,
      "Ġdur": 3458,
      "Ġnational": 3459,
      "Ġbirth": 3460,
      "Ġcab": 3461,
      "ĠOver": 3462,
      "Ġcolour": 3463,
      "Ġlux": 3464,
      "ĠMem": 3465,
      "Ġreve": 3466,
      "Ġbaby": 3467,
      "EM": 3468,
      "Ġcateg": 3469,
      "Ġcleaning": 3470,
      "Ġsession": 3471,
      "ĠMus": 3472,
      "Ġdamage": 3473,
      "Ġrepair": 3474,
      "ocks": 3475,
      "Ġcorrect": 3476,
      "Ġbeach": 3477,
      "Ġult": 3478,
      "ĠWhite": 3479,
      "aks": 3480,
      "iber": 3481,
      "ĠAb": 3482,
      "Ġexisting": 3483,
      "Ġapprox": 3484,
      "ĠRet": 3485,
      "istry": 3486,
      "Ġcell": 3487,
      "Ġbudget": 3488,
      "ĠBest": 3489,
      "Ġfriendly": 3490,
      "Ġnature": 3491,
      "Ġlots": 3492,
      "Ġlargest": 3493,
      "ĠDevelop": 3494,
      "Ġpolicy": 3495,
      "Ġcold": 3496,
      "Ġmaintenance": 3497,
      "iter": 3498,
      "Ġrather": 3499,
      "Ġexam": 3500,
      "âĤ¬": 3501,
      "bed": 3502,
      "ĠInter": 3503,
      "Ġslow": 3504,
      "Ġaccur": 3505,
      "ancy": 3506,
      "Ġahead": 3507,
      "ĠIsland": 3508,
      "Ġexperienced": 3509,
      "Ġupdated": 3510,
      "Te": 3511,
      "agram": 3512,
      "ĠFound": 3513,
      "fast": 3514,
      "ĠCommunity": 3515,
      "Ġstar": 3516,
      "ĠWar": 3517,
      "âĢĿ.": 3518,
      "Ġble": 3519,
      "Ġinteresting": 3520,
      "Ġtele": 3521,
      "yond": 3522,
      "ĠBay": 3523,
      "ĠAlso": 3524,
      "Ġproperties": 3525,
      "illage": 3526,
      "estival": 3527,
      "Ġsteps": 3528,
      "Ġfine": 3529,
      "ctions": 3530,
      "Ġstudent": 3531,
      "Ġsal": 3532,
      "ĠCustom": 3533,
      "umber": 3534,
      "ĠPresident": 3535,
      "View": 3536,
      "amic": 3537,
      "iling": 3538,
      "Ġbottom": 3539,
      "ĠDepartment": 3540,
      "Ġsleep": 3541,
      "Ġten": 3542,
      "Ġseems": 3543,
      "Ġblue": 3544,
      "ky": 3545,
      "Ġopening": 3546,
      "Ġprec": 3547,
      "Ġdi": 3548,
      "vis": 3549,
      "ters": 3550,
      "Ġcomplex": 3551,
      "met": 3552,
      "Ġexecut": 3553,
      "ald": 3554,
      "Is": 3555,
      "rench": 3556,
      "Ġexpress": 3557,
      "Ġcompleted": 3558,
      "ĠRem": 3559,
      "Ġuses": 3560,
      "Ġremember": 3561,
      "Ġowner": 3562,
      "Ġsurface": 3563,
      "lies": 3564,
      "new": 3565,
      "Ġstraight": 3566,
      "Ġprotection": 3567,
      "ĠJapan": 3568,
      "Ġdark": 3569,
      "Ġtowards": 3570,
      "ĠOffice": 3571,
      "icate": 3572,
      "Ġexpand": 3573,
      "erous": 3574,
      "Ġcollabor": 3575,
      "Ġpers": 3576,
      "Ġcopy": 3577,
      "Ġstru": 3578,
      "rast": 3579,
      "rought": 3580,
      "ĠCalifornia": 3581,
      "Ġpictures": 3582,
      "que": 3583,
      "Ġdeveloped": 3584,
      "ĠGener": 3585,
      "Ġapprec": 3586,
      "Ġpull": 3587,
      "Ġblock": 3588,
      "ĠGerm": 3589,
      "Ġnothing": 3590,
      "Ġsetting": 3591,
      "Ġoffered": 3592,
      "Ġfant": 3593,
      "Ġimplement": 3594,
      "inter": 3595,
      "hop": 3596,
      "Ġhealthy": 3597,
      "Res": 3598,
      "Ġstrateg": 3599,
      "atory": 3600,
      "Ġcash": 3601,
      "Ġfinished": 3602,
      "Ġpath": 3603,
      "ĠWash": 3604,
      ".)": 3605,
      "Ġstress": 3606,
      "acement": 3607,
      "Ġupdates": 3608,
      "Ġcart": 3609,
      "Ġoverall": 3610,
      "iction": 3611,
      "care": 3612,
      "ND": 3613,
      "atives": 3614,
      "ĠApple": 3615,
      "Ġsym": 3616,
      "Ġruns": 3617,
      "ĠPlan": 3618,
      "Me": 3619,
      "porate": 3620,
      "ael": 3621,
      "sp": 3622,
      "ĠEach": 3623,
      "Ġaware": 3624,
      "oul": 3625,
      "htt": 3626,
      "ags": 3627,
      "Ġdifference": 3628,
      "ĠCanada": 3629,
      "Ġfail": 3630,
      "TS": 3631,
      "Don": 3632,
      "ĠTime": 3633,
      "Ġhor": 3634,
      "ĠLight": 3635,
      "ona": 3636,
      "Ġrelationship": 3637,
      "ĠLet": 3638,
      "Ġbank": 3639,
      "Ġcreative": 3640,
      "ĠMet": 3641,
      "ĠWindows": 3642,
      "Ġexcited": 3643,
      "Ġpicture": 3644,
      "Ġsatis": 3645,
      "ampions": 3646,
      "En": 3647,
      "urt": 3648,
      "ĠBeach": 3649,
      "rel": 3650,
      "Ġhighest": 3651,
      "Ġefficient": 3652,
      "OW": 3653,
      "Ġdedicated": 3654,
      "Ġexhib": 3655,
      "ĠUse": 3656,
      "Ġcourt": 3657,
      "Ġshoot": 3658,
      "duc": 3659,
      "ston": 3660,
      "Ġcas": 3661,
      "Ġincred": 3662,
      "Ġthank": 3663,
      "ĠGood": 3664,
      "Ġeffort": 3665,
      "Ġinstead": 3666,
      "Ġquarter": 3667,
      "irtual": 3668,
      "Ġtransfer": 3669,
      "Ġbright": 3670,
      "otton": 3671,
      "Ġplus": 3672,
      "ĠBel": 3673,
      "onse": 3674,
      "Ġinteract": 3675,
      "ĠCOVID": 3676,
      "oves": 3677,
      "ĠWell": 3678,
      "ĠPower": 3679,
      "Ġitself": 3680,
      "Col": 3681,
      "Ġwhe": 3682,
      "Ġproud": 3683,
      "Ġinform": 3684,
      "comes": 3685,
      "Ġlinks": 3686,
      "idered": 3687,
      "istance": 3688,
      "ocol": 3689,
      "Ġdefinitely": 3690,
      "Ġdiv": 3691,
      "Ġdemand": 3692,
      "ĠRiver": 3693,
      "Ġshared": 3694,
      "ĠSuper": 3695,
      "ĠMount": 3696,
      "Ġgets": 3697,
      "nces": 3698,
      "ustain": 3699,
      "ĠTex": 3700,
      "ĠCompany": 3701,
      "ma": 3702,
      "ĠMac": 3703,
      "icing": 3704,
      "anging": 3705,
      "icip": 3706,
      "Ġdining": 3707,
      "Ġthemselves": 3708,
      "Ġanim": 3709,
      "ategy": 3710,
      "dom": 3711,
      "Ġbenefit": 3712,
      "ĠVis": 3713,
      "igation": 3714,
      "ĠPay": 3715,
      "ĠST": 3716,
      "Ġfair": 3717,
      "ĠâĢ¦": 3718,
      "Ġled": 3719,
      "umn": 3720,
      "Acc": 3721,
      "Ġextend": 3722,
      "ĠBoard": 3723,
      "Ġupgr": 3724,
      "fit": 3725,
      "ĠTwitter": 3726,
      "rey": 3727,
      "Ġprogress": 3728,
      "Not": 3729,
      "set": 3730,
      "istics": 3731,
      "Ġpet": 3732,
      "ray": 3733,
      "Ġdrop": 3734,
      "annel": 3735,
      "inary": 3736,
      "ĠChina": 3737,
      "Ġenv": 3738,
      "ĠCollege": 3739,
      "vant": 3740,
      "ĠLeague": 3741,
      "):": 3742,
      "Ġplenty": 3743,
      "Ġrights": 3744,
      "ĠPhot": 3745,
      "ĠFire": 3746,
      "ĠCouncil": 3747,
      "Ġcovered": 3748,
      "Ġreduce": 3749,
      "Ġsituation": 3750,
      "REE": 3751,
      "ceed": 3752,
      "Ġsmooth": 3753,
      "Ġpm": 3754,
      "ker": 3755,
      "ĠID": 3756,
      "ĠFlor": 3757,
      "Click": 3758,
      "Ġvolunte": 3759,
      "Ġmotor": 3760,
      "ĠAnn": 3761,
      "Ġdro": 3762,
      "ils": 3763,
      "porary": 3764,
      "aled": 3765,
      "ipp": 3766,
      "Ġpressure": 3767,
      "Ġactivity": 3768,
      "Ġactive": 3769,
      "Ġthanks": 3770,
      "ðŁ": 3771,
      "iced": 3772,
      "pri": 3773,
      "Ġreports": 3774,
      "ĠCamp": 3775,
      "Ġfacilities": 3776,
      "iated": 3777,
      "bl": 3778,
      "Ġbroad": 3779,
      "Ġhistor": 3780,
      "Ġorganiz": 3781,
      "oving": 3782,
      "ĠJack": 3783,
      "Ġindepend": 3784,
      "Ġhandle": 3785,
      "chan": 3786,
      "Ġclosed": 3787,
      "ĠSub": 3788,
      "ĠMake": 3789,
      "Ġgroups": 3790,
      "arrant": 3791,
      "ĠSch": 3792,
      "ĠClick": 3793,
      "ups": 3794,
      "Ġreflect": 3795,
      "ĠMicro": 3796,
      "Ġinstallation": 3797,
      "Are": 3798,
      "ĠTeam": 3799,
      "Qu": 3800,
      "zy": 3801,
      "aturing": 3802,
      "Ġshape": 3803,
      "Ġevening": 3804,
      "Ġinternet": 3805,
      "gency": 3806,
      "dd": 3807,
      "ĠHel": 3808,
      "ĠIT": 3809,
      "Ġconcept": 3810,
      "Sub": 3811,
      "ĠWood": 3812,
      "orial": 3813,
      "Ġwrite": 3814,
      "gu": 3815,
      "Or": 3816,
      "ĠSil": 3817,
      "AY": 3818,
      "ĠEv": 3819,
      "anta": 3820,
      "While": 3821,
      "IG": 3822,
      "....": 3823,
      "Ġsense": 3824,
      "Ġmeasure": 3825,
      "ĠSing": 3826,
      "Ġbeauty": 3827,
      "They": 3828,
      "Ġdesigns": 3829,
      "Ġeight": 3830,
      "Ġrace": 3831,
      "Ġserious": 3832,
      "ĠIndian": 3833,
      "Ġpackage": 3834,
      "Ġowners": 3835,
      "othing": 3836,
      "ĠPC": 3837,
      "ĠFamily": 3838,
      "free": 3839,
      "Ġpurpose": 3840,
      "ownload": 3841,
      "Ġadvent": 3842,
      "Ġmaster": 3843,
      "ĠRoom": 3844,
      "illing": 3845,
      "ĠAssociation": 3846,
      "ĠManagement": 3847,
      "Ġsched": 3848,
      "icking": 3849,
      "ĠBre": 3850,
      "Ġfurniture": 3851,
      "Ġbegan": 3852,
      "Ġvict": 3853,
      "itation": 3854,
      "Ġstage": 3855,
      "Ġmanage": 3856,
      "Ġcontain": 3857,
      "Ġlisted": 3858,
      "Ġfashion": 3859,
      "Ġlines": 3860,
      "pite": 3861,
      "Ġtrade": 3862,
      "ĠAmazon": 3863,
      "ĠChurch": 3864,
      "Ġspent": 3865,
      "soft": 3866,
      "ĠBrit": 3867,
      "like": 3868,
      "Ġspring": 3869,
      "CH": 3870,
      "Ġri": 3871,
      "Thank": 3872,
      "Ġdream": 3873,
      "Ġrain": 3874,
      "Ġfeeling": 3875,
      "ailability": 3876,
      "Ġadmin": 3877,
      "Ġbeginning": 3878,
      "ĠElect": 3879,
      "ĠSur": 3880,
      "Ġschools": 3881,
      "ĠPhil": 3882,
      "Ġprefer": 3883,
      "Ġlaun": 3884,
      "Ġwww": 3885,
      "ĠThen": 3886,
      "ĠPal": 3887,
      "Why": 3888,
      "ĠTop": 3889,
      "ĠLaw": 3890,
      "Ġexciting": 3891,
      "ivered": 3892,
      "ĠCr": 3893,
      "Ġmodels": 3894,
      "umin": 3895,
      "ĠDirector": 3896,
      "Ġtruly": 3897,
      "Ġpair": 3898,
      "Ġwritten": 3899,
      "ĠPrice": 3900,
      "empt": 3901,
      "aper": 3902,
      "Ġaltern": 3903,
      "Ġacqu": 3904,
      "Ġexactly": 3905,
      "ĠWeb": 3906,
      "Ġrestaurant": 3907,
      "illa": 3908,
      "rup": 3909,
      "Ġresidents": 3910,
      "Sp": 3911,
      "bu": 3912,
      "ads": 3913,
      "Bu": 3914,
      "Ġnumbers": 3915,
      "Ġmention": 3916,
      "nown": 3917,
      "Ġpaid": 3918,
      "aries": 3919,
      "odes": 3920,
      "Ġhop": 3921,
      "Ġtrain": 3922,
      "oyal": 3923,
      "Ġprofessionals": 3924,
      "Ġtraffic": 3925,
      "Ġdescrib": 3926,
      "Ġpublished": 3927,
      "str": 3928,
      "Ġhttps": 3929,
      "antly": 3930,
      "Ġwindow": 3931,
      "ĠSl": 3932,
      "Ġfight": 3933,
      "Ġrespond": 3934,
      "ĠMost": 3935,
      "ibly": 3936,
      "ago": 3937,
      "ĠInf": 3938,
      "Ġbattery": 3939,
      "Ġwild": 3940,
      "Ġship": 3941,
      "ications": 3942,
      "ios": 3943,
      "ado": 3944,
      "ildren": 3945,
      "Ġsnow": 3946,
      "ĠBuild": 3947,
      "asure": 3948,
      "ĠCap": 3949,
      "ĠSun": 3950,
      "ifications": 3951,
      "irus": 3952,
      "ĠRuss": 3953,
      "Reg": 3954,
      "Ġinfo": 3955,
      "IV": 3956,
      "Ġmother": 3957,
      "Ġoccas": 3958,
      "Up": 3959,
      "Ġconsist": 3960,
      "Ġmovie": 3961,
      "het": 3962,
      "wise": 3963,
      "Ġfee": 3964,
      "Ġstrength": 3965,
      "ĠLife": 3966,
      "Ġwid": 3967,
      "perty": 3968,
      "Ġchallenge": 3969,
      "Check": 3970,
      "Ġdriving": 3971,
      "Ġremain": 3972,
      "ĠTexas": 3973,
      "Ġbreat": 3974,
      "aling": 3975,
      "Ġsand": 3976,
      "Ġlocations": 3977,
      "iately": 3978,
      "Ġchallenges": 3979,
      "Ġstation": 3980,
      "top": 3981,
      "CC": 3982,
      "Ġannounce": 3983,
      "Ġresponsible": 3984,
      "Ġseven": 3985,
      "ĠBlue": 3986,
      "fr": 3987,
      "Ġstatement": 3988,
      "Ġpropos": 3989,
      "za": 3990,
      "hens": 3991,
      "Ġcontinu": 3992,
      "hol": 3993,
      "ota": 3994,
      "Ġsolid": 3995,
      "ico": 3996,
      "essions": 3997,
      "ords": 3998,
      "ĠType": 3999,
      "Ġopp": 4000,
      "Ġthinking": 4001,
      "Ġadvantage": 4002,
      "Ġlanguage": 4003,
      "ĠMot": 4004,
      "Ġgrand": 4005,
      "Ġlandsc": 4006,
      "ifts": 4007,
      "Ġselected": 4008,
      "bour": 4009,
      "Ġmission": 4010,
      "ĠBank": 4011,
      "Ġmetal": 4012,
      "Ġexperts": 4013,
      "Ġslight": 4014,
      "Ġsus": 4015,
      "Ġimm": 4016,
      "Ġtemperature": 4017,
      "Ġhelped": 4018,
      "Ġpow": 4019,
      "Ġ--": 4020,
      "Ġpages": 4021,
      "Ġmap": 4022,
      "Ġbrought": 4023,
      "Ġlegal": 4024,
      "Ġextremely": 4025,
      "Ġbuying": 4026,
      "Ġbeyond": 4027,
      "more": 4028,
      "ĠEuropean": 4029,
      "ĠInternet": 4030,
      "Ġcentre": 4031,
      "LC": 4032,
      "erg": 4033,
      "Ġflat": 4034,
      "Ġvideos": 4035,
      "ĠSol": 4036,
      "ĠTown": 4037,
      "Ġfinally": 4038,
      "Ġcompon": 4039,
      "Ġtarget": 4040,
      "estern": 4041,
      "istant": 4042,
      "SP": 4043,
      "ĠSaf": 4044,
      "ĠUSA": 4045,
      "Now": 4046,
      "atically": 4047,
      "Ġsometimes": 4048,
      "orrow": 4049,
      "Ġspread": 4050,
      "standing": 4051,
      "Ġbi": 4052,
      "ĠStar": 4053,
      "Ġindividuals": 4054,
      "Ġchurch": 4055,
      "ĠColor": 4056,
      "Ġgen": 4057,
      "Ġpowerful": 4058,
      "Ġgave": 4059,
      "aughter": 4060,
      "erry": 4061,
      "ĠDec": 4062,
      "istered": 4063,
      "Ġkeeping": 4064,
      "tee": 4065,
      "Ġinitial": 4066,
      "Ġunderstanding": 4067,
      "Ġplaced": 4068,
      "icon": 4069,
      "mitted": 4070,
      "opt": 4071,
      "Ġlarger": 4072,
      "uth": 4073,
      "oys": 4074,
      "Ġaspect": 4075,
      "Ġculture": 4076,
      "ĠCentral": 4077,
      "EW": 4078,
      "Ġconference": 4079,
      "Ġinstruct": 4080,
      "ĠJes": 4081,
      "lands": 4082,
      "Ġheavy": 4083,
      "MS": 4084,
      "Ġexerc": 4085,
      "Ġpeace": 4086,
      "Ġthous": 4087,
      "ĠShow": 4088,
      "Ġexperiences": 4089,
      "Ġsweet": 4090,
      "Ġband": 4091,
      "ĠAndroid": 4092,
      "Ġdelivered": 4093,
      "Ġrev": 4094,
      "ĠBra": 4095,
      "Ġepis": 4096,
      "Ġpolice": 4097,
      "Ġmanager": 4098,
      "Ġcars": 4099,
      "Ġcapacity": 4100,
      "ĠTour": 4101,
      "ĠTO": 4102,
      "uled": 4103,
      "Ġill": 4104,
      "ĠTHE": 4105,
      "Ġtree": 4106,
      "AB": 4107,
      "Ġsizes": 4108,
      "ette": 4109,
      "Ne": 4110,
      "ned": 4111,
      "See": 4112,
      "Ġconsidered": 4113,
      "Ġneighbor": 4114,
      "ula": 4115,
      "Ġearlier": 4116,
      "ĠProject": 4117,
      "Ġunits": 4118,
      "rug": 4119,
      "Ġbasic": 4120,
      "la": 4121,
      "Ġwants": 4122,
      "Ġimmediately": 4123,
      "Ġabsolut": 4124,
      "ĠAP": 4125,
      "ĠValley": 4126,
      "Ġpo": 4127,
      "Ġbiggest": 4128,
      "rip": 4129,
      "ĠRE": 4130,
      "Ġadding": 4131,
      "ĠOther": 4132,
      "Ġstores": 4133,
      "Ġphysical": 4134,
      "Ġallowed": 4135,
      "ownt": 4136,
      "ĠDavid": 4137,
      "Ġincreased": 4138,
      "ĠHotel": 4139,
      "ologies": 4140,
      "Ġnormal": 4141,
      "Find": 4142,
      "Ġreliable": 4143,
      "ero": 4144,
      "Ġshown": 4145,
      "rical": 4146,
      "CT": 4147,
      "She": 4148,
      "Ġmyself": 4149,
      "âĦ": 4150,
      "Ġfrequ": 4151,
      "Ġnotice": 4152,
      "Ġbackground": 4153,
      "Ġonto": 4154,
      "ĠWork": 4155,
      "Ġdeath": 4156,
      "That": 4157,
      "gage": 4158,
      "Ġdead": 4159,
      "Ġstreet": 4160,
      "Ġfiles": 4161,
      "Ġloan": 4162,
      "Ġmeaning": 4163,
      "odcast": 4164,
      "Ġnearly": 4165,
      "Ġfly": 4166,
      "ĠOnce": 4167,
      "Ġaffordable": 4168,
      "Ġguid": 4169,
      "Ġcast": 4170,
      "Ġgradu": 4171,
      "Ġenviron": 4172,
      "Ġfantastic": 4173,
      "Ġvisitors": 4174,
      "Ġhy": 4175,
      "craft": 4176,
      "Ġswim": 4177,
      "Free": 4178,
      "ĠPublic": 4179,
      "Ġeyes": 4180,
      "owl": 4181,
      "Ġremove": 4182,
      "Ġproduce": 4183,
      "ocket": 4184,
      "Every": 4185,
      "rd": 4186,
      "ulations": 4187,
      "Im": 4188,
      "Ġspirit": 4189,
      "Ġarchitect": 4190,
      "Ġmaintain": 4191,
      "Ġbillion": 4192,
      "ented": 4193,
      "Ġcommunities": 4194,
      "Ġconnection": 4195,
      "Ġdoll": 4196,
      "Ġvehicles": 4197,
      "urrent": 4198,
      "friend": 4199,
      "Ġsuitable": 4200,
      "ĠMart": 4201,
      "Ġsem": 4202,
      "Ġfelt": 4203,
      "Ġrestaurants": 4204,
      "Ġwalking": 4205,
      "ĠDan": 4206,
      "Ġbedrooms": 4207,
      "Ġflowers": 4208,
      "iol": 4209,
      "Ġartist": 4210,
      "Sc": 4211,
      "allery": 4212,
      "ĠBack": 4213,
      "ato": 4214,
      "asc": 4215,
      "night": 4216,
      "Ġgraph": 4217,
      "Ġshot": 4218,
      "works": 4219,
      "vin": 4220,
      "Ġbecame": 4221,
      "Ġsquare": 4222,
      "terior": 4223,
      "ĠBig": 4224,
      "ĠIS": 4225,
      "Ġuseful": 4226,
      "see": 4227,
      "oices": 4228,
      "Ġpros": 4229,
      "ĠJe": 4230,
      "isions": 4231,
      "ronic": 4232,
      "Ġstrategy": 4233,
      "Ġcabin": 4234,
      "ishes": 4235,
      "aith": 4236,
      "ĠDistrict": 4237,
      "ĠView": 4238,
      "tr": 4239,
      "order": 4240,
      "Ġdistance": 4241,
      "Ġdiscover": 4242,
      "ĠAngel": 4243,
      "ady": 4244,
      "ĠMark": 4245,
      "ĠCall": 4246,
      "Ġcru": 4247,
      "inated": 4248,
      "Ġinterior": 4249,
      "ĠList": 4250,
      "Ġsuff": 4251,
      "Ġbrands": 4252,
      "Ġwire": 4253,
      "Ġconduct": 4254,
      "Ġimag": 4255,
      "Ġresponse": 4256,
      "unk": 4257,
      "Ġchanged": 4258,
      "ĠContact": 4259,
      "ĠSee": 4260,
      "Ġreasons": 4261,
      "Ġminute": 4262,
      "ĠSal": 4263,
      "Ġcm": 4264,
      "acious": 4265,
      "Ġinterview": 4266,
      "Ġbasis": 4267,
      "ĠCard": 4268,
      "Ġcirc": 4269,
      "ĠMr": 4270,
      "Ġdirector": 4271,
      "ros": 4272,
      "ĠFore": 4273,
      "ĠExper": 4274,
      "CA": 4275,
      "imensions": 4276,
      "ĠVe": 4277,
      "Ġfootball": 4278,
      "Ġcorner": 4279,
      "ĠFlorida": 4280,
      "ĠThanks": 4281,
      "Ġwel": 4282,
      "Ġstrugg": 4283,
      "ĠStr": 4284,
      "Ġlovely": 4285,
      "Ġbul": 4286,
      "Ġcloud": 4287,
      "Ġu": 4288,
      "ading": 4289,
      "ĠCentre": 4290,
      "ĠMor": 4291,
      "Ġcandid": 4292,
      "Ġarrange": 4293,
      "BA": 4294,
      "Ġobs": 4295,
      "Ġsharing": 4296,
      "amm": 4297,
      "Ġbrings": 4298,
      "Ġfavour": 4299,
      "Ġteac": 4300,
      "Ġson": 4301,
      "eria": 4302,
      "Can": 4303,
      "mb": 4304,
      "ĠVol": 4305,
      "Ġserved": 4306,
      "force": 4307,
      "Ġbooking": 4308,
      "Ġfamous": 4309,
      "Ġfacility": 4310,
      "Ġfan": 4311,
      "Ġplants": 4312,
      "ainless": 4313,
      "iency": 4314,
      "Ġnamed": 4315,
      "ĠIr": 4316,
      "Ġdep": 4317,
      "Ġconvenient": 4318,
      "Ġinstalled": 4319,
      "Ġregarding": 4320,
      "Ġupcoming": 4321,
      "\".": 4322,
      "oop": 4323,
      "Ġmonitor": 4324,
      "ENT": 4325,
      "Ġselling": 4326,
      "Ġcommunication": 4327,
      "Ġseeing": 4328,
      "ĠThank": 4329,
      "Ġneck": 4330,
      "enities": 4331,
      "ĠPack": 4332,
      "Ġsustain": 4333,
      "ĠFrench": 4334,
      "iny": 4335,
      "ĠInstagram": 4336,
      "umm": 4337,
      "icious": 4338,
      "Post": 4339,
      "Ġlock": 4340,
      "Ġmatt": 4341,
      "ĠEduc": 4342,
      "Ġflav": 4343,
      "esome": 4344,
      "âĦ¢": 4345,
      "Ġmulti": 4346,
      "Ġstructure": 4347,
      "Ġadvert": 4348,
      "Ġinjury": 4349,
      "Ġframe": 4350,
      "Ġcoach": 4351,
      "andemic": 4352,
      "Ġpatient": 4353,
      "Ġtechnical": 4354,
      "Ġnation": 4355,
      "Ġincreasing": 4356,
      "ĠEngland": 4357,
      "ude": 4358,
      "Ġmer": 4359,
      "Ġmoved": 4360,
      "Ġcontains": 4361,
      "Ġmo": 4362,
      "ĠPaul": 4363,
      "Ġwinning": 4364,
      "Ġerr": 4365,
      "Ġmenu": 4366,
      "Ġappointment": 4367,
      "Ġcry": 4368,
      "Ġhelpful": 4369,
      "Ġlighting": 4370,
      "Ġshel": 4371,
      "ological": 4372,
      "AG": 4373,
      "Ġjobs": 4374,
      "reek": 4375,
      "ĠFeatures": 4376,
      "Ġmaximum": 4377,
      "iverse": 4378,
      "ĠFind": 4379,
      "ĠBook": 4380,
      "Ġbike": 4381,
      "arily": 4382,
      "ĠFood": 4383,
      "oma": 4384,
      "ĠCup": 4385,
      "Spe": 4386,
      "aught": 4387,
      "Ġdoors": 4388,
      "Ġstarts": 4389,
      "Ġadvance": 4390,
      "Ġton": 4391,
      "Ġmicro": 4392,
      "oost": 4393,
      "Ġemot": 4394,
      "weight": 4395,
      "Ġpurchased": 4396,
      "ĠCEO": 4397,
      "ĠJames": 4398,
      "idays": 4399,
      "undred": 4400,
      "Ġinflu": 4401,
      "Ġtow": 4402,
      "used": 4403,
      "ĠMany": 4404,
      "ĠAny": 4405,
      "Ġlaunched": 4406,
      "adem": 4407,
      "otes": 4408,
      "Ġbelie": 4409,
      "inally": 4410,
      "ĠDevelopment": 4411,
      "iques": 4412,
      "ayer": 4413,
      "inger": 4414,
      "pet": 4415,
      "Ġstunning": 4416,
      "Ġdriver": 4417,
      "asks": 4418,
      "Ġexclusive": 4419,
      "Ġmail": 4420,
      "Over": 4421,
      "Ġfinding": 4422,
      "ĠTom": 4423,
      "Ġopened": 4424,
      "Ġride": 4425,
      "Fr": 4426,
      "ograp": 4427,
      "ĠEngine": 4428,
      "ĠPet": 4429,
      "Ġmonthly": 4430,
      "ĠEven": 4431,
      "BC": 4432,
      "Ġregister": 4433,
      "Ġgarage": 4434,
      "Ġbalance": 4435,
      "iamond": 4436,
      "ĠManager": 4437,
      "ĠForm": 4438,
      "Ġplastic": 4439,
      "Ġidentify": 4440,
      "Ġproced": 4441,
      "well": 4442,
      "Ġentry": 4443,
      "Ġoperations": 4444,
      "ideo": 4445,
      "arranty": 4446,
      "term": 4447,
      "fl": 4448,
      "Ġseparate": 4449,
      "Ġvary": 4450,
      "ounds": 4451,
      "fol": 4452,
      "Ġbrows": 4453,
      "ĠRock": 4454,
      "Av": 4455,
      "ĠRob": 4456,
      "IF": 4457,
      "Ġturned": 4458,
      "unately": 4459,
      "Ġcontinues": 4460,
      "Ġjew": 4461,
      "ken": 4462,
      "Description": 4463,
      "----": 4464,
      "ously": 4465,
      "Ġwasn": 4466,
      "Ġborn": 4467,
      "Us": 4468,
      "Ġcapital": 4469,
      "ĠHand": 4470,
      "ervation": 4471,
      "Ġguest": 4472,
      "Ġleaders": 4473,
      "noon": 4474,
      "Ġentert": 4475,
      "Ġtickets": 4476,
      "ĠFoundation": 4477,
      "ĠRel": 4478,
      "rooms": 4479,
      "ened": 4480,
      "cut": 4481,
      "ĠRich": 4482,
      "ĠLand": 4483,
      "Ġobt": 4484,
      "ĠSeries": 4485,
      "Ġstuff": 4486,
      "imb": 4487,
      "Ġapartment": 4488,
      "ĠGrand": 4489,
      "Ġwindows": 4490,
      "Ġbusy": 4491,
      "Ġrefer": 4492,
      "Ġartists": 4493,
      "ying": 4494,
      "inate": 4495,
      "ĠOnline": 4496,
      "Ġdeals": 4497,
      "Ġwife": 4498,
      "cher": 4499,
      "opyright": 4500,
      "Ġcounter": 4501,
      "Ġrob": 4502,
      "merce": 4503,
      "rian": 4504,
      "ĠJesus": 4505,
      "Am": 4506,
      "Ġrock": 4507,
      "ethod": 4508,
      "ĠWashington": 4509,
      "ĠPrem": 4510,
      "ĠSupport": 4511,
      "Ġleather": 4512,
      "Ġwrong": 4513,
      "Ġposted": 4514,
      "ĠII": 4515,
      "RA": 4516,
      "Ġven": 4517,
      "Ġappropri": 4518,
      "Ġspaces": 4519,
      "ences": 4520,
      "ĠLove": 4521,
      "Home": 4522,
      "Ġtrees": 4523,
      "ĠGal": 4524,
      "Ġfees": 4525,
      "Ġwaiting": 4526,
      "letter": 4527,
      "alu": 4528,
      "ĠWeek": 4529,
      "Some": 4530,
      "Ġoccur": 4531,
      "Ġattempt": 4532,
      "Ġcentral": 4533,
      "ĠMal": 4534,
      "life": 4535,
      "Ġheard": 4536,
      "Ġforget": 4537,
      "ka": 4538,
      "haps": 4539,
      "Ġmiddle": 4540,
      "Ġapart": 4541,
      "ĠBath": 4542,
      "endar": 4543,
      "Ġcoverage": 4544,
      "ĠToday": 4545,
      "enses": 4546,
      "atever": 4547,
      "Ġclin": 4548,
      "Ġwash": 4549,
      "ĠStand": 4550,
      "Dis": 4551,
      "ĠAfrica": 4552,
      "lines": 4553,
      "Ġallowing": 4554,
      "irection": 4555,
      "Ġelements": 4556,
      "agn": 4557,
      "Ġoperating": 4558,
      "Ġcollege": 4559,
      "ĠTre": 4560,
      "ĠDetails": 4561,
      "rief": 4562,
      "ĠBet": 4563,
      "gar": 4564,
      "ij": 4565,
      "Ġestablished": 4566,
      "esy": 4567,
      "Ġpanel": 4568,
      "azine": 4569,
      "Ġdise": 4570,
      "Ġluck": 4571,
      "ãģ": 4572,
      "ĠHill": 4573,
      "Join": 4574,
      "Ġrequires": 4575,
      "Ġvision": 4576,
      "Ġfeedback": 4577,
      "usband": 4578,
      "Ġtheme": 4579,
      "SS": 4580,
      "Ġenvironment": 4581,
      "Ġdecl": 4582,
      "appy": 4583,
      "Ġconnected": 4584,
      "Ġpen": 4585,
      "Ġapproximately": 4586,
      "Other": 4587,
      "ĠHead": 4588,
      "Ġrules": 4589,
      "apter": 4590,
      "Ġpremium": 4591,
      "Thanks": 4592,
      "Ġcompared": 4593,
      "outs": 4594,
      "Ġsea": 4595,
      "Ġutil": 4596,
      "rupt": 4597,
      "Ġfollowed": 4598,
      "Ġce": 4599,
      "Ġspons": 4600,
      "Ġcore": 4601,
      "Ġefforts": 4602,
      "Ġincome": 4603,
      "Ġrecommended": 4604,
      "'d": 4605,
      "Su": 4606,
      "Ġdesk": 4607,
      "Ġplug": 4608,
      "Ġorganizations": 4609,
      "Ġadvanced": 4610,
      "Ġpresented": 4611,
      "onus": 4612,
      "ĠFull": 4613,
      "su": 4614,
      "cean": 4615,
      "istr": 4616,
      "Ġsouth": 4617,
      "ferences": 4618,
      "pective": 4619,
      "anking": 4620,
      "Ġinches": 4621,
      "lor": 4622,
      "Ġmechan": 4623,
      "ĠCourt": 4624,
      "iar": 4625,
      "ĠStep": 4626,
      "ourses": 4627,
      "ĠSize": 4628,
      "ems": 4629,
      "Ġstret": 4630,
      "Ġremind": 4631,
      "ĠMatt": 4632,
      "Ġeat": 4633,
      "Ġexception": 4634,
      "ga": 4635,
      "Ġoptim": 4636,
      "ĠOF": 4637,
      "Ġinnovative": 4638,
      "made": 4639,
      "Ġspl": 4640,
      "Man": 4641,
      "Ġstick": 4642,
      "Ġshower": 4643,
      "ternal": 4644,
      "Ġaren": 4645,
      "Ġchanging": 4646,
      "date": 4647,
      "Ġbeg": 4648,
      "atab": 4649,
      "Ġworry": 4650,
      "Yes": 4651,
      "Ġstandards": 4652,
      "Ġluxury": 4653,
      "td": 4654,
      "Ġcertainly": 4655,
      "Ġnames": 4656,
      "According": 4657,
      "ĠData": 4658,
      "Ġpandemic": 4659,
      "Ġdemon": 4660,
      "Ġbask": 4661,
      "ĠiPhone": 4662,
      "Ġinspired": 4663,
      "Ġcatch": 4664,
      "Last": 4665,
      "Ġmarkets": 4666,
      "Ġrental": 4667,
      "Ġdoub": 4668,
      "Ġshowing": 4669,
      "Ġjoined": 4670,
      "Ġsaying": 4671,
      "ĠGeneral": 4672,
      "ĠGar": 4673,
      "osing": 4674,
      "Ġparticularly": 4675,
      "ĠStart": 4676,
      "iration": 4677,
      "Ġfold": 4678,
      "Ġcelebrate": 4679,
      "Ġwine": 4680,
      "Ġexchange": 4681,
      "Ġrefund": 4682,
      "Ġring": 4683,
      "Ġcombination": 4684,
      "Ġice": 4685,
      "rete": 4686,
      "isation": 4687,
      "Ġsmaller": 4688,
      "uries": 4689,
      "Ġwar": 4690,
      "Ġleader": 4691,
      "vern": 4692,
      "Ġdegree": 4693,
      "ĠAccess": 4694,
      "yer": 4695,
      "ixt": 4696,
      "Ġrich": 4697,
      "ĠSet": 4698,
      "Ġproduced": 4699,
      "inations": 4700,
      "ĠBed": 4701,
      "ĠÐ": 4702,
      "Â£": 4703,
      "sy": 4704,
      "Ġcalcul": 4705,
      "ĠConnect": 4706,
      "aid": 4707,
      "Â°": 4708,
      "Ġlights": 4709,
      "Ġsport": 4710,
      "ĠMain": 4711,
      "CO": 4712,
      "Ġhundred": 4713,
      "BS": 4714,
      "ĠLou": 4715,
      "aser": 4716,
      "going": 4717,
      "Ġtrou": 4718,
      "emporary": 4719,
      "Ġcalls": 4720,
      "ki": 4721,
      "Ġfeaturing": 4722,
      "ĠSign": 4723,
      "eries": 4724,
      "ĠHist": 4725,
      "oosing": 4726,
      "ĠTake": 4727,
      "ano": 4728,
      "ĠStore": 4729,
      "atively": 4730,
      "otal": 4731,
      "Ġsuit": 4732,
      "Ġalone": 4733,
      "action": 4734,
      "ĠBen": 4735,
      "owntown": 4736,
      "ĠWord": 4737,
      "urd": 4738,
      "Ġnut": 4739,
      "Ġprovider": 4740,
      "Ġanywhere": 4741,
      "ĠMichael": 4742,
      "iled": 4743,
      "ĠSince": 4744,
      "Ġsilver": 4745,
      "ĠEstate": 4746,
      "Ġnorth": 4747,
      "Let": 4748,
      "Ġwoman": 4749,
      "Ġdepending": 4750,
      "outhern": 4751,
      "ĠMary": 4752,
      "Ġhaven": 4753,
      "Int": 4754,
      "ĠON": 4755,
      "Ġposts": 4756,
      "ĠLim": 4757,
      "Ġemb": 4758,
      "Ġreturns": 4759,
      "ribe": 4760,
      "ĠLED": 4761,
      "Ġvs": 4762,
      "Ġprepared": 4763,
      "ĠTor": 4764,
      "Ġafternoon": 4765,
      "Ġenjoyed": 4766,
      "ĠRest": 4767,
      "win": 4768,
      "Ġkm": 4769,
      "Ġtried": 4770,
      "Ġneighborhood": 4771,
      "Ġpush": 4772,
      "Ġpolit": 4773,
      "Ġstatus": 4774,
      "Ġoperation": 4775,
      "Ind": 4776,
      "Ġhusband": 4777,
      "list": 4778,
      "ĠMad": 4779,
      "Ġdeveloping": 4780,
      "Ġhospital": 4781,
      "ĠFREE": 4782,
      "Ġcontinued": 4783,
      "Ġtaste": 4784,
      "Ġthick": 4785,
      "ĠIndust": 4786,
      "Ġswitch": 4787,
      "Ġscen": 4788,
      "Ġgreater": 4789,
      "Ġmemory": 4790,
      "ĠMaster": 4791,
      "ĠCarol": 4792,
      "Ġstone": 4793,
      "Ġconfirm": 4794,
      "Ġcup": 4795,
      "Ġvoice": 4796,
      "Ġtom": 4797,
      "Ġserving": 4798,
      "Ġaccessories": 4799,
      "arks": 4800,
      "Ġpal": 4801,
      "Ġguarantee": 4802,
      "Ġwat": 4803,
      "ĠPeople": 4804,
      "Fi": 4805,
      "Ġconsumers": 4806,
      "Ġcotton": 4807,
      "FL": 4808,
      "Ġeleg": 4809,
      "Ġteeth": 4810,
      "Ġsigned": 4811,
      "Ġtransform": 4812,
      "Ġchain": 4813,
      "fin": 4814,
      "ipes": 4815,
      "ĠMedia": 4816,
      "ĠMel": 4817,
      "Ġsessions": 4818,
      "ĠArea": 4819,
      "ĠProv": 4820,
      "Price": 4821,
      "ĠPlus": 4822,
      "UT": 4823,
      "reate": 4824,
      "Ġvisual": 4825,
      "Ġraised": 4826,
      "ooper": 4827,
      "ĠAtt": 4828,
      "uty": 4829,
      "Ġprimary": 4830,
      "Ġgolf": 4831,
      "Ġedge": 4832,
      "GB": 4833,
      "Ġlooked": 4834,
      "Ġapps": 4835,
      "estyle": 4836,
      "âĢ³": 4837,
      "Ġdecide": 4838,
      "ĠSam": 4839,
      "Rel": 4840,
      "Welcome": 4841,
      "ĠSqu": 4842,
      "mical": 4843,
      "orthern": 4844,
      "Ġkept": 4845,
      "Ġbreakfast": 4846,
      "Ġstates": 4847,
      "DF": 4848,
      "Med": 4849,
      "Ġlimit": 4850,
      "Ġdinner": 4851,
      "ĠLong": 4852,
      "Ġleaves": 4853,
      "ĠAlex": 4854,
      "ATION": 4855,
      "icago": 4856,
      "Ġdelight": 4857,
      "nergy": 4858,
      "ptions": 4859,
      "IR": 4860,
      "ĠMicrosoft": 4861,
      "Ġsurv": 4862,
      "Ġminimum": 4863,
      "Ġfocused": 4864,
      "Ġfunds": 4865,
      "quality": 4866,
      "Ġshap": 4867,
      "osure": 4868,
      "orgeous": 4869,
      "Ġcritical": 4870,
      "Ġ=": 4871,
      "ini": 4872,
      "rehens": 4873,
      "Ġisland": 4874,
      "ĠCond": 4875,
      "Ġcommitted": 4876,
      "ĠMil": 4877,
      "col": 4878,
      "Ġemergency": 4879,
      "Ġmanaged": 4880,
      "ĠYOU": 4881,
      "Ġbecoming": 4882,
      "Have": 4883,
      "Ġsector": 4884,
      "ye": 4885,
      "issions": 4886,
      "Ġenhance": 4887,
      "Ġautomatically": 4888,
      "UN": 4889,
      "eless": 4890,
      "ĠReview": 4891,
      "Ġmovement": 4892,
      "lights": 4893,
      "Ġfilled": 4894,
      "ederal": 4895,
      "Ġworkers": 4896,
      "Ġremains": 4897,
      "ĠWhether": 4898,
      "Ġvirtual": 4899,
      "Ġdetailed": 4900,
      "ĠTwo": 4901,
      "Ġmm": 4902,
      "ĠUnder": 4903,
      "ĠQue": 4904,
      "Ġexpensive": 4905,
      "ĠLog": 4906,
      "ycl": 4907,
      "Just": 4908,
      "ĠCA": 4909,
      "Ġwebsites": 4910,
      "Ġ*": 4911,
      "Ġvalu": 4912,
      "aven": 4913,
      "Ġmedium": 4914,
      "mp": 4915,
      "Ġslightly": 4916,
      "ĠThom": 4917,
      "cell": 4918,
      "ĠMusic": 4919,
      "ĠFort": 4920,
      "Ġcoast": 4921,
      "Ġspending": 4922,
      "Ġgone": 4923,
      "Ġeconomic": 4924,
      "ĠWi": 4925,
      "leg": 4926,
      "Ġge": 4927,
      "ears": 4928,
      "zer": 4929,
      "ĠMuseum": 4930,
      "Ġletter": 4931,
      "ĠEducation": 4932,
      "flow": 4933,
      "Ġspeak": 4934,
      "ĠBox": 4935,
      "Ġthousands": 4936,
      "Ġlogo": 4937,
      "osh": 4938,
      "Ġleaving": 4939,
      "Ġreturned": 4940,
      "body": 4941,
      "Ġappropriate": 4942,
      "Ġboat": 4943,
      "ĠFarm": 4944,
      "Ġicon": 4945,
      "hire": 4946,
      "itors": 4947,
      "Ġcategory": 4948,
      "Ġadapt": 4949,
      "Ġleadership": 4950,
      "ĠSpring": 4951,
      "irmed": 4952,
      "Ġtesting": 4953,
      "Ġextensive": 4954,
      "ortgage": 4955,
      "Ġincredible": 4956,
      "unction": 4957,
      "Ġfather": 4958,
      "rote": 4959,
      "prene": 4960,
      "ĠBritish": 4961,
      "âĢĿ,": 4962,
      "Ġnav": 4963,
      "Ġpresident": 4964,
      "Ġincor": 4965,
      "Ġbringing": 4966,
      "Ġshoes": 4967,
      "Ġsurvey": 4968,
      "MA": 4969,
      "ĠMill": 4970,
      "Ġsup": 4971,
      "ĠSpecial": 4972,
      "inese": 4973,
      "ĠAvailable": 4974,
      "Ġsubmit": 4975,
      "Ġtrend": 4976,
      "Ġbought": 4977,
      "Ġmeasures": 4978,
      "Ġbird": 4979,
      "Ġfish": 4980,
      "Ġresidential": 4981,
      "obe": 4982,
      "Ġarticles": 4983,
      "Ġsets": 4984,
      "point": 4985,
      "Ġsav": 4986,
      "Ġpainting": 4987,
      "Ġeffects": 4988,
      "nament": 4989,
      "Ġlunch": 4990,
      "Ġshut": 4991,
      "Ġrelationships": 4992,
      "igned": 4993,
      "MLS": 4994,
      "Ġperfectly": 4995,
      "ander": 4996,
      "Ġavailability": 4997,
      "Ġhttp": 4998,
      "Ġquiet": 4999,
      "bol": 5000,
      "antic": 5001,
      "Ġsenior": 5002,
      "Ġappearance": 5003,
      "Ġcharacters": 5004,
      "Ġdaughter": 5005,
      "Ġforms": 5006,
      "Ġdogs": 5007,
      "reprene": 5008,
      "Ġequipped": 5009,
      "incip": 5010,
      "Ġscene": 5011,
      "Ġvisiting": 5012,
      "Ġinvent": 5013,
      "acking": 5014,
      "esh": 5015,
      "ĠCode": 5016,
      "Custom": 5017,
      "Ġjump": 5018,
      "Ġcouldn": 5019,
      "Ġgain": 5020,
      "Ġfaster": 5021,
      "ĠNetwork": 5022,
      "ĠMiss": 5023,
      "Step": 5024,
      "Ġalthough": 5025,
      "Ġexpertise": 5026,
      "Ġpred": 5027,
      "Ġpoly": 5028,
      "encies": 5029,
      "Ġseat": 5030,
      "Ġsurg": 5031,
      "Ġlisting": 5032,
      "ĠSoft": 5033,
      "ĠOh": 5034,
      "Ġgra": 5035,
      "Ġepisode": 5036,
      "MP": 5037,
      "Ġprofile": 5038,
      "Ġdepartment": 5039,
      "First": 5040,
      "Ġmaybe": 5041,
      "bre": 5042,
      "Ġanimals": 5043,
      "estic": 5044,
      "ĠBrown": 5045,
      "alog": 5046,
      "Ġhosting": 5047,
      "inn": 5048,
      "Ġformat": 5049,
      "uality": 5050,
      "Ġregistered": 5051,
      "Ġscheduled": 5052,
      "Ġspect": 5053,
      "Ġtalking": 5054,
      "Ġindependent": 5055,
      "omet": 5056,
      "burg": 5057,
      "Ġaccident": 5058,
      "ĠClean": 5059,
      "odel": 5060,
      "Ġolder": 5061,
      "OC": 5062,
      "Ġdisapp": 5063,
      "ĠLead": 5064,
      "ship": 5065,
      "ĠIP": 5066,
      "Ġindustrial": 5067,
      "isher": 5068,
      "Ġintend": 5069,
      "Ġwearing": 5070,
      "Ġdates": 5071,
      "rowd": 5072,
      "Ġrub": 5073,
      "ender": 5074,
      "Ġterr": 5075,
      "ĠLtd": 5076,
      "ĠVir": 5077,
      "Ġencourage": 5078,
      "Ġdirection": 5079,
      "ĠMade": 5080,
      "ĠAND": 5081,
      "Ġnotes": 5082,
      "Ġvalues": 5083,
      "Ġtask": 5084,
      "bsite": 5085,
      "Ġtail": 5086,
      "Ġer": 5087,
      "reens": 5088,
      "ae": 5089,
      "ĠTur": 5090,
      "han": 5091,
      "Ġparties": 5092,
      "Ġdetermine": 5093,
      "Ġbrother": 5094,
      "ĠMer": 5095,
      "Ġsort": 5096,
      "Ġmanufacturing": 5097,
      "Ġagency": 5098,
      "ĠSports": 5099,
      "west": 5100,
      "Ġheight": 5101,
      "ĠTim": 5102,
      "Ġsettings": 5103,
      "Ġcities": 5104,
      "ĠMont": 5105,
      "ctors": 5106,
      "Ġgather": 5107,
      "Pre": 5108,
      "ya": 5109,
      "Ġsurf": 5110,
      "Features": 5111,
      "Ġ>": 5112,
      "ĠCat": 5113,
      "SE": 5114,
      "igan": 5115,
      "ror": 5116,
      "osen": 5117,
      "Ġthoughts": 5118,
      "Rep": 5119,
      "iser": 5120,
      "ĠAward": 5121,
      "gen": 5122,
      "iment": 5123,
      "ĠMult": 5124,
      "intage": 5125,
      "Ġestim": 5126,
      "cles": 5127,
      "Ġter": 5128,
      "Ġknew": 5129,
      "Ġawesome": 5130,
      "Ġconfidence": 5131,
      "Ġjud": 5132,
      "Ġleads": 5133,
      "Ġabsolutely": 5134,
      "ĠChampions": 5135,
      "Ġsurrounding": 5136,
      "iner": 5137,
      "ĠOld": 5138,
      "rapy": 5139,
      "front": 5140,
      "Ġsupporting": 5141,
      "Ġrare": 5142,
      "Ġprotected": 5143,
      "ĠPoint": 5144,
      "Ġpayments": 5145,
      "ĠRad": 5146,
      "Ġamong": 5147,
      "Ġfigure": 5148,
      "TH": 5149,
      "ĠWal": 5150,
      "ĠGame": 5151,
      "ĠLearn": 5152,
      "Ġcontroll": 5153,
      "hab": 5154,
      "Ġrestrict": 5155,
      "Ġpreviously": 5156,
      "Ġcombined": 5157,
      "Ġdetect": 5158,
      "PM": 5159,
      "itle": 5160,
      "no": 5161,
      "rees": 5162,
      "oms": 5163,
      "Ġfaith": 5164,
      "Ġdang": 5165,
      "ĠSmith": 5166,
      "opping": 5167,
      "ĠShipping": 5168,
      "Ġdelicious": 5169,
      "Ġbehav": 5170,
      "ĠDem": 5171,
      "Follow": 5172,
      "Ġbasket": 5173,
      "ellig": 5174,
      "Learn": 5175,
      "ĠÃ": 5176,
      "ĠRober": 5177,
      "However": 5178,
      "Ġticket": 5179,
      "cks": 5180,
      "Ġcream": 5181,
      "eline": 5182,
      "Ġconfig": 5183,
      "Ġrear": 5184,
      "ĠDrive": 5185,
      "ĠKeep": 5186,
      "Ġhighlight": 5187,
      "ovel": 5188,
      "Sm": 5189,
      "ĠSecurity": 5190,
      "ĠMex": 5191,
      "Ġflight": 5192,
      "Ġnumerous": 5193,
      "Ġprot": 5194,
      "Ġsatisf": 5195,
      "ĠFranc": 5196,
      "itness": 5197,
      "oles": 5198,
      "Ġreplacement": 5199,
      "with": 5200,
      "Ġsigns": 5201,
      "iking": 5202,
      "iance": 5203,
      "Ġscale": 5204,
      "Ġachie": 5205,
      "Ġstruct": 5206,
      "Ġagent": 5207,
      "fortunately": 5208,
      "rehensive": 5209,
      "Ġproperly": 5210,
      "Aut": 5211,
      "Ġraise": 5212,
      "Sign": 5213,
      "Ġopin": 5214,
      "Ġcovers": 5215,
      "Ġcere": 5216,
      "ĠOffic": 5217,
      "Ġsuppli": 5218,
      "struction": 5219,
      "Ġvent": 5220,
      "ĠNY": 5221,
      "ĠTechnology": 5222,
      "ĠAtl": 5223,
      "ĠCoast": 5224,
      "ĠMax": 5225,
      "Ġpartnership": 5226,
      "Ġprepare": 5227,
      "Ġjoint": 5228,
      "Ġpractices": 5229,
      "Ġlisten": 5230,
      "Ġsy": 5231,
      "Ġbeat": 5232,
      "ĠAT": 5233,
      "Ġflexible": 5234,
      "sm": 5235,
      "pat": 5236,
      "Ġphotograph": 5237,
      "esterday": 5238,
      "working": 5239,
      "IA": 5240,
      "Ġblend": 5241,
      "Ġreality": 5242,
      "Ġrelevant": 5243,
      "vell": 5244,
      "iable": 5245,
      "Share": 5246,
      "tra": 5247,
      "ĠCert": 5248,
      "ĠDou": 5249,
      "ĠHy": 5250,
      "ĠWay": 5251,
      "Ġcourses": 5252,
      "ĠWhy": 5253,
      "icine": 5254,
      "ĠIts": 5255,
      "ĠLos": 5256,
      "OD": 5257,
      "Ġscr": 5258,
      "ulated": 5259,
      "Ġmissing": 5260,
      "anche": 5261,
      "Ġsources": 5262,
      "Ke": 5263,
      "Ġlearned": 5264,
      "Ġapproved": 5265,
      "Ġserver": 5266,
      "Ġhousing": 5267,
      "lets": 5268,
      "oration": 5269,
      "van": 5270,
      "Ġbirthday": 5271,
      "Press": 5272,
      "Ġvan": 5273,
      "Ġtea": 5274,
      "cause": 5275,
      "Ġlibrary": 5276,
      "Ġft": 5277,
      "mark": 5278,
      "Ġtrading": 5279,
      "Ġfeatured": 5280,
      "hent": 5281,
      "Ġjack": 5282,
      "Ġcutting": 5283,
      "Ġtun": 5284,
      "etime": 5285,
      "Ġdig": 5286,
      "Ġadventure": 5287,
      "away": 5288,
      "CE": 5289,
      "ersonal": 5290,
      "ocolate": 5291,
      "olutions": 5292,
      "Ġfavourite": 5293,
      "Ġwrote": 5294,
      "Ġthr": 5295,
      "Ġhimself": 5296,
      "Ġfell": 5297,
      "Ġsubscrib": 5298,
      "udd": 5299,
      "ait": 5300,
      "Ġliter": 5301,
      "ĠGarden": 5302,
      "Ġfo": 5303,
      "known": 5304,
      "Ġgoods": 5305,
      "ĠFund": 5306,
      "prise": 5307,
      "Tw": 5308,
      "vision": 5309,
      "Ġflu": 5310,
      "Since": 5311,
      "ĠGuide": 5312,
      "Ġcorporate": 5313,
      "Ġwatching": 5314,
      "Ġboost": 5315,
      "Ġtransl": 5316,
      "atabase": 5317,
      "Ġreserved": 5318,
      "ictor": 5319,
      "ĠInclud": 5320,
      "ĠFil": 5321,
      "Ġbreath": 5322,
      "Ġinstructions": 5323,
      "Ġsolar": 5324,
      "ĠOrgan": 5325,
      "ua": 5326,
      "Ġdurable": 5327,
      "Ġharm": 5328,
      "ĠPan": 5329,
      "ilitary": 5330,
      "Ġreplace": 5331,
      "Ġspacious": 5332,
      "Ġden": 5333,
      "ĠChicago": 5334,
      "ĠHom": 5335,
      "Ġscience": 5336,
      "ifying": 5337,
      "ĠDev": 5338,
      "ĠLive": 5339,
      "Ġefficiency": 5340,
      "https": 5341,
      "Ġcris": 5342,
      "Ġfactors": 5343,
      "Ġdistrict": 5344,
      "ĠHave": 5345,
      "rier": 5346,
      "ĠOper": 5347,
      "Ġcomponents": 5348,
      "alian": 5349,
      "Today": 5350,
      "Ġhappens": 5351,
      "ademy": 5352,
      "rid": 5353,
      "Ġcommitment": 5354,
      "gl": 5355,
      "ĠDiv": 5356,
      "Ġworldwide": 5357,
      "Ġpump": 5358,
      "Ġpractical": 5359,
      "Ġagreement": 5360,
      "Ġmil": 5361,
      "ĠResearch": 5362,
      "DA": 5363,
      "proof": 5364,
      "Ġfourth": 5365,
      "Ġeconomy": 5366,
      "Ġblood": 5367,
      "ĠChristian": 5368,
      "Ġdental": 5369,
      "OP": 5370,
      "ĠSand": 5371,
      "ĠScott": 5372,
      "Ġputting": 5373,
      "Ġmill": 5374,
      "ĠMid": 5375,
      "ĠWomen": 5376,
      "Ġaccurate": 5377,
      "Ġregistration": 5378,
      "ĠFestival": 5379,
      "Ġiniti": 5380,
      "Ġbuildings": 5381,
      "Ġtechniques": 5382,
      "Ġtight": 5383,
      "Wor": 5384,
      "Ġstudio": 5385,
      "Sim": 5386,
      "Ġstars": 5387,
      "May": 5388,
      "Ġconcerns": 5389,
      "isco": 5390,
      "Ġir": 5391,
      "Ġmeant": 5392,
      "ruit": 5393,
      "Ġmoist": 5394,
      "ĠTH": 5395,
      "Ġrenov": 5396,
      "oted": 5397,
      "Ġvacc": 5398,
      "Ġconfirmed": 5399,
      "Ġjoy": 5400,
      "ĠName": 5401,
      "Ġreached": 5402,
      "Ġmist": 5403,
      "Ġfem": 5404,
      "ca": 5405,
      "Ġdepos": 5406,
      "Ġdeck": 5407,
      "quir": 5408,
      "ĠTem": 5409,
      "Ġmode": 5410,
      "Ġactual": 5411,
      "Ġguys": 5412,
      "inar": 5413,
      "ita": 5414,
      "idden": 5415,
      "elines": 5416,
      "Ġhyd": 5417,
      "ĠExt": 5418,
      "Ġdemonstr": 5419,
      "SA": 5420,
      "Ġadopt": 5421,
      "ello": 5422,
      "Ġhire": 5423,
      "Ġcolours": 5424,
      "rivate": 5425,
      "ums": 5426,
      "orough": 5427,
      "âĢĺ": 5428,
      "Ġedition": 5429,
      "ĠHD": 5430,
      "Ġsides": 5431,
      "à¸": 5432,
      "Ġapplied": 5433,
      "Ġvillage": 5434,
      "ola": 5435,
      "anges": 5436,
      "Ġevalu": 5437,
      "Ġseconds": 5438,
      "ĠPri": 5439,
      "Ġvacation": 5440,
      "Car": 5441,
      "Ġgorgeous": 5442,
      "itiz": 5443,
      "case": 5444,
      "igate": 5445,
      "Ġbecomes": 5446,
      "Ġkit": 5447,
      "Ġchannel": 5448,
      "Ġfra": 5449,
      "ĠâĤ¬": 5450,
      "Ġrot": 5451,
      "ĠWall": 5452,
      "Ġdecisions": 5453,
      "Ġwalls": 5454,
      "Ġfunding": 5455,
      "High": 5456,
      "ĠSP": 5457,
      "Book": 5458,
      "Location": 5459,
      "inch": 5460,
      "othes": 5461,
      "een": 5462,
      "Off": 5463,
      "Ġchat": 5464,
      "berg": 5465,
      "Ġshops": 5466,
      "ĠShop": 5467,
      "erts": 5468,
      "ĠEqu": 5469,
      "Ġinternal": 5470,
      "sequ": 5471,
      "LL": 5472,
      "Ġtruck": 5473,
      "Ġpleased": 5474,
      "Gu": 5475,
      "ĠNov": 5476,
      "ĠTheir": 5477,
      "Ġgeneration": 5478,
      "stone": 5479,
      "ript": 5480,
      "ighter": 5481,
      "Ġfuel": 5482,
      "Ġforce": 5483,
      "ĠWil": 5484,
      "Ġcable": 5485,
      "Ġdrug": 5486,
      "Ġtherefore": 5487,
      "afe": 5488,
      "ĠUl": 5489,
      "oral": 5490,
      "ĠHam": 5491,
      "Ġprocessing": 5492,
      "Ġweekly": 5493,
      "elry": 5494,
      "Ġcaused": 5495,
      "Ġenable": 5496,
      "scribe": 5497,
      "Ġyouth": 5498,
      "Ġknows": 5499,
      "Ġgear": 5500,
      "essional": 5501,
      "omb": 5502,
      "ĠAC": 5503,
      "Ġeveryday": 5504,
      "Great": 5505,
      "ĠScience": 5506,
      "Ġfol": 5507,
      "Ġtend": 5508,
      "gal": 5509,
      "Ġbonus": 5510,
      "Ġgifts": 5511,
      "Email": 5512,
      "cont": 5513,
      "ardens": 5514,
      "Ġpresence": 5515,
      "Ġexercise": 5516,
      "Once": 5517,
      "eler": 5518,
      "ĠConference": 5519,
      "Per": 5520,
      "Ġshall": 5521,
      "ĠCam": 5522,
      "ĠSales": 5523,
      "Ġnearby": 5524,
      "Ġsq": 5525,
      "Most": 5526,
      "rome": 5527,
      "water": 5528,
      "Ġalternative": 5529,
      "bert": 5530,
      "urns": 5531,
      "Ġgovern": 5532,
      "Ġstyles": 5533,
      "Ġtechnologies": 5534,
      "Ġdesigner": 5535,
      "ĠAccount": 5536,
      "yard": 5537,
      "Ġprinted": 5538,
      "ĠFair": 5539,
      "Â©": 5540,
      "Ġprocesses": 5541,
      "Mar": 5542,
      "Ġtough": 5543,
      "ults": 5544,
      "ĠArts": 5545,
      "Any": 5546,
      "Ġourselves": 5547,
      "!!!": 5548,
      "ĠSocial": 5549,
      "Ġparticipants": 5550,
      "Ġparticipate": 5551,
      "Ġthreat": 5552,
      "ĠSociety": 5553,
      "Ð¾": 5554,
      "Ġestablish": 5555,
      "Ġoccasion": 5556,
      "iams": 5557,
      "Ġdyn": 5558,
      "Ġended": 5559,
      "Ġdestination": 5560,
      "Ġimproved": 5561,
      "Use": 5562,
      "undry": 5563,
      "Ġwhose": 5564,
      "ĠMedical": 5565,
      "orter": 5566,
      "Ġvalid": 5567,
      "ĠDigital": 5568,
      "Ġcharges": 5569,
      "Ġsubst": 5570,
      "Ġmini": 5571,
      "ĠLibrary": 5572,
      "Ġsupports": 5573,
      "Ġcheap": 5574,
      "ĠAngeles": 5575,
      "Ġearth": 5576,
      "inct": 5577,
      "ibilities": 5578,
      "Ġdrink": 5579,
      "ĠCost": 5580,
      "atre": 5581,
      "Ġsupported": 5582,
      "hi": 5583,
      "Ġcentury": 5584,
      "Ġhappened": 5585,
      "Ġstretch": 5586,
      "mosp": 5587,
      "Ġdrivers": 5588,
      "yan": 5589,
      "ament": 5590,
      "ora": 5591,
      "ĠEnter": 5592,
      "Ġentr": 5593,
      "Ġpu": 5594,
      "Ġheating": 5595,
      "aded": 5596,
      "ores": 5597,
      "ĠOnly": 5598,
      "hand": 5599,
      "ocking": 5600,
      "ĠWild": 5601,
      "Ġvolume": 5602,
      "Ġpromote": 5603,
      "Ġkeeps": 5604,
      "ĠLord": 5605,
      "Ġath": 5606,
      "ena": 5607,
      "Det": 5608,
      "Ġshares": 5609,
      "ĠCommission": 5610,
      "atin": 5611,
      "ennis": 5612,
      "Ġwheel": 5613,
      "Ġcrew": 5614,
      "Ġgrant": 5615,
      "Ġgenerally": 5616,
      "Ġviol": 5617,
      "Ġreco": 5618,
      "ius": 5619,
      "Ġworkshop": 5620,
      "nel": 5621,
      "Ġcomprehensive": 5622,
      "Ġscored": 5623,
      "ĠPolice": 5624,
      "ĠNOT": 5625,
      "ĠInvest": 5626,
      "Ġimportance": 5627,
      "Ġholidays": 5628,
      "Out": 5629,
      "ĠJour": 5630,
      "Ġaudio": 5631,
      "rastructure": 5632,
      "ĠChinese": 5633,
      "Ġtopics": 5634,
      "ĠNumber": 5635,
      "iest": 5636,
      "ĠCommit": 5637,
      "ĠFrance": 5638,
      "Ġrat": 5639,
      "Ġroute": 5640,
      "Ġplanned": 5641,
      "Ġgirls": 5642,
      "ĠSa": 5643,
      "ĠTravel": 5644,
      "Ġfilter": 5645,
      "Search": 5646,
      "Dr": 5647,
      "Ġcrowd": 5648,
      "orable": 5649,
      "Tube": 5650,
      "ĠControl": 5651,
      "asts": 5652,
      "ĠPress": 5653,
      "ffect": 5654,
      "Ġappeal": 5655,
      "Ġcharm": 5656,
      "PA": 5657,
      "Ġchair": 5658,
      "Ġwaste": 5659,
      "Ġwinner": 5660,
      "Ġfields": 5661,
      "icies": 5662,
      "ĠBur": 5663,
      "ala": 5664,
      "Each": 5665,
      "Ð°": 5666,
      "Ġstainless": 5667,
      "iers": 5668,
      "Note": 5669,
      "Ġmountain": 5670,
      "ĠHospital": 5671,
      "ERS": 5672,
      "road": 5673,
      "arp": 5674,
      "eper": 5675,
      "Vis": 5676,
      "ivil": 5677,
      "ĠAud": 5678,
      "Ġyellow": 5679,
      "Also": 5680,
      "Ġmeetings": 5681,
      "site": 5682,
      "âĢĶâĢĶ": 5683,
      "olars": 5684,
      "ĠPrint": 5685,
      "ĠMarketing": 5686,
      "ĠEnergy": 5687,
      "ĠUSB": 5688,
      "Ġlistings": 5689,
      "ĠMach": 5690,
      "power": 5691,
      "Ġowned": 5692,
      "Ġâ": 5693,
      "ĠRequ": 5694,
      "Download": 5695,
      "Ġhonest": 5696,
      "ĠSn": 5697,
      "Ġdent": 5698,
      "Ġtub": 5699,
      "ĠâĢ¢": 5700,
      "ĠMo": 5701,
      "Ġpurchasing": 5702,
      "Ġfloors": 5703,
      "agers": 5704,
      "Ġspecifically": 5705,
      "Ġfeels": 5706,
      "ospit": 5707,
      "Ġregularly": 5708,
      "Ġchart": 5709,
      "Ã¡": 5710,
      "ĠAdv": 5711,
      "ucks": 5712,
      "Ġthrow": 5713,
      "ĠReviews": 5714,
      "ĠHum": 5715,
      "Ġremote": 5716,
      "Ġupper": 5717,
      "ĠBer": 5718,
      "ĠÂ©": 5719,
      "Shipping": 5720,
      "Ġleague": 5721,
      "Ġkick": 5722,
      "Ġappreciate": 5723,
      "Ġfixed": 5724,
      "while": 5725,
      "sych": 5726,
      "Ġmanufacturer": 5727,
      "hetic": 5728,
      "Ġteaching": 5729,
      "pected": 5730,
      "ĠCreat": 5731,
      "ĠTest": 5732,
      "autiful": 5733,
      "Ġlose": 5734,
      "Ġconversation": 5735,
      "FC": 5736,
      "Listing": 5737,
      "Ġplate": 5738,
      "Ġdisease": 5739,
      "Ġrevealed": 5740,
      "Call": 5741,
      "anish": 5742,
      "Ġhardware": 5743,
      "Ġelig": 5744,
      "kin": 5745,
      "ĠDuring": 5746,
      "Ġasking": 5747,
      "pid": 5748,
      "ulous": 5749,
      "Ġarm": 5750,
      "Ġfle": 5751,
      "ĠSteel": 5752,
      "Ġcoord": 5753,
      "Ġguaranteed": 5754,
      "Ġbill": 5755,
      "Ġtempl": 5756,
      "eller": 5757,
      "pan": 5758,
      "Ġdepart": 5759,
      "ĠDen": 5760,
      "ĠAustralian": 5761,
      "Art": 5762,
      "ĠSmart": 5763,
      "ĠFre": 5764,
      "Part": 5765,
      "Ġrise": 5766,
      "ĠNor": 5767,
      "gers": 5768,
      "itage": 5769,
      "ĠLast": 5770,
      "bur": 5771,
      "adium": 5772,
      "Ġlack": 5773,
      "friendly": 5774,
      "unting": 5775,
      "Ġchosen": 5776,
      "ĠDelivery": 5777,
      "Size": 5778,
      "ĠBal": 5779,
      "Ġfishing": 5780,
      "ĠVirgin": 5781,
      "Ġdu": 5782,
      "iece": 5783,
      "hus": 5784,
      "ĠEnd": 5785,
      "ĠBrand": 5786,
      "PC": 5787,
      "Ġmir": 5788,
      "ĠDate": 5789,
      "ĠVer": 5790,
      "Ġwhatever": 5791,
      "ĠAvenue": 5792,
      "oto": 5793,
      "Ġmachines": 5794,
      "Ġtech": 5795,
      "ĠOb": 5796,
      "Ġpodcast": 5797,
      "Ġstrategies": 5798,
      "ĠLouis": 5799,
      "Ġaccommodation": 5800,
      "spe": 5801,
      "icians": 5802,
      "icket": 5803,
      "Ġrecords": 5804,
      "Ġbrief": 5805,
      "ani": 5806,
      "Ġotherwise": 5807,
      "cue": 5808,
      "Ġarrived": 5809,
      "ersey": 5810,
      "Ġrevenue": 5811,
      "inating": 5812,
      "ĠMeet": 5813,
      "ĠDescription": 5814,
      "wear": 5815,
      "\",": 5816,
      "Ġappears": 5817,
      "Ġcontemporary": 5818,
      "Ġproviders": 5819,
      "vere": 5820,
      "anda": 5821,
      "ERE": 5822,
      "ocu": 5823,
      "Ġatmosp": 5824,
      "Ġstream": 5825,
      "ario": 5826,
      "Ġrenew": 5827,
      "Ġment": 5828,
      "ĠCast": 5829,
      "ĠFriend": 5830,
      "Ġtopic": 5831,
      "ilst": 5832,
      "Top": 5833,
      "Ġdiscussion": 5834,
      "print": 5835,
      "ĠLab": 5836,
      "ĠWalk": 5837,
      "Ġpopulation": 5838,
      "reland": 5839,
      "Ġbond": 5840,
      "iders": 5841,
      "Ġaspects": 5842,
      "Fl": 5843,
      "uction": 5844,
      "ĠWorks": 5845,
      "ĠBecause": 5846,
      "Ġquote": 5847,
      "Ġmentioned": 5848,
      "pon": 5849,
      "LA": 5850,
      "Where": 5851,
      "ĠSupp": 5852,
      "Ġpackaging": 5853,
      "vention": 5854,
      "Ġtab": 5855,
      "ĠðŁ": 5856,
      "ĠKitchen": 5857,
      "ĠProducts": 5858,
      "Ġphotograp": 5859,
      "Ġlifestyle": 5860,
      "folio": 5861,
      "ikes": 5862,
      "ĠSummer": 5863,
      "Ġsupplies": 5864,
      "ĠSale": 5865,
      "kins": 5866,
      "ĠTrust": 5867,
      "verse": 5868,
      "ĠPlace": 5869,
      "chers": 5870,
      "iors": 5871,
      "abilities": 5872,
      "ĠRef": 5873,
      "Ġinspiration": 5874,
      "Ġarrive": 5875,
      "reams": 5876,
      "Ġnine": 5877,
      "Ġbags": 5878,
      "ĠHard": 5879,
      "Ġappliances": 5880,
      "Ġrecovery": 5881,
      "orney": 5882,
      "Ġimpressive": 5883,
      "Ġsitting": 5884,
      "ecutive": 5885,
      "ĠiP": 5886,
      "itionally": 5887,
      "Ġveget": 5888,
      "Ġdespite": 5889,
      "Ġvend": 5890,
      "ORE": 5891,
      "ĠMic": 5892,
      "ĠChief": 5893,
      "ĠKn": 5894,
      "anged": 5895,
      "Copyright": 5896,
      "cohol": 5897,
      "eared": 5898,
      "Ġhouses": 5899,
      "Ġchoosing": 5900,
      "Ġaccessible": 5901,
      "Ġvaluable": 5902,
      "ĠGermany": 5903,
      "Ġattack": 5904,
      "Ġmental": 5905,
      "ĠMen": 5906,
      "Ġextended": 5907,
      "Ġfat": 5908,
      "ĠBas": 5909,
      "ansion": 5910,
      "Ġemployee": 5911,
      "ĠLike": 5912,
      "Ġaffil": 5913,
      "Ġamenities": 5914,
      "usion": 5915,
      "ĠHaw": 5916,
      "Ġintegrated": 5917,
      "Make": 5918,
      "Ġshowed": 5919,
      "Ġphotography": 5920,
      "rowse": 5921,
      "Ġstylish": 5922,
      "Ġholding": 5923,
      "men": 5924,
      "Ðµ": 5925,
      "ĠLo": 5926,
      "pons": 5927,
      "Ġwilling": 5928,
      "ĠSilver": 5929,
      "ĠGlobal": 5930,
      "ĠVictor": 5931,
      "Ġdebut": 5932,
      "Ed": 5933,
      "Ġfruit": 5934,
      "Ġoutput": 5935,
      "Ġsimpl": 5936,
      "Ġbegins": 5937,
      "Ġoutstanding": 5938,
      "plore": 5939,
      "Ġaccounts": 5940,
      "Ret": 5941,
      "Ġremov": 5942,
      "gend": 5943,
      "Ġwarranty": 5944,
      "zen": 5945,
      "Ġnewsletter": 5946,
      "Hi": 5947,
      "Ġlandscape": 5948,
      "Ġhotels": 5949,
      "Ġjournal": 5950,
      "ĠHelp": 5951,
      "Ġbur": 5952,
      "ĠUnion": 5953,
      "ĠChildren": 5954,
      "Ġnom": 5955,
      "Ġmotiv": 5956,
      "arsh": 5957,
      "Ġplays": 5958,
      "SC": 5959,
      "ppers": 5960,
      "Ġinjuries": 5961,
      "Ġfacing": 5962,
      "Ġindic": 5963,
      "Ġdance": 5964,
      "uration": 5965,
      "Many": 5966,
      "Ġages": 5967,
      "ĠCross": 5968,
      "Ġcalling": 5969,
      "Inst": 5970,
      "Ġremoved": 5971,
      "Ġmis": 5972,
      "ĠLLC": 5973,
      "ĠCD": 5974,
      "days": 5975,
      "Del": 5976,
      "mony": 5977,
      "ĠNight": 5978,
      "Ġseeking": 5979,
      "ĠSom": 5980,
      "hem": 5981,
      "ĠChris": 5982,
      "Ġintroduced": 5983,
      "ĠWilliams": 5984,
      "ĠInsurance": 5985,
      "ĠAlthough": 5986,
      "Pe": 5987,
      "Ġinstru": 5988,
      "Ġbrowser": 5989,
      "Best": 5990,
      "ĠRoyal": 5991,
      "EST": 5992,
      "ench": 5993,
      "Ġshipped": 5994,
      "Ġdra": 5995,
      "Ġcollaboration": 5996,
      "Ġresource": 5997,
      "Ġlicens": 5998,
      "Ġhousehold": 5999,
      "ĠDub": 6000,
      "Ġease": 6001,
      "hew": 6002,
      "Ġdiagn": 6003,
      "ĠEasy": 6004,
      "Ġswimming": 6005,
      "Ġclothing": 6006,
      "ĠMa": 6007,
      "Ġoverl": 6008,
      "Ġrug": 6009,
      "apers": 6010,
      "ml": 6011,
      "ĠAirport": 6012,
      "cking": 6013,
      "ĠYes": 6014,
      "Ġconsumer": 6015,
      "FA": 6016,
      "ĠAbout": 6017,
      "Ġpoor": 6018,
      "Ġpresentation": 6019,
      "ĠSU": 6020,
      "Ġcommission": 6021,
      "HS": 6022,
      "Ġnovel": 6023,
      "ĠItalian": 6024,
      "ras": 6025,
      "Ġhang": 6026,
      "Jan": 6027,
      "Ġattached": 6028,
      "Ġreceiving": 6029,
      "ĠCy": 6030,
      "Ġelim": 6031,
      "Ġflooring": 6032,
      "Ġentreprene": 6033,
      "ulate": 6034,
      "ĠAcademy": 6035,
      "irement": 6036,
      "Ġfamiliar": 6037,
      "Ġconstruct": 6038,
      "gn": 6039,
      "ĠReport": 6040,
      "Ġrepe": 6041,
      "ĠFoot": 6042,
      "Ġlift": 6043,
      "poses": 6044,
      "Ġchoices": 6045,
      "Ġcalendar": 6046,
      "Ġcro": 6047,
      "Open": 6048,
      "Ġscient": 6049,
      "Ġvenue": 6050,
      "Ġseek": 6051,
      "Ġsecret": 6052,
      "adian": 6053,
      "Ġresponsibility": 6054,
      "Ġperman": 6055,
      "Ġradio": 6056,
      "icken": 6057,
      "Ġpricing": 6058,
      "Ġanimal": 6059,
      "Ġgro": 6060,
      "Ġmeal": 6061,
      "edy": 6062,
      "amsung": 6063,
      "Ġbuyers": 6064,
      "ĠJew": 6065,
      "Ġcompat": 6066,
      "Ġexist": 6067,
      "Ġesc": 6068,
      "Ġprogramme": 6069,
      "ĠWestern": 6070,
      "riage": 6071,
      "ĠBoth": 6072,
      "PR": 6073,
      "Ġlayer": 6074,
      "Ġelectrical": 6075,
      "TA": 6076,
      "Ġcarefully": 6077,
      "lock": 6078,
      "Ġmoments": 6079,
      "Ġsurgery": 6080,
      "ĠYouTube": 6081,
      "Ġreb": 6082,
      "ĠWatch": 6083,
      "Start": 6084,
      "ĠCharl": 6085,
      "ĠZeal": 6086,
      "Ġmembership": 6087,
      "Ġloves": 6088,
      "Ġsomew": 6089,
      "Ġbrain": 6090,
      "ether": 6091,
      "ĠGeorge": 6092,
      "LY": 6093,
      "Ġelegant": 6094,
      "ĠFrank": 6095,
      "Ġobvious": 6096,
      "During": 6097,
      "Ġhistoric": 6098,
      "Ġsounds": 6099,
      "Ġboy": 6100,
      "Ġunless": 6101,
      "Ġveter": 6102,
      "ĠFun": 6103,
      "Ġyard": 6104,
      "Ġfitness": 6105,
      "Ġends": 6106,
      "Ġperhaps": 6107,
      "Ġgrade": 6108,
      "ĠTimes": 6109,
      "Ġauto": 6110,
      "cert": 6111,
      "Ġpaying": 6112,
      "ademic": 6113,
      "Ġhorse": 6114,
      "ĠIreland": 6115,
      "rated": 6116,
      "inder": 6117,
      "________": 6118,
      "ĠLow": 6119,
      "kes": 6120,
      "Ġholds": 6121,
      "Co": 6122,
      "Ġegg": 6123,
      "ĠMobile": 6124,
      "ĠNote": 6125,
      "Ġupgrade": 6126,
      "berry": 6127,
      "Ġtoward": 6128,
      "Ġorganic": 6129,
      "Ġjoining": 6130,
      "osition": 6131,
      "Ġconcrete": 6132,
      "Ġcheckout": 6133,
      "ĠCommittee": 6134,
      "Ġfunctions": 6135,
      "Ġvictory": 6136,
      "ĠJun": 6137,
      "Ġfif": 6138,
      "Ġcampus": 6139,
      "Ġongoing": 6140,
      "ĠPac": 6141,
      "Ġexecutive": 6142,
      "Ġcloser": 6143,
      "Ġaccompl": 6144,
      "ĠAwards": 6145,
      "then": 6146,
      "Ġchemical": 6147,
      "Ġprivacy": 6148,
      "Ġlicense": 6149,
      "Ġclimate": 6150,
      "Ġbigger": 6151,
      "rox": 6152,
      "ĠEnjoy": 6153,
      "Ġconfident": 6154,
      "edom": 6155,
      "ĠTri": 6156,
      "Ġlabel": 6157,
      "ĠAuthor": 6158,
      "Ġmissed": 6159,
      "Ġchallenging": 6160,
      "Ġhearing": 6161,
      "ĠScot": 6162,
      "Ġdatabase": 6163,
      "was": 6164,
      "tle": 6165,
      "ĠZealand": 6166,
      "Ġcooking": 6167,
      "ĠSanta": 6168,
      "Ġcancer": 6169,
      "Related": 6170,
      "Ġyesterday": 6171,
      "Go": 6172,
      "riger": 6173,
      "ĠSmall": 6174,
      "Ġrepairs": 6175,
      "azz": 6176,
      "under": 6177,
      "ĠFollow": 6178,
      "Ġairport": 6179,
      "Ġcra": 6180,
      "oga": 6181,
      "Ġtall": 6182,
      "Ġhundreds": 6183,
      "Ġmethod": 6184,
      "ĠFOR": 6185,
      "Ġfits": 6186,
      "ĠNext": 6187,
      "ĠJapanese": 6188,
      "actions": 6189,
      "ĠGerman": 6190,
      "ĠDi": 6191,
      "ĠMat": 6192,
      "Ġengineering": 6193,
      "Ġdistribution": 6194,
      "Comm": 6195,
      "Ġbrown": 6196,
      "Tra": 6197,
      "lying": 6198,
      "Ġped": 6199,
      "Ġadvertising": 6200,
      "ech": 6201,
      "Ġconvert": 6202,
      "iversary": 6203,
      "ĠSearch": 6204,
      "Ġplatforms": 6205,
      "ĠGeorg": 6206,
      "Ġsmartphone": 6207,
      "Ġpurposes": 6208,
      "Eng": 6209,
      "Ġliqu": 6210,
      "!)": 6211,
      "Ġmatches": 6212,
      "EE": 6213,
      "Ġslee": 6214,
      "Ġinnovation": 6215,
      "RI": 6216,
      "Ġgrown": 6217,
      "ĠBuilding": 6218,
      "ĠProtect": 6219,
      "husi": 6220,
      "Ġtrends": 6221,
      "ella": 6222,
      "opped": 6223,
      "Ġdowntown": 6224,
      "Ġrom": 6225,
      "Ġriver": 6226,
      "Ġsustainable": 6227,
      "mond": 6228,
      "Date": 6229,
      "ĠMountain": 6230,
      "Ġconsidering": 6231,
      "ls": 6232,
      "ĠStock": 6233,
      "vas": 6234,
      "Ġcos": 6235,
      "Ġsmile": 6236,
      "ĠSH": 6237,
      "ĠCong": 6238,
      "ĠJul": 6239,
      "Ġtasks": 6240,
      "abled": 6241,
      "ework": 6242,
      "formance": 6243,
      "Ġversat": 6244,
      "ĠVideo": 6245,
      "Ġpocket": 6246,
      "Ġang": 6247,
      "Ġmostly": 6248,
      "ĠDom": 6249,
      "Ġerror": 6250,
      "ushed": 6251,
      "Serv": 6252,
      "Ġexpectations": 6253,
      "Ġclothes": 6254,
      "OV": 6255,
      "clusion": 6256,
      "rency": 6257,
      "SU": 6258,
      "Gr": 6259,
      "Ġwet": 6260,
      "Ġagree": 6261,
      "essed": 6262,
      "ĠMike": 6263,
      "Ġbrush": 6264,
      "oured": 6265,
      "ĠJoe": 6266,
      "ĠGames": 6267,
      "Ġanswers": 6268,
      "Pay": 6269,
      "TC": 6270,
      "ĠKnow": 6271,
      "ĠCarolina": 6272,
      "ĠLu": 6273,
      "lication": 6274,
      "Take": 6275,
      "Ġrapid": 6276,
      "Ġrow": 6277,
      "ĠDisc": 6278,
      "otten": 6279,
      "ĠStation": 6280,
      "how": 6281,
      "Ġsuccessfully": 6282,
      "urban": 6283,
      "Ġreaders": 6284,
      "ĠAri": 6285,
      "ĠAsia": 6286,
      "Ġtank": 6287,
      "Ġauthent": 6288,
      "Ġmajority": 6289,
      "ĠLiving": 6290,
      "car": 6291,
      "ĠLin": 6292,
      "Ġdomain": 6293,
      "ĠBill": 6294,
      "Comp": 6295,
      "Ġdish": 6296,
      "AND": 6297,
      "Ġatmosphere": 6298,
      "Ġpink": 6299,
      "ĠPeter": 6300,
      "Ġtag": 6301,
      "Ġsavings": 6302,
      "Ġsuite": 6303,
      "Ġcolle": 6304,
      "Ġiron": 6305,
      "Ġforest": 6306,
      "Ġreference": 6307,
      "claim": 6308,
      "Ġimpl": 6309,
      "Ġoffices": 6310,
      "Ġsymbol": 6311,
      "lymp": 6312,
      "utch": 6313,
      "Ġboxes": 6314,
      "Ġdepth": 6315,
      "lo": 6316,
      "Ġrefresh": 6317,
      "ĠKore": 6318,
      "ĠSpace": 6319,
      "ĠBall": 6320,
      "stal": 6321,
      "Ġanti": 6322,
      "itar": 6323,
      "ĠDog": 6324,
      "Whether": 6325,
      "Ġinfrastructure": 6326,
      "Ġbear": 6327,
      "Ġperformed": 6328,
      "==": 6329,
      "Ġinvestors": 6330,
      "weet": 6331,
      "ĠTraining": 6332,
      "Ġpackages": 6333,
      "Ġalongside": 6334,
      "iations": 6335,
      "Ġmarried": 6336,
      "bury": 6337,
      "Ġcred": 6338,
      "Ġlin": 6339,
      "Who": 6340,
      "ĠCountry": 6341,
      "Ġcharged": 6342,
      "ĠJose": 6343,
      "Ġstands": 6344,
      "covery": 6345,
      "ĠLevel": 6346,
      "Ġclaims": 6347,
      "Ġfulf": 6348,
      "Ġcertified": 6349,
      "ĠMaterial": 6350,
      "Ġadds": 6351,
      "Ġtut": 6352,
      "ĠEvent": 6353,
      "pty": 6354,
      "Ġinput": 6355,
      "oker": 6356,
      "Ġhall": 6357,
      "achel": 6358,
      "ĠItaly": 6359,
      "Ġfollows": 6360,
      "ura": 6361,
      "Ġtrial": 6362,
      "ools": 6363,
      "ĠAdmin": 6364,
      "Ġhealthcare": 6365,
      "Ġprinting": 6366,
      "Ġlapt": 6367,
      "Ġrail": 6368,
      "Ġfestival": 6369,
      "Ġoccup": 6370,
      "Ġoperate": 6371,
      "idth": 6372,
      "obby": 6373,
      "Ġserves": 6374,
      "Ġeffectively": 6375,
      "Ġremaining": 6376,
      "ĠQuest": 6377,
      "plete": 6378,
      "ĠLink": 6379,
      "Ġkinds": 6380,
      "ĠIde": 6381,
      "Ġtalent": 6382,
      "Ġwouldn": 6383,
      "Rec": 6384,
      "faction": 6385,
      "ĠEarth": 6386,
      "Ġwra": 6387,
      "earning": 6388,
      "Ġstorm": 6389,
      "Ġmessages": 6390,
      "Ġmile": 6391,
      "Ġdescription": 6392,
      "Ġvolunteers": 6393,
      "Ġspr": 6394,
      "Ġanc": 6395,
      "urious": 6396,
      "Ġdial": 6397,
      "Ġeducational": 6398,
      "Ġaffected": 6399,
      "Ġrose": 6400,
      "Ġsurprise": 6401,
      "Ġcompl": 6402,
      "Ġtransportation": 6403,
      "cluding": 6404,
      "ĠDisney": 6405,
      "Ġamb": 6406,
      "Ġpatterns": 6407,
      "TM": 6408,
      "Ġbottle": 6409,
      "Cour": 6410,
      "anchester": 6411,
      "Ġbeds": 6412,
      "Ġalumin": 6413,
      "Ġadvis": 6414,
      "ĠAfrican": 6415,
      "arly": 6416,
      "Ġexternal": 6417,
      "Ġpor": 6418,
      "Ġdegrees": 6419,
      "Ġminor": 6420,
      "ĠKey": 6421,
      "Ġprincip": 6422,
      "atus": 6423,
      "Ġelement": 6424,
      "ĠAR": 6425,
      "Ġfoundation": 6426,
      "Full": 6427,
      "ĠSafety": 6428,
      "ĠMonth": 6429,
      "ĠTax": 6430,
      "Ġcute": 6431,
      "oof": 6432,
      "Ġpolicies": 6433,
      "Ġcreates": 6434,
      "axy": 6435,
      "Ġinch": 6436,
      "person": 6437,
      "Ġaccepted": 6438,
      "Ġelev": 6439,
      "Ġdiverse": 6440,
      "Ġuns": 6441,
      "ĠDC": 6442,
      "Ġcompar": 6443,
      "Ġvibr": 6444,
      "Ġengagement": 6445,
      "Ġsister": 6446,
      "ooth": 6447,
      "Ġbattle": 6448,
      "okes": 6449,
      "Ġfest": 6450,
      "Ġpatio": 6451,
      "Ġsaving": 6452,
      "Ġmouth": 6453,
      "Ġpicked": 6454,
      "Ġmanaging": 6455,
      "ĠOR": 6456,
      "Ġenthusi": 6457,
      "irms": 6458,
      "ATE": 6459,
      "ĠCH": 6460,
      "Rem": 6461,
      "ĠWin": 6462,
      "ĠJo": 6463,
      "ĠSy": 6464,
      "Ġmortgage": 6465,
      "ĠBuy": 6466,
      "Ġbowl": 6467,
      "pack": 6468,
      "Ġpray": 6469,
      "roy": 6470,
      "ĠRepublic": 6471,
      "ounge": 6472,
      "onav": 6473,
      "ĠExecutive": 6474,
      "ĠMembers": 6475,
      "Ġsheet": 6476,
      "Ġstated": 6477,
      "Ġeth": 6478,
      "ĠEnt": 6479,
      "alys": 6480,
      "va": 6481,
      "mes": 6482,
      "sole": 6483,
      "Ġsch": 6484,
      "Ġban": 6485,
      "ĠVillage": 6486,
      "Ġcycle": 6487,
      "ĠMartin": 6488,
      "ĠJim": 6489,
      "Looking": 6490,
      "profit": 6491,
      "Ġshooting": 6492,
      "http": 6493,
      "ĠMexico": 6494,
      "can": 6495,
      "rease": 6496,
      "rick": 6497,
      "Ġrecycl": 6498,
      "des": 6499,
      "ificate": 6500,
      "asp": 6501,
      "NA": 6502,
      "ĠGolf": 6503,
      "earing": 6504,
      "EX": 6505,
      "Property": 6506,
      "dated": 6507,
      "Ġenjoying": 6508,
      "%.": 6509,
      "ĠProperty": 6510,
      "Ġguidance": 6511,
      "ĠRun": 6512,
      "ĠSar": 6513,
      "Good": 6514,
      "Ġdoctor": 6515,
      "odge": 6516,
      "Ġmilitary": 6517,
      "Ġusual": 6518,
      "ĠIll": 6519,
      "ĠPR": 6520,
      "Pol": 6521,
      "ansas": 6522,
      "Ġrecorded": 6523,
      "Ġinvited": 6524,
      "Ġtack": 6525,
      "Ġconvenience": 6526,
      "ted": 6527,
      "lywood": 6528,
      "tw": 6529,
      "Ġexceptional": 6530,
      "ician": 6531,
      "Ġbroken": 6532,
      "phones": 6533,
      "ĠGen": 6534,
      "Ġhar": 6535,
      "igious": 6536,
      "ĠExpress": 6537,
      "ĠMap": 6538,
      "ĠOwn": 6539,
      "Ġtravell": 6540,
      "ĠPerfect": 6541,
      "ĠThrough": 6542,
      "ste": 6543,
      "Ġtwice": 6544,
      "ache": 6545,
      "Ġeligible": 6546,
      "Ġinn": 6547,
      "Ġeditor": 6548,
      "Ġtomorrow": 6549,
      "ovid": 6550,
      "lev": 6551,
      "Ġelectronic": 6552,
      "Ġcapture": 6553,
      "Ġther": 6554,
      "Ġsan": 6555,
      "star": 6556,
      "Ġcultural": 6557,
      "Ġteach": 6558,
      "ĠRose": 6559,
      "ĠJohnson": 6560,
      "Hel": 6561,
      "hops": 6562,
      "Ġexhibition": 6563,
      "Ġbeer": 6564,
      "ĠThomas": 6565,
      "ĠUN": 6566,
      "Act": 6567,
      "yp": 6568,
      "Ġappeared": 6569,
      "astern": 6570,
      "ims": 6571,
      "Ġski": 6572,
      "ĠBi": 6573,
      "ĠSystems": 6574,
      "Ġtip": 6575,
      "Ġthus": 6576,
      "ĠCommun": 6577,
      "ĠParis": 6578,
      "ĠCir": 6579,
      "Ġlightweight": 6580,
      "ext": 6581,
      "Ġimprovement": 6582,
      "ĠTrail": 6583,
      "eping": 6584,
      "acle": 6585,
      "Ġcounty": 6586,
      "ĠOhio": 6587,
      "iameter": 6588,
      "Ġofficials": 6589,
      "Ġindoor": 6590,
      "ĠPolicy": 6591,
      "Ġwireless": 6592,
      "paper": 6593,
      "Ġdebt": 6594,
      "Ġfounded": 6595,
      "Ġwest": 6596,
      "ĠCollection": 6597,
      "Ġceremony": 6598,
      "amps": 6599,
      "ĠRights": 6600,
      "Ġbound": 6601,
      "TV": 6602,
      "onavirus": 6603,
      "Ġportfolio": 6604,
      "ĠPage": 6605,
      "Ġhosted": 6606,
      "ĠCreek": 6607,
      "Ġcreation": 6608,
      "Ġinterface": 6609,
      "Ġattractive": 6610,
      "ĠPenn": 6611,
      "ĠElectric": 6612,
      "List": 6613,
      "elly": 6614,
      "ĠSpanish": 6615,
      "uce": 6616,
      "Ġpure": 6617,
      "Ġathlet": 6618,
      "Back": 6619,
      "Ġcarbon": 6620,
      "Ġextension": 6621,
      "ĠSolutions": 6622,
      "Want": 6623,
      "Ġdiamond": 6624,
      "Ġspecies": 6625,
      "Ġgun": 6626,
      "Ġcomplim": 6627,
      "Â·": 6628,
      "Ġsongs": 6629,
      "pection": 6630,
      "Ġtalks": 6631,
      "ĠMichigan": 6632,
      "Ġpositions": 6633,
      "ĠOlymp": 6634,
      "Ġkid": 6635,
      "Ġreward": 6636,
      "Ġengage": 6637,
      "Ġjewelry": 6638,
      "Ġawareness": 6639,
      "Ġtruth": 6640,
      "nding": 6641,
      "Ġtrained": 6642,
      "Ġreduced": 6643,
      "ĠFinancial": 6644,
      "Ġnegot": 6645,
      "Ġdesire": 6646,
      "Ġentrance": 6647,
      "Ġawards": 6648,
      "Ġknowing": 6649,
      "build": 6650,
      "Ġultimate": 6651,
      "rate": 6652,
      "Ġpitch": 6653,
      "ĠSquare": 6654,
      "gas": 6655,
      "ĠTrump": 6656,
      "Ġdonation": 6657,
      "Ġdocu": 6658,
      "ĠLittle": 6659,
      "ĠVan": 6660,
      "Ġdust": 6661,
      "ĠAsh": 6662,
      "Ġfear": 6663,
      "ĠHistory": 6664,
      "Ġintended": 6665,
      "rael": 6666,
      "ria": 6667,
      "from": 6668,
      "Ġresistance": 6669,
      "orry": 6670,
      "gs": 6671,
      "ĠAS": 6672,
      "||$": 6673,
      "pond": 6674,
      "ĠChair": 6675,
      "Another": 6676,
      "essor": 6677,
      "Ġsearching": 6678,
      "ĠAccording": 6679,
      "Well": 6680,
      "Ġactions": 6681,
      "Ġimproving": 6682,
      "Material": 6683,
      "Ġclearly": 6684,
      "ja": 6685,
      "ĠSeason": 6686,
      "irts": 6687,
      "ĠTerm": 6688,
      "Ġmuseum": 6689,
      "Ġinfect": 6690,
      "Ġresolution": 6691,
      "Ġdraft": 6692,
      "Ġprompt": 6693,
      "Ġtotally": 6694,
      "amin": 6695,
      "Ġnoted": 6696,
      "ÃŃ": 6697,
      "Ġtap": 6698,
      "Ġcelebration": 6699,
      "Ġversions": 6700,
      "ĠSelect": 6701,
      "ickets": 6702,
      "Ġlett": 6703,
      "Ġrough": 6704,
      "Ã³": 6705,
      "Ġmanual": 6706,
      "Ġgreatest": 6707,
      "Ġbelong": 6708,
      "Ġchocolate": 6709,
      "Ġcookies": 6710,
      "Ġtournament": 6711,
      "yth": 6712,
      "Ġdefe": 6713,
      "Ġnewly": 6714,
      "ĠAutom": 6715,
      "umbing": 6716,
      "Ġclassic": 6717,
      "Ġ?": 6718,
      "âĢĻ.": 6719,
      "Ġtooth": 6720,
      "ĠAuto": 6721,
      "Ġqualified": 6722,
      "Ġcompli": 6723,
      "Ġdevelopers": 6724,
      "aren": 6725,
      "semb": 6726,
      "ĠSup": 6727,
      "Ġdisappoint": 6728,
      "ĠRobert": 6729,
      "Ġconsultation": 6730,
      "asting": 6731,
      "ĠCab": 6732,
      "Ġpic": 6733,
      "Ġvote": 6734,
      "ĠMiddle": 6735,
      "ĠHor": 6736,
      "pool": 6737,
      "annels": 6738,
      "ĠVirginia": 6739,
      "Ġnative": 6740,
      "Ġfunctional": 6741,
      "Posted": 6742,
      "Ġsplit": 6743,
      "Ġdelay": 6744,
      "po": 6745,
      "Ġnegative": 6746,
      "Pub": 6747,
      "ĠOil": 6748,
      "Ġissued": 6749,
      "ployment": 6750,
      "ĠCas": 6751,
      "Ġhappening": 6752,
      "Ġordered": 6753,
      "Ġnurs": 6754,
      "News": 6755,
      "ĠNeed": 6756,
      "oston": 6757,
      "Ġearned": 6758,
      "ĠLocal": 6759,
      "onto": 6760,
      "PL": 6761,
      "ĠRo": 6762,
      "Ġpolitical": 6763,
      "ĠCur": 6764,
      "ĠDI": 6765,
      "ĠColorado": 6766,
      "Ġstanding": 6767,
      "ection": 6768,
      "Ġdecades": 6769,
      "ĠRange": 6770,
      "ĠEU": 6771,
      "Ġthorough": 6772,
      "una": 6773,
      "Ġprofit": 6774,
      "ĠCustomer": 6775,
      "inyl": 6776,
      "ĠBefore": 6777,
      "Ġensuring": 6778,
      "ĠLine": 6779,
      "ĠDownload": 6780,
      "Ġtransition": 6781,
      "ĠCloud": 6782,
      "arrow": 6783,
      "iences": 6784,
      "Ġrating": 6785,
      "Ġexcept": 6786,
      "ĠJones": 6787,
      "ĠWho": 6788,
      "ĠParty": 6789,
      "ogether": 6790,
      "ded": 6791,
      "Ø§": 6792,
      "Ġtables": 6793,
      "Ġforeign": 6794,
      "Ġdating": 6795,
      "isl": 6796,
      "ockets": 6797,
      "Mon": 6798,
      "Ġtoile": 6799,
      "Ġsoil": 6800,
      "Ġgrab": 6801,
      "illiant": 6802,
      "Spec": 6803,
      "itz": 6804,
      "Ġcarpet": 6805,
      "Ġmovies": 6806,
      "Ġdollars": 6807,
      "Ġspots": 6808,
      "Ġarrival": 6809,
      "Ġeventually": 6810,
      "olve": 6811,
      "ĠOrig": 6812,
      "Key": 6813,
      "Ġcandidates": 6814,
      "season": 6815,
      "ien": 6816,
      "aked": 6817,
      "Ġlabor": 6818,
      "Ġmatching": 6819,
      "ĠFloor": 6820,
      "ĠSea": 6821,
      "ĠCanadian": 6822,
      "ban": 6823,
      "ocr": 6824,
      "Ġcaught": 6825,
      "Ġwooden": 6826,
      "istan": 6827,
      "Ġpanels": 6828,
      "illy": 6829,
      "Ġoriginally": 6830,
      "ĠFL": 6831,
      "ĠDie": 6832,
      "Ġhonor": 6833,
      "ĠField": 6834,
      "Trans": 6835,
      "Ġhospit": 6836,
      "ĠOak": 6837,
      "Ġconstantly": 6838,
      "gment": 6839,
      "osite": 6840,
      "Ġinformed": 6841,
      "Ġeating": 6842,
      "Ġempty": 6843,
      "Ġphones": 6844,
      "ĠBlog": 6845,
      "ef": 6846,
      "ĠEV": 6847,
      "worth": 6848,
      "Ġris": 6849,
      "Ġtemperatures": 6850,
      "Ġtwe": 6851,
      "Ġconcent": 6852,
      "ĠSite": 6853,
      "ulture": 6854,
      "ĠLee": 6855,
      "Ġfort": 6856,
      "Ġvital": 6857,
      "Ġec": 6858,
      "ĠOrder": 6859,
      "Ġbutton": 6860,
      "ãĥ": 6861,
      "ĠLook": 6862,
      "ensity": 6863,
      "ĠEll": 6864,
      "ĠCart": 6865,
      "Ġconsists": 6866,
      "Ġintellig": 6867,
      "imize": 6868,
      "ĠDef": 6869,
      "ĠFA": 6870,
      "Ġdescribed": 6871,
      "Ġtracking": 6872,
      "Ġunable": 6873,
      "Ġlake": 6874,
      "izer": 6875,
      "EA": 6876,
      "Ġprepar": 6877,
      "ĠJeff": 6878,
      "Ġflower": 6879,
      "Ġmagazine": 6880,
      "FT": 6881,
      "Ġnic": 6882,
      "ati": 6883,
      "DS": 6884,
      "Ġscript": 6885,
      "asant": 6886,
      "ĠKen": 6887,
      "CL": 6888,
      "Ġmanufacturers": 6889,
      "rives": 6890,
      "Gener": 6891,
      "Ġlit": 6892,
      "Ġpets": 6893,
      "Ġburn": 6894,
      "ĠOk": 6895,
      "ĠYoung": 6896,
      "Ġmemories": 6897,
      "ouston": 6898,
      "Ġoven": 6899,
      "edd": 6900,
      "fficient": 6901,
      "Ġupload": 6902,
      "ĠId": 6903,
      "Ġvintage": 6904,
      "SK": 6905,
      "Ġfactor": 6906,
      "erves": 6907,
      "Ġhandling": 6908,
      "mal": 6909,
      "iami": 6910,
      "ĠDays": 6911,
      "Ġsociety": 6912,
      "ĠSouthern": 6913,
      "ĠPub": 6914,
      "Ġdamaged": 6915,
      "Ġpill": 6916,
      "Ġattended": 6917,
      "Ġskill": 6918,
      "ĠFac": 6919,
      "Ġchief": 6920,
      "Ġagents": 6921,
      "ĠLarge": 6922,
      "Ġnights": 6923,
      "bar": 6924,
      "Ġevidence": 6925,
      "Ġstrategic": 6926,
      "ĠDu": 6927,
      "Ġteachers": 6928,
      "Ġassoc": 6929,
      "ta": 6930,
      "Ġcancell": 6931,
      "Sec": 6932,
      "ĠMLS": 6933,
      "Additional": 6934,
      "Ġregional": 6935,
      "ĠUsing": 6936,
      "Ġmixed": 6937,
      "Ġenables": 6938,
      "you": 6939,
      "Ġsoul": 6940,
      "ĠVery": 6941,
      "****": 6942,
      "SH": 6943,
      "Ġcontest": 6944,
      "ategory": 6945,
      "Ġju": 6946,
      "apore": 6947,
      "ĠNorthern": 6948,
      "Ġexplain": 6949,
      "Ġturns": 6950,
      "ĠEvents": 6951,
      "ĠStandard": 6952,
      "Time": 6953,
      "Ġhits": 6954,
      "Ġmanner": 6955,
      "ĠBul": 6956,
      "Ġsequ": 6957,
      "ĠLimited": 6958,
      "Ġdisplayed": 6959,
      "ĠMinister": 6960,
      "aul": 6961,
      "bro": 6962,
      "enced": 6963,
      "ĠGra": 6964,
      "ĠJournal": 6965,
      "Ġteacher": 6966,
      "ĠOl": 6967,
      "Ġsyn": 6968,
      "umes": 6969,
      "ĠAff": 6970,
      "Ġseam": 6971,
      "ĠEr": 6972,
      "sea": 6973,
      "Ġwhilst": 6974,
      "Ġmeals": 6975,
      "Ġpriority": 6976,
      "ĠMur": 6977,
      "amber": 6978,
      "oses": 6979,
      "host": 6980,
      "Ġindustries": 6981,
      "ĠStudio": 6982,
      "?âĢĿ": 6983,
      "Ġtelevision": 6984,
      "Ġsole": 6985,
      "poration": 6986,
      "ĠSamsung": 6987,
      "ĠPot": 6988,
      "Ġbridge": 6989,
      "obs": 6990,
      "anger": 6991,
      "Ġshift": 6992,
      "Ġfacilit": 6993,
      "Ġdeposit": 6994,
      "Ġbes": 6995,
      "Ġminimal": 6996,
      "Ġfro": 6997,
      "alysis": 6998,
      "Ġcharity": 6999,
      "ba": 7000,
      "Ġseasons": 7001,
      "ĠStory": 7002,
      "duction": 7003,
      "ĠQuality": 7004,
      "ĠExperience": 7005,
      "Ġmatters": 7006,
      "Ġphase": 7007,
      "MC": 7008,
      "Ġcop": 7009,
      "ĠRen": 7010,
      "Ġexamples": 7011,
      "Ġcarried": 7012,
      "ĠTech": 7013,
      "Ġlived": 7014,
      "ĠColumb": 7015,
      "izza": 7016,
      "ĠSen": 7017,
      "Ġsituated": 7018,
      "entle": 7019,
      "zes": 7020,
      "Ġfundra": 7021,
      "Ġlessons": 7022,
      "doors": 7023,
      "Ġshots": 7024,
      "aze": 7025,
      "ĠiOS": 7026,
      "Direct": 7027,
      "Ġspark": 7028,
      "Ġflood": 7029,
      "Ġclimb": 7030,
      "Ġaid": 7031,
      "Ġdefense": 7032,
      "Ġguess": 7033,
      "Ġdesired": 7034,
      "ĠCredit": 7035,
      "Ġflash": 7036,
      "PD": 7037,
      "ĠChoose": 7038,
      "ĠSpec": 7039,
      "ĠPartners": 7040,
      "RS": 7041,
      "Ġcooper": 7042,
      "zil": 7043,
      "Ġtrailer": 7044,
      "ĠProfessional": 7045,
      "Ġpainted": 7046,
      "Ġinvestig": 7047,
      "Ġcharging": 7048,
      "Ġlaws": 7049,
      "ĠColl": 7050,
      "ĠSher": 7051,
      "Ġap": 7052,
      "OK": 7053,
      "sized": 7054,
      "ĠPA": 7055,
      "utter": 7056,
      "ĠSon": 7057,
      "Ġthread": 7058,
      "ĠHeart": 7059,
      "Ġtraveling": 7060,
      "Ġsubscription": 7061,
      "isters": 7062,
      "awn": 7063,
      "Ġchampions": 7064,
      "Ġbeautifully": 7065,
      "Ð¸": 7066,
      "oes": 7067,
      "otic": 7068,
      "ĠConsult": 7069,
      "ĠModel": 7070,
      "Ġsigning": 7071,
      "Ġsalt": 7072,
      "Ġeast": 7073,
      "Ġdrinks": 7074,
      "ĠJackson": 7075,
      "Ġviewing": 7076,
      "Ġdomestic": 7077,
      "ĠInstall": 7078,
      "Ġdesigners": 7079,
      "bles": 7080,
      "ĠTable": 7081,
      "ĠJon": 7082,
      "Ġflexibility": 7083,
      "ĠEmail": 7084,
      "Ġdreams": 7085,
      "ĠWeight": 7086,
      "Ġsight": 7087,
      "ĠMotor": 7088,
      "ĠFall": 7089,
      "Ġpredict": 7090,
      "ĠCook": 7091,
      "ounsel": 7092,
      "ĠEp": 7093,
      "CD": 7094,
      "Ġsky": 7095,
      "umps": 7096,
      "Ġtou": 7097,
      "Ġclosely": 7098,
      "ãĤ": 7099,
      "Ġgaming": 7100,
      "ampion": 7101,
      "Ġbars": 7102,
      "Ġreplaced": 7103,
      "Ġder": 7104,
      "brid": 7105,
      "foot": 7106,
      "Ġensures": 7107,
      "Ġvisited": 7108,
      "Ġhidden": 7109,
      "ĠPhone": 7110,
      "inds": 7111,
      "Ġdynamic": 7112,
      "urrently": 7113,
      "Ġodd": 7114,
      "oir": 7115,
      "Ġdoubt": 7116,
      "rum": 7117,
      "ials": 7118,
      "aping": 7119,
      "Log": 7120,
      "Ġblank": 7121,
      "but": 7122,
      "Ġnor": 7123,
      "Ġglad": 7124,
      "Ġtreated": 7125,
      "limited": 7126,
      "Two": 7127,
      "ydney": 7128,
      "ĠFrancisco": 7129,
      "ĠGro": 7130,
      "Ġarts": 7131,
      "osis": 7132,
      "ĠForest": 7133,
      "Ġmagn": 7134,
      "ancer": 7135,
      "Ġturning": 7136,
      "Ġvolunteer": 7137,
      "Ġpride": 7138,
      "Ġmarked": 7139,
      "Ġtur": 7140,
      "agues": 7141,
      "ĠAN": 7142,
      "Ġwriter": 7143,
      "Ġdiscovered": 7144,
      "ailing": 7145,
      "Ġexplained": 7146,
      "Ġinner": 7147,
      "Ġgym": 7148,
      "acular": 7149,
      "related": 7150,
      "Ġmerch": 7151,
      "ĠMA": 7152,
      "Ġsignificantly": 7153,
      "Ġcontrast": 7154,
      "zona": 7155,
      "Ġcake": 7156,
      "ĠRs": 7157,
      "ĠStyle": 7158,
      "ĠPS": 7159,
      "IGH": 7160,
      "cellent": 7161,
      "Ġorganized": 7162,
      "Ġperspective": 7163,
      "edia": 7164,
      "Ġguard": 7165,
      "ĠManchester": 7166,
      "Ġdrawing": 7167,
      "Ġreception": 7168,
      "Ġagreed": 7169,
      "Available": 7170,
      "Ġsituations": 7171,
      "ĠHope": 7172,
      "Ġcompr": 7173,
      "Ġsetup": 7174,
      "Ġsew": 7175,
      "lyn": 7176,
      "Ġalcohol": 7177,
      "gent": 7178,
      "Ġdispl": 7179,
      "Ġarchitecture": 7180,
      "ĠAnnual": 7181,
      "Ġcrucial": 7182,
      "Ġceiling": 7183,
      "ĠNon": 7184,
      "Ġlosing": 7185,
      "ĠVisit": 7186,
      "Type": 7187,
      "ĠAD": 7188,
      "bridge": 7189,
      "Ġchances": 7190,
      "Ġroutine": 7191,
      "ĠGas": 7192,
      "ĠHERE": 7193,
      "ĠIsrael": 7194,
      "long": 7195,
      "Ġpil": 7196,
      "phas": 7197,
      "cious": 7198,
      "Watch": 7199,
      "Ġobtain": 7200,
      "level": 7201,
      "which": 7202,
      "Ġbench": 7203,
      "Ġprocedure": 7204,
      "ĠWordPress": 7205,
      "ĠGalaxy": 7206,
      "den": 7207,
      "Ġinvite": 7208,
      "Ġdiscounts": 7209,
      "ulpt": 7210,
      "Ġstreets": 7211,
      "rite": 7212,
      "itude": 7213,
      "Ġforg": 7214,
      "Ġboys": 7215,
      "Ġfinance": 7216,
      "ĠHomes": 7217,
      "anguages": 7218,
      "Ġloving": 7219,
      "ĠContin": 7220,
      "ĠRev": 7221,
      "Ġsolve": 7222,
      "Ġscheme": 7223,
      "Ġnetworks": 7224,
      "Ġrealize": 7225,
      "burgh": 7226,
      "Ġinterests": 7227,
      "Ġfunctionality": 7228,
      "Ġtrouble": 7229,
      "adow": 7230,
      "Ġtrips": 7231,
      "Ab": 7232,
      "Ġrein": 7233,
      "ummary": 7234,
      "Ġsoph": 7235,
      "Ġspray": 7236,
      "Ġelectricity": 7237,
      "Ġhomeown": 7238,
      "aylor": 7239,
      "Ġzone": 7240,
      "ĠFed": 7241,
      "ĠFlow": 7242,
      "Ġlaundry": 7243,
      "Ġanticip": 7244,
      "Ġdelivering": 7245,
      "Ġrubber": 7246,
      "Ġcapabilities": 7247,
      "ĠLot": 7248,
      "inding": 7249,
      "ĠSecond": 7250,
      "Ġpassion": 7251,
      "Ġconsistent": 7252,
      "Ġstaying": 7253,
      "Ġchannels": 7254,
      "ht": 7255,
      "Ġinventory": 7256,
      "iates": 7257,
      "nic": 7258,
      "arters": 7259,
      "ĠPDF": 7260,
      "Ġfactory": 7261,
      "ptoms": 7262,
      "Ġawarded": 7263,
      "Ġfigures": 7264,
      "parent": 7265,
      "Ġfrequently": 7266,
      "ells": 7267,
      "ocal": 7268,
      "Ġorganis": 7269,
      "inem": 7270,
      "ossible": 7271,
      "Ġcategories": 7272,
      "Ġauthentic": 7273,
      "Hz": 7274,
      "Ġabsor": 7275,
      "ĠKids": 7276,
      "Ġofficially": 7277,
      "Ġloans": 7278,
      "Ġentertain": 7279,
      "Ġworn": 7280,
      "ĠMir": 7281,
      "ĠRight": 7282,
      "ĠAve": 7283,
      "BI": 7284,
      "BD": 7285,
      "iger": 7286,
      "vents": 7287,
      "home": 7288,
      "rad": 7289,
      "Ġhistorical": 7290,
      "athe": 7291,
      "Ġrule": 7292,
      "Ġsample": 7293,
      "ĠDaily": 7294,
      "Before": 7295,
      "ĠPacific": 7296,
      "Next": 7297,
      "da": 7298,
      "being": 7299,
      "iano": 7300,
      "Ġcompact": 7301,
      "Ġinteractive": 7302,
      "Gl": 7303,
      "inos": 7304,
      "Ġblocks": 7305,
      "Ġexterior": 7306,
      "Ġsafely": 7307,
      "Ġware": 7308,
      "Ġexpansion": 7309,
      "Ġcheese": 7310,
      "state": 7311,
      "olic": 7312,
      "Ġrequests": 7313,
      "ĠGeorgia": 7314,
      "Ġcommand": 7315,
      "lessly": 7316,
      "Ġroles": 7317,
      "Ġfemale": 7318,
      "bourne": 7319,
      "otive": 7320,
      "Ġfranch": 7321,
      "ĠFord": 7322,
      "Ġopinion": 7323,
      "Ġprocedures": 7324,
      "Ġpermanent": 7325,
      "Ġconnections": 7326,
      "Ġofficer": 7327,
      "iat": 7328,
      "Ġmold": 7329,
      "Ġsam": 7330,
      "ixture": 7331,
      "ĠFour": 7332,
      "Ġtie": 7333,
      "ĠBridge": 7334,
      "fall": 7335,
      "ĠPop": 7336,
      "Ġdual": 7337,
      "ĠPoly": 7338,
      "iana": 7339,
      "Ġlegs": 7340,
      "Ġspeaking": 7341,
      "ulty": 7342,
      "Ġcapable": 7343,
      "ĠSky": 7344,
      "ĠGallery": 7345,
      "itan": 7346,
      "Ġcolumn": 7347,
      "Ġsatisfaction": 7348,
      "ĠKingdom": 7349,
      "inity": 7350,
      "ĠPremier": 7351,
      "ilton": 7352,
      "Ġproposed": 7353,
      "anite": 7354,
      "Ġgallery": 7355,
      "cons": 7356,
      "Ġcoat": 7357,
      "active": 7358,
      "Count": 7359,
      "Ġpurchases": 7360,
      "ĠUSD": 7361,
      "Ġcrisis": 7362,
      "ĠJoin": 7363,
      "Ġresear": 7364,
      "Ġdram": 7365,
      "Ġtours": 7366,
      "Ġsum": 7367,
      "Ġsac": 7368,
      "ĠGirl": 7369,
      "Although": 7370,
      "ially": 7371,
      "Ġincredibly": 7372,
      "ĠSenior": 7373,
      "aturally": 7374,
      "Ġlicensed": 7375,
      "Bec": 7376,
      "ĠFront": 7377,
      "Ġentered": 7378,
      "ĠTele": 7379,
      "Ġriding": 7380,
      "cycle": 7381,
      "born": 7382,
      "Ġmainly": 7383,
      "Ġlucky": 7384,
      "Ġdistinct": 7385,
      "Ġpossibly": 7386,
      "Ġfilms": 7387,
      "Ġpin": 7388,
      "stract": 7389,
      "Reviews": 7390,
      "alle": 7391,
      "Ġcauses": 7392,
      "Ġlets": 7393,
      "Ġimmediate": 7394,
      "Ġdetermined": 7395,
      "vy": 7396,
      "Ġproven": 7397,
      "aped": 7398,
      "Ġcovering": 7399,
      "Ġemployment": 7400,
      "Ġemotional": 7401,
      "ĠRam": 7402,
      "Ġdonations": 7403,
      "ĠSoftware": 7404,
      "ĠBoston": 7405,
      "ĠFact": 7406,
      "Ġpassed": 7407,
      "Ġguidelines": 7408,
      "Ġcompatible": 7409,
      "Ġopens": 7410,
      "Ġhighlights": 7411,
      "ĠWebsite": 7412,
      "anes": 7413,
      "Ġmonitoring": 7414,
      "!âĢĿ": 7415,
      "Ġflights": 7416,
      "reation": 7417,
      "Ġcouncil": 7418,
      "Ġcitiz": 7419,
      "ragon": 7420,
      "Ġtests": 7421,
      "Ġacademic": 7422,
      "Ġshoulder": 7423,
      "ĠCR": 7424,
      "Ġimprovements": 7425,
      "EG": 7426,
      "ĠDown": 7427,
      "ĠConstruction": 7428,
      "Ġbasketball": 7429,
      "rics": 7430,
      "Ġacres": 7431,
      "Ġreporting": 7432,
      "Ġassist": 7433,
      "ĠJersey": 7434,
      "Ġguy": 7435,
      "ĠSteve": 7436,
      "Ġmeets": 7437,
      "ĠAndrew": 7438,
      "Ġclicking": 7439,
      "ĠShould": 7440,
      "Ġfireplace": 7441,
      "missions": 7442,
      "Ġstrengthen": 7443,
      "Ġincreases": 7444,
      "ĠPrivate": 7445,
      "ĠInfo": 7446,
      "ĠiPad": 7447,
      "ensation": 7448,
      "Ġ!": 7449,
      "ĠWinter": 7450,
      "imp": 7451,
      "oting": 7452,
      "Ġpowder": 7453,
      "asters": 7454,
      "Ġfitted": 7455,
      "Year": 7456,
      "ĠMess": 7457,
      "ĠNatural": 7458,
      "Ġaccuracy": 7459,
      "Ġcontribute": 7460,
      "lig": 7461,
      "Ġrank": 7462,
      "Ġexcess": 7463,
      "erman": 7464,
      "Ġlikes": 7465,
      "Ġmotion": 7466,
      "Ġobjects": 7467,
      "Ġversatile": 7468,
      "Ġhoping": 7469,
      "do": 7470,
      "PU": 7471,
      "run": 7472,
      "Ġrecognized": 7473,
      "Ġmusical": 7474,
      "Form": 7475,
      "iller": 7476,
      "Ġadjustable": 7477,
      "GE": 7478,
      "Ġretirement": 7479,
      "ART": 7480,
      "Ġinfluence": 7481,
      "Ġpacked": 7482,
      "ronics": 7483,
      "Ġbathrooms": 7484,
      "Ġstable": 7485,
      "Ġadministr": 7486,
      "Ġparks": 7487,
      "Ġsignature": 7488,
      "Ġglass": 7489,
      "Ġcancel": 7490,
      "ĠNFL": 7491,
      "Ġcycl": 7492,
      "word": 7493,
      "Ġcells": 7494,
      "ĠHouston": 7495,
      "Ġresort": 7496,
      "Ġmoves": 7497,
      "ĠHold": 7498,
      "SL": 7499,
      "Ġthin": 7500,
      "Ġdropped": 7501,
      "Ġestimated": 7502,
      "Ġintegration": 7503,
      "Ġsubmitted": 7504,
      "cluded": 7505,
      "yers": 7506,
      "Ġpublish": 7507,
      "ĠSC": 7508,
      "Ġpresents": 7509,
      "ĠCamer": 7510,
      "ĠHills": 7511,
      "ĠRussia": 7512,
      "km": 7513,
      "ĠSpain": 7514,
      "ĠBreak": 7515,
      "Ġtexture": 7516,
      "Ġgraphics": 7517,
      "IVE": 7518,
      "ĠPRO": 7519,
      "ĠCro": 7520,
      "Cons": 7521,
      "ĠMP": 7522,
      "II": 7523,
      "ingle": 7524,
      "Ġrecording": 7525,
      "Ġtiny": 7526,
      "resents": 7527,
      "ÑĤ": 7528,
      "UL": 7529,
      "hour": 7530,
      "ĠChall": 7531,
      "Care": 7532,
      "Par": 7533,
      "ĠTry": 7534,
      "Ġgrew": 7535,
      "Ġliquid": 7536,
      "ĠEngineering": 7537,
      "ĠDivision": 7538,
      "Ġhole": 7539,
      "real": 7540,
      "Cent": 7541,
      "Ġrestrictions": 7542,
      "ĠOfficer": 7543,
      "VD": 7544,
      "Ġbearing": 7545,
      "Ġletters": 7546,
      "itting": 7547,
      "ĠBible": 7548,
      "Will": 7549,
      "Water": 7550,
      "Ġcameras": 7551,
      "Ġdim": 7552,
      "Ġarrest": 7553,
      "Ġapartments": 7554,
      "ĠWhe": 7555,
      "ĠProm": 7556,
      "ĠKent": 7557,
      "ĠEmer": 7558,
      "agon": 7559,
      "Ġbid": 7560,
      "Ġtells": 7561,
      "Ġmeat": 7562,
      "Ġmaintained": 7563,
      "AA": 7564,
      "uan": 7565,
      "Ġocean": 7566,
      "ĠMiami": 7567,
      "Ġproof": 7568,
      "ĠCome": 7569,
      "tery": 7570,
      "fe": 7571,
      "Ġinjured": 7572,
      "lee": 7573,
      "roph": 7574,
      "Ġperforming": 7575,
      "Ġhero": 7576,
      "Ġsaved": 7577,
      "irty": 7578,
      "Ġcasino": 7579,
      "Ġrecipe": 7580,
      "Ġfederal": 7581,
      "Ġseed": 7582,
      "ĠThree": 7583,
      "Ġworkshops": 7584,
      "Ġran": 7585,
      "ĠHen": 7586,
      "aste": 7587,
      "oven": 7588,
      "Ġforecast": 7589,
      "uts": 7590,
      "Public": 7591,
      "Ġign": 7592,
      "Ġward": 7593,
      "Ġcrash": 7594,
      "Ġmoisture": 7595,
      "alo": 7596,
      "Day": 7597,
      "ĠFab": 7598,
      "orders": 7599,
      "olved": 7600,
      "Ġsending": 7601,
      "bi": 7602,
      "Ġprop": 7603,
      "Ġcoaching": 7604,
      "Ġcomplic": 7605,
      "edu": 7606,
      "Ġblow": 7607,
      "uits": 7608,
      "Pack": 7609,
      "ĠTherefore": 7610,
      "ĠSingapore": 7611,
      "Ġformal": 7612,
      "Ġdeveloper": 7613,
      "Ġcasual": 7614,
      "Ġpurs": 7615,
      "ĠSpirit": 7616,
      "Ġcommunicate": 7617,
      "Show": 7618,
      "iversal": 7619,
      "ĠBroad": 7620,
      "Ġclosing": 7621,
      "John": 7622,
      "Ġexpenses": 7623,
      "equ": 7624,
      "ĠSecret": 7625,
      "Like": 7626,
      "Bel": 7627,
      "allas": 7628,
      "Cle": 7629,
      "Ġroads": 7630,
      "Ġbrilliant": 7631,
      "writ": 7632,
      "ĠHon": 7633,
      "ĠEconom": 7634,
      "Ġsemi": 7635,
      "Ġachieved": 7636,
      "Oct": 7637,
      "Ġing": 7638,
      "Ġreturning": 7639,
      "Enjoy": 7640,
      "iki": 7641,
      "Ġlayout": 7642,
      "Ġseller": 7643,
      "adel": 7644,
      "Ġtaxes": 7645,
      "Ġlifetime": 7646,
      "ĠRestaur": 7647,
      "ateful": 7648,
      "pton": 7649,
      "Ġsatisfied": 7650,
      "Subscribe": 7651,
      "look": 7652,
      "Ġnoise": 7653,
      "Ġcontinuing": 7654,
      "Ġhes": 7655,
      "Americ": 7656,
      "Ġincident": 7657,
      "Ġanx": 7658,
      "oster": 7659,
      "ubs": 7660,
      "alled": 7661,
      "ĠPract": 7662,
      "ĠWhere": 7663,
      "Ġusage": 7664,
      "step": 7665,
      "heast": 7666,
      "IST": 7667,
      "Ġdefault": 7668,
      "aints": 7669,
      "Love": 7670,
      "Ġrecommendations": 7671,
      "ĠRealty": 7672,
      "ĠLuc": 7673,
      "Ġpleasure": 7674,
      "lers": 7675,
      "Ġfirms": 7676,
      "ĠNC": 7677,
      "SD": 7678,
      "ĠCapital": 7679,
      "rell": 7680,
      "iveness": 7681,
      "Ġwashing": 7682,
      "Ġprocessed": 7683,
      "Ġbow": 7684,
      "Ġinsight": 7685,
      "Ġnoticed": 7686,
      "ĠArizona": 7687,
      "ĠBB": 7688,
      "Ġemphas": 7689,
      "Ġsuperior": 7690,
      "Ġcandidate": 7691,
      "Ġuniversity": 7692,
      "ĠSydney": 7693,
      "ements": 7694,
      "pends": 7695,
      "Ġemails": 7696,
      "Ġdefend": 7697,
      "zzle": 7698,
      "Ġpace": 7699,
      "ĠRussian": 7700,
      "Ġrelief": 7701,
      "Color": 7702,
      "Ġannouncement": 7703,
      "ĠGift": 7704,
      "Ġchecking": 7705,
      "Ġcodes": 7706,
      "Ġforever": 7707,
      "Ġbrew": 7708,
      "ĠBlu": 7709,
      "Ġanniversary": 7710,
      "Ġrepresents": 7711,
      "charge": 7712,
      "Ġcollected": 7713,
      "ĠKar": 7714,
      "Ġmarks": 7715,
      "Ġspin": 7716,
      "Made": 7717,
      "âĢ¦.": 7718,
      "ĠPen": 7719,
      "Ġpsych": 7720,
      "ĠPu": 7721,
      "ava": 7722,
      "Ġpreferred": 7723,
      "ĠQueen": 7724,
      "Ġnormally": 7725,
      "Stud": 7726,
      "month": 7727,
      "ĠToronto": 7728,
      "ĠNick": 7729,
      "aters": 7730,
      "ĠMachine": 7731,
      "WE": 7732,
      "Even": 7733,
      "Ġwealth": 7734,
      "Ġking": 7735,
      "Ġlaptop": 7736,
      "fa": 7737,
      "Ġvast": 7738,
      "ĠProcess": 7739,
      "ĠCovid": 7740,
      "whel": 7741,
      "secut": 7742,
      "Cal": 7743,
      "Ġfellow": 7744,
      "Business": 7745,
      "ĠTurn": 7746,
      "olis": 7747,
      "Ġgenerate": 7748,
      "Ġattach": 7749,
      "otted": 7750,
      "pending": 7751,
      "sey": 7752,
      "onom": 7753,
      "Ġyes": 7754,
      "UM": 7755,
      "Ġaims": 7756,
      "itate": 7757,
      "etry": 7758,
      "owered": 7759,
      "Fin": 7760,
      "Ġinstance": 7761,
      "lete": 7762,
      "ESS": 7763,
      "ĠPrime": 7764,
      "URE": 7765,
      "ĠSat": 7766,
      "Ġdangerous": 7767,
      "ĠPersonal": 7768,
      "Ġphil": 7769,
      "ders": 7770,
      "piece": 7771,
      "ĠHost": 7772,
      "??": 7773,
      "ographic": 7774,
      "ĠUt": 7775,
      "Ġprospect": 7776,
      "Ġdelighted": 7777,
      "Ġ(@": 7778,
      "athan": 7779,
      "ĠJud": 7780,
      "ãĢ": 7781,
      "ĠLas": 7782,
      "ĠDoes": 7783,
      "ACT": 7784,
      "ALL": 7785,
      "Ġexclus": 7786,
      "holders": 7787,
      "Ġiconic": 7788,
      "enefits": 7789,
      "Details": 7790,
      "Ġurban": 7791,
      "ordan": 7792,
      "Ġkeys": 7793,
      "Black": 7794,
      "Ġyours": 7795,
      "Ġstations": 7796,
      "Ġstopped": 7797,
      "Ġwins": 7798,
      "ucky": 7799,
      "ulf": 7800,
      "Ġexploring": 7801,
      "Ġinvolve": 7802,
      "Ġclubs": 7803,
      "gets": 7804,
      "BO": 7805,
      "ĠQuick": 7806,
      "sec": 7807,
      "School": 7808,
      "Ġtile": 7809,
      "ĠSE": 7810,
      "Ġentirely": 7811,
      "Ġcompare": 7812,
      "tage": 7813,
      "quis": 7814,
      "anning": 7815,
      "Ġautomatic": 7816,
      "ĠSchools": 7817,
      "acc": 7818,
      "Ġsuggestions": 7819,
      "Ġacceler": 7820,
      "Ġremoval": 7821,
      "Ġprogramming": 7822,
      "ĠBuilt": 7823,
      "izz": 7824,
      "Min": 7825,
      "Ġcontext": 7826,
      ");": 7827,
      "Visit": 7828,
      "Ġwaist": 7829,
      "ĠHuman": 7830,
      "Ġtape": 7831,
      "Ġequal": 7832,
      "minute": 7833,
      "Ñģ": 7834,
      "Ġsugar": 7835,
      "aka": 7836,
      "Bed": 7837,
      "ĠLeg": 7838,
      "ĠUr": 7839,
      "Ġscrew": 7840,
      "ĠBang": 7841,
      "Ġbuck": 7842,
      "ĠCON": 7843,
      "Ġdiscip": 7844,
      "eration": 7845,
      "Ġtreatments": 7846,
      "screen": 7847,
      "Ġattending": 7848,
      "Ġwitness": 7849,
      "Ġindex": 7850,
      "Ġlens": 7851,
      "Ġcommunications": 7852,
      "Ġancient": 7853,
      "Ġcush": 7854,
      "ĠBase": 7855,
      "ĠOS": 7856,
      "ĠLearning": 7857,
      "Ġslot": 7858,
      "Ġshapes": 7859,
      "Ġgovernment": 7860,
      "Ġshade": 7861,
      ")|": 7862,
      "uling": 7863,
      "ĠNEW": 7864,
      "Net": 7865,
      "Ġvisible": 7866,
      "ounce": 7867,
      "Ġscholars": 7868,
      "Hello": 7869,
      "Ġrelatively": 7870,
      "ICE": 7871,
      "oz": 7872,
      "Ġinsights": 7873,
      "ĠCru": 7874,
      "Ġcivil": 7875,
      "Ġattorney": 7876,
      "ĠArab": 7877,
      "Ġrelaxing": 7878,
      "Ġhasn": 7879,
      "Ġmagic": 7880,
      "Ġmaintaining": 7881,
      "Ġmine": 7882,
      "Ġinspection": 7883,
      "Ġmattress": 7884,
      "Ġtrails": 7885,
      "eway": 7886,
      "oading": 7887,
      "Ġmask": 7888,
      "ila": 7889,
      "Ġbehavior": 7890,
      "bing": 7891,
      "rat": 7892,
      "wich": 7893,
      "à¥": 7894,
      "ĠÂ»": 7895,
      "Ġaccommodate": 7896,
      "ĠDry": 7897,
      "ais": 7898,
      "riers": 7899,
      "Ġheading": 7900,
      "Ġmass": 7901,
      "Ġvibrant": 7902,
      "ĠOpt": 7903,
      "Ġbroadcast": 7904,
      "ĠKim": 7905,
      "email": 7906,
      "Ġadministration": 7907,
      "Ġbuyer": 7908,
      "ĠGolden": 7909,
      "Ġdivision": 7910,
      "ĠEs": 7911,
      "amework": 7912,
      "Ġpersonalized": 7913,
      "rich": 7914,
      "ĠLA": 7915,
      "Ġimagine": 7916,
      "arity": 7917,
      "washer": 7918,
      "page": 7919,
      "Ġlistening": 7920,
      "Ġpossibility": 7921,
      "Ġmic": 7922,
      "cor": 7923,
      "Ġconcerned": 7924,
      "Ġmeters": 7925,
      "ĠSav": 7926,
      "Ġarray": 7927,
      "och": 7928,
      "giving": 7929,
      "Ġfifth": 7930,
      "hors": 7931,
      "ĠMD": 7932,
      "Ġsuppliers": 7933,
      "Ġpharm": 7934,
      "ĠWilliam": 7935,
      "Ġsymptoms": 7936,
      "Ġmakeup": 7937,
      "iler": 7938,
      "Ġmig": 7939,
      "Ġbeaches": 7940,
      "ĠPur": 7941,
      "dale": 7942,
      "onym": 7943,
      "Ġdiscussed": 7944,
      "sen": 7945,
      "ela": 7946,
      "Ġpitc": 7947,
      "Ġtoys": 7948,
      "Ġpromise": 7949,
      "ĠInn": 7950,
      "ĠManufact": 7951,
      "Ġtonight": 7952,
      "Ġartwork": 7953,
      "Ġidentified": 7954,
      "La": 7955,
      "wan": 7956,
      "Ġcompliment": 7957,
      "ĠUk": 7958,
      "Ġreasonable": 7959,
      "ĠDaniel": 7960,
      "Help": 7961,
      "Ġbelieves": 7962,
      "Ġbold": 7963,
      "Ġmilk": 7964,
      "RC": 7965,
      "Ġchose": 7966,
      "Ġportion": 7967,
      "ĠResources": 7968,
      "Ġgardens": 7969,
      "Ġfreedom": 7970,
      "ĠVegas": 7971,
      "Ġspeakers": 7972,
      "Keep": 7973,
      "Ġoutdoors": 7974,
      "Ġofficers": 7975,
      "ĠRyan": 7976,
      "aron": 7977,
      "ĠTru": 7978,
      "ĠBrazil": 7979,
      "ĠSM": 7980,
      "UD": 7981,
      "ĠCut": 7982,
      "Ġcommittee": 7983,
      "Ġtrim": 7984,
      "uls": 7985,
      "Ġrust": 7986,
      "Ġkil": 7987,
      "Ġsevere": 7988,
      "ali": 7989,
      "edge": 7990,
      "store": 7991,
      "Ġunw": 7992,
      "ĠTips": 7993,
      "Special": 7994,
      "Em": 7995,
      "ĠStaff": 7996,
      "ashes": 7997,
      "ÑĢ": 7998,
      "ĠInstead": 7999,
      "Total": 8000,
      "ĠDiego": 8001,
      "hell": 8002,
      "lix": 8003,
      "ulner": 8004,
      "TER": 8005,
      "neys": 8006,
      "Ġinstant": 8007,
      "Ġaest": 8008,
      "ultural": 8009,
      "ĠExchange": 8010,
      "Ġwidth": 8011,
      "Ac": 8012,
      "ione": 8013,
      "Ġgenu": 8014,
      "Ġrid": 8015,
      "Ð½": 8016,
      "Ġagencies": 8017,
      "Ġbanks": 8018,
      "ĠRod": 8019,
      "Ġtechnique": 8020,
      "respond": 8021,
      "isa": 8022,
      "Ġregulations": 8023,
      "ĠRegional": 8024,
      "ĠJac": 8025,
      "Ġvirus": 8026,
      "Ġseemed": 8027,
      "emed": 8028,
      "ĠSport": 8029,
      "bow": 8030,
      "urer": 8031,
      "--------": 8032,
      "Ġoutfit": 8033,
      "ppy": 8034,
      "ĠKit": 8035,
      "Ġtrusted": 8036,
      "reme": 8037,
      "ĠRos": 8038,
      "Ġcompress": 8039,
      "ĠSEO": 8040,
      "Of": 8041,
      "Ġwhenever": 8042,
      "TE": 8043,
      "ĠMS": 8044,
      "Ġdecade": 8045,
      "ĠAustin": 8046,
      "bal": 8047,
      "Ġtalented": 8048,
      "RL": 8049,
      "Ġfoam": 8050,
      "Ġluxurious": 8051,
      "ĠCool": 8052,
      "Ġlinked": 8053,
      "Dimensions": 8054,
      "ĠConf": 8055,
      "Ġintroduce": 8056,
      "Ġbread": 8057,
      "Ġmarriage": 8058,
      "Ġwinners": 8059,
      "Ã¼": 8060,
      "UST": 8061,
      "Ġtrick": 8062,
      "Ġflo": 8063,
      "Ġseats": 8064,
      "Ġexport": 8065,
      "Ġdelivers": 8066,
      "ĠBob": 8067,
      "Ġstake": 8068,
      "Ġdepends": 8069,
      "Ġtransaction": 8070,
      "Ġentering": 8071,
      "ĠHoliday": 8072,
      "Ġsurfaces": 8073,
      "Ġpockets": 8074,
      "ĠDun": 8075,
      "Ġacquis": 8076,
      "ogue": 8077,
      "ji": 8078,
      "ĠMini": 8079,
      "ouses": 8080,
      "Ġrig": 8081,
      "ĠGive": 8082,
      "Court": 8083,
      "ĠVen": 8084,
      "Ġapproval": 8085,
      "ĠSum": 8086,
      "Ġresistant": 8087,
      "Comments": 8088,
      "ints": 8089,
      "Ġpreparation": 8090,
      "Ġhiring": 8091,
      "nesota": 8092,
      "Ġspectacular": 8093,
      "Ġstrip": 8094,
      "inator": 8095,
      "ĠCry": 8096,
      "Ġtrig": 8097,
      "ĠEX": 8098,
      "iability": 8099,
      "Ġtoilet": 8100,
      "Build": 8101,
      "ĠPick": 8102,
      "Ġpregn": 8103,
      "Ġfailed": 8104,
      "amil": 8105,
      "Ġinvestigation": 8106,
      "Ġwidely": 8107,
      "Ġprize": 8108,
      "ĠCath": 8109,
      "ĠClin": 8110,
      "ĠAgent": 8111,
      "Ġalarm": 8112,
      "anna": 8113,
      "serv": 8114,
      "Ġheads": 8115,
      "Ġrand": 8116,
      "Ġcustomized": 8117,
      "ĠRay": 8118,
      "Ġfasc": 8119,
      "Ġwheels": 8120,
      "Ġchairs": 8121,
      "NC": 8122,
      "Ġnewest": 8123,
      "ĠLocation": 8124,
      "Ġconducted": 8125,
      "Ġborder": 8126,
      "Ġactor": 8127,
      "Ġpoll": 8128,
      "Ġexceed": 8129,
      "Ġmanagers": 8130,
      "eramic": 8131,
      "ifting": 8132,
      "ĠRh": 8133,
      "Ġlocally": 8134,
      "Ġdealing": 8135,
      "orship": 8136,
      "ĠTer": 8137,
      "ĠShare": 8138,
      "Ġoverwhel": 8139,
      "Ġweap": 8140,
      "Ġwhom": 8141,
      "ĠJr": 8142,
      "Ġconditioning": 8143,
      "Ġpowered": 8144,
      "ĠLic": 8145,
      "Ġtradition": 8146,
      "tein": 8147,
      "Ġhel": 8148,
      "Ġhopes": 8149,
      "Ġgentle": 8150,
      "Ġhealing": 8151,
      "ĠLength": 8152,
      "Ġincorpor": 8153,
      "Ġentertaining": 8154,
      "Ġduty": 8155,
      "Ġforced": 8156,
      "Ġinitiative": 8157,
      "Ġconstant": 8158,
      "Ġunf": 8159,
      "Ġcloset": 8160,
      "Ġjun": 8161,
      "Ġsurprised": 8162,
      "GA": 8163,
      "uter": 8164,
      "Ġshr": 8165,
      "Ġspeaker": 8166,
      "icial": 8167,
      "ĠBand": 8168,
      "Ġscreens": 8169,
      "Need": 8170,
      "ĠStadium": 8171,
      "ĠSpeed": 8172,
      "ottage": 8173,
      "ITY": 8174,
      "ĠScotland": 8175,
      "à¦": 8176,
      "Weight": 8177,
      "ĠRadio": 8178,
      "Ġconv": 8179,
      "Ġreducing": 8180,
      "ĠMun": 8181,
      "Ġfounder": 8182,
      "Aug": 8183,
      "Ġrib": 8184,
      "ĠEag": 8185,
      "Ġhat": 8186,
      "Ġbirds": 8187,
      "ĠRd": 8188,
      "Ġdrain": 8189,
      "Ġfabulous": 8190,
      "Ġarch": 8191,
      ")||": 8192,
      "Ġexposure": 8193,
      "Ġfilling": 8194,
      "Ġsensor": 8195,
      "ĠDouble": 8196,
      "Ġprints": 8197,
      "Ġcreativity": 8198,
      "Ġsculpt": 8199,
      "mar": 8200,
      "Ġnarrow": 8201,
      "Ġelection": 8202,
      "ĠHa": 8203,
      "ĠTransport": 8204,
      "ican": 8205,
      "iform": 8206,
      "ORT": 8207,
      "Ġproductivity": 8208,
      "El": 8209,
      "Brand": 8210,
      "ĠChampionship": 8211,
      "Ġshirt": 8212,
      "avor": 8213,
      "Ġimplementation": 8214,
      "Ġaluminum": 8215,
      "Ġoperated": 8216,
      "Ġorange": 8217,
      "Ġfinishing": 8218,
      "Ġspiritual": 8219,
      "Ġmountains": 8220,
      "iary": 8221,
      "ĠTreat": 8222,
      "Ġshed": 8223,
      "Ġbroker": 8224,
      "Ġboards": 8225,
      "iants": 8226,
      "rowave": 8227,
      "Meet": 8228,
      "Ġbelt": 8229,
      "style": 8230,
      "inois": 8231,
      "ĠBag": 8232,
      "ĠCL": 8233,
      "Ġhandy": 8234,
      "Ġpermission": 8235,
      "ĠPrim": 8236,
      "stairs": 8237,
      "awa": 8238,
      "Ġcater": 8239,
      "ĠHappy": 8240,
      "Requ": 8241,
      "Ġunex": 8242,
      "ĠHarr": 8243,
      "winning": 8244,
      "Ġracing": 8245,
      "Christ": 8246,
      "Tax": 8247,
      "ĠSave": 8248,
      "Ġfaces": 8249,
      "ĠRound": 8250,
      "ĠMoney": 8251,
      "Ġgrateful": 8252,
      "Ġox": 8253,
      "wall": 8254,
      "ĠAsk": 8255,
      "Under": 8256,
      "Ġbreaking": 8257,
      "Ġlegend": 8258,
      "ĠDar": 8259,
      "Ġhook": 8260,
      "Ġregul": 8261,
      "cony": 8262,
      "ĠAlp": 8263,
      "Ġcombine": 8264,
      "ĠFootball": 8265,
      "Ġbat": 8266,
      "ĠMemorial": 8267,
      "ĠFar": 8268,
      "atching": 8269,
      "ĠThose": 8270,
      "ï¼": 8271,
      "Ġbranch": 8272,
      "Ġrandom": 8273,
      "Ġstability": 8274,
      "Ġrecip": 8275,
      "Ġcenters": 8276,
      "SW": 8277,
      "Ġdishes": 8278,
      "Ġproducing": 8279,
      "ĠTaylor": 8280,
      "ĠRichard": 8281,
      "Ġadvoc": 8282,
      "Ġcooling": 8283,
      "ĠStone": 8284,
      "ĠBrad": 8285,
      "Ġvert": 8286,
      "Ġplanet": 8287,
      "ĠEdition": 8288,
      "Mr": 8289,
      "Ġorganisation": 8290,
      "WH": 8291,
      "ĠAI": 8292,
      "Ġtracks": 8293,
      "robe": 8294,
      "lementary": 8295,
      "regon": 8296,
      "ĠMah": 8297,
      "Ã¶": 8298,
      "ĠOcean": 8299,
      "ĠStay": 8300,
      "Ġnetworking": 8301,
      "Ġclock": 8302,
      "Ġparticipating": 8303,
      "Ġvisits": 8304,
      "Ġneut": 8305,
      "ĠMcC": 8306,
      "ĠPL": 8307,
      "Select": 8308,
      "Ġfolks": 8309,
      "Ġretailers": 8310,
      "raction": 8311,
      "Ġencouraged": 8312,
      "Ġrecover": 8313,
      "Ġfrust": 8314,
      "uis": 8315,
      "Ġ($": 8316,
      "Ġproceed": 8317,
      "Ġpromotion": 8318,
      "ĠChild": 8319,
      "Friday": 8320,
      "Ġrely": 8321,
      "Ġperformances": 8322,
      "ĠAdvent": 8323,
      "ĠPict": 8324,
      "Ġpad": 8325,
      "Ġflavor": 8326,
      "ĠSche": 8327,
      "Ġrefriger": 8328,
      "Ġfilters": 8329,
      "Ġagric": 8330,
      "ĠTal": 8331,
      "enny": 8332,
      "Ġweak": 8333,
      "Ġdisp": 8334,
      "Ġà¤": 8335,
      "commerce": 8336,
      "inals": 8337,
      "ĠGB": 8338,
      "Ġrecruit": 8339,
      "ĠReserved": 8340,
      "Ġhosts": 8341,
      "ersion": 8342,
      "words": 8343,
      "ĠSound": 8344,
      "Did": 8345,
      "onder": 8346,
      "kg": 8347,
      "Pal": 8348,
      "Ġvill": 8349,
      "Ġcock": 8350,
      "ĠCase": 8351,
      "ĠRoll": 8352,
      "Ġpreparing": 8353,
      "Ġvirt": 8354,
      "Ġfinest": 8355,
      "Ġembr": 8356,
      "ĠSingle": 8357,
      "Ġformed": 8358,
      "othe": 8359,
      "ĠRoman": 8360,
      "inson": 8361,
      "Ġconcert": 8362,
      "oween": 8363,
      "Ste": 8364,
      "anwhile": 8365,
      "City": 8366,
      "Ġdisplays": 8367,
      "ipl": 8368,
      "Ġtutorial": 8369,
      "leep": 8370,
      "Ġsubscribe": 8371,
      "ĠOx": 8372,
      "Ġtransactions": 8373,
      "ockey": 8374,
      "Ġdriven": 8375,
      "aska": 8376,
      "Ġlists": 8377,
      "mo": 8378,
      "Ġestimate": 8379,
      "Ġseal": 8380,
      "Ġdirected": 8381,
      "ĠStorage": 8382,
      "Hot": 8383,
      "Address": 8384,
      "jo": 8385,
      "Ġsignal": 8386,
      "Ġspecifications": 8387,
      "Ġbills": 8388,
      "Ġsuc": 8389,
      "Ġtherapy": 8390,
      "Ġyards": 8391,
      "Ġraw": 8392,
      "VC": 8393,
      "PE": 8394,
      "perties": 8395,
      "Ġsquad": 8396,
      "Ġhanging": 8397,
      "Ġast": 8398,
      "ĠGrow": 8399,
      "Ġprayer": 8400,
      "Pat": 8401,
      "Monday": 8402,
      "Ġjacket": 8403,
      "Ġgraduate": 8404,
      "âĢĻ,": 8405,
      "ĠRub": 8406,
      "ĠPak": 8407,
      "ĠStudents": 8408,
      "ĠSprings": 8409,
      "Ġexplains": 8410,
      "iverpool": 8411,
      "ĠTheatre": 8412,
      "Ġforces": 8413,
      "Ġgiant": 8414,
      "ĠCollect": 8415,
      "Ġeverywhere": 8416,
      "Ġapplying": 8417,
      "ĠAnother": 8418,
      "Ġdiameter": 8419,
      "ĠDallas": 8420,
      "Ġbatteries": 8421,
      "Ġpra": 8422,
      "eters": 8423,
      "Ġje": 8424,
      "ista": 8425,
      "Ġheav": 8426,
      "Ġrural": 8427,
      "Ġstreaming": 8428,
      "ĠMember": 8429,
      "VP": 8430,
      "QU": 8431,
      "Ġwalks": 8432,
      "ĠTX": 8433,
      "Ġvulner": 8434,
      "ĠSimply": 8435,
      "iti": 8436,
      "ira": 8437,
      "Then": 8438,
      "ĠTree": 8439,
      "ĠCand": 8440,
      "Ġbackyard": 8441,
      "Ġrum": 8442,
      "Ġcrown": 8443,
      "Ġfranchise": 8444,
      "iminal": 8445,
      "Ġshoe": 8446,
      "Ġbaseball": 8447,
      "Ġstronger": 8448,
      "ĠCongress": 8449,
      "Ġremodel": 8450,
      "Ġsharp": 8451,
      "ĠAdvis": 8452,
      "ĠAtlanta": 8453,
      "ervations": 8454,
      "umer": 8455,
      "Ġinstrument": 8456,
      "lace": 8457,
      "Ġcompletion": 8458,
      "Ġphotographer": 8459,
      "Ġmob": 8460,
      "Ġteen": 8461,
      "Ġrh": 8462,
      "ran": 8463,
      "Ġfinger": 8464,
      "ĠBrew": 8465,
      "aza": 8466,
      "Ġadvantages": 8467,
      "Ġshell": 8468,
      "ĠIrish": 8469,
      "Ġwrap": 8470,
      "Ġmillions": 8471,
      "Ġengaged": 8472,
      "Ġpersonality": 8473,
      "ĠCreative": 8474,
      "ĠCore": 8475,
      "atured": 8476,
      "Ġcoronavirus": 8477,
      "ANT": 8478,
      "ĠCli": 8479,
      "quet": 8480,
      "HP": 8481,
      "Ġchicken": 8482,
      "Ġguides": 8483,
      "Ġarms": 8484,
      "Ġgall": 8485,
      "Ġconflic": 8486,
      "Source": 8487,
      "Ġfault": 8488,
      "ĠPo": 8489,
      "closure": 8490,
      "Ġenterprise": 8491,
      "Intern": 8492,
      "ĠRon": 8493,
      "Ã¤": 8494,
      "Ġpadd": 8495,
      "Ġtemplate": 8496,
      "Create": 8497,
      "Ġreserve": 8498,
      "Ġcabinets": 8499,
      "Ġaircraft": 8500,
      "lisher": 8501,
      "onda": 8502,
      "bell": 8503,
      "Ġinspect": 8504,
      "Ġbatt": 8505,
      "Ġparam": 8506,
      "Ġcomponent": 8507,
      "Buy": 8508,
      "Ġtone": 8509,
      "oen": 8510,
      "Ġscoring": 8511,
      "ĠChel": 8512,
      "Stay": 8513,
      "grade": 8514,
      "ĠIndustry": 8515,
      "Air": 8516,
      "arest": 8517,
      "greg": 8518,
      "Ġcarrying": 8519,
      "aws": 8520,
      "âĺ": 8521,
      "ĠToy": 8522,
      "ĠKat": 8523,
      "Ġnone": 8524,
      "haust": 8525,
      "ĠBrook": 8526,
      "uum": 8527,
      "âĢ¦]": 8528,
      "Ġpriced": 8529,
      "lder": 8530,
      "Ġmand": 8531,
      "Ġchapter": 8532,
      "Ġloyal": 8533,
      "Ġsynt": 8534,
      "Ġcloth": 8535,
      "fo": 8536,
      "Ġholes": 8537,
      "Ġresulting": 8538,
      "ĠParking": 8539,
      "Ġattractions": 8540,
      "Ġclinical": 8541,
      "Ġnaturally": 8542,
      "etch": 8543,
      "ĠResort": 8544,
      "coin": 8545,
      "Ġdesktop": 8546,
      "MI": 8547,
      "ĠPast": 8548,
      "shire": 8549,
      "Ġcontainer": 8550,
      "osoph": 8551,
      "Ġspoke": 8552,
      "ousing": 8553,
      "ĠUnit": 8554,
      "ĠCraft": 8555,
      "Ġpersonally": 8556,
      "ĠMinnesota": 8557,
      "ĠSource": 8558,
      "Ġseating": 8559,
      "ĠAp": 8560,
      "Ġlounge": 8561,
      "Ġrising": 8562,
      "Ġnavigate": 8563,
      "ĠBaby": 8564,
      "Ġtennis": 8565,
      "ĠBol": 8566,
      "ĠSq": 8567,
      "EP": 8568,
      "MW": 8569,
      "ĠImpro": 8570,
      "ĠCommercial": 8571,
      "ĠShort": 8572,
      "Ġintroduction": 8573,
      "Ġaccomplish": 8574,
      "ias": 8575,
      "cknow": 8576,
      "HA": 8577,
      "Ġtaught": 8578,
      "Ġutility": 8579,
      "Red": 8580,
      "Ġrisks": 8581,
      "vo": 8582,
      "Bar": 8583,
      "Ġcompliance": 8584,
      "ĠMother": 8585,
      "FF": 8586,
      "ĠEastern": 8587,
      "Ġcourtesy": 8588,
      "Ġclip": 8589,
      "RP": 8590,
      "ĠCharles": 8591,
      "Ġsupplier": 8592,
      "ĠPlant": 8593,
      "Ġmood": 8594,
      "Ġtransmission": 8595,
      "Ġstages": 8596,
      "Saturday": 8597,
      "ĠFurn": 8598,
      "lined": 8599,
      "Ġsad": 8600,
      "quiries": 8601,
      "ribute": 8602,
      "Ġhiking": 8603,
      "ĠLane": 8604,
      "ĠInnov": 8605,
      "ĠPool": 8606,
      "bel": 8607,
      "bound": 8608,
      "Ġdurability": 8609,
      "ridge": 8610,
      "VER": 8611,
      "olid": 8612,
      "aduate": 8613,
      "Ġaf": 8614,
      "ĠCou": 8615,
      "Ġgrey": 8616,
      "ylvan": 8617,
      "ĠMaint": 8618,
      "ixel": 8619,
      "boards": 8620,
      "Ġmut": 8621,
      "ACK": 8622,
      "ĠWedding": 8623,
      "Ġhandmade": 8624,
      "UK": 8625,
      "Ġgenerous": 8626,
      "arian": 8627,
      "Ġrecognition": 8628,
      "ĠFast": 8629,
      "ĠCourse": 8630,
      "ima": 8631,
      "Ġstored": 8632,
      "Play": 8633,
      "ĠMom": 8634,
      "ĠCoffee": 8635,
      "ĠAgency": 8636,
      "ĠBell": 8637,
      "gi": 8638,
      "hou": 8639,
      "Max": 8640,
      "Ġbaths": 8641,
      "ĠMagazine": 8642,
      "isure": 8643,
      "Ġyounger": 8644,
      "ÃĹ": 8645,
      "adelph": 8646,
      "Ġzero": 8647,
      "Ġpun": 8648,
      "January": 8649,
      "ĠVictoria": 8650,
      "ĠDJ": 8651,
      "OG": 8652,
      "Happy": 8653,
      "owa": 8654,
      "rition": 8655,
      ".|": 8656,
      "ĠDIY": 8657,
      "Ġcomplement": 8658,
      "intend": 8659,
      "Ġdollar": 8660,
      "Ġpeak": 8661,
      "Ġcausing": 8662,
      "ĠModern": 8663,
      "Ġfairly": 8664,
      "Exper": 8665,
      "Ġvess": 8666,
      "Prof": 8667,
      "aver": 8668,
      "Cor": 8669,
      "ipt": 8670,
      "Ġcorrectly": 8671,
      "Ġshock": 8672,
      "ĠStudent": 8673,
      "angle": 8674,
      "Ġrolling": 8675,
      "ĠJordan": 8676,
      "Ġresidence": 8677,
      "forcement": 8678,
      "Ġsour": 8679,
      "ĠFox": 8680,
      "Hand": 8681,
      "ĠSD": 8682,
      "netic": 8683,
      "Ġaffiliate": 8684,
      "ĠRV": 8685,
      "Ġweigh": 8686,
      "books": 8687,
      "ffective": 8688,
      "ĠHR": 8689,
      "Ġedit": 8690,
      "ĠDur": 8691,
      "ĠDam": 8692,
      "Ġtablet": 8693,
      "General": 8694,
      "Ġmedicine": 8695,
      "Courtesy": 8696,
      "Shop": 8697,
      "Ġfalling": 8698,
      "Set": 8699,
      "dden": 8700,
      "Ġentrepreneurs": 8701,
      "ĠForce": 8702,
      "ĠMeeting": 8703,
      "Ġboss": 8704,
      "Ġcontrols": 8705,
      "Ġdocument": 8706,
      "Ġrequirement": 8707,
      "Ġsuggested": 8708,
      "ĠGuard": 8709,
      "Ġultra": 8710,
      "Ġpounds": 8711,
      "redients": 8712,
      "Ġcrazy": 8713,
      "Ġbab": 8714,
      "Ġspokes": 8715,
      "Ġfailure": 8716,
      "Ġstring": 8717,
      "estone": 8718,
      "Ġads": 8719,
      "Ġrelaxed": 8720,
      "Ġfoods": 8721,
      "ĠProtection": 8722,
      "bits": 8723,
      "Ġmodule": 8724,
      "ĠALL": 8725,
      "Ġpublication": 8726,
      "ĠAddress": 8727,
      "ĠContent": 8728,
      "adelphia": 8729,
      "Support": 8730,
      "ko": 8731,
      "Online": 8732,
      "Ġgenerated": 8733,
      "ĠPhoto": 8734,
      "Ġsophist": 8735,
      "Ġsuperv": 8736,
      "using": 8737,
      "uma": 8738,
      "HL": 8739,
      "Only": 8740,
      "Ġneighb": 8741,
      "Ġstuck": 8742,
      "pret": 8743,
      "ucle": 8744,
      "Ġsuspect": 8745,
      "ĠSelf": 8746,
      "Ġlasting": 8747,
      "Ġsized": 8748,
      "criptions": 8749,
      "tail": 8750,
      "Ġsne": 8751,
      "ĠIllinois": 8752,
      "Ġbelieved": 8753,
      "ĠPhotos": 8754,
      "ifer": 8755,
      "ĠNic": 8756,
      "acked": 8757,
      "ĠMelbourne": 8758,
      "itut": 8759,
      "Ġcalm": 8760,
      "enna": 8761,
      "Ġtelling": 8762,
      "raine": 8763,
      "Ġexclusively": 8764,
      "Ġcopyright": 8765,
      "PO": 8766,
      "owned": 8767,
      "Ġoz": 8768,
      "ifies": 8769,
      "ĠLux": 8770,
      "Ġcatalog": 8771,
      "Star": 8772,
      "Ġmanufactured": 8773,
      "Ġlayers": 8774,
      "Ġtemporary": 8775,
      "Ġordering": 8776,
      "ventional": 8777,
      "Design": 8778,
      "ĠMaybe": 8779,
      "ĠNav": 8780,
      "Ġpercentage": 8781,
      "Ġcorrespond": 8782,
      "Ġclosure": 8783,
      "Ġanytime": 8784,
      "ĠPerformance": 8785,
      "Ġfacts": 8786,
      "Ġphotographs": 8787,
      "Ġfocusing": 8788,
      "Ġworkout": 8789,
      "aya": 8790,
      "nda": 8791,
      "Ġvendors": 8792,
      "Community": 8793,
      "Ġexperiencing": 8794,
      "Ġexch": 8795,
      "Loading": 8796,
      "Ġrecognize": 8797,
      "Ã¢": 8798,
      "ĠBowl": 8799,
      "ĠExplore": 8800,
      "Ġresident": 8801,
      "closed": 8802,
      "Ġresume": 8803,
      "Ġcamping": 8804,
      "uing": 8805,
      "game": 8806,
      "ðĿ": 8807,
      "week": 8808,
      "Ġfib": 8809,
      "ĠCreate": 8810,
      "Ġinvesting": 8811,
      "Mem": 8812,
      "anted": 8813,
      "Ġflying": 8814,
      "%,": 8815,
      "ennes": 8816,
      "ĠFurther": 8817,
      "Ġsudden": 8818,
      "Ġfocuses": 8819,
      "stery": 8820,
      "ĠCorporation": 8821,
      "ĠHaving": 8822,
      "Ġcollections": 8823,
      "ĠKevin": 8824,
      "Ġbrace": 8825,
      "ĠChange": 8826,
      "KE": 8827,
      "Ġcul": 8828,
      "ificial": 8829,
      "ho": 8830,
      "ĠHours": 8831,
      "Ġhoriz": 8832,
      "Ġunexpected": 8833,
      "Author": 8834,
      "Ġworse": 8835,
      "ĠPaper": 8836,
      "Ġpulled": 8837,
      "Ġbehalf": 8838,
      "aux": 8839,
      "iscons": 8840,
      "stra": 8841,
      "Ġengaging": 8842,
      "Ġcelebrating": 8843,
      "CR": 8844,
      "ĠYouth": 8845,
      "MM": 8846,
      "Connect": 8847,
      "Very": 8848,
      "Ġcontribution": 8849,
      "Ġmarg": 8850,
      "Ġrecipes": 8851,
      "Ġouts": 8852,
      "ĠPlanning": 8853,
      "Ġhabit": 8854,
      "Ġdispos": 8855,
      "Ġsurrounded": 8856,
      "SI": 8857,
      "Ġlease": 8858,
      "People": 8859,
      "Ġgreatly": 8860,
      "Ġconsumption": 8861,
      "Ġpossibilities": 8862,
      "ĠRa": 8863,
      "Ġtelephone": 8864,
      "isconsin": 8865,
      "Ġcontractor": 8866,
      "ĠLew": 8867,
      "Ġlimits": 8868,
      "Ġseriously": 8869,
      "apes": 8870,
      "ĠTrade": 8871,
      "Ġtire": 8872,
      "Ġsensitive": 8873,
      "Ġdirt": 8874,
      "ceeds": 8875,
      "Ġobtained": 8876,
      "ĠSwed": 8877,
      "ylon": 8878,
      "Ġconnecting": 8879,
      "Quest": 8880,
      "Ġstrike": 8881,
      "Ġstructures": 8882,
      "alty": 8883,
      "Ġregions": 8884,
      "Ġreaching": 8885,
      "ellite": 8886,
      "Ġvit": 8887,
      "ĠSaint": 8888,
      "quiry": 8889,
      "Ġslowly": 8890,
      "ĠDiamond": 8891,
      "ĠFederal": 8892,
      "Ġenhanced": 8893,
      "Ġacid": 8894,
      "Ġsucceed": 8895,
      "ĠSeattle": 8896,
      "Ġcitizens": 8897,
      "ĠOrange": 8898,
      "Stand": 8899,
      "ĠOregon": 8900,
      "Customer": 8901,
      "Ġsections": 8902,
      "Ġlegisl": 8903,
      "Ġdeploy": 8904,
      "Ġfloral": 8905,
      "Ġconsideration": 8906,
      "ĠRoof": 8907,
      "Ġguitar": 8908,
      "Ġwildlife": 8909,
      "ĠCarl": 8910,
      "Ġswing": 8911,
      "odd": 8912,
      "Ġshowcase": 8913,
      "Ġinspire": 8914,
      "Ġadm": 8915,
      "abeth": 8916,
      "ivities": 8917,
      "ĠPremium": 8918,
      "Sw": 8919,
      "Ġsupposed": 8920,
      "Ġsomewhere": 8921,
      "gor": 8922,
      "Ġstrict": 8923,
      "osit": 8924,
      "aning": 8925,
      "sembly": 8926,
      "Ġranging": 8927,
      "Ġcolleagues": 8928,
      "Ġsupplied": 8929,
      "DI": 8930,
      "ĠBooks": 8931,
      "Feb": 8932,
      ".âĢĻ": 8933,
      "NS": 8934,
      "Ġwalked": 8935,
      "ĠDue": 8936,
      "Ġstruggling": 8937,
      "Ġcanvas": 8938,
      "Ġauction": 8939,
      "Ġplumbing": 8940,
      "ĠOnt": 8941,
      "Ġlaser": 8942,
      "Ġportable": 8943,
      "Ġboots": 8944,
      "Ġcrafted": 8945,
      "Ġyield": 8946,
      "Ġtransformation": 8947,
      "Ġlowest": 8948,
      "Ġdifferences": 8949,
      "Ġapparent": 8950,
      "Ġtons": 8951,
      "ĠAL": 8952,
      "pson": 8953,
      "Ġlanguages": 8954,
      "ĠEss": 8955,
      "Ġprimarily": 8956,
      "Ġboot": 8957,
      "Ġregardless": 8958,
      "found": 8959,
      "Ġzip": 8960,
      "ĠAction": 8961,
      "Ġ~": 8962,
      "NT": 8963,
      "Ġvib": 8964,
      "acon": 8965,
      "uct": 8966,
      "ĠReading": 8967,
      "Ġcareful": 8968,
      "Ġexpanded": 8969,
      "Ġcurrency": 8970,
      "Ġerrors": 8971,
      "atoes": 8972,
      "ĠWire": 8973,
      "Ġchest": 8974,
      "Ġargu": 8975,
      "Ġprove": 8976,
      "ĠHighway": 8977,
      "ĠHas": 8978,
      "ĠSem": 8979,
      "Ġwaters": 8980,
      "interest": 8981,
      "ushing": 8982,
      "ĠBad": 8983,
      "Ġquotes": 8984,
      "Ġlogged": 8985,
      "ĠPhys": 8986,
      "Ġskilled": 8987,
      "ĠMedicine": 8988,
      "Ġefficiently": 8989,
      "Ġextract": 8990,
      "Ġdesigning": 8991,
      "ocation": 8992,
      "ylvania": 8993,
      "aug": 8994,
      "Ġtires": 8995,
      "Dav": 8996,
      "rence": 8997,
      "Ġrecon": 8998,
      "Ġfinishes": 8999,
      "ICK": 9000,
      "Ġgraphic": 9001,
      "Ġwave": 9002,
      "Ġok": 9003,
      "ev": 9004,
      "Ġtitle": 9005,
      "cludes": 9006,
      "Mod": 9007,
      "rylic": 9008,
      "ifier": 9009,
      "Ġpotentially": 9010,
      "Ġdirections": 9011,
      "wa": 9012,
      "ouver": 9013,
      "acter": 9014,
      "Ġenroll": 9015,
      "Ġherself": 9016,
      "urchase": 9017,
      "Ġrated": 9018,
      "Ġcats": 9019,
      "Ġministry": 9020,
      "mont": 9021,
      "ĠAdditionally": 9022,
      "Ġremark": 9023,
      "ASE": 9024,
      "Ġloose": 9025,
      "VAC": 9026,
      "Ġglobe": 9027,
      "Ġ)": 9028,
      "Ġimpossible": 9029,
      "ĠFinance": 9030,
      "Ġreleases": 9031,
      "Ġmeasurements": 9032,
      "ĠDoor": 9033,
      "Ġultimately": 9034,
      "taking": 9035,
      "Ġverified": 9036,
      "Ġsmoke": 9037,
      "Save": 9038,
      "Ġranking": 9039,
      "ĠCorn": 9040,
      "Ġlbs": 9041,
      "Ġsurprising": 9042,
      "zing": 9043,
      "ĠLy": 9044,
      "ĠArchitect": 9045,
      "ĠBE": 9046,
      "BR": 9047,
      "ĠBoy": 9048,
      "Ġcalculated": 9049,
      "ĠCotton": 9050,
      "struct": 9051,
      "Ġtor": 9052,
      "Vol": 9053,
      "Ġinnings": 9054,
      "ĠWales": 9055,
      "ĠThings": 9056,
      "Ġgrip": 9057,
      "Ġlocks": 9058,
      "ĠRail": 9059,
      "Ġcrypt": 9060,
      "Ġangle": 9061,
      "ĠWars": 9062,
      "Ġworkplace": 9063,
      "ĠCash": 9064,
      "Ġchips": 9065,
      "ĠShel": 9066,
      "Ġinvolves": 9067,
      "Ġfinds": 9068,
      "Found": 9069,
      "ĠArch": 9070,
      "Ġliked": 9071,
      "Ġmaps": 9072,
      "Ġcertificate": 9073,
      "ilings": 9074,
      "Ġheaded": 9075,
      "Ġchecked": 9076,
      "ĠIntegr": 9077,
      "oln": 9078,
      "ĠYOUR": 9079,
      "Ġapplicable": 9080,
      "INE": 9081,
      "Ġcommonly": 9082,
      "Ġposting": 9083,
      "Ġvinyl": 9084,
      "ĠBeautiful": 9085,
      "Ġcontributions": 9086,
      "ĠJosh": 9087,
      "ĠMust": 9088,
      "ĠWrit": 9089,
      "Ġfinancing": 9090,
      "unes": 9091,
      "ĠBarn": 9092,
      "Ġworst": 9093,
      "Office": 9094,
      "Ġacknow": 9095,
      "Delivery": 9096,
      "Health": 9097,
      "Ge": 9098,
      "Ġink": 9099,
      "ĠWhich": 9100,
      "Web": 9101,
      "ĠAth": 9102,
      "Ġdonate": 9103,
      "Item": 9104,
      "Ġromantic": 9105,
      "Ġraising": 9106,
      "Ġshowc": 9107,
      "ĠHoly": 9108,
      "Ġaddresses": 9109,
      "ashed": 9110,
      "Ġtill": 9111,
      "Ġbrick": 9112,
      "Ġbuff": 9113,
      "Ġflag": 9114,
      "ĠHalloween": 9115,
      "auty": 9116,
      "Ġterrace": 9117,
      "Port": 9118,
      "Ġrequested": 9119,
      "Ġdefined": 9120,
      "Ġsits": 9121,
      "ĠSometimes": 9122,
      "orses": 9123,
      "Ġdestinations": 9124,
      "tops": 9125,
      "Ġ[âĢ¦]": 9126,
      "herry": 9127,
      "Ġforth": 9128,
      "ih": 9129,
      "ĠText": 9130,
      "Ġbless": 9131,
      "Ġoppon": 9132,
      "ÙĦ": 9133,
      "ĠPut": 9134,
      "ĠConc": 9135,
      "ĠBud": 9136,
      "ĠEaster": 9137,
      "Ġhur": 9138,
      "eddings": 9139,
      "ĠMinistry": 9140,
      "Orig": 9141,
      "ĠAz": 9142,
      "Ġstruggle": 9143,
      "Ġportra": 9144,
      "ancouver": 9145,
      "Ġshortly": 9146,
      "ĠFriends": 9147,
      "!\"": 9148,
      "Ġur": 9149,
      "apping": 9150,
      "ĠDemocr": 9151,
      "ĠRepair": 9152,
      "ĠContract": 9153,
      "Ġscenes": 9154,
      "vet": 9155,
      "ĠKansas": 9156,
      "etooth": 9157,
      "Ġappreciated": 9158,
      "Ġwithd": 9159,
      "ĠExp": 9160,
      "Ġsink": 9161,
      "ĠEric": 9162,
      "Ġwis": 9163,
      "Ġfeelings": 9164,
      "Ġcelebrated": 9165,
      "acher": 9166,
      "Ġorganisations": 9167,
      "Ġfaced": 9168,
      "ĠWorking": 9169,
      "Ġmel": 9170,
      "ĠLind": 9171,
      "Ġinstantly": 9172,
      "asm": 9173,
      "ĠCra": 9174,
      "Ġending": 9175,
      "ellery": 9176,
      "ixed": 9177,
      "Dec": 9178,
      "Ġinvestments": 9179,
      "Ġequity": 9180,
      "stream": 9181,
      "fund": 9182,
      "ami": 9183,
      "Ġcriteria": 9184,
      "ĠMail": 9185,
      "ĠDark": 9186,
      "ĠHun": 9187,
      "angers": 9188,
      "ingly": 9189,
      "ĠBa": 9190,
      "ategories": 9191,
      "Ġtube": 9192,
      "Ġsauce": 9193,
      "ĠBody": 9194,
      "code": 9195,
      "Because": 9196,
      "bra": 9197,
      "Ġreader": 9198,
      "Ġgap": 9199,
      "Ġkilled": 9200,
      "Data": 9201,
      "PT": 9202,
      "ĠKong": 9203,
      "ulum": 9204,
      "Ġsuffered": 9205,
      "Ġcrime": 9206,
      "ĠSep": 9207,
      "Ġsubstant": 9208,
      "ĠDental": 9209,
      "abil": 9210,
      "Ġboasts": 9211,
      "olving": 9212,
      "ĠAnton": 9213,
      "including": 9214,
      "Ġproposal": 9215,
      "Ġham": 9216,
      "ĠKh": 9217,
      "Ġpip": 9218,
      "ITH": 9219,
      "Ð¾Ð": 9220,
      "Ġbrid": 9221,
      "Ġgained": 9222,
      "ully": 9223,
      "ILL": 9224,
      "iro": 9225,
      "Ġstim": 9226,
      "Ġexpressed": 9227,
      "Ġframework": 9228,
      "ĠHair": 9229,
      "Ġfragr": 9230,
      "ĠAmericans": 9231,
      "ĠPant": 9232,
      "athered": 9233,
      "Ġpipe": 9234,
      "Ġillness": 9235,
      "ĠHistor": 9236,
      "Ġfighting": 9237,
      "cers": 9238,
      "Ġextreme": 9239,
      "ĠSpot": 9240,
      "ĠSA": 9241,
      "Ġcontinuous": 9242,
      "Ġworship": 9243,
      "ĠStan": 9244,
      "Ġreveal": 9245,
      "ĠAsian": 9246,
      "ĠRent": 9247,
      "amel": 9248,
      "ĠBrian": 9249,
      "athon": 9250,
      "Ġdescribe": 9251,
      "OUR": 9252,
      "etary": 9253,
      "Ġsought": 9254,
      "ĠTR": 9255,
      "BN": 9256,
      "ĠAge": 9257,
      "ĠRestaurant": 9258,
      "ugs": 9259,
      "gov": 9260,
      "ĠNever": 9261,
      "Ġaccounting": 9262,
      "Ġunus": 9263,
      "ĠRout": 9264,
      "Ġfarmers": 9265,
      "rings": 9266,
      "oning": 9267,
      "ĠFilm": 9268,
      "Ġurg": 9269,
      "Name": 9270,
      "Ġcompensation": 9271,
      "card": 9272,
      "Ġseparately": 9273,
      "ĠBit": 9274,
      "Ġknee": 9275,
      "ĠParent": 9276,
      "ĠVice": 9277,
      "ĠMos": 9278,
[...]
